{
  "version": "1.0",
  "truncation": null,
  "padding": null,
  "added_tokens": [
    {
      "id": 0,
      "content": "<unk>",
      "single_word": false,
      "lstrip": false,
      "rstrip": false,
      "normalized": false,
      "special": true
    },
    {
      "id": 1,
      "content": "<s>",
      "single_word": false,
      "lstrip": false,
      "rstrip": false,
      "normalized": false,
      "special": true
    },
    {
      "id": 2,
      "content": "</s>",
      "single_word": false,
      "lstrip": false,
      "rstrip": false,
      "normalized": false,
      "special": true
    }
  ],
  "normalizer": {
    "type": "Sequence",
    "normalizers": [
      {
        "type": "NFKC"
      }
    ]
  },
  "pre_tokenizer": {
    "type": "Sequence",
    "pretokenizers": [
      {
        "type": "Split",
        "pattern": {
          "Regex": " "
        },
        "behavior": "MergedWithNext",
        "invert": false
      },
      {
        "type": "Split",
        "pattern": {
          "Regex": "\\d|[⺀-⿟぀-㆏ㆠ-ㆿㇰ-ㇿ㐀-䶵一-鿿ꥠ-꥿가-퟿]"
        },
        "behavior": "Isolated",
        "invert": false
      },
      {
        "type": "Split",
        "pattern": {
          "Regex": " *(\\w+|[^\\w\\s]+)"
        },
        "behavior": "Isolated",
        "invert": false
      },
      {
        "type": "ByteLevel",
        "add_prefix_space": false,
        "trim_offsets": true,
        "use_regex": false
      }
    ]
  },
  "decoder": {
    "type": "Sequence",
    "decoders": [
      {
        "type": "ByteLevel",
        "add_prefix_space": true,
        "trim_offsets": true,
        "use_regex": true
      }
    ]
  },
  "model": {
    "type": "BPE",
    "dropout": null,
    "unk_token": "<unk>",
    "continuing_subword_prefix": null,
    "end_of_word_suffix": null,
    "fuse_unk": true,
    "byte_fallback": false,
    "vocab": {
      "<unk>": 0,
      "<s>": 1,
      "</s>": 2,
      "!": 3,
      "\"": 4,
      "#": 5,
      "$": 6,
      "%": 7,
      "&": 8,
      "'": 9,
      "(": 10,
      ")": 11,
      "*": 12,
      "+": 13,
      ",": 14,
      "-": 15,
      ".": 16,
      "/": 17,
      "0": 18,
      "1": 19,
      "2": 20,
      "3": 21,
      "4": 22,
      "5": 23,
      "6": 24,
      "7": 25,
      "8": 26,
      "9": 27,
      ":": 28,
      ";": 29,
      "<": 30,
      "=": 31,
      ">": 32,
      "?": 33,
      "@": 34,
      "A": 35,
      "B": 36,
      "C": 37,
      "D": 38,
      "E": 39,
      "F": 40,
      "G": 41,
      "H": 42,
      "I": 43,
      "J": 44,
      "K": 45,
      "L": 46,
      "M": 47,
      "N": 48,
      "O": 49,
      "P": 50,
      "Q": 51,
      "R": 52,
      "S": 53,
      "T": 54,
      "U": 55,
      "V": 56,
      "W": 57,
      "X": 58,
      "Y": 59,
      "Z": 60,
      "[": 61,
      "\\": 62,
      "]": 63,
      "^": 64,
      "_": 65,
      "`": 66,
      "a": 67,
      "b": 68,
      "c": 69,
      "d": 70,
      "e": 71,
      "f": 72,
      "g": 73,
      "h": 74,
      "i": 75,
      "j": 76,
      "k": 77,
      "l": 78,
      "m": 79,
      "n": 80,
      "o": 81,
      "p": 82,
      "q": 83,
      "r": 84,
      "s": 85,
      "t": 86,
      "u": 87,
      "v": 88,
      "w": 89,
      "x": 90,
      "y": 91,
      "z": 92,
      "{": 93,
      "|": 94,
      "}": 95,
      "~": 96,
      "¡": 97,
      "¢": 98,
      "£": 99,
      "¤": 100,
      "¥": 101,
      "¦": 102,
      "§": 103,
      "¨": 104,
      "©": 105,
      "ª": 106,
      "«": 107,
      "¬": 108,
      "®": 109,
      "¯": 110,
      "°": 111,
      "±": 112,
      "²": 113,
      "³": 114,
      "´": 115,
      "µ": 116,
      "¶": 117,
      "·": 118,
      "¸": 119,
      "¹": 120,
      "º": 121,
      "»": 122,
      "¼": 123,
      "½": 124,
      "¾": 125,
      "¿": 126,
      "À": 127,
      "Á": 128,
      "Â": 129,
      "Ã": 130,
      "Ä": 131,
      "Å": 132,
      "Æ": 133,
      "Ç": 134,
      "È": 135,
      "É": 136,
      "Ê": 137,
      "Ë": 138,
      "Ì": 139,
      "Í": 140,
      "Î": 141,
      "Ï": 142,
      "Ð": 143,
      "Ñ": 144,
      "Ò": 145,
      "Ó": 146,
      "Ô": 147,
      "Õ": 148,
      "Ö": 149,
      "×": 150,
      "Ø": 151,
      "Ù": 152,
      "Ú": 153,
      "Û": 154,
      "Ü": 155,
      "Ý": 156,
      "Þ": 157,
      "ß": 158,
      "à": 159,
      "á": 160,
      "â": 161,
      "ã": 162,
      "ä": 163,
      "å": 164,
      "æ": 165,
      "ç": 166,
      "è": 167,
      "é": 168,
      "ê": 169,
      "ë": 170,
      "ì": 171,
      "í": 172,
      "î": 173,
      "ï": 174,
      "ð": 175,
      "ñ": 176,
      "ò": 177,
      "ó": 178,
      "ô": 179,
      "õ": 180,
      "ö": 181,
      "÷": 182,
      "ø": 183,
      "ù": 184,
      "ú": 185,
      "û": 186,
      "ü": 187,
      "ý": 188,
      "þ": 189,
      "ÿ": 190,
      "Ā": 191,
      "ā": 192,
      "Ă": 193,
      "ă": 194,
      "Ą": 195,
      "ą": 196,
      "Ć": 197,
      "ć": 198,
      "Ĉ": 199,
      "ĉ": 200,
      "Ċ": 201,
      "ċ": 202,
      "Č": 203,
      "č": 204,
      "Ď": 205,
      "ď": 206,
      "Đ": 207,
      "đ": 208,
      "Ē": 209,
      "ē": 210,
      "Ĕ": 211,
      "ĕ": 212,
      "Ė": 213,
      "ė": 214,
      "Ę": 215,
      "ę": 216,
      "Ě": 217,
      "ě": 218,
      "Ĝ": 219,
      "ĝ": 220,
      "Ğ": 221,
      "ğ": 222,
      "Ġ": 223,
      "ġ": 224,
      "Ģ": 225,
      "ģ": 226,
      "Ĥ": 227,
      "ĥ": 228,
      "Ħ": 229,
      "ħ": 230,
      "Ĩ": 231,
      "ĩ": 232,
      "Ī": 233,
      "ī": 234,
      "Ĭ": 235,
      "ĭ": 236,
      "Į": 237,
      "į": 238,
      "İ": 239,
      "ı": 240,
      "Ĳ": 241,
      "ĳ": 242,
      "Ĵ": 243,
      "ĵ": 244,
      "Ķ": 245,
      "ķ": 246,
      "ĸ": 247,
      "Ĺ": 248,
      "ĺ": 249,
      "Ļ": 250,
      "ļ": 251,
      "Ľ": 252,
      "ľ": 253,
      "Ŀ": 254,
      "ŀ": 255,
      "Ł": 256,
      "ł": 257,
      "Ń": 258,
      "Ġt": 259,
      "Ġa": 260,
      "he": 261,
      "in": 262,
      "re": 263,
      "on": 264,
      "Ġthe": 265,
      "er": 266,
      "Ġs": 267,
      "Ġw": 268,
      "Ġo": 269,
      "at": 270,
      "nd": 271,
      "Ġc": 272,
      "it": 273,
      "ou": 274,
      "or": 275,
      "es": 276,
      "is": 277,
      "en": 278,
      "Ġf": 279,
      "Ġb": 280,
      "ing": 281,
      "Ġp": 282,
      "ed": 283,
      "an": 284,
      "Ġto": 285,
      "al": 286,
      "Ġm": 287,
      "Ġand": 288,
      "ar": 289,
      "Ġin": 290,
      "Ġof": 291,
      "Ġd": 292,
      "ic": 293,
      "le": 294,
      "Ġh": 295,
      "as": 296,
      "om": 297,
      "ion": 298,
      "Ġth": 299,
      "ll": 300,
      "Ġl": 301,
      "ent": 302,
      "Ġy": 303,
      "Ġe": 304,
      "ve": 305,
      "ro": 306,
      "Ġre": 307,
      "st": 308,
      "Ġn": 309,
      "Ġg": 310,
      "ly": 311,
      "ct": 312,
      "Ġyou": 313,
      "ĠI": 314,
      "et": 315,
      "ĠT": 316,
      "âĢ": 317,
      "Ġbe": 318,
      "Ġis": 319,
      "ut": 320,
      "ot": 321,
      "Ġfor": 322,
      "Ġon": 323,
      "id": 324,
      "ĠS": 325,
      "ur": 326,
      "ow": 327,
      "ay": 328,
      "us": 329,
      "ce": 330,
      "im": 331,
      "ad": 332,
      "ĠA": 333,
      "ig": 334,
      "ĠC": 335,
      "ch": 336,
      "ver": 337,
      "ith": 338,
      "am": 339,
      "il": 340,
      "Ġthat": 341,
      "Ġst": 342,
      "ation": 343,
      "ol": 344,
      "Ġwith": 345,
      "ir": 346,
      "Ġhe": 347,
      "Ġit": 348,
      "se": 349,
      "ĠM": 350,
      "Ġwe": 351,
      "ra": 352,
      "Ġas": 353,
      "Ġan": 354,
      "čĊ": 355,
      "ill": 356,
      "Ġwh": 357,
      "ter": 358,
      "un": 359,
      "Ġpro": 360,
      "ĠB": 361,
      "ĠP": 362,
      "if": 363,
      "âĢĻ": 364,
      "Ġare": 365,
      "ke": 366,
      "Ġha": 367,
      "ge": 368,
      "ers": 369,
      "Ġcon": 370,
      "oo": 371,
      "Ġor": 372,
      "ul": 373,
      "ld": 374,
      "ĠW": 375,
      "her": 376,
      "ess": 377,
      "Ġcom": 378,
      "pp": 379,
      "ĠThe": 380,
      "ĠH": 381,
      "ate": 382,
      "Ġat": 383,
      "Ġde": 384,
      "ab": 385,
      "ck": 386,
      "Ġse": 387,
      "Ġfr": 388,
      "est": 389,
      "Ġwas": 390,
      "ment": 391,
      "ore": 392,
      "ĠD": 393,
      "igh": 394,
      "Ġex": 395,
      "Ġyour": 396,
      "ĠF": 397,
      "Ġne": 398,
      "pe": 399,
      "th": 400,
      "ist": 401,
      "ri": 402,
      "qu": 403,
      "ure": 404,
      "ĠR": 405,
      "ant": 406,
      "Ġv": 407,
      "Ġ(": 408,
      "ity": 409,
      "um": 410,
      "Ġr": 411,
      "ive": 412,
      "ĠL": 413,
      "ain": 414,
      "Ġhave": 415,
      "Ġfrom": 416,
      "em": 417,
      "ust": 418,
      "ort": 419,
      "op": 420,
      "Ġsh": 421,
      "ĠG": 422,
      "Ġal": 423,
      "art": 424,
      "Ġcan": 425,
      "el": 426,
      "Ġthis": 427,
      "Ġby": 428,
      "os": 429,
      "and": 430,
      "Ġnot": 431,
      "ĠE": 432,
      "Ġus": 433,
      "Ġch": 434,
      "ies": 435,
      "Ġsu": 436,
      "ie": 437,
      "ĠN": 438,
      "ight": 439,
      "Ġu": 440,
      "all": 441,
      "nt": 442,
      "ome": 443,
      "ard": 444,
      "Ġwill": 445,
      "Ġle": 446,
      "res": 447,
      "ould": 448,
      "out": 449,
      "Ġwor": 450,
      "iv": 451,
      "ud": 452,
      "gh": 453,
      "ĠO": 454,
      "od": 455,
      "our": 456,
      "Ġdo": 457,
      "Ġab": 458,
      "te": 459,
      "ost": 460,
      "Ġall": 461,
      "red": 462,
      "Ġpl": 463,
      "ide": 464,
      "rou": 465,
      "ial": 466,
      "per": 467,
      "Ġk": 468,
      "ine": 469,
      "Ġso": 470,
      "ak": 471,
      "ĠâĢ": 472,
      "ag": 473,
      "Ġj": 474,
      "fe": 475,
      "ast": 476,
      "ice": 477,
      "pt": 478,
      "age": 479,
      "Ġwhe": 480,
      "Ġme": 481,
      "Ġcomp": 482,
      "ally": 483,
      "ac": 484,
      "ĠJ": 485,
      "ear": 486,
      "ction": 487,
      "The": 488,
      "Ġbut": 489,
      "Ġad": 490,
      "ich": 491,
      "ack": 492,
      "Ġhas": 493,
      "ther": 494,
      "ook": 495,
      "ind": 496,
      "able": 497,
      "Ġout": 498,
      "ake": 499,
      "Ġen": 500,
      "Ġup": 501,
      "ip": 502,
      "lo": 503,
      "one": 504,
      "so": 505,
      "ry": 506,
      "are": 507,
      "ated": 508,
      "very": 509,
      "Ġtheir": 510,
      "ong": 511,
      "ite": 512,
      "Ġthey": 513,
      "ood": 514,
      "cc": 515,
      "ous": 516,
      "ime": 517,
      "Ġmore": 518,
      "Ġmy": 519,
      "Ġour": 520,
      "Ġte": 521,
      "Ġone": 522,
      "ĠU": 523,
      "iz": 524,
      "Ġim": 525,
      "Ġhis": 526,
      "ĠTh": 527,
      "Ġlo": 528,
      "ans": 529,
      "for": 530,
      "Ġun": 531,
      "ĠIn": 532,
      "Ġman": 533,
      "Ġcont": 534,
      "ance": 535,
      "ib": 536,
      "ike": 537,
      "Ġwhich": 538,
      "Ġcl": 539,
      "Ġfe": 540,
      "ap": 541,
      "ame": 542,
      "Ġabout": 543,
      "ign": 544,
      "du": 545,
      "ions": 546,
      "Ġwork": 547,
      "Ġ\"": 548,
      "ach": 549,
      "Ġinc": 550,
      "to": 551,
      "Ġres": 552,
      "ire": 553,
      "ru": 554,
      "Ġapp": 555,
      "reat": 556,
      "act": 557,
      "ace": 558,
      "Ġwho": 559,
      "ia": 560,
      "Ġqu": 561,
      "ult": 562,
      "Ġsa": 563,
      "ĠY": 564,
      "ne": 565,
      "og": 566,
      "ĠK": 567,
      "ber": 568,
      "Ġhad": 569,
      "ase": 570,
      "ree": 571,
      "Ġper": 572,
      "ations": 573,
      "ass": 574,
      "Ġgo": 575,
      "ail": 576,
      "Ġother": 577,
      "Ġtime": 578,
      "Ġoff": 579,
      "Ġany": 580,
      "Ġalso": 581,
      "erv": 582,
      "Ġsp": 583,
      "ary": 584,
      "ven": 585,
      "..": 586,
      "ick": 587,
      "ical": 588,
      "ep": 589,
      "ile": 590,
      "ark": 591,
      "ĠIt": 592,
      "Ġdis": 593,
      "own": 594,
      "ays": 595,
      "Ġthem": 596,
      "Ġher": 597,
      "ence": 598,
      "pl": 599,
      "ff": 600,
      "Ġlike": 601,
      "vel": 602,
      "Ġsome": 603,
      "ue": 604,
      "ount": 605,
      "form": 606,
      "Ġwere": 607,
      "Ġpart": 608,
      "ĠV": 609,
      "Ġyear": 610,
      "Ġget": 611,
      "ub": 612,
      "Ġar": 613,
      "ings": 614,
      "ress": 615,
      "ond": 616,
      "Ġro": 617,
      "ĠSt": 618,
      "ition": 619,
      "Ġbeen": 620,
      "Ġthere": 621,
      "Ġover": 622,
      "Ġnew": 623,
      "ĠCh": 624,
      "ents": 625,
      "Ġtr": 626,
      "Ġwhen": 627,
      "ough": 628,
      "Ġwould": 629,
      "av": 630,
      "Ġif": 631,
      "Ġkn": 632,
      "ors": 633,
      "Ġag": 634,
      "Ġsc": 635,
      "Ġpr": 636,
      "ish": 637,
      "Ġspe": 638,
      "Ġpe": 639,
      "Ġneed": 640,
      "Ġwhat": 641,
      "ink": 642,
      "Ġrec": 643,
      "Ġco": 644,
      "ild": 645,
      "wn": 646,
      "cial": 647,
      "âĢĿ": 648,
      "ound": 649,
      "ens": 650,
      "Ġimp": 651,
      "Ġpre": 652,
      "Ġthan": 653,
      "ĠWe": 654,
      "Ġinto": 655,
      "ater": 656,
      "ren": 657,
      "Ġdes": 658,
      "int": 659,
      "ord": 660,
      "nder": 661,
      "rough": 662,
      "Ġam": 663,
      "Ġjust": 664,
      "Ġacc": 665,
      "Ġno": 666,
      "ĠHe": 667,
      "Ġbec": 668,
      "ade": 669,
      "mer": 670,
      "Ġhow": 671,
      "irst": 672,
      "ang": 673,
      "Ġshe": 674,
      "use": 675,
      "old": 676,
      "ory": 677,
      "fter": 678,
      "vers": 679,
      "Ġits": 680,
      "ople": 681,
      "ĠâĢľ": 682,
      "ning": 683,
      "lic": 684,
      "Ġtw": 685,
      "ces": 686,
      "hed": 687,
      "itt": 688,
      "lud": 689,
      "lp": 690,
      "Ġprov": 691,
      "ĠThis": 692,
      "we": 693,
      "Ġmay": 694,
      ").": 695,
      "Ġmake": 696,
      "ian": 697,
      "ious": 698,
      "Ġlook": 699,
      "les": 700,
      "ose": 701,
      "Ġtra": 702,
      "Ġcomm": 703,
      "Ġknow": 704,
      "Ġhelp": 705,
      "Ġserv": 706,
      "Ġbu": 707,
      "Ġonly": 708,
      "ft": 709,
      "ual": 710,
      "Ġadd": 711,
      "ons": 712,
      "Ġpeople": 713,
      "oc": 714,
      "Ġmost": 715,
      "Ġfirst": 716,
      "Ġthrough": 717,
      "tern": 718,
      "Ġuse": 719,
      "rent": 720,
      "ates": 721,
      "round": 722,
      "Ġind": 723,
      "ments": 724,
      "ull": 725,
      "Ġbet": 726,
      "ily": 727,
      "Ġwell": 728,
      "Ġpo": 729,
      "Ġ-": 730,
      "Ġback": 731,
      "ect": 732,
      "Ġprodu": 733,
      "ĠâĢĵ": 734,
      "Ġinclud": 735,
      "Ġevery": 736,
      "ise": 737,
      "ov": 738,
      "Ġunder": 739,
      "Ġcons": 740,
      "Ġsee": 741,
      "ause": 742,
      "hen": 743,
      "Ġwant": 744,
      "ices": 745,
      "gr": 746,
      "amp": 747,
      "sel": 748,
      "Ġem": 749,
      "ating": 750,
      "Ġthese": 751,
      "ob": 752,
      "ove": 753,
      "ph": 754,
      "Ġph": 755,
      "ks": 756,
      "Ġcould": 757,
      "fect": 758,
      "hing": 759,
      "urn": 760,
      "ities": 761,
      "Ġvery": 762,
      "Ġact": 763,
      "ict": 764,
      "Ġtwo": 765,
      "Ġrep": 766,
      "Ġsaid": 767,
      "ific": 768,
      "Ġsupp": 769,
      "Ġdif": 770,
      "ject": 771,
      "Ġfl": 772,
      "fore": 773,
      "ert": 774,
      "ced": 775,
      "Ġcol": 776,
      "lect": 777,
      "ful": 778,
      "xt": 779,
      "ĠYou": 780,
      "Ġsy": 781,
      "ife": 782,
      "Th": 783,
      "Ġsm": 784,
      "li": 785,
      "uch": 786,
      "Ġreg": 787,
      "Ġexper": 788,
      "cess": 789,
      "Ġthen": 790,
      "iew": 791,
      "iss": 792,
      "Ġmany": 793,
      "Ġhim": 794,
      "row": 795,
      "ange": 796,
      "Ġway": 797,
      "iness": 798,
      "Ġafter": 799,
      "Ġgood": 800,
      "Ġrem": 801,
      "Ġwhere": 802,
      "Ġke": 803,
      "oth": 804,
      "Ġeven": 805,
      "Ġinv": 806,
      "ting": 807,
      "ible": 808,
      "Ġgreat": 809,
      "any": 810,
      "als": 811,
      "ĠRe": 812,
      "oss": 813,
      "Ġstud": 814,
      "Ġshould": 815,
      "Ġbus": 816,
      "ath": 817,
      ".\"": 818,
      "Ġyears": 819,
      "oy": 820,
      "rit": 821,
      "Ġdec": 822,
      "ward": 823,
      "oll": 824,
      "bs": 825,
      "ures": 826,
      "day": 827,
      "Ġown": 828,
      "get": 829,
      "Ġdown": 830,
      "ont": 831,
      "),": 832,
      "ower": 833,
      "aking": 834,
      "Ġnow": 835,
      "Ġac": 836,
      "ool": 837,
      "Ġra": 838,
      "aw": 839,
      "Ġent": 840,
      "erm": 841,
      "pect": 842,
      "Ġev": 843,
      "ational": 844,
      "ular": 845,
      "nds": 846,
      "ility": 847,
      "ased": 848,
      "ew": 849,
      "erson": 850,
      "Ġset": 851,
      "Ġbl": 852,
      "Ġinst": 853,
      "ract": 854,
      "Ġsuch": 855,
      "olog": 856,
      "Ġcar": 857,
      "air": 858,
      "Ġrel": 859,
      "Ġsec": 860,
      "Ġdid": 861,
      "Ġtoo": 862,
      "Ġright": 863,
      "ble": 864,
      "uring": 865,
      "ience": 866,
      "hes": 867,
      "Ġbest": 868,
      "ts": 869,
      "Ġfind": 870,
      "stem": 871,
      "Ġhigh": 872,
      "Ġfin": 873,
      "Ġmuch": 874,
      "Ġins": 875,
      "ty": 876,
      "Ġloc": 877,
      "ĠUn": 878,
      "Ġplay": 879,
      "ell": 880,
      "Ġstart": 881,
      "Ġatt": 882,
      "ative": 883,
      "Ġinform": 884,
      "Ġlong": 885,
      "ics": 886,
      "Ġday": 887,
      "Ġgu": 888,
      "ĠAs": 889,
      "velop": 890,
      "ys": 891,
      "Ġhome": 892,
      "gan": 893,
      "other": 894,
      "ĠWh": 895,
      "its": 896,
      "Ġdon": 897,
      "ied": 898,
      "omet": 899,
      "ited": 900,
      "ener": 901,
      "Ġmade": 902,
      "Ġrequ": 903,
      "Ġtake": 904,
      "Ġdiffe": 905,
      "hip": 906,
      "Ġinte": 907,
      "Ġmin": 908,
      "ĠIf": 909,
      "up": 910,
      "Ġbecause": 911,
      "Ġdesign": 912,
      "ient": 913,
      "ident": 914,
      "Ġbr": 915,
      "ec": 916,
      "Ġbefore": 917,
      "arch": 918,
      "ork": 919,
      "Ġread": 920,
      "Ġbusiness": 921,
      "line": 922,
      "Ġagain": 923,
      "Ġche": 924,
      "Ġthink": 925,
      "Ġhere": 926,
      "omm": 927,
      "Ġfam": 928,
      "ĠAnd": 929,
      "Ġdisc": 930,
      "Ġused": 931,
      "Ġav": 932,
      "Ġsur": 933,
      "ved": 934,
      "way": 935,
      "ving": 936,
      "Ġcall": 937,
      "ank": 938,
      "Ġpres": 939,
      "Ġsim": 940,
      "ng": 941,
      "rib": 942,
      "Ġmon": 943,
      "Ġmod": 944,
      "self": 945,
      "Ġmark": 946,
      "led": 947,
      "Ġbel": 948,
      "Ġperson": 949,
      "cy": 950,
      "Ġbeing": 951,
      "Ġtrans": 952,
      "Ġass": 953,
      "ix": 954,
      "ner": 955,
      "Ġthose": 956,
      "alth": 957,
      "io": 958,
      "Ġcre": 959,
      "Ġsystem": 960,
      "ually": 961,
      "chool": 962,
      "ax": 963,
      "Ġinformation": 964,
      "ouse": 965,
      "Ġdevelop": 966,
      "Ġshow": 967,
      "ather": 968,
      "Ġvis": 969,
      "Ġlife": 970,
      "In": 971,
      "land": 972,
      "Ġdoes": 973,
      "Ġ&": 974,
      "ality": 975,
      "Ġworld": 976,
      "alk": 977,
      "ros": 978,
      "ale": 979,
      "Ġform": 980,
      "Ġop": 981,
      "chn": 982,
      "Ġnum": 983,
      "Ġeach": 984,
      "Ġsub": 985,
      "Ġend": 986,
      "gg": 987,
      "rest": 988,
      "au": 989,
      "ave": 990,
      "Ġproduct": 991,
      "com": 992,
      "az": 993,
      "Ġexp": 994,
      "Ġprovid": 995,
      "arm": 996,
      "ĠPro": 997,
      "Ġinter": 998,
      "iet": 999,
      "Ġdet": 1000,
      "Ġcomple": 1001,
      "ustom": 1002,
      "ĠFor": 1003,
      "gram": 1004,
      "Ġ.": 1005,
      "Ġgr": 1006,
      "Ġmem": 1007,
      "ĠAn": 1008,
      "Ġart": 1009,
      "ffect": 1010,
      "Ġaround": 1011,
      "Ġear": 1012,
      "Ġthough": 1013,
      "cept": 1014,
      "ince": 1015,
      "Ġwhile": 1016,
      "Ġmed": 1017,
      "ric": 1018,
      "Ġwee": 1019,
      "âĢĶ": 1020,
      "ages": 1021,
      "ues": 1022,
      "Ġcur": 1023,
      "Ġstr": 1024,
      "Ġeas": 1025,
      "Ġsk": 1026,
      "ness": 1027,
      "ines": 1028,
      "Ġret": 1029,
      "Ġ$": 1030,
      "ollow": 1031,
      "und": 1032,
      "ets": 1033,
      "ins": 1034,
      "ween": 1035,
      "Ġmet": 1036,
      "ives": 1037,
      "ason": 1038,
      "ata": 1039,
      "Ġdifferent": 1040,
      "akes": 1041,
      "ever": 1042,
      "We": 1043,
      "ple": 1044,
      "Ġbo": 1045,
      "Ġcle": 1046,
      "der": 1047,
      "ional": 1048,
      "ize": 1049,
      "Ġadv": 1050,
      "Ġlast": 1051,
      "ĠAl": 1052,
      "Ġed": 1053,
      "pr": 1054,
      "This": 1055,
      "read": 1056,
      "Ġchild": 1057,
      "ctions": 1058,
      "Ġbook": 1059,
      "atch": 1060,
      "Ġcare": 1061,
      "Ġplace": 1062,
      "...": 1063,
      "Ġsomet": 1064,
      "imes": 1065,
      "Ġfound": 1066,
      "Ġlead": 1067,
      "Ġbetween": 1068,
      "Ġstill": 1069,
      "Ġsupport": 1070,
      "ĠBut": 1071,
      "Ġsame": 1072,
      "olut": 1073,
      "ways": 1074,
      "ene": 1075,
      "ĠDe": 1076,
      "Ġpub": 1077,
      "Ġaut": 1078,
      "oun": 1079,
      "ash": 1080,
      "Ġcour": 1081,
      "Ġprocess": 1082,
      "Ġboth": 1083,
      "Ġser": 1084,
      "Ġlove": 1085,
      "Ġhand": 1086,
      "ittle": 1087,
      "Ġlar": 1088,
      "Ġreally": 1089,
      "Ġsl": 1090,
      "Ġcount": 1091,
      "Ġsign": 1092,
      "roup": 1093,
      "ten": 1094,
      "ĠSh": 1095,
      "Ġpol": 1096,
      "ĠSe": 1097,
      "Ġfeel": 1098,
      "Ġcommun": 1099,
      "ĠNew": 1100,
      "irect": 1101,
      "Ġprof": 1102,
      "Ġpost": 1103,
      "ĠThey": 1104,
      "Ġ'": 1105,
      "Ġcustom": 1106,
      "ĠAr": 1107,
      "Ġpur": 1108,
      "ves": 1109,
      "Ġlist": 1110,
      "Ġfree": 1111,
      "Ġgoing": 1112,
      "ized": 1113,
      "ivers": 1114,
      "ature": 1115,
      "Ġchar": 1116,
      "Ġext": 1117,
      "Ġfun": 1118,
      "lease": 1119,
      "Ġimport": 1120,
      "Ġavail": 1121,
      "Ġteam": 1122,
      "Ġfollow": 1123,
      "ters": 1124,
      "Ġtop": 1125,
      "Ġfull": 1126,
      "ars": 1127,
      "Ġfew": 1128,
      "Ġprogram": 1129,
      "ired": 1130,
      "ah": 1131,
      "ci": 1132,
      "less": 1133,
      "Ġtechn": 1134,
      "Ġval": 1135,
      "Ġvar": 1136,
      "Ġusing": 1137,
      "Ġrun": 1138,
      "Ġcor": 1139,
      "Ġgener": 1140,
      "ining": 1141,
      "Wh": 1142,
      "Ġpoint": 1143,
      "Ġplan": 1144,
      "Ġsmall": 1145,
      "ĠFr": 1146,
      "ants": 1147,
      "ross": 1148,
      "Ġhapp": 1149,
      "Ġlittle": 1150,
      ",\"": 1151,
      "Ġcent": 1152,
      "view": 1153,
      "Ġide": 1154,
      "Ġwater": 1155,
      "iving": 1156,
      "Ġob": 1157,
      "end": 1158,
      "Ġopen": 1159,
      "Ġref": 1160,
      "Ġty": 1161,
      "ĠShe": 1162,
      "Ġposs": 1163,
      "ms": 1164,
      "iqu": 1165,
      "Ġmain": 1166,
      "Ġlear": 1167,
      "Ġlot": 1168,
      "ĠThere": 1169,
      "Ġkeep": 1170,
      "ined": 1171,
      "Ġreal": 1172,
      "ern": 1173,
      "ton": 1174,
      "Ġappro": 1175,
      "Ġthree": 1176,
      "Ġservice": 1177,
      "thing": 1178,
      "Ġavailable": 1179,
      "ering": 1180,
      "Ġopt": 1181,
      "Ġcompany": 1182,
      "Ġsay": 1183,
      "Ġmust": 1184,
      "meric": 1185,
      "Ġbuild": 1186,
      "Ġpat": 1187,
      "Ġcome": 1188,
      "ology": 1189,
      "ody": 1190,
      "man": 1191,
      "ished": 1192,
      "ĠCl": 1193,
      "Ġresult": 1194,
      "be": 1195,
      "Ġalways": 1196,
      "**": 1197,
      "Ġrest": 1198,
      "Ġpartic": 1199,
      "Ġmarket": 1200,
      "uc": 1201,
      "Ġdist": 1202,
      "ĠLe": 1203,
      "ared": 1204,
      "Ġallow": 1205,
      "ĠSo": 1206,
      "Ġwithout": 1207,
      "Ġthings": 1208,
      "Ġ_": 1209,
      "Ġduring": 1210,
      "ital": 1211,
      "Ġint": 1212,
      "Ġproject": 1213,
      "ural": 1214,
      "ists": 1215,
      "Ġfil": 1216,
      "Ġpass": 1217,
      "It": 1218,
      "Ġexperience": 1219,
      "Ġmonth": 1220,
      "stand": 1221,
      "Ġorgan": 1222,
      "Ġstand": 1223,
      "ug": 1224,
      "Ġpri": 1225,
      "Ġfamily": 1226,
      "Ġsure": 1227,
      "ling": 1228,
      "ield": 1229,
      "Ġhead": 1230,
      "ier": 1231,
      "aut": 1232,
      "Ġdri": 1233,
      "Ġnumber": 1234,
      "bers": 1235,
      "Ġhealth": 1236,
      "ĠAd": 1237,
      "Ġinterest": 1238,
      "ically": 1239,
      "Ġdata": 1240,
      "ock": 1241,
      "Ġfrie": 1242,
      "Ġfact": 1243,
      "Ġincluding": 1244,
      "Ġschool": 1245,
      "ames": 1246,
      "Ġmight": 1247,
      "Ġconf": 1248,
      "gy": 1249,
      "Ġconc": 1250,
      "Ġbetter": 1251,
      "Ġdef": 1252,
      "Ġput": 1253,
      "ĠAmeric": 1254,
      "Ġsomething": 1255,
      "Ġlet": 1256,
      "ute": 1257,
      "Ġanother": 1258,
      "Ġresp": 1259,
      "ware": 1260,
      "co": 1261,
      "Ġcontin": 1262,
      "ĠBe": 1263,
      "ery": 1264,
      "Ġstate": 1265,
      "Ġpay": 1266,
      "Ġeffect": 1267,
      "Ġclass": 1268,
      "orn": 1269,
      "Ġlight": 1270,
      "Ġimportant": 1271,
      "Ġtri": 1272,
      "Ġold": 1273,
      "Ġrece": 1274,
      "Ġspec": 1275,
      "Ġquest": 1276,
      "Ġnever": 1277,
      "con": 1278,
      "Ġtry": 1279,
      "els": 1280,
      "ted": 1281,
      "Ġservices": 1282,
      "ĠHow": 1283,
      "ention": 1284,
      "Ġprovide": 1285,
      "ik": 1286,
      "the": 1287,
      "oot": 1288,
      "Ġiss": 1289,
      "Ġnext": 1290,
      "reen": 1291,
      "Ġgroup": 1292,
      "Ġve": 1293,
      "Ġgl": 1294,
      "Ġcost": 1295,
      "uss": 1296,
      "Ġbro": 1297,
      "Ġperform": 1298,
      "ertain": 1299,
      "vern": 1300,
      "Ġwr": 1301,
      "port": 1302,
      "Ġroom": 1303,
      "ately": 1304,
      "Ġcr": 1305,
      "plo": 1306,
      "Ġsecond": 1307,
      "ĠOn": 1308,
      "Ġhard": 1309,
      "me": 1310,
      "Ġbra": 1311,
      "Ġmus": 1312,
      "Ġproper": 1313,
      "ĠPl": 1314,
      "oney": 1315,
      "Ġarea": 1316,
      "Ġable": 1317,
      "Ġgive": 1318,
      "Ġproble": 1319,
      "Ġask": 1320,
      "Ġinf": 1321,
      "ered": 1322,
      "ral": 1323,
      "aj": 1324,
      "Ġlevel": 1325,
      "Ġopp": 1326,
      "ĠCom": 1327,
      "Ġsince": 1328,
      "ien": 1329,
      "ĠInd": 1330,
      "If": 1331,
      "ccess": 1332,
      "Ġincre": 1333,
      "Ġwithin": 1334,
      "ex": 1335,
      "Ġpower": 1336,
      "Ġgot": 1337,
      "Ġdirect": 1338,
      "Ġbig": 1339,
      "raph": 1340,
      "ĠEx": 1341,
      "ploy": 1342,
      "Ġspecial": 1343,
      "âĢĵ": 1344,
      "Ġest": 1345,
      "ients": 1346,
      "ruct": 1347,
      "Ġorder": 1348,
      "rist": 1349,
      "You": 1350,
      "ision": 1351,
      "Ġonline": 1352,
      "ours": 1353,
      "work": 1354,
      "Ġeng": 1355,
      "Ġreport": 1356,
      "ior": 1357,
      "ump": 1358,
      "eng": 1359,
      "Ġless": 1360,
      "Ġoper": 1361,
      "Ġunt": 1362,
      "Ġgrow": 1363,
      "ense": 1364,
      "ism": 1365,
      "ential": 1366,
      "Ġmat": 1367,
      "outh": 1368,
      "Ġdays": 1369,
      "pped": 1370,
      "ĠQ": 1371,
      "Ġmov": 1372,
      "ards": 1373,
      "rol": 1374,
      "Ġaccess": 1375,
      "ĠAll": 1376,
      "Ġblo": 1377,
      "Ġwebs": 1378,
      "Ġturn": 1379,
      "ĠIs": 1380,
      "Ġel": 1381,
      "gin": 1382,
      "Ġpos": 1383,
      "Ġ,": 1384,
      "Ġexpl": 1385,
      "Ġequ": 1386,
      "iversity": 1387,
      "ffic": 1388,
      "Ġbre": 1389,
      "rence": 1390,
      "joy": 1391,
      "Ġsit": 1392,
      "ivid": 1393,
      "ortun": 1394,
      "oh": 1395,
      "ĠSc": 1396,
      "Ġview": 1397,
      "Ġlarge": 1398,
      "Ġaway": 1399,
      "ised": 1400,
      "here": 1401,
      "Ġcurrent": 1402,
      "ently": 1403,
      "Ġseem": 1404,
      "Ġrese": 1405,
      "ains": 1406,
      "Ġinvest": 1407,
      "anc": 1408,
      "ium": 1409,
      "ird": 1410,
      "Ġpop": 1411,
      "Ġquality": 1412,
      "Ġphot": 1413,
      "Ġpublic": 1414,
      "Ġca": 1415,
      "ury": 1416,
      "Ġi": 1417,
      "Ġair": 1418,
      "Ġprofess": 1419,
      "Ġaddition": 1420,
      "Ġtest": 1421,
      "Ġmeet": 1422,
      "ER": 1423,
      "Ġvisit": 1424,
      "orm": 1425,
      "Ġweek": 1426,
      "ĠZ": 1427,
      "Ġfood": 1428,
      "Ġuntil": 1429,
      "Ġhouse": 1430,
      "ret": 1431,
      "Ġprom": 1432,
      "ote": 1433,
      "Ġpresent": 1434,
      "Ġworking": 1435,
      "ats": 1436,
      "Ġlooking": 1437,
      "ases": 1438,
      "Ġpract": 1439,
      "ĠAt": 1440,
      "ator": 1441,
      "pend": 1442,
      "Ġfac": 1443,
      "ified": 1444,
      "ron": 1445,
      "Ġmaking": 1446,
      "Ġconst": 1447,
      "Ġsal": 1448,
      "Ġgame": 1449,
      "load": 1450,
      "Ġoffer": 1451,
      "Ġbelie": 1452,
      ".,": 1453,
      "ann": 1454,
      "Ġlocal": 1455,
      "ĠCon": 1456,
      "Ġprev": 1457,
      "inal": 1458,
      "pping": 1459,
      "cl": 1460,
      "iron": 1461,
      "ably": 1462,
      "Ġunderstand": 1463,
      "room": 1464,
      "por": 1465,
      "oint": 1466,
      "gether": 1467,
      "Ġchildren": 1468,
      "Ġcap": 1469,
      "Ġwom": 1470,
      "Ġprote": 1471,
      "pos": 1472,
      "Ġagainst": 1473,
      "Ġtoday": 1474,
      "ok": 1475,
      "Ġsite": 1476,
      "lish": 1477,
      "ott": 1478,
      "Ġname": 1479,
      "Ġalong": 1480,
      "Ġapplic": 1481,
      "orth": 1482,
      "ĠPh": 1483,
      "ĠCol": 1484,
      "Ġwin": 1485,
      "Ġintern": 1486,
      "Ġcourse": 1487,
      "Ġtru": 1488,
      "med": 1489,
      "Ġjob": 1490,
      "Ġbeh": 1491,
      "lection": 1492,
      "ission": 1493,
      "ider": 1494,
      "ĠTr": 1495,
      "Ġhum": 1496,
      "ps": 1497,
      "Ġchang": 1498,
      "Ġcase": 1499,
      "Ġmoney": 1500,
      "cent": 1501,
      "ample": 1502,
      "Ġstudents": 1503,
      "sh": 1504,
      "Ġchange": 1505,
      "ope": 1506,
      "ration": 1507,
      "iety": 1508,
      "Ġlaw": 1509,
      "Ġcomplete": 1510,
      "ember": 1511,
      "Ġproducts": 1512,
      "Ġenjoy": 1513,
      "Ġsing": 1514,
      "Ġoften": 1515,
      "Ġsuccess": 1516,
      "Ġdra": 1517,
      "Ġdem": 1518,
      "Ġhist": 1519,
      "ĠSp": 1520,
      "ability": 1521,
      "Ġside": 1522,
      "Ġtogether": 1523,
      "Ġbas": 1524,
      "Ġindust": 1525,
      "utes": 1526,
      "Ġpain": 1527,
      "of": 1528,
      "ina": 1529,
      "ley": 1530,
      "agement": 1531,
      "aring": 1532,
      "ream": 1533,
      "Ġcheck": 1534,
      "Ġterm": 1535,
      "Ġword": 1536,
      "aster": 1537,
      "Ġevent": 1538,
      "Ġleg": 1539,
      "ĠâĢĺ": 1540,
      "Ġneeds": 1541,
      "illion": 1542,
      "let": 1543,
      "itions": 1544,
      "ĠBl": 1545,
      "Ġcond": 1546,
      "att": 1547,
      "Ġbuy": 1548,
      "ify": 1549,
      "Ġann": 1550,
      "Ġactiv": 1551,
      "Ġpa": 1552,
      "Ġlearn": 1553,
      "Ġ|": 1554,
      "ization": 1555,
      "Ġimpro": 1556,
      "Ġfour": 1557,
      "Ġdev": 1558,
      "ills": 1559,
      "ĠWhen": 1560,
      "aterial": 1561,
      "ger": 1562,
      "ĠTe": 1563,
      "Ġsw": 1564,
      "iven": 1565,
      "Ġdr": 1566,
      "ode": 1567,
      "Ġcreat": 1568,
      "ived": 1569,
      "ĠOr": 1570,
      "Ġnear": 1571,
      "Ġnight": 1572,
      "Ġwebsite": 1573,
      "uck": 1574,
      "Ġconne": 1575,
      "ows": 1576,
      "Ġleft": 1577,
      "part": 1578,
      "Ġeasy": 1579,
      "ĠWith": 1580,
      "side": 1581,
      "tain": 1582,
      "Ġkind": 1583,
      "tend": 1584,
      "ids": 1585,
      "ĠTo": 1586,
      "!!": 1587,
      "Ġgra": 1588,
      "ique": 1589,
      "He": 1590,
      "Ġpossible": 1591,
      "Ġtrad": 1592,
      "ĠThat": 1593,
      "ories": 1594,
      "ĠChrist": 1595,
      "Ġwhy": 1596,
      "Ġtimes": 1597,
      "ĠUS": 1598,
      "Ġhaving": 1599,
      "Ġpast": 1600,
      "ising": 1601,
      "Ġbene": 1602,
      "Ġthing": 1603,
      "oice": 1604,
      "Ġbeaut": 1605,
      "ocus": 1606,
      "Ġdi": 1607,
      "ane": 1608,
      "Ġemploy": 1609,
      "Ġwrit": 1610,
      "ĠEng": 1611,
      "Ġclo": 1612,
      "min": 1613,
      "ries": 1614,
      "bo": 1615,
      "Ġland": 1616,
      "augh": 1617,
      "Ġmove": 1618,
      "Ġocc": 1619,
      "ured": 1620,
      "olution": 1621,
      "Ġtreat": 1622,
      "Ġgovern": 1623,
      "arent": 1624,
      "ividual": 1625,
      "ĠMar": 1626,
      "Ġes": 1627,
      "br": 1628,
      "Ġrecord": 1629,
      "ged": 1630,
      "Ġexpect": 1631,
      "Ġline": 1632,
      "hor": 1633,
      "Ġshort": 1634,
      "Ġdetail": 1635,
      "Ġenough": 1636,
      "Ġaccount": 1637,
      "Ġey": 1638,
      "ĠComm": 1639,
      "ead": 1640,
      "Ġbased": 1641,
      "Ġsever": 1642,
      "soci": 1643,
      "Ġdone": 1644,
      "Ġpot": 1645,
      "fer": 1646,
      "ĠGod": 1647,
      "itive": 1648,
      "Ġbecome": 1649,
      "uro": 1650,
      "As": 1651,
      "Ġdidn": 1652,
      "Ġtre": 1653,
      "ination": 1654,
      "icle": 1655,
      "Ġmaterial": 1656,
      "Ġbody": 1657,
      "ready": 1658,
      "by": 1659,
      "Ġelect": 1660,
      "ĠCent": 1661,
      "pecial": 1662,
      "Ġtem": 1663,
      "inc": 1664,
      "ĠRes": 1665,
      "Ġpersonal": 1666,
      "yle": 1667,
      "Ġever": 1668,
      "Ġcreate": 1669,
      "ney": 1670,
      "Ġcertain": 1671,
      "Ġtell": 1672,
      "ajor": 1673,
      "alf": 1674,
      "Ġinclude": 1675,
      "Ġseveral": 1676,
      "Ġcommunity": 1677,
      "ĠMan": 1678,
      "Ġsoft": 1679,
      "Ġperfect": 1680,
      "Ġmen": 1681,
      "Ġmar": 1682,
      ",âĢĿ": 1683,
      "ee": 1684,
      "ither": 1685,
      "lement": 1686,
      "Ġcontrol": 1687,
      "ĠWhat": 1688,
      "Ġmind": 1689,
      "IN": 1690,
      "Ġcontact": 1691,
      "ency": 1692,
      "Ġothers": 1693,
      "Ġcalled": 1694,
      "Ġindividual": 1695,
      "Ġvide": 1696,
      "ape": 1697,
      "Ġresearch": 1698,
      "cu": 1699,
      "Ġacross": 1700,
      "Ġthought": 1701,
      "Ġmeans": 1702,
      "ĠUniversity": 1703,
      "Ġcou": 1704,
      "iting": 1705,
      "âĢľ": 1706,
      "Ġfore": 1707,
      "viron": 1708,
      "Ġbenef": 1709,
      "Ġfar": 1710,
      "Ġcame": 1711,
      "Ġquick": 1712,
      "Ġla": 1713,
      "Ġalready": 1714,
      "Ġlow": 1715,
      "Ġlim": 1716,
      "Ġmakes": 1717,
      "Ġfocus": 1718,
      "ĠâĢĶ": 1719,
      "atures": 1720,
      "Ġmembers": 1721,
      "What": 1722,
      "Ġhot": 1723,
      "Ġlive": 1724,
      "aim": 1725,
      "ĠPr": 1726,
      "Ġsocial": 1727,
      "ĠCan": 1728,
      "Ġcountry": 1729,
      "Ġce": 1730,
      "ored": 1731,
      "Ġhold": 1732,
      "Ġmult": 1733,
      "Ġmean": 1734,
      "wards": 1735,
      "Ġwind": 1736,
      "Ġonce": 1737,
      "Ġnon": 1738,
      "oose": 1739,
      "ĠCar": 1740,
      "Ġcity": 1741,
      "rop": 1742,
      "Ġtalk": 1743,
      "Ġspecific": 1744,
      "ĠNo": 1745,
      "itc": 1746,
      "ances": 1747,
      "most": 1748,
      "rap": 1749,
      "ript": 1750,
      "Ġmusic": 1751,
      "Ġreturn": 1752,
      "osed": 1753,
      "ots": 1754,
      "ides": 1755,
      "Ġopportun": 1756,
      "ush": 1757,
      "Ġdevelopment": 1758,
      "Ġmil": 1759,
      "Ġbit": 1760,
      "Ġrequire": 1761,
      "Ġsol": 1762,
      "Ġcomes": 1763,
      "ĠCo": 1764,
      "Ġeduc": 1765,
      "Ġlink": 1766,
      "Ġwa": 1767,
      "Ġwar": 1768,
      "uture": 1769,
      "Ġorig": 1770,
      "Ġtook": 1771,
      "ĠThese": 1772,
      "Ġfav": 1773,
      "ograph": 1774,
      "Ġnet": 1775,
      "enn": 1776,
      "aps": 1777,
      "ully": 1778,
      "hod": 1779,
      "Ġvers": 1780,
      "Ġparticular": 1781,
      "conom": 1782,
      "ĠMy": 1783,
      "Ġprice": 1784,
      "idd": 1785,
      "urther": 1786,
      "Ġet": 1787,
      "oring": 1788,
      "Ġspace": 1789,
      "lf": 1790,
      "Ġmajor": 1791,
      "atic": 1792,
      "Ġleast": 1793,
      "Ġclean": 1794,
      "aff": 1795,
      "Ġtyp": 1796,
      "Ġreview": 1797,
      "Ġgetting": 1798,
      "Ġexample": 1799,
      "ohn": 1800,
      "urs": 1801,
      "Ġclear": 1802,
      "Ġpage": 1803,
      "orts": 1804,
      "err": 1805,
      "Ġmom": 1806,
      "ĠAmerican": 1807,
      "Ġens": 1808,
      "ĠOur": 1809,
      "ĠAm": 1810,
      "Ġpar": 1811,
      "Ġwalk": 1812,
      "Ġdeal": 1813,
      "Ġste": 1814,
      "Ġcompan": 1815,
      "Ġyoung": 1816,
      "Ġdoing": 1817,
      "Ġhig": 1818,
      "ording": 1819,
      "Ġkey": 1820,
      "anks": 1821,
      "Ġbed": 1822,
      "Ġcamp": 1823,
      "Ġlater": 1824,
      "sc": 1825,
      "vironment": 1826,
      "ilt": 1827,
      "Ġcover": 1828,
      "par": 1829,
      "Ġredu": 1830,
      "Ġknown": 1831,
      "ateg": 1832,
      "ift": 1833,
      "de": 1834,
      "ians": 1835,
      "?\"": 1836,
      "Ġstep": 1837,
      "ribut": 1838,
      "Ġwent": 1839,
      "Ġhours": 1840,
      "Ġpack": 1841,
      "ON": 1842,
      "Ġanal": 1843,
      "Ġstory": 1844,
      "ĠMay": 1845,
      "Ġoffic": 1846,
      "Ġbring": 1847,
      "Ġcomb": 1848,
      "Ġminutes": 1849,
      "aken": 1850,
      "rodu": 1851,
      "Ġseason": 1852,
      "app": 1853,
      "ai": 1854,
      "Ġstarted": 1855,
      "ster": 1856,
      "ones": 1857,
      "Ġinvol": 1858,
      "ES": 1859,
      "ww": 1860,
      "urity": 1861,
      "Ġcut": 1862,
      "Ġbelow": 1863,
      "Ġclose": 1864,
      "Ġpurch": 1865,
      "cing": 1866,
      "lished": 1867,
      "not": 1868,
      "Ġpriv": 1869,
      "ford": 1870,
      "aces": 1871,
      "ĠRo": 1872,
      "Ġreason": 1873,
      "Ġtool": 1874,
      "Ġsum": 1875,
      "iful": 1876,
      "Ġcharact": 1877,
      "Ġfuture": 1878,
      "Ġident": 1879,
      "Ġheart": 1880,
      "Ġearly": 1881,
      "light": 1882,
      "ister": 1883,
      "Ġbar": 1884,
      "Ġcompet": 1885,
      "For": 1886,
      "Ġrange": 1887,
      "Ġshare": 1888,
      "Ġfriends": 1889,
      "ulation": 1890,
      "There": 1891,
      "Ġsound": 1892,
      "ĠBr": 1893,
      "Ġpie": 1894,
      "ĠSu": 1895,
      "ched": 1896,
      "resent": 1897,
      "AT": 1898,
      "iod": 1899,
      "ung": 1900,
      "lling": 1901,
      "Ġstrong": 1902,
      "Ġyet": 1903,
      "Ġgiven": 1904,
      "Ġstudy": 1905,
      "ips": 1906,
      "cle": 1907,
      "Ġabove": 1908,
      "Ġactually": 1909,
      "illed": 1910,
      "Ġproblem": 1911,
      "Ġvalue": 1912,
      "Ġbegin": 1913,
      "Ġfield": 1914,
      "Ġinstall": 1915,
      "une": 1916,
      "Ġwon": 1917,
      "ĠDo": 1918,
      "mber": 1919,
      "lev": 1920,
      "wh": 1921,
      "Ġvol": 1922,
      "Ġport": 1923,
      "Ġflo": 1924,
      "ges": 1925,
      "Ġindustry": 1926,
      "Ġface": 1927,
      "sw": 1928,
      "ners": 1929,
      "Ġoffers": 1930,
      "AR": 1931,
      "ilities": 1932,
      "ĠHowever": 1933,
      "isk": 1934,
      "Ã©": 1935,
      "Ġeverything": 1936,
      "Ġstay": 1937,
      "ĠFl": 1938,
      "Ġpict": 1939,
      "Ġappear": 1940,
      "AN": 1941,
      "go": 1942,
      "ino": 1943,
      "Ġitem": 1944,
      "ply": 1945,
      "atural": 1946,
      "Ġcompanies": 1947,
      "Ġexc": 1948,
      "Ġsuper": 1949,
      "ĠX": 1950,
      "Ġwond": 1951,
      "Ġbuilding": 1952,
      "ference": 1953,
      "son": 1954,
      "uff": 1955,
      "Ġess": 1956,
      "Ġdeli": 1957,
      "Ġgovernment": 1958,
      "St": 1959,
      "oon": 1960,
      "ctor": 1961,
      "cks": 1962,
      "Ġhappen": 1963,
      "over": 1964,
      "fort": 1965,
      "Ġrepl": 1966,
      "cell": 1967,
      "Ġaddress": 1968,
      "Ġz": 1969,
      "book": 1970,
      "Ġwhole": 1971,
      "rew": 1972,
      "Ġamount": 1973,
      "Ġdoesn": 1974,
      "ommend": 1975,
      "Ġmonths": 1976,
      "osp": 1977,
      "ĠOne": 1978,
      "Ġenc": 1979,
      "ledge": 1980,
      "Ġfollowing": 1981,
      "Ġdiscuss": 1982,
      "Ġener": 1983,
      "Ġsays": 1984,
      "Ġpress": 1985,
      "ony": 1986,
      "ĠIntern": 1987,
      "reet": 1988,
      "ĠSy": 1989,
      "Ġmethod": 1990,
      "bal": 1991,
      "ĠApp": 1992,
      "Ġmot": 1993,
      "Ġseen": 1994,
      "new": 1995,
      "ource": 1996,
      "Ġrespons": 1997,
      "Ġworks": 1998,
      "ĠJohn": 1999,
      "ler": 2000,
      "Ġsingle": 2001,
      "ĠEuro": 2002,
      "though": 2003,
      "Ġfeatures": 2004,
      "ĠWor": 2005,
      "ained": 2006,
      "Ġfront": 2007,
      "ĠUnited": 2008,
      "unch": 2009,
      "urch": 2010,
      "Ġresults": 2011,
      "Ġdesc": 2012,
      "ĠGu": 2013,
      "Ġsn": 2014,
      "pecially": 2015,
      "fully": 2016,
      "ources": 2017,
      "icult": 2018,
      "Ġamong": 2019,
      "Ġant": 2020,
      "Ġcult": 2021,
      "Ġtot": 2022,
      "ental": 2023,
      "Ġjo": 2024,
      "Ġbreak": 2025,
      "Ġcra": 2026,
      "An": 2027,
      "Ġwomen": 2028,
      "Ġchall": 2029,
      "Ġstore": 2030,
      "ĠComp": 2031,
      "ilar": 2032,
      "urance": 2033,
      "mb": 2034,
      "Ġtype": 2035,
      "Ġhuman": 2036,
      "ĠInst": 2037,
      "icy": 2038,
      "uf": 2039,
      "eral": 2040,
      "elt": 2041,
      "Ġcustomers": 2042,
      "Ġnews": 2043,
      "ancial": 2044,
      "Ġpick": 2045,
      "Ġcontent": 2046,
      "Ġperiod": 2047,
      "Ġcommon": 2048,
      "acy": 2049,
      "Ġsearch": 2050,
      "Ġenvironment": 2051,
      "Ġeconom": 2052,
      "ogn": 2053,
      "Ġtax": 2054,
      "Ġhope": 2055,
      "Ġmillion": 2056,
      "Ġdiff": 2057,
      "tt": 2058,
      "Ġrecommend": 2059,
      "af": 2060,
      "When": 2061,
      "Ġfriend": 2062,
      "ĠSte": 2063,
      "idence": 2064,
      "Ġquestions": 2065,
      "Ġconsider": 2066,
      "Ġtravel": 2067,
      "ĠMed": 2068,
      "Ġprofessional": 2069,
      "Ġvideo": 2070,
      "Ġtable": 2071,
      "Ġprob": 2072,
      "Ġwall": 2073,
      "Ġidea": 2074,
      "Ġsimple": 2075,
      "Ġtechnology": 2076,
      "Ġvarious": 2077,
      "ring": 2078,
      "Ġliving": 2079,
      "irm": 2080,
      "ued": 2081,
      "Ġwhether": 2082,
      "hers": 2083,
      "ĠEn": 2084,
      "irl": 2085,
      "selves": 2086,
      "ively": 2087,
      "Ġdue": 2088,
      "Ġplease": 2089,
      "Ġemail": 2090,
      "ibility": 2091,
      "ĠServ": 2092,
      "Ġfre": 2093,
      "ided": 2094,
      "Ġ[": 2095,
      "Ġhalf": 2096,
      "Ġauthor": 2097,
      "Ġfive": 2098,
      "Ġeither": 2099,
      "How": 2100,
      "Ġage": 2101,
      "Ġproperty": 2102,
      "Ġprovides": 2103,
      "Ġblack": 2104,
      "chie": 2105,
      "Ġmor": 2106,
      "ĠNe": 2107,
      "OR": 2108,
      "Ġtaking": 2109,
      "Ġcred": 2110,
      "Ġbeautiful": 2111,
      "ches": 2112,
      "rie": 2113,
      "asing": 2114,
      "Ġtraining": 2115,
      "Ġalmost": 2116,
      "rict": 2117,
      "Ġareas": 2118,
      "omes": 2119,
      "Ġmanag": 2120,
      "Ġfurther": 2121,
      "Ġanything": 2122,
      "aur": 2123,
      "Ġsomeone": 2124,
      "abor": 2125,
      "iously": 2126,
      "Ġrelations": 2127,
      "Ġhistory": 2128,
      "dd": 2129,
      "ume": 2130,
      "cted": 2131,
      "irt": 2132,
      "Ġwhite": 2133,
      "iver": 2134,
      "Ġmess": 2135,
      "Ġmag": 2136,
      "Ġquite": 2137,
      "On": 2138,
      "ĠFe": 2139,
      "Ġweb": 2140,
      "Ġphys": 2141,
      "Ġcard": 2142,
      "ĠÂ": 2143,
      "Ġtas": 2144,
      "resh": 2145,
      "ried": 2146,
      "ggest": 2147,
      "ball": 2148,
      "Ġsize": 2149,
      "ruction": 2150,
      "nam": 2151,
      "Ġissues": 2152,
      "Ġbelieve": 2153,
      "Ġrequired": 2154,
      "ables": 2155,
      "Ġmanagement": 2156,
      "ĠEurope": 2157,
      "Ġimprove": 2158,
      "Ġentire": 2159,
      "Ġquestion": 2160,
      "Ġclaim": 2161,
      "ĠNot": 2162,
      "ĠAfter": 2163,
      "Ġcomput": 2164,
      "Ġexam": 2165,
      "lex": 2166,
      "Ġfall": 2167,
      "Ġenergy": 2168,
      "ĠHis": 2169,
      "Ġoffice": 2170,
      "Ġnecess": 2171,
      "Ġtold": 2172,
      "lege": 2173,
      "uation": 2174,
      "ĠRep": 2175,
      "ĠCont": 2176,
      "ison": 2177,
      "yl": 2178,
      "itted": 2179,
      "Ġexperien": 2180,
      "rown": 2181,
      "Ġmeas": 2182,
      "play": 2183,
      "Ġneeded": 2184,
      "Ġaud": 2185,
      "Ġcir": 2186,
      "ites": 2187,
      "Ġcook": 2188,
      "Ġsoon": 2189,
      "Ġsuggest": 2190,
      "Ġseries": 2191,
      "ili": 2192,
      "ops": 2193,
      "Ġeff": 2194,
      "imate": 2195,
      "Ġdou": 2196,
      "Ġpercent": 2197,
      "Ġdownload": 2198,
      "ĠChe": 2199,
      "Ġfoot": 2200,
      "vert": 2201,
      "ĠYork": 2202,
      "Ġselect": 2203,
      "ĠCount": 2204,
      "ĠDes": 2205,
      "iday": 2206,
      "Ġdam": 2207,
      "ensive": 2208,
      "Ġhowever": 2209,
      "Ġoil": 2210,
      "astic": 2211,
      "Ġtext": 2212,
      "Ġespecially": 2213,
      "Ġperformance": 2214,
      "Ġwide": 2215,
      "umb": 2216,
      "Ġdig": 2217,
      "ze": 2218,
      "Ġtaken": 2219,
      "Ġassist": 2220,
      "Ġunique": 2221,
      "ises": 2222,
      "Ġself": 2223,
      "Ġpolit": 2224,
      "Ġsimply": 2225,
      "angu": 2226,
      "ille": 2227,
      "ufact": 2228,
      "Ġstaff": 2229,
      "Ġparticip": 2230,
      "Ġexist": 2231,
      "Ġhost": 2232,
      "Ġtour": 2233,
      "ĠCity": 2234,
      "ĠSouth": 2235,
      "ĠAust": 2236,
      "Ġupd": 2237,
      "ĠMe": 2238,
      "Ch": 2239,
      "Ġprep": 2240,
      "gs": 2241,
      "pper": 2242,
      "Ġlat": 2243,
      "Ġupon": 2244,
      "And": 2245,
      "Ġmedia": 2246,
      "Ġwanted": 2247,
      "Ġdifficult": 2248,
      "nding": 2249,
      "Ġasked": 2250,
      "Ġsignific": 2251,
      "Ġred": 2252,
      "Ġengine": 2253,
      "ox": 2254,
      "Ġfunction": 2255,
      "Ġmiss": 2256,
      "ĠBar": 2257,
      "Ġdocu": 2258,
      "ators": 2259,
      "ĠĊ": 2260,
      "rom": 2261,
      "Ġsent": 2262,
      "Ġmach": 2263,
      "Ġdesigned": 2264,
      "Ġprovided": 2265,
      "ands": 2266,
      "Ġrepresent": 2267,
      "So": 2268,
      "Ġroad": 2269,
      "ication": 2270,
      "itional": 2271,
      "ram": 2272,
      "Ġrather": 2273,
      "EN": 2274,
      "Ġpotential": 2275,
      "Ġcell": 2276,
      "ires": 2277,
      "used": 2278,
      "pro": 2279,
      "Ġparent": 2280,
      "Ġansw": 2281,
      "aching": 2282,
      "ification": 2283,
      "Ġyourself": 2284,
      "Ġnatural": 2285,
      "Ġcrit": 2286,
      "Ġestab": 2287,
      ".âĢĿ": 2288,
      "Ġcal": 2289,
      "Ġabs": 2290,
      "Ġchoose": 2291,
      "vent": 2292,
      "Ġwatch": 2293,
      "Ġposition": 2294,
      "come": 2295,
      "Ġfund": 2296,
      "obile": 2297,
      "ĠCal": 2298,
      "my": 2299,
      "Ġeveryone": 2300,
      "Ġstra": 2301,
      "ĠYour": 2302,
      "val": 2303,
      "Ġpopular": 2304,
      "Ġachie": 2305,
      "Ġsat": 2306,
      "Ġelse": 2307,
      "Ġtown": 2308,
      "Ġinit": 2309,
      "ĠSchool": 2310,
      "Ġglo": 2311,
      "Ġextra": 2312,
      "roll": 2313,
      "ĠMin": 2314,
      "ĠNorth": 2315,
      "Ġcomfort": 2316,
      "Ġwriting": 2317,
      "AS": 2318,
      "Ġhy": 2319,
      "gest": 2320,
      "Ġknowledge": 2321,
      "Ġlay": 2322,
      "ĠMr": 2323,
      "Ġfire": 2324,
      "Ġpaper": 2325,
      "Ġdeterm": 2326,
      "ED": 2327,
      "where": 2328,
      "Ġfavor": 2329,
      "Ġincludes": 2330,
      "Ġthird": 2331,
      "Ġprint": 2332,
      "ĠNational": 2333,
      "Ġfail": 2334,
      "Ġbad": 2335,
      "Ġways": 2336,
      "Ġensure": 2337,
      "Ġbehind": 2338,
      "face": 2339,
      "Ġevents": 2340,
      "Ġadded": 2341,
      "itch": 2342,
      "lu": 2343,
      "Ġ/": 2344,
      "anced": 2345,
      "Ġfinancial": 2346,
      "Ġground": 2347,
      "ibr": 2348,
      "Ġstyle": 2349,
      "itchen": 2350,
      "Ġdoor": 2351,
      "Ġsystems": 2352,
      "Ġdeb": 2353,
      "Ġsle": 2354,
      "back": 2355,
      "Ġnothing": 2356,
      "Ġsubject": 2357,
      "Ġmatter": 2358,
      "Ġlikely": 2359,
      "Ġheld": 2360,
      "Ġfilm": 2361,
      "IS": 2362,
      "Ġgames": 2363,
      "gle": 2364,
      "idge": 2365,
      "Ġaccept": 2366,
      "Ġproblems": 2367,
      "Ġswe": 2368,
      "Ġphone": 2369,
      "Ġregard": 2370,
      "Ġoptions": 2371,
      "ĠState": 2372,
      "Ġtou": 2373,
      "Ġcustomer": 2374,
      "Ġcolor": 2375,
      "Ġmodel": 2376,
      "oid": 2377,
      "Ġforward": 2378,
      "nov": 2379,
      "ĠStates": 2380,
      "na": 2381,
      "ĠPark": 2382,
      "Ġwords": 2383,
      "Ġsimilar": 2384,
      "head": 2385,
      "But": 2386,
      "Ġrequest": 2387,
      "Ġcoming": 2388,
      "ĠWorld": 2389,
      "ĠPe": 2390,
      "Ġideas": 2391,
      "ging": 2392,
      "Ġbox": 2393,
      "gress": 2394,
      "Ġtrying": 2395,
      "Ġoutside": 2396,
      "Ġsoftware": 2397,
      "Ġwood": 2398,
      "itut": 2399,
      "Ġready": 2400,
      "Ġprobably": 2401,
      "##": 2402,
      "ĠGe": 2403,
      "Ġrelationship": 2404,
      "Ġcreated": 2405,
      "itting": 2406,
      "Ġago": 2407,
      "ĠTra": 2408,
      "Ġstruct": 2409,
      "ights": 2410,
      "ĠGr": 2411,
      "Ġparty": 2412,
      "ĠGo": 2413,
      "Ġcharacter": 2414,
      "Ġassoci": 2415,
      "AL": 2416,
      "eth": 2417,
      "medi": 2418,
      "Ġele": 2419,
      "IT": 2420,
      "airs": 2421,
      "Ġcoll": 2422,
      "Ġsix": 2423,
      "azing": 2424,
      "ding": 2425,
      "uge": 2426,
      "Ġapplication": 2427,
      "aced": 2428,
      "ole": 2429,
      "empt": 2430,
      "Ġinside": 2431,
      "Ġwonder": 2432,
      "Ġthroughout": 2433,
      "Ġetc": 2434,
      "Ġpark": 2435,
      "Ġsaw": 2436,
      "Ġaf": 2437,
      "To": 2438,
      "istic": 2439,
      "che": 2440,
      "ival": 2441,
      "ades": 2442,
      "Ġsignificant": 2443,
      "ĠEd": 2444,
      "Ġdel": 2445,
      "Ġfast": 2446,
      "Ġusually": 2447,
      "Ġda": 2448,
      "Ġrecogn": 2449,
      "Ġsafe": 2450,
      "cer": 2451,
      "Ġmoment": 2452,
      "Ġgeneral": 2453,
      "Ġagree": 2454,
      "Ġveh": 2455,
      "ĠIm": 2456,
      "Ġpan": 2457,
      "ĠAf": 2458,
      "Ġrisk": 2459,
      "itten": 2460,
      "aving": 2461,
      "Ġobject": 2462,
      "ada": 2463,
      "Ġtrue": 2464,
      "Ġchanges": 2465,
      "ety": 2466,
      "reme": 2467,
      "Ġcoun": 2468,
      "Ġjour": 2469,
      "time": 2470,
      "Ġclick": 2471,
      "Ġleave": 2472,
      "oud": 2473,
      "ĠJan": 2474,
      "Ġbott": 2475,
      "Ġrespect": 2476,
      "ĠPer": 2477,
      "Ġdetails": 2478,
      "Ġlonger": 2479,
      "Ġpret": 2480,
      "Ġnetwork": 2481,
      "Ġsecurity": 2482,
      "Ġlocated": 2483,
      "ĠQu": 2484,
      "iam": 2485,
      "Ġfeature": 2486,
      "iple": 2487,
      "do": 2488,
      "Ġbuilt": 2489,
      "verage": 2490,
      "Ġtakes": 2491,
      "Ġissue": 2492,
      "Ġimpact": 2493,
      "Ġhands": 2494,
      "era": 2495,
      "Ġmanufact": 2496,
      "Ġtrack": 2497,
      "Ġclients": 2498,
      "ned": 2499,
      "ĠHar": 2500,
      "Ġfit": 2501,
      "Ġconsum": 2502,
      "Ġskin": 2503,
      "Ġcannot": 2504,
      "Ġreceive": 2505,
      "Ġreceived": 2506,
      "ĠSec": 2507,
      "ached": 2508,
      "Ġsho": 2509,
      "opy": 2510,
      "ĠWill": 2511,
      "Ġill": 2512,
      "Ġdefin": 2513,
      "Ġstat": 2514,
      "Ġeyes": 2515,
      "Ġoriginal": 2516,
      "Ġopportunity": 2517,
      "ese": 2518,
      "Ġincrease": 2519,
      "ules": 2520,
      "Ġregular": 2521,
      "Ġhappy": 2522,
      "Ġinde": 2523,
      "Ġsun": 2524,
      "IC": 2525,
      "Ġrole": 2526,
      "Ġshall": 2527,
      "oph": 2528,
      "ĠPart": 2529,
      "itor": 2530,
      "Ġlearning": 2531,
      "Ġanim": 2532,
      "Ġcontract": 2533,
      "Ġautom": 2534,
      "Ġdeath": 2535,
      "Ġhon": 2536,
      "Ġfinal": 2537,
      "ĠSome": 2538,
      "ipment": 2539,
      "Ġspeak": 2540,
      "Ġhigher": 2541,
      "Ġeducation": 2542,
      "ĠApr": 2543,
      "iter": 2544,
      "Ġmember": 2545,
      "Ġut": 2546,
      "Ġrunning": 2547,
      "oura": 2548,
      "Ġprivate": 2549,
      "ĠBy": 2550,
      "put": 2551,
      "Ġaction": 2552,
      "Ġtreatment": 2553,
      "ublic": 2554,
      "mit": 2555,
      "Ġrad": 2556,
      "ana": 2557,
      "Ġisn": 2558,
      "olutions": 2559,
      "Ġrate": 2560,
      "isc": 2561,
      "Ġpoints": 2562,
      "Ġsqu": 2563,
      "Ġtar": 2564,
      "ĠTH": 2565,
      "Ġpretty": 2566,
      "Ġversion": 2567,
      "ees": 2568,
      "Ġcollect": 2569,
      "ux": 2570,
      "Ġcontinue": 2571,
      "Ġexpress": 2572,
      "Ġarri": 2573,
      "Ġexact": 2574,
      "aining": 2575,
      "Ġdeep": 2576,
      "izing": 2577,
      "atur": 2578,
      "Ġbase": 2579,
      "Ġdest": 2580,
      "Ġdate": 2581,
      "leased": 2582,
      "Ġofficial": 2583,
      "Ġimage": 2584,
      "Ġpractice": 2585,
      "Ġmodern": 2586,
      "action": 2587,
      "icro": 2588,
      "Ġattend": 2589,
      "Ġstop": 2590,
      "Ġnice": 2591,
      "Ġdom": 2592,
      "Ġcorre": 2593,
      "Ġlangu": 2594,
      "Ġfig": 2595,
      "AC": 2596,
      "ĠSm": 2597,
      "Ġinsp": 2598,
      "Ġsens": 2599,
      "Ġinsurance": 2600,
      "Ġconcern": 2601,
      "Ġeasily": 2602,
      "Ġsil": 2603,
      "Ġtotal": 2604,
      "Ġquickly": 2605,
      "ĠDr": 2606,
      "hib": 2607,
      "Ġaccording": 2608,
      "erc": 2609,
      "Ġdrive": 2610,
      "ceed": 2611,
      "apt": 2612,
      "Ġemb": 2613,
      "eter": 2614,
      "reg": 2615,
      "Ġactivities": 2616,
      "Ġstri": 2617,
      "Ġkids": 2618,
      "Ġneg": 2619,
      "Ġuser": 2620,
      "Ġbrand": 2621,
      "Ġsales": 2622,
      "Ġbecame": 2623,
      "minist": 2624,
      "Ġri": 2625,
      "Ġdescrib": 2626,
      "Ġadditional": 2627,
      "ĠPar": 2628,
      "Ġhair": 2629,
      "Ġworth": 2630,
      "Ġskills": 2631,
      "Ġinj": 2632,
      "bor": 2633,
      "Ġsong": 2634,
      "fficient": 2635,
      "Ġfile": 2636,
      "Ġbegan": 2637,
      "Ġdeg": 2638,
      "ĠTw": 2639,
      "Ġusers": 2640,
      "Our": 2641,
      "ground": 2642,
      "Ġintrodu": 2643,
      "ĠWar": 2644,
      "ĠCor": 2645,
      "Ġloss": 2646,
      "Ġmix": 2647,
      "ĠJust": 2648,
      "Ġexcell": 2649,
      "Ġdraw": 2650,
      "Ġchoice": 2651,
      "Ġbal": 2652,
      "Ġshows": 2653,
      "ief": 2654,
      "Ġincluded": 2655,
      "gu": 2656,
      "imum": 2657,
      "Ġweeks": 2658,
      "RE": 2659,
      "Ġworked": 2660,
      "atform": 2661,
      "ĠWest": 2662,
      "Ġsense": 2663,
      "ha": 2664,
      "Ġhol": 2665,
      "Ġitself": 2666,
      "Ġstandard": 2667,
      "ĠEm": 2668,
      "iddle": 2669,
      "ming": 2670,
      "ĠKe": 2671,
      "Ġcool": 2672,
      "ffe": 2673,
      "ĠPres": 2674,
      "cil": 2675,
      "Ġgrowth": 2676,
      "....": 2677,
      "Ġvia": 2678,
      "pri": 2679,
      "ama": 2680,
      "ĠHer": 2681,
      "Ġitems": 2682,
      "Ġround": 2683,
      "Ġmother": 2684,
      "Ġproduction": 2685,
      "Ġbooks": 2686,
      "Ġcurrently": 2687,
      "ĠBrit": 2688,
      "ecut": 2689,
      "ĠMc": 2690,
      "Ġannoun": 2691,
      "Ġgen": 2692,
      "Ġlate": 2693,
      "Ġreading": 2694,
      "urg": 2695,
      "Ġvariety": 2696,
      "Ġanyone": 2697,
      "ĠGerm": 2698,
      "Ġblog": 2699,
      "Ġmorning": 2700,
      "ĠCounty": 2701,
      "ham": 2702,
      "Ġsave": 2703,
      "Ġseems": 2704,
      "Ġcredit": 2705,
      "Ġprojects": 2706,
      "ĠMark": 2707,
      "ĠBo": 2708,
      "ĠInc": 2709,
      "irth": 2710,
      "Al": 2711,
      "Ġfu": 2712,
      "Ġprior": 2713,
      "ondon": 2714,
      "Ġcouple": 2715,
      "Ġsett": 2716,
      "Ġobs": 2717,
      "ĠJu": 2718,
      "Ġnecessary": 2719,
      "iol": 2720,
      "erve": 2721,
      "ĠAb": 2722,
      "Ġpers": 2723,
      "adem": 2724,
      "sy": 2725,
      "Ġflow": 2726,
      "Ġprim": 2727,
      "Ġx": 2728,
      "oke": 2729,
      "ĠHigh": 2730,
      "Ġgirl": 2731,
      "ĠNow": 2732,
      "Ġthemselves": 2733,
      "ening": 2734,
      "pose": 2735,
      "nal": 2736,
      "Ġfelt": 2737,
      "ĠApril": 2738,
      "haps": 2739,
      "atory": 2740,
      "Ġlower": 2741,
      "ĠAustral": 2742,
      "ĠStud": 2743,
      "Ġapply": 2744,
      "irit": 2745,
      "Ġterms": 2746,
      "Ġlives": 2747,
      "ĠReg": 2748,
      "atter": 2749,
      "ĠDep": 2750,
      "iring": 2751,
      "Ġintegr": 2752,
      "Ġcause": 2753,
      "hern": 2754,
      "Ġfresh": 2755,
      "uary": 2756,
      "Ġboard": 2757,
      "mercial": 2758,
      "Ġclos": 2759,
      "ĠPol": 2760,
      "Ġtit": 2761,
      "Ġsummer": 2762,
      "Ġrecent": 2763,
      "like": 2764,
      "Ġapproach": 2765,
      "ĠEnglish": 2766,
      "Ġarr": 2767,
      "Ġoption": 2768,
      "ĠThen": 2769,
      "Ġallows": 2770,
      "Ġnorm": 2771,
      "Ġcomputer": 2772,
      "icles": 2773,
      "rem": 2774,
      "lin": 2775,
      "Ġlocation": 2776,
      "Ġlooked": 2777,
      "Ġlooks": 2778,
      "rences": 2779,
      "ysis": 2780,
      "With": 2781,
      "Ġteac": 2782,
      "Ġparts": 2783,
      "Ġmount": 2784,
      "ipe": 2785,
      "Ġgrad": 2786,
      "enty": 2787,
      "Ġrelated": 2788,
      "ĠDon": 2789,
      "Ġarch": 2790,
      "aging": 2791,
      "Ġmaintain": 2792,
      "Ġnational": 2793,
      "Ġcele": 2794,
      "Ġcode": 2795,
      "Ġsepar": 2796,
      "ological": 2797,
      "Ġinternational": 2798,
      "Ġmass": 2799,
      "ma": 2800,
      "Ġkitchen": 2801,
      "ĠOct": 2802,
      "Ġconditions": 2803,
      "ude": 2804,
      "Ġamazing": 2805,
      "Ġleaders": 2806,
      "Ġstock": 2807,
      "Ġimmedi": 2808,
      "ĠMarch": 2809,
      "Ġmedical": 2810,
      "Ġlost": 2811,
      "Ġdisplay": 2812,
      "Ġknew": 2813,
      "Ġhimself": 2814,
      "Ġfeed": 2815,
      "Ġarticle": 2816,
      "avy": 2817,
      "Ġscreen": 2818,
      "ĠSw": 2819,
      "Ġmyself": 2820,
      "Ġones": 2821,
      "lier": 2822,
      "oogle": 2823,
      "ĠAg": 2824,
      "Ġmaterials": 2825,
      "\".": 2826,
      "Ġmarketing": 2827,
      "Ġpolicy": 2828,
      "Ġability": 2829,
      "Ġpatients": 2830,
      "ĠEl": 2831,
      "Ġmeeting": 2832,
      "Ġsell": 2833,
      "amb": 2834,
      "now": 2835,
      "Ġweight": 2836,
      "based": 2837,
      "Ġdark": 2838,
      "Ġprotect": 2839,
      "Ġplant": 2840,
      "Ġinstead": 2841,
      "ĠPa": 2842,
      "eal": 2843,
      "My": 2844,
      "Ġremov": 2845,
      "Ġaffect": 2846,
      "aves": 2847,
      "??": 2848,
      "ĠCenter": 2849,
      "Ġattack": 2850,
      "Ġproviding": 2851,
      "//": 2852,
      "Ġcosts": 2853,
      "Ġfa": 2854,
      "Ġtarget": 2855,
      "Ġtrust": 2856,
      "Ġexcept": 2857,
      "Ġeffective": 2858,
      "ĠBu": 2859,
      "aby": 2860,
      "Ġwritten": 2861,
      "Ġsaf": 2862,
      "just": 2863,
      "reng": 2864,
      "mas": 2865,
      "ĠÐ": 2866,
      "icated": 2867,
      "Ġlatest": 2868,
      "Ġprograms": 2869,
      "Ġord": 2870,
      "Ġremember": 2871,
      "Ġcy": 2872,
      "Ġfloor": 2873,
      "Ġball": 2874,
      "hood": 2875,
      "rought": 2876,
      "Ġchance": 2877,
      "amed": 2878,
      "uth": 2879,
      "Ġequipment": 2880,
      "iff": 2881,
      "Ġplatform": 2882,
      "ĠAct": 2883,
      "rand": 2884,
      "Ġ#": 2885,
      "Ġleading": 2886,
      "--": 2887,
      "Ġrecently": 2888,
      "Ġplayers": 2889,
      "At": 2890,
      "ĠHouse": 2891,
      "Ġtypes": 2892,
      "ples": 2893,
      "ĠAmerica": 2894,
      "Ġhear": 2895,
      "Ġpurchase": 2896,
      "ishing": 2897,
      "Ġcareer": 2898,
      "ension": 2899,
      "ests": 2900,
      "Ġsche": 2901,
      "Ġcand": 2902,
      "illing": 2903,
      "Ġcross": 2904,
      "Ġbath": 2905,
      "ĠAug": 2906,
      "Ġattention": 2907,
      "Ġinvolved": 2908,
      "nes": 2909,
      "Ġsold": 2910,
      "ĠVal": 2911,
      "year": 2912,
      "ĠChar": 2913,
      "ĠWhile": 2914,
      "Ġgoal": 2915,
      "Ġcam": 2916,
      "sing": 2917,
      "ĠLondon": 2918,
      "arden": 2919,
      "Ġbud": 2920,
      "Ġstudent": 2921,
      "Ġsurpr": 2922,
      "str": 2923,
      "Ġwasn": 2924,
      "ober": 2925,
      "Ġspeed": 2926,
      "ales": 2927,
      "ule": 2928,
      "Ġchalleng": 2929,
      "hold": 2930,
      "cript": 2931,
      "Ġhighly": 2932,
      "Ġcollection": 2933,
      "Ġrout": 2934,
      "Ġlif": 2935,
      "wood": 2936,
      "ĠFin": 2937,
      "Ġaw": 2938,
      "ĠSept": 2939,
      "Ġlevels": 2940,
      "iding": 2941,
      "ought": 2942,
      "Ġhor": 2943,
      "Ġturned": 2944,
      "ĠUK": 2945,
      "Ġcas": 2946,
      "ĠArt": 2947,
      "Ġdepend": 2948,
      "ession": 2949,
      "ĠAfric": 2950,
      "Ġbank": 2951,
      "Ġsolution": 2952,
      "Ġblood": 2953,
      "erous": 2954,
      "Ġdecision": 2955,
      "Ġimm": 2956,
      "Ġcases": 2957,
      "Ġmatch": 2958,
      "Ġgreen": 2959,
      "Ġcirc": 2960,
      "Ġgave": 2961,
      "ĠAir": 2962,
      "Ġtouch": 2963,
      "orage": 2964,
      "duct": 2965,
      "ĠJune": 2966,
      "Ġwrite": 2967,
      "Ġsection": 2968,
      "OU": 2969,
      "Ġdrink": 2970,
      "Ġdep": 2971,
      "Ġencoura": 2972,
      "rench": 2973,
      "Ġcenter": 2974,
      "Ġdecided": 2975,
      "hel": 2976,
      "All": 2977,
      "idered": 2978,
      "Ġgiving": 2979,
      "Ġpiece": 2980,
      "Ġexcellent": 2981,
      "Ġpath": 2982,
      "Ġemer": 2983,
      "ek": 2984,
      "Ġdirectly": 2985,
      "OT": 2986,
      "bit": 2987,
      "ĠOff": 2988,
      "Ġmention": 2989,
      "Ġfather": 2990,
      "Ġformer": 2991,
      "Ġfix": 2992,
      "ivity": 2993,
      "Ġcondition": 2994,
      "atives": 2995,
      "Ġparents": 2996,
      "Ġtools": 2997,
      "Ġdaily": 2998,
      "Ġglass": 2999,
      "Ġanswer": 3000,
      "Ġhuge": 3001,
      "Ġgold": 3002,
      "Ġcountries": 3003,
      "Ġenter": 3004,
      "://": 3005,
      "aign": 3006,
      "Ġplans": 3007,
      "Ġwarm": 3008,
      "Ġgives": 3009,
      "Ġheard": 3010,
      "gar": 3011,
      "Ġaverage": 3012,
      "Ġfavorite": 3013,
      "Ġrent": 3014,
      "Ġsource": 3015,
      "Ġexpert": 3016,
      "Ġlab": 3017,
      "asons": 3018,
      "Ġdevice": 3019,
      "aged": 3020,
      "Ġrestaur": 3021,
      "iction": 3022,
      "earch": 3023,
      "ĠMon": 3024,
      "ĠFrom": 3025,
      "urb": 3026,
      "Ġresources": 3027,
      "Ġrev": 3028,
      "Ġpull": 3029,
      "OS": 3030,
      "Ġattempt": 3031,
      "isf": 3032,
      "__": 3033,
      "Ġfine": 3034,
      "org": 3035,
      "Ġgar": 3036,
      "mark": 3037,
      "Ġstreng": 3038,
      "Re": 3039,
      "cast": 3040,
      "Ġbenefits": 3041,
      "Ġnature": 3042,
      "ĠKing": 3043,
      "lim": 3044,
      "Ġdiv": 3045,
      "apan": 3046,
      "ences": 3047,
      "Ġbur": 3048,
      "Ġthinking": 3049,
      "Ġgroups": 3050,
      "Ġqual": 3051,
      "rs": 3052,
      "itation": 3053,
      "Ġboy": 3054,
      "Ġcapt": 3055,
      "Ġsale": 3056,
      "Ġslow": 3057,
      "ĠDav": 3058,
      "Ġmobile": 3059,
      "Ġessential": 3060,
      "inary": 3061,
      "board": 3062,
      "ĠPlease": 3063,
      "Ġsafety": 3064,
      "Ġsend": 3065,
      "yond": 3066,
      "Ġcompletely": 3067,
      "wise": 3068,
      "ague": 3069,
      "attle": 3070,
      "Ġsometimes": 3071,
      "ky": 3072,
      "ened": 3073,
      "Ġlanguage": 3074,
      "Ġcomplex": 3075,
      "ĠWind": 3076,
      "Ġinflu": 3077,
      "Ġdise": 3078,
      "Ġten": 3079,
      "Ġep": 3080,
      "AM": 3081,
      "Ġimplement": 3082,
      "usion": 3083,
      "Ġfully": 3084,
      "ĠDay": 3085,
      "Ġcat": 3086,
      "itely": 3087,
      "verse": 3088,
      "Ġplaying": 3089,
      "Ġlegal": 3090,
      "Ġbi": 3091,
      "Ġsolutions": 3092,
      "Ġreach": 3093,
      "Ġled": 3094,
      "ĠInternational": 3095,
      "Ġdocument": 3096,
      "Ġconcept": 3097,
      "Ġdigital": 3098,
      "Ġwoman": 3099,
      "Ġfeet": 3100,
      "ĠWas": 3101,
      "Ġextreme": 3102,
      "Ġheat": 3103,
      "Ġtowards": 3104,
      "ĠAdd": 3105,
      "Ġgoes": 3106,
      "AP": 3107,
      "Ġmultiple": 3108,
      "Ġded": 3109,
      "arter": 3110,
      "orge": 3111,
      "Ġregist": 3112,
      "Ġtraditional": 3113,
      "king": 3114,
      "Ġcommit": 3115,
      "onse": 3116,
      "vey": 3117,
      "ara": 3118,
      "Ġhour": 3119,
      "Ġimages": 3120,
      "Ġhit": 3121,
      "Ġinteresting": 3122,
      "iles": 3123,
      "Ġhelps": 3124,
      "Ġconnect": 3125,
      "Ġconsidered": 3126,
      "aches": 3127,
      "Ġfair": 3128,
      "Ġprevent": 3129,
      "Ġwrong": 3130,
      "Ġsleep": 3131,
      "Ġeye": 3132,
      "Ġdeveloped": 3133,
      "ĠMus": 3134,
      "Ġfurn": 3135,
      "ams": 3136,
      "Ġpolitical": 3137,
      "ãģ": 3138,
      "Ġglobal": 3139,
      "ica": 3140,
      "Ġmid": 3141,
      "ett": 3142,
      "Ġpicture": 3143,
      "Ġcommercial": 3144,
      "su": 3145,
      "Ġorganization": 3146,
      "ĠInt": 3147,
      "Ġ:": 3148,
      "right": 3149,
      "itable": 3150,
      "Ġbrought": 3151,
      "Ġhous": 3152,
      "Ġdry": 3153,
      "Ġoffe": 3154,
      "imately": 3155,
      "Ġcarry": 3156,
      "That": 3157,
      "aly": 3158,
      "mon": 3159,
      "ĠSan": 3160,
      "Ġaware": 3161,
      "ny": 3162,
      "Ġplanning": 3163,
      "Ġpred": 3164,
      "ĠAc": 3165,
      "uses": 3166,
      "Ġdepart": 3167,
      "ĠAut": 3168,
      "ĠBro": 3169,
      "Ġplaces": 3170,
      "Ġbag": 3171,
      "ĠOf": 3172,
      "Ġprices": 3173,
      "oul": 3174,
      "off": 3175,
      "alt": 3176,
      "Ġtrip": 3177,
      "Be": 3178,
      "Ġconsist": 3179,
      "zz": 3180,
      "ĠFeb": 3181,
      "Ġprec": 3182,
      "itary": 3183,
      "ĠJuly": 3184,
      "Ġcourt": 3185,
      "Ġpositive": 3186,
      "Do": 3187,
      "ĠJanuary": 3188,
      "ĠIndia": 3189,
      "Ġlic": 3190,
      "Ġmachine": 3191,
      "isions": 3192,
      "Ġson": 3193,
      "Ġblock": 3194,
      "ĠMore": 3195,
      "ĠBlack": 3196,
      "Ġachieve": 3197,
      "iture": 3198,
      "ris": 3199,
      "Ġ*": 3200,
      "edding": 3201,
      "oe": 3202,
      "Ġcert": 3203,
      "Ðµ": 3204,
      "ilies": 3205,
      "mission": 3206,
      "Ġbirth": 3207,
      "Ġdream": 3208,
      "ville": 3209,
      "Ġfell": 3210,
      "Ġinstru": 3211,
      "ĠAssoci": 3212,
      "ĠAcc": 3213,
      "Ġnote": 3214,
      "ĠSeptember": 3215,
      "Ġrights": 3216,
      "band": 3217,
      "Ġwish": 3218,
      "sp": 3219,
      "cember": 3220,
      "izes": 3221,
      "uk": 3222,
      "Ġ...": 3223,
      "Ġinnov": 3224,
      "One": 3225,
      "oming": 3226,
      "Ġrequirements": 3227,
      "ĠHealth": 3228,
      "Ġge": 3229,
      "lied": 3230,
      "Ġdress": 3231,
      "Ġfirm": 3232,
      "igation": 3233,
      "Ġexpected": 3234,
      "Ġtried": 3235,
      "agn": 3236,
      "Ġpublished": 3237,
      "iling": 3238,
      "Ġsuccessful": 3239,
      "Ġpropos": 3240,
      "ength": 3241,
      "unt": 3242,
      "Ġphotos": 3243,
      "Ġlimited": 3244,
      "Ġdead": 3245,
      "Ġter": 3246,
      "ying": 3247,
      "ĠOctober": 3248,
      "Ġjud": 3249,
      "Ġstru": 3250,
      "ography": 3251,
      "Ġavoid": 3252,
      "hest": 3253,
      "urt": 3254,
      "Ġtick": 3255,
      "ĠAugust": 3256,
      "Ġwel": 3257,
      "ovember": 3258,
      "ĠSer": 3259,
      "Ġdire": 3260,
      "Ġfarm": 3261,
      "Ġneigh": 3262,
      "Ġobtain": 3263,
      "Ġrelease": 3264,
      "Ġsites": 3265,
      "Ġhistor": 3266,
      "Ġsus": 3267,
      "Ġcorrect": 3268,
      "aries": 3269,
      "Ġmoving": 3270,
      "artment": 3271,
      "Ġcampaign": 3272,
      "Ġdeliver": 3273,
      "bert": 3274,
      "raft": 3275,
      "iforn": 3276,
      "Ġimag": 3277,
      "âĢĿ.": 3278,
      "Ġple": 3279,
      "idents": 3280,
      "ĠHere": 3281,
      "ĠChina": 3282,
      "ari": 3283,
      "ibly": 3284,
      "antly": 3285,
      "Ġcelebr": 3286,
      "Ġdru": 3287,
      "Ġphysical": 3288,
      "ĠJapan": 3289,
      "Ġconsult": 3290,
      "ĠTV": 3291,
      "ĠRed": 3292,
      "aint": 3293,
      "ĠPresident": 3294,
      "Ġprem": 3295,
      "Ġbroad": 3296,
      "Ġimpress": 3297,
      "Sh": 3298,
      "Ġinterested": 3299,
      "Ġapart": 3300,
      "Ġsituation": 3301,
      "itect": 3302,
      "Ġexactly": 3303,
      "Ġconvers": 3304,
      "Ġcreating": 3305,
      "ĠGoogle": 3306,
      "ption": 3307,
      "Ġtal": 3308,
      "Ġadvant": 3309,
      "aught": 3310,
      "chan": 3311,
      "ING": 3312,
      "Ġprogress": 3313,
      "cies": 3314,
      "ato": 3315,
      "No": 3316,
      "sequ": 3317,
      "Ġclient": 3318,
      "Ġregion": 3319,
      "ĠGl": 3320,
      "Ġacqu": 3321,
      "LE": 3322,
      "ĠSim": 3323,
      "Ġpromot": 3324,
      "Ġsubst": 3325,
      "Ġpurpose": 3326,
      "enge": 3327,
      "fl": 3328,
      "key": 3329,
      "Ġfeeling": 3330,
      "undred": 3331,
      "Ġanalysis": 3332,
      "Ġpattern": 3333,
      "Ġclub": 3334,
      "rast": 3335,
      "Ġtemper": 3336,
      "OM": 3337,
      "ifornia": 3338,
      "Ġviol": 3339,
      "Ġplayed": 3340,
      "Ġeat": 3341,
      "itute": 3342,
      "ĠCoun": 3343,
      "ĠDis": 3344,
      "Ġconstruction": 3345,
      "Ġdro": 3346,
      "ĠGener": 3347,
      "Ġindividuals": 3348,
      "Ġvoice": 3349,
      "Ġfrequ": 3350,
      "Ġgrowing": 3351,
      "Ð¾": 3352,
      "Ġadminist": 3353,
      "Ġspend": 3354,
      "Ġspot": 3355,
      "ida": 3356,
      "Ġfight": 3357,
      "ecause": 3358,
      "Ġstarting": 3359,
      "Ġmax": 3360,
      "She": 3361,
      "ores": 3362,
      "Ġaccom": 3363,
      "Ġunderstanding": 3364,
      "Ġapplications": 3365,
      "het": 3366,
      "Ġpartners": 3367,
      "After": 3368,
      "ĠPat": 3369,
      "pre": 3370,
      "Ġaim": 3371,
      "olute": 3372,
      "Ġprevious": 3373,
      "Ġload": 3374,
      "aker": 3375,
      "arant": 3376,
      "dom": 3377,
      "ĠDecember": 3378,
      "ST": 3379,
      "Ġ--": 3380,
      "Ġwonderful": 3381,
      "Ġaff": 3382,
      "Ġsupply": 3383,
      "anch": 3384,
      "Ġreleased": 3385,
      "Ġcopy": 3386,
      "Ġaltern": 3387,
      "ederal": 3388,
      "Ġwait": 3389,
      "Ġdecor": 3390,
      "Ġeffort": 3391,
      "body": 3392,
      "reci": 3393,
      "ils": 3394,
      "Ġprofession": 3395,
      "usiness": 3396,
      "Ġvehicle": 3397,
      "ĠNovember": 3398,
      "ĠDirect": 3399,
      "Ġactivity": 3400,
      "Ġbusinesses": 3401,
      "Ġbehav": 3402,
      "ĠGreat": 3403,
      "Ġstorage": 3404,
      "useum": 3405,
      "Ġdifference": 3406,
      "Ġexerc": 3407,
      "Ġstrateg": 3408,
      "Ġroll": 3409,
      "Ġexecut": 3410,
      "ester": 3411,
      "rel": 3412,
      "wor": 3413,
      ".'": 3414,
      "ulations": 3415,
      "Ġthous": 3416,
      "Ġmessage": 3417,
      "Ġband": 3418,
      "zy": 3419,
      "arily": 3420,
      "Ġsurround": 3421,
      "ĠGroup": 3422,
      "Ġvac": 3423,
      "Ġspent": 3424,
      "apter": 3425,
      "Ġbudget": 3426,
      "ooth": 3427,
      "Ġemployees": 3428,
      "ĠCour": 3429,
      "ĠEvery": 3430,
      "Ġresponse": 3431,
      "Ġstress": 3432,
      "ray": 3433,
      "Ġorganiz": 3434,
      "Ġbeyond": 3435,
      "mm": 3436,
      "Ġsatisf": 3437,
      "pite": 3438,
      "Ġcold": 3439,
      "ĠAN": 3440,
      "Ġfab": 3441,
      "ĠChristmas": 3442,
      "Ġgets": 3443,
      "ĠMich": 3444,
      "aughter": 3445,
      "ĠCons": 3446,
      "ĠHome": 3447,
      "Ġstage": 3448,
      "Ġappropri": 3449,
      "ancy": 3450,
      "Ġhotel": 3451,
      "ĠLa": 3452,
      "ĠDesign": 3453,
      "ĠMost": 3454,
      "ications": 3455,
      "uate": 3456,
      "bum": 3457,
      "Ġvill": 3458,
      "Ġgas": 3459,
      "Ġbeginning": 3460,
      "ĠCalifornia": 3461,
      "Ġhosp": 3462,
      "ĠEar": 3463,
      "inner": 3464,
      "Ġoffered": 3465,
      "error": 3466,
      "Ġcertainly": 3467,
      "Ġ**": 3468,
      "add": 3469,
      "ĠNet": 3470,
      "ĠBritish": 3471,
      "Ġhealthy": 3472,
      "ĠFrench": 3473,
      "Ġserve": 3474,
      "ĠService": 3475,
      "erved": 3476,
      "Ġblue": 3477,
      "Ġborn": 3478,
      "Ġmoved": 3479,
      "Ġpaid": 3480,
      "Ġopportunities": 3481,
      "Ġfamilies": 3482,
      "Ġver": 3483,
      "estern": 3484,
      "sych": 3485,
      "Ġstuff": 3486,
      "Ġreve": 3487,
      "Ġassess": 3488,
      "Ġult": 3489,
      "ĠEven": 3490,
      "Ġloved": 3491,
      "asc": 3492,
      "Ġuses": 3493,
      "Ġframe": 3494,
      "ĠCommun": 3495,
      "Ġsurface": 3496,
      "ĠLet": 3497,
      "Ġoccur": 3498,
      "Ġalone": 3499,
      "ĠII": 3500,
      "Ġrock": 3501,
      "iced": 3502,
      "ĠBook": 3503,
      "Ġspirit": 3504,
      "ruary": 3505,
      "Ġund": 3506,
      "tee": 3507,
      "Ġcontain": 3508,
      "Ġdemand": 3509,
      "Ġsubs": 3510,
      "Ġindepend": 3511,
      "Ġsort": 3512,
      "ĠSund": 3513,
      "ĠFace": 3514,
      "unk": 3515,
      "Ġdefe": 3516,
      "ares": 3517,
      "Ġguide": 3518,
      "ibrary": 3519,
      "Ġgoals": 3520,
      "Ġlack": 3521,
      "Ġcontribut": 3522,
      "ĠJes": 3523,
      "Ġpictures": 3524,
      "EC": 3525,
      "Ġculture": 3526,
      "Ġdog": 3527,
      "Ġcup": 3528,
      "Ġpressure": 3529,
      "ĠEast": 3530,
      "ald": 3531,
      "Ġdefinitely": 3532,
      "Ġweeke": 3533,
      "ivil": 3534,
      "Ġfinally": 3535,
      "oms": 3536,
      "ET": 3537,
      "Ġcab": 3538,
      "ID": 3539,
      "ĠRuss": 3540,
      "Ġsoc": 3541,
      "Ġcash": 3542,
      "ĠAlso": 3543,
      "Ġafford": 3544,
      "que": 3545,
      "rial": 3546,
      "Ġhundred": 3547,
      "Ġshown": 3548,
      "oly": 3549,
      "Ġdamage": 3550,
      "Ġaward": 3551,
      "Ġentry": 3552,
      "Ġcateg": 3553,
      "ties": 3554,
      "Ġstraight": 3555,
      "rote": 3556,
      "Ġinvestment": 3557,
      "Ġlog": 3558,
      "ĠPre": 3559,
      "ĠStreet": 3560,
      "ĠFirst": 3561,
      "Ġinitial": 3562,
      "ĠDepartment": 3563,
      "pa": 3564,
      "ously": 3565,
      "Ġinterview": 3566,
      "Ġaspect": 3567,
      "ĠAre": 3568,
      "ka": 3569,
      "Ġcharge": 3570,
      "Ġbenefit": 3571,
      "house": 3572,
      "Ġschools": 3573,
      "Ġwindow": 3574,
      "iant": 3575,
      "Ġappoint": 3576,
      "gen": 3577,
      "ani": 3578,
      "set": 3579,
      "ses": 3580,
      "Ġmeaning": 3581,
      "Ġoffering": 3582,
      "Ġadult": 3583,
      "Ġtransport": 3584,
      "Ġdistribut": 3585,
      "Ġanaly": 3586,
      "Ġtransfer": 3587,
      "Ġnut": 3588,
      "Ġreported": 3589,
      "Ġshop": 3590,
      "ĠTrans": 3591,
      "lock": 3592,
      "Ġtrade": 3593,
      "Ġmer": 3594,
      "Ġimmediately": 3595,
      "Ġphoto": 3596,
      "Ġposted": 3597,
      "Ġcompon": 3598,
      "col": 3599,
      "Ġchurch": 3600,
      "ulated": 3601,
      "field": 3602,
      "Ġcouldn": 3603,
      "mitted": 3604,
      "Ġdemon": 3605,
      "olf": 3606,
      "ferences": 3607,
      "ategy": 3608,
      "Ġble": 3609,
      "ĠTHE": 3610,
      "Ġeffects": 3611,
      "Ġstories": 3612,
      "Ġparticularly": 3613,
      "iment": 3614,
      "Ġactive": 3615,
      "ashion": 3616,
      "Ġprefer": 3617,
      "icate": 3618,
      "Ġsaying": 3619,
      "Ġemot": 3620,
      "Ġpages": 3621,
      "Ġserved": 3622,
      "Ġalthough": 3623,
      "Ġreplace": 3624,
      "Ġenh": 3625,
      "Ġlines": 3626,
      "formation": 3627,
      "Ġeasier": 3628,
      "Ġprinc": 3629,
      "Ġliter": 3630,
      "Ġbasis": 3631,
      "umn": 3632,
      "Ġwife": 3633,
      "atever": 3634,
      "Ġeconomic": 3635,
      "nded": 3636,
      "ĠEuropean": 3637,
      "Ġcapital": 3638,
      "Ġcomment": 3639,
      "ĠJe": 3640,
      "ronic": 3641,
      "Ġdegree": 3642,
      "Ġdoub": 3643,
      "ĠCollege": 3644,
      "Ġincreasing": 3645,
      "Ġfollowed": 3646,
      "etic": 3647,
      "Ġcentury": 3648,
      "Ġnearly": 3649,
      "Ġvict": 3650,
      "EL": 3651,
      "ĠSch": 3652,
      "Ġsmart": 3653,
      "Ġbreat": 3654,
      "ĠCompany": 3655,
      "change": 3656,
      "ĠFree": 3657,
      "ĠIN": 3658,
      "Ġchanged": 3659,
      "iation": 3660,
      "ager": 3661,
      "Ġexperienced": 3662,
      "Ġrates": 3663,
      "place": 3664,
      "Is": 3665,
      "Ġestablished": 3666,
      "Ġassociated": 3667,
      "Ġwhose": 3668,
      "Ġpen": 3669,
      "Ġfat": 3670,
      "Cl": 3671,
      "Ġbaby": 3672,
      "Ġsetting": 3673,
      "Ġpool": 3674,
      "Ġbasic": 3675,
      "ipped": 3676,
      "Ġplayer": 3677,
      "Ġappreci": 3678,
      "Ġproced": 3679,
      "iny": 3680,
      "Ġoccas": 3681,
      "Ġadvice": 3682,
      "ĠFebruary": 3683,
      "vis": 3684,
      "Ġrespond": 3685,
      "porate": 3686,
      "Ġowners": 3687,
      "ĠPort": 3688,
      "ords": 3689,
      "ĠIndian": 3690,
      "inated": 3691,
      "ĠPal": 3692,
      "Ġcoffe": 3693,
      "Ġing": 3694,
      "Ġunit": 3695,
      "ipping": 3696,
      "Ġstructure": 3697,
      "lands": 3698,
      "more": 3699,
      "Ġadjust": 3700,
      "Ġcru": 3701,
      "Ġuseful": 3702,
      "Ġbow": 3703,
      "Ġreduce": 3704,
      "Ġincreased": 3705,
      "iber": 3706,
      "IL": 3707,
      "Ġpow": 3708,
      "Ġdouble": 3709,
      "Ġtruly": 3710,
      "ĠFriday": 3711,
      "ĠTechn": 3712,
      "Ex": 3713,
      "Ġinternet": 3714,
      "Ġwild": 3715,
      "ĠMet": 3716,
      "Ġperhaps": 3717,
      "Ð°": 3718,
      "Ġmiles": 3719,
      "Ġtrain": 3720,
      "oday": 3721,
      "Ġjoin": 3722,
      "icip": 3723,
      "Ġdevices": 3724,
      "ault": 3725,
      "bed": 3726,
      "Ph": 3727,
      "itter": 3728,
      "ĠSee": 3729,
      "Ġcove": 3730,
      "sec": 3731,
      "Ġgone": 3732,
      "Ġcollege": 3733,
      "Ġoverall": 3734,
      "Ġmiddle": 3735,
      "ĠMod": 3736,
      "Ġlargest": 3737,
      "Ġproduce": 3738,
      "Ġfear": 3739,
      "Ġmaybe": 3740,
      "ĠLaw": 3741,
      "Ġhop": 3742,
      "well": 3743,
      "yn": 3744,
      "Ġlength": 3745,
      "Ġmeasure": 3746,
      "Ġhtt": 3747,
      "Ġnumbers": 3748,
      "Ġstates": 3749,
      "omen": 3750,
      "porary": 3751,
      "aling": 3752,
      "ĠCanada": 3753,
      "Ġhighest": 3754,
      "Ġbottom": 3755,
      "Ġlots": 3756,
      "Ġvot": 3757,
      "reed": 3758,
      "ube": 3759,
      "urning": 3760,
      "Ġfra": 3761,
      "Ġlinks": 3762,
      "ĠBra": 3763,
      "Ġsweet": 3764,
      "Ġcomfortable": 3765,
      "aturday": 3766,
      "ĠSystem": 3767,
      "Ġreflect": 3768,
      "Ġpatient": 3769,
      "Ġcompleted": 3770,
      "Ġhomes": 3771,
      "Ġletter": 3772,
      "Ġguarant": 3773,
      "Ġresponsible": 3774,
      "Ġfru": 3775,
      "Ġalbum": 3776,
      "see": 3777,
      "Ġgift": 3778,
      "Ġadvert": 3779,
      "Ġallowed": 3780,
      "Ġgrand": 3781,
      "Ġweather": 3782,
      "ĠServices": 3783,
      "Ġpet": 3784,
      "vest": 3785,
      "Ġmis": 3786,
      "Ġregarding": 3787,
      "istry": 3788,
      "ternal": 3789,
      "ĠCr": 3790,
      "Ġremain": 3791,
      "lies": 3792,
      "They": 3793,
      "bon": 3794,
      "Ġattract": 3795,
      "Ġcoffee": 3796,
      "Ġexisting": 3797,
      "pm": 3798,
      "Ġevidence": 3799,
      "Ġabsolute": 3800,
      "ancing": 3801,
      "itude": 3802,
      "Ġnotice": 3803,
      ".)": 3804,
      "PS": 3805,
      "Ġkept": 3806,
      "ĠProf": 3807,
      "idential": 3808,
      "wide": 3809,
      "!\"": 3810,
      "ĠOut": 3811,
      "amm": 3812,
      "anging": 3813,
      "Ġforce": 3814,
      "ĠFacebook": 3815,
      "hens": 3816,
      "ĠMany": 3817,
      "Ġgreater": 3818,
      "Ġnormal": 3819,
      "Ġtoward": 3820,
      "Ġstar": 3821,
      "Ġstation": 3822,
      "Ġstick": 3823,
      "Ġconv": 3824,
      "Ġnation": 3825,
      "Ġonto": 3826,
      "ady": 3827,
      "Ġdelivery": 3828,
      "Ġideal": 3829,
      "Ġslight": 3830,
      "Ġsteps": 3831,
      "ĠSunday": 3832,
      "Ġhus": 3833,
      "EO": 3834,
      "Ġpowerful": 3835,
      "Ġstudies": 3836,
      "Ġreasons": 3837,
      "Ġwedding": 3838,
      "AD": 3839,
      "Ġpieces": 3840,
      "Ġearlier": 3841,
      "Ġfiles": 3842,
      "Ġdoll": 3843,
      "ĠJesus": 3844,
      "ĠRec": 3845,
      "arc": 3846,
      "istics": 3847,
      "ĠÂ£": 3848,
      "Ġaccur": 3849,
      "orrow": 3850,
      "Ġtrou": 3851,
      "ĠIr": 3852,
      "ĠThanks": 3853,
      "ken": 3854,
      "arr": 3855,
      "lation": 3856,
      "Ġfinish": 3857,
      "Ġpeace": 3858,
      "overed": 3859,
      "Ġpoor": 3860,
      "Ġseemed": 3861,
      "ker": 3862,
      "Ġdisease": 3863,
      "ael": 3864,
      "imal": 3865,
      "omb": 3866,
      "Ġpopulation": 3867,
      "Ġmanufacture": 3868,
      "iques": 3869,
      "pen": 3870,
      "rey": 3871,
      "ĠBel": 3872,
      "Ġhelped": 3873,
      "hington": 3874,
      "Ġspread": 3875,
      "Ġnamed": 3876,
      "nown": 3877,
      "ament": 3878,
      "Ġscience": 3879,
      "Ġeight": 3880,
      "duc": 3881,
      "order": 3882,
      "enior": 3883,
      "Ġscient": 3884,
      "ĠPaul": 3885,
      "hol": 3886,
      "Ġsurv": 3887,
      "Ġlik": 3888,
      "Ġthank": 3889,
      "Ġinstitut": 3890,
      "atively": 3891,
      "Ġclot": 3892,
      "Ġelectric": 3893,
      "ĠRem": 3894,
      "la": 3895,
      "ĠWhite": 3896,
      "ĠMac": 3897,
      "Ġstrength": 3898,
      "Ġlarger": 3899,
      "iled": 3900,
      "Ġcry": 3901,
      "Ġmovie": 3902,
      "oman": 3903,
      "\",": 3904,
      "Ġthreat": 3905,
      "Ġahead": 3906,
      "Ġappropriate": 3907,
      "ĠOther": 3908,
      "venue": 3909,
      "ĠAustralia": 3910,
      "Ġrepair": 3911,
      "Ġtitle": 3912,
      "Ġrace": 3913,
      "Ġpolice": 3914,
      "Ġannual": 3915,
      "ĠWell": 3916,
      "Ġextremely": 3917,
      "ustr": 3918,
      "ĠCle": 3919,
      "door": 3920,
      "Ġgarden": 3921,
      "Ġmechan": 3922,
      "Ġfinished": 3923,
      "Ġextend": 3924,
      "Ġcast": 3925,
      "Ġhelping": 3926,
      "Ġden": 3927,
      "ounds": 3928,
      "Ġcandid": 3929,
      "inate": 3930,
      "ading": 3931,
      "Ġbrother": 3932,
      "Ġprotection": 3933,
      "Ġthanks": 3934,
      "Ġbackground": 3935,
      "Ġincome": 3936,
      "Ġrelig": 3937,
      "inger": 3938,
      "rows": 3939,
      "dule": 3940,
      "ĠWilliam": 3941,
      "ico": 3942,
      "Ġselection": 3943,
      "ĠInternet": 3944,
      "ĠJack": 3945,
      "ĠGold": 3946,
      "Ġheavy": 3947,
      "Ġmaster": 3948,
      "ION": 3949,
      "ae": 3950,
      "):": 3951,
      "ĠBusiness": 3952,
      "ĠPri": 3953,
      "oices": 3954,
      "Ġcovered": 3955,
      "ĠSaturday": 3956,
      "leg": 3957,
      "Ġweekend": 3958,
      "Ġstrategy": 3959,
      "ulf": 3960,
      "US": 3961,
      "Ġcontinu": 3962,
      "Ġrules": 3963,
      "Ġtalking": 3964,
      "ĠAnt": 3965,
      "mp": 3966,
      "Ġpayment": 3967,
      "Ġmethods": 3968,
      "Ġexhib": 3969,
      "Ġstrugg": 3970,
      "Ġcollabor": 3971,
      "Ġserious": 3972,
      "Ġteams": 3973,
      "Ġmodels": 3974,
      "ĠCouncil": 3975,
      "Ġrelax": 3976,
      "rapy": 3977,
      "ĠDel": 3978,
      "Ġclin": 3979,
      "TM": 3980,
      "ĠGovern": 3981,
      "ĠDist": 3982,
      "Ġgenerally": 3983,
      "eds": 3984,
      "Ġplus": 3985,
      "ĠGet": 3986,
      "Ġwrote": 3987,
      "rant": 3988,
      "acity": 3989,
      "Ġchallenge": 3990,
      "Ġdang": 3991,
      "Ġsust": 3992,
      "rief": 3993,
      "ĠMor": 3994,
      "Ġbedroom": 3995,
      "Ġjourney": 3996,
      "Ġchem": 3997,
      "Ġtherefore": 3998,
      "ologies": 3999,
      "lying": 4000,
      "Ġopened": 4001,
      "ĠInter": 4002,
      "ĠDavid": 4003,
      "Ġwat": 4004,
      "ĠGreen": 4005,
      "Ġsand": 4006,
      "Ġcreative": 4007,
      "ĠChurch": 4008,
      "Ġmovement": 4009,
      "ls": 4010,
      "aled": 4011,
      "inter": 4012,
      "Ġpassed": 4013,
      "Ġwine": 4014,
      "Ġcompared": 4015,
      "Ġannounced": 4016,
      "Ġeval": 4017,
      "Ġefficient": 4018,
      "Ġwants": 4019,
      "Now": 4020,
      "Ġbatter": 4021,
      "Ġfant": 4022,
      "Ġreli": 4023,
      "ixt": 4024,
      "ĠUs": 4025,
      "Ġpaint": 4026,
      "ĠAny": 4027,
      "ĠAssociation": 4028,
      "ĠWindows": 4029,
      "ulate": 4030,
      "Ġdat": 4031,
      "force": 4032,
      "usive": 4033,
      "Ġshot": 4034,
      "Ġfurniture": 4035,
      "Pro": 4036,
      "Ġestate": 4037,
      "fast": 4038,
      "Ġproduced": 4039,
      "Ġexpand": 4040,
      "Ġcontinued": 4041,
      "Ġcards": 4042,
      "Ġidentify": 4043,
      "Ġrefer": 4044,
      "Ġflav": 4045,
      "ĠHall": 4046,
      "rig": 4047,
      "Ġsty": 4048,
      "Ġhappened": 4049,
      "Ġconnection": 4050,
      "Ġadvantage": 4051,
      "Ġutil": 4052,
      "Ġshoot": 4053,
      "atically": 4054,
      "Ġarchitect": 4055,
      "ĠUp": 4056,
      "Ġtree": 4057,
      "ĠBest": 4058,
      "Ġsecure": 4059,
      "ĠGood": 4060,
      "These": 4061,
      "Ġmilitary": 4062,
      "Ġsports": 4063,
      "men": 4064,
      "Ġreports": 4065,
      "ĠFlor": 4066,
      "Ġestablish": 4067,
      "ĠWhe": 4068,
      "IG": 4069,
      "ĠOnce": 4070,
      "Ġopin": 4071,
      "ĠRiver": 4072,
      "Ġviews": 4073,
      "Ġmill": 4074,
      "ios": 4075,
      "ĠHot": 4076,
      "OL": 4077,
      "Ġevening": 4078,
      "âĢ¢": 4079,
      "Ġresist": 4080,
      "hips": 4081,
      "Ġplaced": 4082,
      "inese": 4083,
      "Ġconven": 4084,
      "tered": 4085,
      "ĠWashington": 4086,
      "Ġhusband": 4087,
      "odes": 4088,
      "ago": 4089,
      "ston": 4090,
      "ĠHist": 4091,
      "Ġcit": 4092,
      "Ġbutton": 4093,
      "ĠSpr": 4094,
      "Ġrequires": 4095,
      "Ġsto": 4096,
      "ĠMond": 4097,
      "ĠEach": 4098,
      "roid": 4099,
      "Ġ+": 4100,
      "Ġmemory": 4101,
      "Ġwear": 4102,
      "Ġlearned": 4103,
      "Ġtim": 4104,
      "phone": 4105,
      "Ġdied": 4106,
      "Ġrooms": 4107,
      "Ġopening": 4108,
      "Ġseven": 4109,
      "rupt": 4110,
      "Ġexcl": 4111,
      "Ġefforts": 4112,
      "Ġdriving": 4113,
      "Ġbrain": 4114,
      "Ġmap": 4115,
      "Ġstream": 4116,
      "De": 4117,
      "unte": 4118,
      "Ġtruth": 4119,
      "Ġsouth": 4120,
      "Ġrepe": 4121,
      "ĠIS": 4122,
      "Ġir": 4123,
      "icing": 4124,
      "Ġfish": 4125,
      "Ġdelic": 4126,
      "tenance": 4127,
      "Ġdecl": 4128,
      "Ġmanage": 4129,
      "Ġtask": 4130,
      "ooking": 4131,
      "Ġsea": 4132,
      "Ġnames": 4133,
      "Ġchann": 4134,
      "Ġarm": 4135,
      "Ġharm": 4136,
      "Ġsuff": 4137,
      "Ġprimary": 4138,
      "apers": 4139,
      "Ġnorth": 4140,
      "Ġbathroom": 4141,
      "ij": 4142,
      "Ġfem": 4143,
      "IP": 4144,
      "Ġaren": 4145,
      "Ġ=": 4146,
      "yd": 4147,
      "Ġvirt": 4148,
      "ocr": 4149,
      "Ġfigure": 4150,
      "ĠIT": 4151,
      "raw": 4152,
      "Ġforms": 4153,
      "Ġdirection": 4154,
      "Ġseeing": 4155,
      "Ġfill": 4156,
      "osing": 4157,
      "ĠDec": 4158,
      "Ġcraft": 4159,
      "ĠEngland": 4160,
      "rael": 4161,
      "iers": 4162,
      "www": 4163,
      "Ġmeant": 4164,
      "Ġelements": 4165,
      "text": 4166,
      "ĠProgram": 4167,
      "Ġvalues": 4168,
      "Ġwinter": 4169,
      "Ġcamera": 4170,
      "Ġshape": 4171,
      "Ġcounter": 4172,
      "eared": 4173,
      "Ġcommunication": 4174,
      "Ġrich": 4175,
      "Ġincred": 4176,
      "ĠDem": 4177,
      "ĠCourt": 4178,
      "Ġactual": 4179,
      "Ġwaiting": 4180,
      "down": 4181,
      "Ġshared": 4182,
      "Ġpray": 4183,
      "term": 4184,
      "Ġsharing": 4185,
      "Ġrelev": 4186,
      "Ġdisapp": 4187,
      "Ġadop": 4188,
      "BC": 4189,
      "bu": 4190,
      "ĠGeneral": 4191,
      "inally": 4192,
      "Ġstreet": 4193,
      "Ġgraph": 4194,
      "semb": 4195,
      "Ġentertain": 4196,
      "Ġcritical": 4197,
      "Ġfinding": 4198,
      "Ġfaith": 4199,
      "Ġremove": 4200,
      "Ġpartner": 4201,
      "hem": 4202,
      "Ġdiet": 4203,
      "ĠWeb": 4204,
      "ĠSuper": 4205,
      "Ġwww": 4206,
      "Ġowner": 4207,
      "Ġspring": 4208,
      "ellow": 4209,
      "Ġflex": 4210,
      "eria": 4211,
      "cription": 4212,
      "Ġtraffic": 4213,
      "Ġjobs": 4214,
      "Ġearth": 4215,
      "ĠSince": 4216,
      "ĠPC": 4217,
      "Ġcolle": 4218,
      "Ġpros": 4219,
      "ĠBoard": 4220,
      "Â®": 4221,
      "Ġexperiences": 4222,
      "Ġorganizations": 4223,
      "Ġcentral": 4224,
      "Ġprepared": 4225,
      "Ġmission": 4226,
      "Ġroof": 4227,
      "Ġassign": 4228,
      "Ġmist": 4229,
      "Ġdemonstr": 4230,
      "acing": 4231,
      "Ġwouldn": 4232,
      "ula": 4233,
      "Ġmetal": 4234,
      "ander": 4235,
      "inct": 4236,
      "ĠClub": 4237,
      "ĠTex": 4238,
      "estival": 4239,
      "Ġsolid": 4240,
      "While": 4241,
      "ads": 4242,
      "Ġhandle": 4243,
      "Ġice": 4244,
      "Ġhar": 4245,
      "Ġtechnical": 4246,
      "Ġsociety": 4247,
      "ribute": 4248,
      "ĠYear": 4249,
      "roud": 4250,
      "Ġthus": 4251,
      "Ġbeg": 4252,
      "ĠEduc": 4253,
      "Ġapprox": 4254,
      "Ġreviews": 4255,
      "coming": 4256,
      "Ġsteel": 4257,
      "esome": 4258,
      "ym": 4259,
      "orial": 4260,
      "Ġtom": 4261,
      "Ġcontains": 4262,
      "Ġpleas": 4263,
      "Ġtend": 4264,
      "à¤": 4265,
      "Ġunf": 4266,
      "pective": 4267,
      "Ġcells": 4268,
      "ĠFound": 4269,
      "ĠJames": 4270,
      "Ġacadem": 4271,
      "Ġcancer": 4272,
      "iable": 4273,
      "Ġunc": 4274,
      "ĠLord": 4275,
      "Ġstandards": 4276,
      "ero": 4277,
      "Ġparties": 4278,
      "Ġdrop": 4279,
      "ĠRich": 4280,
      "standing": 4281,
      "Ġpresented": 4282,
      "Ġbright": 4283,
      "aven": 4284,
      "using": 4285,
      "agram": 4286,
      "ĠMary": 4287,
      "ĠAss": 4288,
      "works": 4289,
      "aming": 4290,
      "Ġdescribed": 4291,
      "Ġolder": 4292,
      "cel": 4293,
      "ĠChristian": 4294,
      "ĠOffice": 4295,
      "Ġfriendly": 4296,
      "za": 4297,
      "ervation": 4298,
      "Ġincor": 4299,
      "ĠSpe": 4300,
      "Ġnovel": 4301,
      "ommod": 4302,
      "udd": 4303,
      "Ġbalance": 4304,
      "ĠWhy": 4305,
      "Ġtips": 4306,
      "Ġsmooth": 4307,
      "Ġiniti": 4308,
      "Ġretail": 4309,
      "Ġbillion": 4310,
      "Ġdaughter": 4311,
      "oma": 4312,
      "Ġdetermine": 4313,
      "Ġadvanced": 4314,
      "EM": 4315,
      "ĠPlay": 4316,
      "Ġtag": 4317,
      "Ġpassion": 4318,
      "Ġkeeping": 4319,
      "Ġhaven": 4320,
      "Ġplants": 4321,
      "ech": 4322,
      "Ġclosed": 4323,
      "Ġexplore": 4324,
      "Ġexperts": 4325,
      "sey": 4326,
      "Ġobv": 4327,
      "Ġdy": 4328,
      "enses": 4329,
      "Ġstatement": 4330,
      "Ġaudience": 4331,
      "Ġforget": 4332,
      "Ġteaching": 4333,
      "Ġfashion": 4334,
      "enture": 4335,
      "Ġingred": 4336,
      "ĠPost": 4337,
      "Ġguid": 4338,
      "ĠDevelop": 4339,
      "Ġschedule": 4340,
      "rely": 4341,
      "ĠMem": 4342,
      "Ġdiscover": 4343,
      "ĠBay": 4344,
      "Not": 4345,
      "Ġshopping": 4346,
      "Ġluck": 4347,
      "Ġquarter": 4348,
      "ĠCam": 4349,
      "ado": 4350,
      "Ġcars": 4351,
      "ĠMonday": 4352,
      "Ġcolors": 4353,
      "pet": 4354,
      "ĠBer": 4355,
      "Ġflat": 4356,
      "press": 4357,
      "care": 4358,
      "Ġprofessionals": 4359,
      "Ġlimit": 4360,
      "Ġdedicated": 4361,
      "ĠJew": 4362,
      "Ġchair": 4363,
      "Ġdeveloping": 4364,
      "Ġpsych": 4365,
      "IM": 4366,
      "Ġship": 4367,
      "Ġfamous": 4368,
      "rab": 4369,
      "ĠResearch": 4370,
      "Ġegg": 4371,
      "ĠClass": 4372,
      "Ġlisted": 4373,
      "Ġbird": 4374,
      "ĠChinese": 4375,
      "itors": 4376,
      "Ġreached": 4377,
      "ĠBank": 4378,
      "riend": 4379,
      "Ġremind": 4380,
      "ĠRoad": 4381,
      "Ġoperations": 4382,
      "Un": 4383,
      "ĠOver": 4384,
      "ĠMag": 4385,
      "Ġstatus": 4386,
      "uated": 4387,
      "ĠJer": 4388,
      "Ġpal": 4389,
      "Ġchallenges": 4390,
      "reek": 4391,
      "eed": 4392,
      "Ġcloud": 4393,
      "Ġmotor": 4394,
      "Ġplenty": 4395,
      "ĠAnn": 4396,
      "ĠGerman": 4397,
      "icine": 4398,
      "ĠOb": 4399,
      "pan": 4400,
      "Ġwelcome": 4401,
      "ĠWork": 4402,
      "Ġdistance": 4403,
      "Ġcheap": 4404,
      "Ġseparate": 4405,
      "ĠLake": 4406,
      "Ġsmaller": 4407,
      "Com": 4408,
      "Ġmedium": 4409,
      "imb": 4410,
      "ĠMarket": 4411,
      "rees": 4412,
      "Ġselected": 4413,
      "Ġwhatever": 4414,
      "Ġfactors": 4415,
      "ĠMount": 4416,
      "iency": 4417,
      "Ġbecomes": 4418,
      "Ġfacilities": 4419,
      "Ġcleaning": 4420,
      "Ġclasses": 4421,
      "ĠIsrael": 4422,
      "Ġloan": 4423,
      "Ġdiscount": 4424,
      "Ġmo": 4425,
      "cket": 4426,
      "ĠSoc": 4427,
      "Ġdu": 4428,
      "Ġcrus": 4429,
      "Ġcalc": 4430,
      "Don": 4431,
      "rowd": 4432,
      "Ġsnow": 4433,
      "Ġtechniques": 4434,
      "olic": 4435,
      "encies": 4436,
      "craft": 4437,
      "itar": 4438,
      "ĠAnge": 4439,
      "icken": 4440,
      "Ġbeach": 4441,
      "akers": 4442,
      "Ġdirector": 4443,
      "Ġholiday": 4444,
      "isation": 4445,
      "ĠPlan": 4446,
      "Ġworkers": 4447,
      "Ġreality": 4448,
      "ĠCong": 4449,
      "Ġleader": 4450,
      "Please": 4451,
      "Ġsecret": 4452,
      "Ġcorner": 4453,
      "ask": 4454,
      "Ġimpl": 4455,
      "Ġsession": 4456,
      "Ġcommunities": 4457,
      "ĠAlthough": 4458,
      "Pl": 4459,
      "Ġreturned": 4460,
      "Ġrestaurant": 4461,
      "Ġcapacity": 4462,
      "Ġdriver": 4463,
      "fit": 4464,
      "Ġproperties": 4465,
      "Ġcream": 4466,
      "Ġserver": 4467,
      "ãĤ": 4468,
      "Ġtaste": 4469,
      "Ġadvance": 4470,
      "Ġhighlight": 4471,
      "outhern": 4472,
      "ĠSal": 4473,
      "overy": 4474,
      "ĠAfrica": 4475,
      "ĠRet": 4476,
      "Ġdinner": 4477,
      "Ġwaste": 4478,
      "Ġstone": 4479,
      "Ġleaving": 4480,
      "Ġupdate": 4481,
      "Ġtrees": 4482,
      "Ġscen": 4483,
      "oop": 4484,
      "Ġguests": 4485,
      "Here": 4486,
      "CC": 4487,
      "uration": 4488,
      "ror": 4489,
      "Ġforeign": 4490,
      "ĠPeople": 4491,
      "Ġmentioned": 4492,
      "Ġveget": 4493,
      "Ġrob": 4494,
      "ortunately": 4495,
      "Ġprincip": 4496,
      "Ġcharacters": 4497,
      "ss": 4498,
      "Ġanti": 4499,
      "Ġwire": 4500,
      "Ġnumerous": 4501,
      "asy": 4502,
      "ĠTexas": 4503,
      "ented": 4504,
      "ĠFlorida": 4505,
      "Ġgun": 4506,
      "Ġgall": 4507,
      "ĠMal": 4508,
      "inet": 4509,
      "ĠPress": 4510,
      "Ġearn": 4511,
      "free": 4512,
      "olate": 4513,
      "âĢĿ,": 4514,
      "Ġgain": 4515,
      "Ġexercise": 4516,
      "Ġaccommod": 4517,
      "ĠThank": 4518,
      "ĠMiss": 4519,
      "ĠSupp": 4520,
      "Ġfootball": 4521,
      "Ġtesting": 4522,
      "Ġtemperature": 4523,
      "icon": 4524,
      "tra": 4525,
      "ception": 4526,
      "ĠManagement": 4527,
      "Ġvision": 4528,
      "Ġremains": 4529,
      "Ġcomments": 4530,
      "Ġbul": 4531,
      "Ġbeauty": 4532,
      "uce": 4533,
      "Ġotherwise": 4534,
      "actions": 4535,
      "ĠSub": 4536,
      "ĠSam": 4537,
      "Ġpresence": 4538,
      "ĠMart": 4539,
      "Ġbecoming": 4540,
      "Ġinvestig": 4541,
      "Ġcompetition": 4542,
      "Ġesc": 4543,
      "Ġadding": 4544,
      "ĠInstitute": 4545,
      "Ġknows": 4546,
      "Ġfan": 4547,
      "Ġdoctor": 4548,
      "Ġspecies": 4549,
      "ails": 4550,
      "ĠIns": 4551,
      "gment": 4552,
      "ĠMicro": 4553,
      "Ġbill": 4554,
      "ius": 4555,
      "Ġfold": 4556,
      "ĠBecause": 4557,
      "Ġmaintenance": 4558,
      "Ġrelevant": 4559,
      "Ġarrange": 4560,
      "bl": 4561,
      "Ġgrant": 4562,
      "ona": 4563,
      "Ġdistrict": 4564,
      "Ġrank": 4565,
      "Ġpresident": 4566,
      "Ġminute": 4567,
      "New": 4568,
      "ĠOF": 4569,
      "Ġcaused": 4570,
      "Ġleaves": 4571,
      "ĠSk": 4572,
      "Ġtow": 4573,
      "Ġvisitors": 4574,
      "Ġflu": 4575,
      "ĠAv": 4576,
      "Ġcivil": 4577,
      "Ġmicro": 4578,
      "ishes": 4579,
      "Ġlock": 4580,
      "iliar": 4581,
      "Ġcalls": 4582,
      "Ġrain": 4583,
      "ĠArch": 4584,
      "Ġanc": 4585,
      "Ġfilled": 4586,
      "ocal": 4587,
      "Ġeconomy": 4588,
      "ĠRepublic": 4589,
      "ĠFore": 4590,
      "Ġoperating": 4591,
      "Ġdim": 4592,
      "osure": 4593,
      "Ġfunds": 4594,
      "ĠPhil": 4595,
      "ĠIsland": 4596,
      "ĠSun": 4597,
      "rian": 4598,
      "Ġbuying": 4599,
      "Ġsugar": 4600,
      "Ġraised": 4601,
      "Ġjump": 4602,
      "Ġconnected": 4603,
      "Why": 4604,
      "Ġcatch": 4605,
      "ĠDown": 4606,
      "Ġpractices": 4607,
      "Ġthick": 4608,
      "Ġwhom": 4609,
      "Ġsch": 4610,
      "Ġvisual": 4611,
      "rehens": 4612,
      "ĠLou": 4613,
      "Ġguess": 4614,
      "but": 4615,
      "Ġbiggest": 4616,
      "Ġedge": 4617,
      "box": 4618,
      "Ġscore": 4619,
      "Ġartist": 4620,
      "ampions": 4621,
      "Ġspect": 4622,
      "ĠLife": 4623,
      "Ġhom": 4624,
      "RO": 4625,
      "ĠThom": 4626,
      "Ġder": 4627,
      "Ġproud": 4628,
      "Ġconference": 4629,
      "TS": 4630,
      "Ġmagn": 4631,
      "Ġnor": 4632,
      "anta": 4633,
      "Ġunits": 4634,
      "Ġquiet": 4635,
      "Ġrat": 4636,
      "Ġlandsc": 4637,
      "Ġruns": 4638,
      "Ġformat": 4639,
      "Ġdecide": 4640,
      "Ġcombination": 4641,
      "ctors": 4642,
      "top": 4643,
      "ota": 4644,
      "night": 4645,
      "Ġfee": 4646,
      "Ġvan": 4647,
      "Ġanimals": 4648,
      "Ġindependent": 4649,
      "Ġpair": 4650,
      "ĠSur": 4651,
      "CH": 4652,
      "Ġmanaged": 4653,
      "Your": 4654,
      "soft": 4655,
      "Ġtrail": 4656,
      "Ġvolunte": 4657,
      "ĠBill": 4658,
      "bour": 4659,
      "Ġshowed": 4660,
      "alls": 4661,
      "Ġwalking": 4662,
      "Yes": 4663,
      "gency": 4664,
      "antic": 4665,
      "ĠWed": 4666,
      "Ġchanging": 4667,
      "ugg": 4668,
      "Ġcontem": 4669,
      "Ġthousands": 4670,
      "ĠSing": 4671,
      "ĠRock": 4672,
      "Ġseat": 4673,
      "azon": 4674,
      "Ġhappens": 4675,
      "Ġhelpful": 4676,
      "yer": 4677,
      "Ġlose": 4678,
      "ĠEv": 4679,
      "ĠFrance": 4680,
      "Ġdesigns": 4681,
      "ĠÃ": 4682,
      "ĠCare": 4683,
      "ĠST": 4684,
      "orthern": 4685,
      "Ġdrug": 4686,
      "Ġâ": 4687,
      "ship": 4688,
      "Ġoperation": 4689,
      "Ġworry": 4690,
      "Ġclassic": 4691,
      "Ġclearly": 4692,
      "ĠWater": 4693,
      "Ġsounds": 4694,
      "Ġrap": 4695,
      "Ġapplied": 4696,
      "Ġsources": 4697,
      "Ġexpensive": 4698,
      "Ġestim": 4699,
      "rical": 4700,
      "Ġlux": 4701,
      "Ġbought": 4702,
      "Ġthoughts": 4703,
      "Ġfans": 4704,
      "unning": 4705,
      "inding": 4706,
      "ĠAP": 4707,
      "Ġlaunch": 4708,
      "how": 4709,
      "Ġdesk": 4710,
      "Ġcore": 4711,
      "race": 4712,
      "Ġresidents": 4713,
      "MS": 4714,
      "ĠVol": 4715,
      "Ġdut": 4716,
      "ĠTy": 4717,
      "Con": 4718,
      "Ġconcent": 4719,
      "Ġshowing": 4720,
      "Ġsector": 4721,
      "rain": 4722,
      "Ġpackage": 4723,
      "Ġperformed": 4724,
      "Ġmanager": 4725,
      "UR": 4726,
      "Ġcompl": 4727,
      "asp": 4728,
      "Ġrecords": 4729,
      "ĠMat": 4730,
      "ĠNor": 4731,
      "Ġprocesses": 4732,
      "ooper": 4733,
      "Ġargu": 4734,
      "Ġwindows": 4735,
      "Ġmouth": 4736,
      "Ġessay": 4737,
      "Ġcrowd": 4738,
      "fr": 4739,
      "Ġslightly": 4740,
      "ĠRoy": 4741,
      "Ġagreement": 4742,
      "Ġmanner": 4743,
      "ĠMake": 4744,
      "Ġign": 4745,
      "osition": 4746,
      "Ġmajority": 4747,
      "Ġcolour": 4748,
      "Ġfederal": 4749,
      "Ġcommand": 4750,
      "Ġeth": 4751,
      "Ġhospital": 4752,
      "resp": 4753,
      "ĠSl": 4754,
      "ï¿": 4755,
      "cious": 4756,
      "ĠQue": 4757,
      "uled": 4758,
      "Ġconduct": 4759,
      "ya": 4760,
      "ga": 4761,
      "Ġcompar": 4762,
      "IV": 4763,
      "Ġprot": 4764,
      "ection": 4765,
      "Ġpolic": 4766,
      "Ġjoined": 4767,
      "crib": 4768,
      "Ġsustain": 4769,
      "Ġsets": 4770,
      "Ġindic": 4771,
      "ï¿½": 4772,
      "Ġsem": 4773,
      "Ġsquare": 4774,
      "ĠOh": 4775,
      "Ġdump": 4776,
      "with": 4777,
      "Ġscene": 4778,
      "itz": 4779,
      "ette": 4780,
      "Ġdatab": 4781,
      "osis": 4782,
      "Ġfol": 4783,
      "rd": 4784,
      "ĠMex": 4785,
      "Ġdocuments": 4786,
      "Ġmir": 4787,
      "ĠSa": 4788,
      "Ġdecisions": 4789,
      "ĠPet": 4790,
      "Ġfocused": 4791,
      "ãĥ": 4792,
      "icians": 4793,
      "iration": 4794,
      "Ġsav": 4795,
      "rim": 4796,
      "abilities": 4797,
      "Ġinstallation": 4798,
      "ĠCamp": 4799,
      "Ġspl": 4800,
      "active": 4801,
      "Ġplastic": 4802,
      "Ġsched": 4803,
      "Ġartists": 4804,
      "uries": 4805,
      "een": 4806,
      "ifying": 4807,
      "ĠMil": 4808,
      "Ġcitiz": 4809,
      "ĠBen": 4810,
      "ini": 4811,
      "Ð¸": 4812,
      "Ġcoverage": 4813,
      "ipp": 4814,
      "Ġconfig": 4815,
      "Ġtheme": 4816,
      "ĠMichael": 4817,
      "ĠLove": 4818,
      ");": 4819,
      "illa": 4820,
      "miss": 4821,
      "Ġmort": 4822,
      "Ġdescript": 4823,
      "Ġton": 4824,
      "ĠWood": 4825,
      "arge": 4826,
      "ursday": 4827,
      "uman": 4828,
      "Ġalternative": 4829,
      "ĠTheir": 4830,
      "ĠSil": 4831,
      "Ġwilling": 4832,
      "Ġencourage": 4833,
      "isco": 4834,
      "ĠPower": 4835,
      "hab": 4836,
      "Ġsurg": 4837,
      "estic": 4838,
      "Ġexcited": 4839,
      "Ġrecip": 4840,
      "Ġappears": 4841,
      "ĠGeorge": 4842,
      "Ġoptim": 4843,
      "Ġride": 4844,
      "Ġadapt": 4845,
      "Ġmaximum": 4846,
      "Ar": 4847,
      "amily": 4848,
      "Ġwatching": 4849,
      "igence": 4850,
      "NA": 4851,
      "nel": 4852,
      "Ġcities": 4853,
      "ĠGrand": 4854,
      "ĠDuring": 4855,
      "ĠEducation": 4856,
      "Ġselling": 4857,
      "Ġdiagn": 4858,
      "DA": 4859,
      "Ġoutdoor": 4860,
      "Ġenjoyed": 4861,
      "Ġtransform": 4862,
      "lor": 4863,
      "Ġcircum": 4864,
      "Ġoccup": 4865,
      "Ġisland": 4866,
      "Ġclaims": 4867,
      "uable": 4868,
      "Ġbrief": 4869,
      "osh": 4870,
      "Ġer": 4871,
      "Ġrecipe": 4872,
      "gal": 4873,
      "Ġgirls": 4874,
      "ifts": 4875,
      "Ġmenu": 4876,
      "Ġdining": 4877,
      "known": 4878,
      "ĠScience": 4879,
      "Ġcourses": 4880,
      "Ġdie": 4881,
      "Ġleadership": 4882,
      "Ġvalid": 4883,
      "Ġabsolutely": 4884,
      "ports": 4885,
      "itness": 4886,
      "!!!": 4887,
      "Ġprocessing": 4888,
      "Ġeating": 4889,
      "ĠUSA": 4890,
      "Ġreference": 4891,
      "word": 4892,
      "Ġhonest": 4893,
      "Ġteacher": 4894,
      "no": 4895,
      "ĠEngine": 4896,
      "rete": 4897,
      "ĠHel": 4898,
      "azine": 4899,
      "plate": 4900,
      "Ġmulti": 4901,
      "ĠPublic": 4902,
      "ĠIts": 4903,
      "TH": 4904,
      "Ġmarkets": 4905,
      "Ġcentre": 4906,
      "Ġking": 4907,
      "Ġswitch": 4908,
      "ĠVir": 4909,
      "ression": 4910,
      "Ġdoubt": 4911,
      "rad": 4912,
      "Ġscale": 4913,
      "Ġserving": 4914,
      "roy": 4915,
      "ĠVis": 4916,
      "Ġsym": 4917,
      "Ġfabric": 4918,
      "Ġjoint": 4919,
      "Ġpreviously": 4920,
      "Ġcasino": 4921,
      "Ġended": 4922,
      "riage": 4923,
      "OW": 4924,
      "icks": 4925,
      "Ã¡": 4926,
      "uesday": 4927,
      "Ġvideos": 4928,
      "Ġbehavior": 4929,
      "gn": 4930,
      "osen": 4931,
      "Ġshut": 4932,
      "Ġlived": 4933,
      "ĠDirector": 4934,
      "Ġproperly": 4935,
      "ĠCur": 4936,
      "Ġdepartment": 4937,
      "Ġcontinues": 4938,
      "ĠJour": 4939,
      "point": 4940,
      "tion": 4941,
      "Ġthr": 4942,
      "ĠCommission": 4943,
      "Ġrid": 4944,
      "Ġhttp": 4945,
      "ĠAlex": 4946,
      "Ġactions": 4947,
      "Some": 4948,
      "ano": 4949,
      "vere": 4950,
      "ĠChild": 4951,
      "Ġdial": 4952,
      "Ġelement": 4953,
      "ĠBig": 4954,
      "Ġlabor": 4955,
      "Ġcart": 4956,
      "Ġappeared": 4957,
      "ĠSum": 4958,
      "ĠRob": 4959,
      "Ġdisp": 4960,
      "Ġtele": 4961,
      "Ġingredients": 4962,
      "Ġbrown": 4963,
      "Ġpump": 4964,
      "Ġrub": 4965,
      "Ġassistance": 4966,
      "Ġspending": 4967,
      "going": 4968,
      "Ġneighbor": 4969,
      "Ġworksh": 4970,
      "Ġteachers": 4971,
      "Ġbusy": 4972,
      "Ġrelationships": 4973,
      "ĠPhot": 4974,
      "ĠStar": 4975,
      "ĠMill": 4976,
      "Ġmostly": 4977,
      "ocolate": 4978,
      "Ġquant": 4979,
      "Ġradio": 4980,
      "Ġjournal": 4981,
      "ĠApple": 4982,
      "essions": 4983,
      "ĠUse": 4984,
      "gl": 4985,
      "uel": 4986,
      "levision": 4987,
      "ructure": 4988,
      "ĠNews": 4989,
      "ĠCommit": 4990,
      "amin": 4991,
      "Ġfees": 4992,
      "Ġallowing": 4993,
      "Ġminimum": 4994,
      "ĠCentral": 4995,
      "ki": 4996,
      "Ġinfluence": 4997,
      "state": 4998,
      "Ġlovely": 4999,
      "Ġfacility": 5000,
      "dden": 5001,
      "Ġrecommended": 5002,
      "what": 5003,
      "Ġstarts": 5004,
      "ĠCap": 5005,
      "Ġfif": 5006,
      "Ġtypically": 5007,
      "Ġfantastic": 5008,
      "Ġbound": 5009,
      "Ġcoast": 5010,
      "noon": 5011,
      "Ġsitting": 5012,
      "mail": 5013,
      "ĠAND": 5014,
      "RA": 5015,
      "Ġimportance": 5016,
      "Ġbrings": 5017,
      "vin": 5018,
      "Ġcris": 5019,
      "unction": 5020,
      "Ġcontext": 5021,
      "Ġfruit": 5022,
      "Ġexciting": 5023,
      "rolled": 5024,
      "Ġputting": 5025,
      "Ġsalt": 5026,
      "unched": 5027,
      "ste": 5028,
      "Ġeventually": 5029,
      "Ġconcerns": 5030,
      "Ġpolicies": 5031,
      "Ġpanel": 5032,
      "Ġunless": 5033,
      "Ġsenior": 5034,
      "ĠRel": 5035,
      "ĠMer": 5036,
      "olly": 5037,
      "Ġmail": 5038,
      "Ġlaws": 5039,
      "By": 5040,
      "water": 5041,
      "Ġdetailed": 5042,
      "log": 5043,
      "ĠBre": 5044,
      "nesday": 5045,
      "ĠVe": 5046,
      "Ġaccompl": 5047,
      "cean": 5048,
      "Ġrule": 5049,
      "Ġdebt": 5050,
      "ĠCheck": 5051,
      "Ġbeat": 5052,
      "ĠGermany": 5053,
      "Ġgeneration": 5054,
      "ĠTur": 5055,
      "Ġupgr": 5056,
      "Ġfuel": 5057,
      "Ġinjury": 5058,
      "Ġstores": 5059,
      "oor": 5060,
      "ĠHill": 5061,
      "Ġrestrict": 5062,
      "Ġinternal": 5063,
      "lines": 5064,
      "ĠStr": 5065,
      "Ġcarried": 5066,
      "ĠTom": 5067,
      "ĠTO": 5068,
      "Ġproceed": 5069,
      "Ġlisten": 5070,
      "life": 5071,
      "Ġtables": 5072,
      "ĠThursday": 5073,
      "Ġapproximately": 5074,
      "Ġnotes": 5075,
      "Ġinstalled": 5076,
      "Ġlunch": 5077,
      "Ġphotograph": 5078,
      "ĠSociety": 5079,
      ",'": 5080,
      "Ġeffic": 5081,
      "ĠMad": 5082,
      "inating": 5083,
      "Ġfamiliar": 5084,
      "Ġvote": 5085,
      "Ġphil": 5086,
      "Ġexchange": 5087,
      "Ġdoors": 5088,
      "win": 5089,
      "Ġsudden": 5090,
      "Ġpredict": 5091,
      "Ġourselves": 5092,
      "Ġresponsibility": 5093,
      "Ġinstance": 5094,
      "Ġcorporate": 5095,
      "outs": 5096,
      "Ġbattle": 5097,
      "ĠTop": 5098,
      "Ġcomprehens": 5099,
      "ĠLike": 5100,
      "yal": 5101,
      "Ġforg": 5102,
      "ĠChic": 5103,
      "Ġregistered": 5104,
      "Ġenvironmental": 5105,
      "Ġcombined": 5106,
      "paper": 5107,
      "Ġvillage": 5108,
      "urd": 5109,
      "Ġthrow": 5110,
      "CT": 5111,
      "Ġsongs": 5112,
      "uations": 5113,
      "Ġboo": 5114,
      "Ġcomponents": 5115,
      "Ġpractical": 5116,
      "Ġwebsites": 5117,
      "idden": 5118,
      "Ġdiscussion": 5119,
      "ĠOpen": 5120,
      "Ġap": 5121,
      "Ġsuitable": 5122,
      "From": 5123,
      "Thanks": 5124,
      "Ġju": 5125,
      "Ġlocations": 5126,
      "ĠCall": 5127,
      "zen": 5128,
      "ĠClick": 5129,
      "Ġposts": 5130,
      "Ġtea": 5131,
      "anish": 5132,
      "Ġfavour": 5133,
      "PA": 5134,
      "Ġmental": 5135,
      "Ġseek": 5136,
      "fin": 5137,
      "Ġcultural": 5138,
      "ivered": 5139,
      "Ġstanding": 5140,
      "Ġstret": 5141,
      "ĠTrump": 5142,
      "Le": 5143,
      "âĢ²": 5144,
      "Ġaccident": 5145,
      "rier": 5146,
      "Ġvehicles": 5147,
      "ĠGovernment": 5148,
      "berg": 5149,
      "Ġiron": 5150,
      "ÂŃ": 5151,
      "Ġaffordable": 5152,
      "Ġ||": 5153,
      "Ġswim": 5154,
      "ĠDiv": 5155,
      "Ġseconds": 5156,
      "Ġquot": 5157,
      "Ġguys": 5158,
      "ĠConst": 5159,
      "Ġoccasion": 5160,
      "Ġboat": 5161,
      "Ġbuildings": 5162,
      "Ġherself": 5163,
      "Ġnegative": 5164,
      "Well": 5165,
      "Can": 5166,
      "Ġopinion": 5167,
      "IA": 5168,
      "Ġagency": 5169,
      "aked": 5170,
      "Ġarrived": 5171,
      "ĠJo": 5172,
      "ĠUnion": 5173,
      "Ġmarried": 5174,
      "ĠSol": 5175,
      "Ġtopic": 5176,
      "Ġriver": 5177,
      "ĠProject": 5178,
      "Ġholding": 5179,
      "Ġ?": 5180,
      "Ġwalls": 5181,
      "Ġrise": 5182,
      "Ġdetect": 5183,
      "Ġdespite": 5184,
      "ĠMusic": 5185,
      "Ġbutter": 5186,
      "Ġleads": 5187,
      "CA": 5188,
      "ĠID": 5189,
      "Ġyouth": 5190,
      "Ġvolume": 5191,
      "ĠTuesday": 5192,
      "ĠProfess": 5193,
      "Ġintroduced": 5194,
      "Ġbon": 5195,
      "Ġtight": 5196,
      "ĠElect": 5197,
      "oration": 5198,
      "Ġappeal": 5199,
      "ĠDistrict": 5200,
      "ĠUnder": 5201,
      "Ġamb": 5202,
      "arn": 5203,
      "Ġindustrial": 5204,
      "Ġaspects": 5205,
      "atin": 5206,
      "Ġdepos": 5207,
      "Ġflight": 5208,
      "aped": 5209,
      "ĠWall": 5210,
      "alian": 5211,
      "iance": 5212,
      "orough": 5213,
      "Ġring": 5214,
      "oles": 5215,
      "poses": 5216,
      "Ġstrategies": 5217,
      "ĠDevelopment": 5218,
      "fol": 5219,
      "ĠSen": 5220,
      "ĠLear": 5221,
      "Ġkill": 5222,
      "ĠMa": 5223,
      "Ġsuit": 5224,
      "ĠCD": 5225,
      "Ġemp": 5226,
      "Ne": 5227,
      "aded": 5228,
      "fection": 5229,
      "ĠBeach": 5230,
      "Ġconsid": 5231,
      "Ġfle": 5232,
      "ĠTor": 5233,
      "Ġerror": 5234,
      "ÑĢ": 5235,
      "ĠTem": 5236,
      "Ġneck": 5237,
      "Des": 5238,
      "ÑĤ": 5239,
      "Ġinterior": 5240,
      "Ġhyd": 5241,
      "Ġsides": 5242,
      "Ġsymb": 5243,
      "Ġforest": 5244,
      "Ġremoved": 5245,
      "Ĥ¬": 5246,
      "SS": 5247,
      "Ġconstruct": 5248,
      "Ġfunctions": 5249,
      "Ġawesome": 5250,
      "Ġbreath": 5251,
      "which": 5252,
      "ĠValley": 5253,
      "onds": 5254,
      "Ġelim": 5255,
      "ĠMuseum": 5256,
      "Ñģ": 5257,
      "Ġmine": 5258,
      "Ġsoul": 5259,
      "ĠSocial": 5260,
      "Ġobl": 5261,
      "Ġasking": 5262,
      "Ġsurvey": 5263,
      "ometimes": 5264,
      "orry": 5265,
      "Ġfort": 5266,
      "Ġteach": 5267,
      "ĠTwo": 5268,
      "Ġfunding": 5269,
      "Ġdynam": 5270,
      "Ġupdated": 5271,
      "ĠLight": 5272,
      "Ġepis": 5273,
      "ician": 5274,
      "ĠFoundation": 5275,
      "Ġarticles": 5276,
      "ĠCommittee": 5277,
      "ears": 5278,
      "Ġprepare": 5279,
      "Ġsupported": 5280,
      "Ġchemical": 5281,
      "ĠCustom": 5282,
      "Ġdesire": 5283,
      "Ġsport": 5284,
      "Ġdepending": 5285,
      "ĠBet": 5286,
      "ĠOnline": 5287,
      "Ġsequ": 5288,
      "Ġtun": 5289,
      "ograp": 5290,
      "Ġrapid": 5291,
      "ĠAM": 5292,
      "ĠBlue": 5293,
      "Ġdiscovered": 5294,
      "odies": 5295,
      "edy": 5296,
      "ĠWednesday": 5297,
      "Ġspecifically": 5298,
      "ita": 5299,
      "Are": 5300,
      "Ġexplain": 5301,
      "Ġlights": 5302,
      "Ġbreakfast": 5303,
      "arp": 5304,
      "Ġanywhere": 5305,
      "ĠFranc": 5306,
      "Ġparking": 5307,
      "ĠTime": 5308,
      "Ġanimal": 5309,
      "Ġkid": 5310,
      "Ġintell": 5311,
      "Ġexpertise": 5312,
      "ĠAcadem": 5313,
      "inations": 5314,
      "equ": 5315,
      "Ġrot": 5316,
      "irty": 5317,
      "ola": 5318,
      "kin": 5319,
      "Ġflowers": 5320,
      "Ġgoods": 5321,
      "Ġcategory": 5322,
      "mes": 5323,
      "ĠFil": 5324,
      "mal": 5325,
      "mar": 5326,
      "cher": 5327,
      "Ġmissing": 5328,
      "Ġlibrary": 5329,
      "umber": 5330,
      "Ġran": 5331,
      "Ġcommitted": 5332,
      "Ġsigned": 5333,
      "Ġpurposes": 5334,
      "adian": 5335,
      "inn": 5336,
      "ĠMain": 5337,
      "Ġgather": 5338,
      "cohol": 5339,
      "Ġbelong": 5340,
      "never": 5341,
      "ĠParty": 5342,
      "Ġpus": 5343,
      "ĠMont": 5344,
      "Thank": 5345,
      "Ġacademic": 5346,
      "Ġtast": 5347,
      "ĠGlo": 5348,
      "rics": 5349,
      "Ġstopped": 5350,
      "Just": 5351,
      "Ġpossibly": 5352,
      "met": 5353,
      "Ġprovider": 5354,
      "pected": 5355,
      "ĠWestern": 5356,
      "eless": 5357,
      "Ġkilled": 5358,
      "Ġappearance": 5359,
      "Ġafternoon": 5360,
      "Ġlegis": 5361,
      "rive": 5362,
      "Ġpoly": 5363,
      "van": 5364,
      "II": 5365,
      "ĠFire": 5366,
      "Ġclimate": 5367,
      "Ġschol": 5368,
      "ĠTown": 5369,
      "Ġfixed": 5370,
      "Ġconfidence": 5371,
      "Ġtrading": 5372,
      "Ġhouses": 5373,
      "Ġcircumst": 5374,
      "Ġmut": 5375,
      "Ġglad": 5376,
      "Ġenhance": 5377,
      "Ġfreed": 5378,
      "umin": 5379,
      "ĠMot": 5380,
      "ĠOld": 5381,
      "prise": 5382,
      "ĠMaster": 5383,
      "Ġarms": 5384,
      "Ġintended": 5385,
      "net": 5386,
      "cont": 5387,
      "Ġmeal": 5388,
      "Ġburn": 5389,
      "Ġbattery": 5390,
      "Ġforces": 5391,
      "LC": 5392,
      "aser": 5393,
      "ĠWord": 5394,
      "Se": 5395,
      "Ġcondu": 5396,
      "Ġliqu": 5397,
      "Ġaccounts": 5398,
      "Ġtrial": 5399,
      "Ġassum": 5400,
      "Ġchoices": 5401,
      "Ġcaught": 5402,
      "Ġtechnologies": 5403,
      "spe": 5404,
      "BA": 5405,
      "Ġdelicious": 5406,
      "Ġbroken": 5407,
      "road": 5408,
      "Ġmotiv": 5409,
      "En": 5410,
      "while": 5411,
      "Ġmeasures": 5412,
      "Ġban": 5413,
      "Ġshipping": 5414,
      "ĠCarol": 5415,
      "Ġreliable": 5416,
      "ĠToday": 5417,
      "Ġjoy": 5418,
      "Ġreput": 5419,
      "ĠLeague": 5420,
      "Ġdelivered": 5421,
      "ĠAfrican": 5422,
      "Ġtransl": 5423,
      "IR": 5424,
      "ario": 5425,
      "lear": 5426,
      "BS": 5427,
      "burg": 5428,
      "Ġnav": 5429,
      "anged": 5430,
      "ems": 5431,
      "ĠMel": 5432,
      "Ġcalling": 5433,
      "Ġconversation": 5434,
      "Ġfaster": 5435,
      "Ġwinning": 5436,
      "ĠJapanese": 5437,
      "Ġdance": 5438,
      "ĠLu": 5439,
      "phas": 5440,
      "ĠLand": 5441,
      "Ġsympt": 5442,
      "Ġautomatically": 5443,
      "hy": 5444,
      "Ġguy": 5445,
      "ilding": 5446,
      "isher": 5447,
      "Ġmeat": 5448,
      "Ġfields": 5449,
      "Ġfeedback": 5450,
      "Ġstre": 5451,
      "ĠFrank": 5452,
      "Ġinterests": 5453,
      "rag": 5454,
      "Ġtail": 5455,
      "Ġpromote": 5456,
      "ĠCommunity": 5457,
      "ĠMass": 5458,
      "Ġtheory": 5459,
      "ups": 5460,
      "Ġchart": 5461,
      "ĠPeter": 5462,
      "Ġhearing": 5463,
      "ĠSmith": 5464,
      "ums": 5465,
      "Ġven": 5466,
      "Ð½": 5467,
      "ĠChicago": 5468,
      "Ġconflic": 5469,
      "Ġprofile": 5470,
      "Ġdetermined": 5471,
      "ENT": 5472,
      "hent": 5473,
      "den": 5474,
      "Ġconsequ": 5475,
      "Ġknowing": 5476,
      "cles": 5477,
      "rate": 5478,
      "urban": 5479,
      "aks": 5480,
      "Ġminor": 5481,
      "ĠSpecial": 5482,
      "Ġinspired": 5483,
      "Ġinfo": 5484,
      "Ġur": 5485,
      "ĠCas": 5486,
      "iner": 5487,
      "ii": 5488,
      "ĠData": 5489,
      "ĠAmazon": 5490,
      "Ġtotally": 5491,
      "Ġmode": 5492,
      "eper": 5493,
      "Ġgreatest": 5494,
      "Ġattor": 5495,
      "Ġpoll": 5496,
      "lets": 5497,
      "Ġbes": 5498,
      "ait": 5499,
      "Ġhorse": 5500,
      "Ġdatabase": 5501,
      "ĠCongress": 5502,
      "ria": 5503,
      "arsh": 5504,
      "ĠPay": 5505,
      "Oh": 5506,
      "Ġhousing": 5507,
      "Ġdeals": 5508,
      "Ġadults": 5509,
      "Ġroute": 5510,
      "arrow": 5511,
      "ĠEarth": 5512,
      "Ġbread": 5513,
      "Ġhousehold": 5514,
      "Ġinnovative": 5515,
      "Ġrow": 5516,
      "mosp": 5517,
      "Ġris": 5518,
      "Ġextensive": 5519,
      "ĠScott": 5520,
      "Ġrail": 5521,
      "rip": 5522,
      "Ġremaining": 5523,
      "orter": 5524,
      "Ġfeels": 5525,
      "Ġdish": 5526,
      "osoph": 5527,
      "ĠRobert": 5528,
      "Ġdecre": 5529,
      "ĠVict": 5530,
      "hetic": 5531,
      "Ġsimpl": 5532,
      "ĠDet": 5533,
      "Ġsigns": 5534,
      "Ġmilk": 5535,
      "ĠParis": 5536,
      "Ġemergency": 5537,
      "ĠBoth": 5538,
      "ĠRad": 5539,
      "Ġparticipants": 5540,
      "Ġvaluable": 5541,
      "Ġsister": 5542,
      "hi": 5543,
      "ĠPan": 5544,
      "Ġreduced": 5545,
      "Ġhun": 5546,
      "lam": 5547,
      "Ġrestaurants": 5548,
      "Me": 5549,
      "Ġtickets": 5550,
      "Ġraise": 5551,
      "ĠHol": 5552,
      "Ġreb": 5553,
      "ulous": 5554,
      "td": 5555,
      "ias": 5556,
      "ilit": 5557,
      "Ġcooking": 5558,
      "Ġsac": 5559,
      "Ġstood": 5560,
      "Ġdogs": 5561,
      "Ġexamples": 5562,
      "Ġcop": 5563,
      "Ġguarantee": 5564,
      "otic": 5565,
      "Ġagent": 5566,
      "Ġlit": 5567,
      "Ġang": 5568,
      "Ġteeth": 5569,
      "Ġinput": 5570,
      "Ġfactor": 5571,
      "Ġpure": 5572,
      "Ġremark": 5573,
      "ĠAtl": 5574,
      "ĠJournal": 5575,
      "Ġreaders": 5576,
      "Ġdelight": 5577,
      "Ġkick": 5578,
      "Ġshower": 5579,
      "Ġbrands": 5580,
      "Every": 5581,
      "Ġment": 5582,
      "Ġspons": 5583,
      "Ġrealize": 5584,
      "ĠInformation": 5585,
      "ĠHen": 5586,
      "iest": 5587,
      "itionally": 5588,
      "____": 5589,
      "inder": 5590,
      "Ad": 5591,
      "ĠVirgin": 5592,
      "Ġperfectly": 5593,
      "bre": 5594,
      "rastructure": 5595,
      "Ġpush": 5596,
      "Ġcheese": 5597,
      "Ġowned": 5598,
      "Ġbringing": 5599,
      "ossible": 5600,
      "ifications": 5601,
      "Ġcomprehensive": 5602,
      "Add": 5603,
      "Ġformed": 5604,
      "ixture": 5605,
      "Ġsauce": 5606,
      "apes": 5607,
      "Ġoutput": 5608,
      "list": 5609,
      "Ġsam": 5610,
      "Ġcovers": 5611,
      "ĠAL": 5612,
      "Ġfly": 5613,
      "ĠIP": 5614,
      "Ġvary": 5615,
      "Ġplate": 5616,
      "Ġcoord": 5617,
      "ĠPM": 5618,
      "Ġkinds": 5619,
      "Ġyes": 5620,
      "Ġcompetitive": 5621,
      "Ġremote": 5622,
      "Ġspr": 5623,
      "Ġapproved": 5624,
      "Ġillustr": 5625,
      "ensions": 5626,
      "Ġwriter": 5627,
      "Ġbowl": 5628,
      "Ġchosen": 5629,
      "reens": 5630,
      "Ġcarefully": 5631,
      "ĠAccording": 5632,
      "upp": 5633,
      "Ġuniversity": 5634,
      "Ġeducational": 5635,
      "anda": 5636,
      "ĠHistory": 5637,
      "ĠFood": 5638,
      "Ġadministration": 5639,
      "Ġuns": 5640,
      "Ġtro": 5641,
      "Ġaudio": 5642,
      "Ġtrouble": 5643,
      "Ġresource": 5644,
      "Ġsurrounding": 5645,
      "Ġaid": 5646,
      "ially": 5647,
      "DF": 5648,
      "Ġorders": 5649,
      "vention": 5650,
      "Let": 5651,
      "hand": 5652,
      "tr": 5653,
      "Ġlayer": 5654,
      "ĠCentre": 5655,
      "Ġwheel": 5656,
      "ĠYes": 5657,
      "Ġtelevision": 5658,
      "Ġexpression": 5659,
      "Ġfailure": 5660,
      "ĠUN": 5661,
      "Ġcomplic": 5662,
      "Ġdiam": 5663,
      "Ġbrows": 5664,
      "ena": 5665,
      "Ġimproved": 5666,
      "ĠWil": 5667,
      "Ġwid": 5668,
      "ĠColor": 5669,
      "Ġenable": 5670,
      "Ġproviders": 5671,
      "ĠLouis": 5672,
      "Ġcrew": 5673,
      "Ġchicken": 5674,
      "ĠBack": 5675,
      "loc": 5676,
      "ĠSecurity": 5677,
      "IF": 5678,
      "lla": 5679,
      "ĠTake": 5680,
      "Ġhundreds": 5681,
      "Ġwal": 5682,
      "ĠCard": 5683,
      "SA": 5684,
      "ĠMicrosoft": 5685,
      "Ġeffectively": 5686,
      "Ġfoods": 5687,
      "Ġpaying": 5688,
      "Ġfailed": 5689,
      "Ġadvertising": 5690,
      "you": 5691,
      "Ġunivers": 5692,
      "ownt": 5693,
      "Ġlaunched": 5694,
      "Ġemployee": 5695,
      "ĠStand": 5696,
      "ĠLong": 5697,
      "Ġweap": 5698,
      "iat": 5699,
      "ĠHam": 5700,
      "Sc": 5701,
      "luding": 5702,
      "ĠBrown": 5703,
      "Ġsole": 5704,
      "Ġagreed": 5705,
      "erves": 5706,
      "Ġcutting": 5707,
      "Get": 5708,
      "ĠKore": 5709,
      "Ġguest": 5710,
      "aturing": 5711,
      "Ġfro": 5712,
      "Ġcreation": 5713,
      "Ġaccepted": 5714,
      "Ġpin": 5715,
      "Ġhistorical": 5716,
      "Ġsupposed": 5717,
      "Ġtherapy": 5718,
      "Ġprop": 5719,
      "iveness": 5720,
      "west": 5721,
      "ĠWho": 5722,
      "Ġplug": 5723,
      "Ã¼": 5724,
      "Ġsight": 5725,
      "Ġcauses": 5726,
      "Ġsmile": 5727,
      "oses": 5728,
      "Ġmel": 5729,
      "Ġec": 5730,
      "erry": 5731,
      "ĠBur": 5732,
      "atre": 5733,
      "Ġresolution": 5734,
      "osite": 5735,
      "Ġpurchased": 5736,
      "ĠOnly": 5737,
      "ĠThomas": 5738,
      "Ġregister": 5739,
      "ded": 5740,
      "Ġanx": 5741,
      "ef": 5742,
      "Ġpremium": 5743,
      "rome": 5744,
      "Ġatmosp": 5745,
      "alled": 5746,
      "ĠAward": 5747,
      "Ġfemale": 5748,
      "Ġdistribution": 5749,
      "ĠHave": 5750,
      "Ġchain": 5751,
      "Ġweak": 5752,
      "Ġben": 5753,
      "ye": 5754,
      "Ġtests": 5755,
      "Ġportion": 5756,
      "Ġcoach": 5757,
      "Ġmountain": 5758,
      "Ġconsumers": 5759,
      "Ġrecorded": 5760,
      "alog": 5761,
      "Ġsettings": 5762,
      "Ġregularly": 5763,
      "Ġwarrant": 5764,
      "ĠWhether": 5765,
      "Ġneighborhood": 5766,
      "Ġvisiting": 5767,
      "Ġnoted": 5768,
      "Ġupper": 5769,
      "Ġappreciate": 5770,
      "ĠItalian": 5771,
      "Ġsupplies": 5772,
      "Ġseeking": 5773,
      "ulty": 5774,
      "Ġsilver": 5775,
      "Ġproposed": 5776,
      "Ġconsumer": 5777,
      "Ġenem": 5778,
      "Ġresearc": 5779,
      "Ġwest": 5780,
      "Ġdistinct": 5781,
      "Ġemphas": 5782,
      "ugh": 5783,
      "ĠReal": 5784,
      "Ġinstructions": 5785,
      "Ġmatters": 5786,
      "nect": 5787,
      "azz": 5788,
      "Ġsample": 5789,
      "ibilities": 5790,
      "Ġtwenty": 5791,
      "Ġassemb": 5792,
      "ĠTwitter": 5793,
      "ĠDa": 5794,
      "ĠAustralian": 5795,
      "Ġdecades": 5796,
      "Ġelectronic": 5797,
      "Ġhall": 5798,
      "âģ": 5799,
      "liance": 5800,
      "ĠTeam": 5801,
      "ĠRead": 5802,
      "Ġindeed": 5803,
      "Ġwalked": 5804,
      "Ġcrim": 5805,
      "Ġtwice": 5806,
      "Ġsurf": 5807,
      "Ġcitizens": 5808,
      "kes": 5809,
      "Ġvictim": 5810,
      "Ġperman": 5811,
      "ĠGal": 5812,
      "ket": 5813,
      "ĠCO": 5814,
      "Ġvir": 5815,
      "eries": 5816,
      "Ġplays": 5817,
      "Ġchocolate": 5818,
      "Ġcro": 5819,
      "âģĦ": 5820,
      "Ġpainting": 5821,
      "Acc": 5822,
      "Ġconcerned": 5823,
      "ĠIde": 5824,
      "Ġmonthly": 5825,
      "ĠList": 5826,
      "Ġperspective": 5827,
      "ora": 5828,
      "Ġdollars": 5829,
      "Ġentirely": 5830,
      "Ġcorresp": 5831,
      "Ġbegins": 5832,
      "Ġannounce": 5833,
      "po": 5834,
      "Ġyellow": 5835,
      "under": 5836,
      "Ġcontemporary": 5837,
      "Ġtruck": 5838,
      "ĠTour": 5839,
      "Ġcommitment": 5840,
      "Ġengineering": 5841,
      "Ġgrade": 5842,
      "Ġelection": 5843,
      "ĠReview": 5844,
      "Ġsheet": 5845,
      "Ġlighting": 5846,
      "Ġsex": 5847,
      "Ġcloser": 5848,
      "Ġtreated": 5849,
      "ĠWhere": 5850,
      "Ġrental": 5851,
      "ĠTre": 5852,
      "Ġgrown": 5853,
      "ighter": 5854,
      "Ġconvenient": 5855,
      "Ġfulf": 5856,
      "Ġscript": 5857,
      "ĠSto": 5858,
      "friend": 5859,
      "estyle": 5860,
      "Ġancient": 5861,
      "Ġspeaking": 5862,
      "pass": 5863,
      "ĠCat": 5864,
      "oosing": 5865,
      "Ġsupporting": 5866,
      "Ġnurs": 5867,
      "ĠRussian": 5868,
      "ĠLo": 5869,
      "ĠHotel": 5870,
      "ĠLim": 5871,
      "Ġadvis": 5872,
      "oga": 5873,
      "Ġsurgery": 5874,
      "Ġsymbol": 5875,
      "ĠAS": 5876,
      "Ġapparent": 5877,
      "Ġgro": 5878,
      "Once": 5879,
      "Ġcharges": 5880,
      "ĠTechnology": 5881,
      "Ġimagine": 5882,
      "Ġdomain": 5883,
      "hered": 5884,
      "prene": 5885,
      "App": 5886,
      "Ġupdates": 5887,
      "Ġidentified": 5888,
      "rid": 5889,
      "appy": 5890,
      "ĠSqu": 5891,
      "Ġlicense": 5892,
      "ĠEnter": 5893,
      "Ġsignificantly": 5894,
      "Ġconver": 5895,
      "ĠNY": 5896,
      "ta": 5897,
      "Ġmal": 5898,
      "hus": 5899,
      "esterday": 5900,
      "Ġlabel": 5901,
      "Ġbike": 5902,
      "Ġnine": 5903,
      "Ġmanufacturing": 5904,
      "ĠAndroid": 5905,
      "ĠCy": 5906,
      "Ġprocedure": 5907,
      "Ġentered": 5908,
      "Ġappointment": 5909,
      "Ġends": 5910,
      "Ġaccurate": 5911,
      "apos": 5912,
      "ĠEr": 5913,
      "Ġarg": 5914,
      "Ġconfirm": 5915,
      "Ġclinical": 5916,
      "Ġrough": 5917,
      "Ġcircumstances": 5918,
      "born": 5919,
      "ĠRoyal": 5920,
      "Ġreligious": 5921,
      "However": 5922,
      "Ġchannel": 5923,
      "Ġstated": 5924,
      "Ġefficiency": 5925,
      "Ġshoes": 5926,
      "Ġheight": 5927,
      "Phone": 5928,
      "Ġwealth": 5929,
      "Ġgrew": 5930,
      "Ġfilms": 5931,
      "ĠRoman": 5932,
      "Ġfrequently": 5933,
      "ua": 5934,
      "Ġprotein": 5935,
      "Ġtaught": 5936,
      "Ġadministr": 5937,
      "reprene": 5938,
      "Ġtrained": 5939,
      "Ġbelief": 5940,
      "UT": 5941,
      "Ġscientific": 5942,
      "Ġexcess": 5943,
      "Ġsky": 5944,
      "ĠIndust": 5945,
      "Ġshel": 5946,
      "Ġissued": 5947,
      "Ġleather": 5948,
      "Ġusual": 5949,
      "ĠHD": 5950,
      "Ġpun": 5951,
      "Ġrelatively": 5952,
      "Ġdrivers": 5953,
      "that": 5954,
      "Ġath": 5955,
      "Ġconsidering": 5956,
      "istan": 5957,
      "ÃŃ": 5958,
      "igned": 5959,
      "Ġdiss": 5960,
      "ĠDen": 5961,
      "uts": 5962,
      "Ġboys": 5963,
      "Ġentr": 5964,
      "xy": 5965,
      "Ġnom": 5966,
      "Ġvs": 5967,
      "Ġfourth": 5968,
      "Ġofficials": 5969,
      "ĠDou": 5970,
      "poration": 5971,
      "Ġmonit": 5972,
      "ĠSand": 5973,
      "wo": 5974,
      "ĠOrgan": 5975,
      "gage": 5976,
      "Ġnone": 5977,
      "arian": 5978,
      "LA": 5979,
      "Ġsaving": 5980,
      "Ġvari": 5981,
      "Ġholds": 5982,
      "Ġrecovery": 5983,
      "Ġworse": 5984,
      "sm": 5985,
      "Ġplanned": 5986,
      "Ġrare": 5987,
      "uality": 5988,
      "Ġsymptoms": 5989,
      "Ġdefined": 5990,
      "Ġdiscip": 5991,
      "ĠBas": 5992,
      "Ġassets": 5993,
      "Ġpicked": 5994,
      "Ġapps": 5995,
      "ĠMo": 5996,
      "Ġmotion": 5997,
      "Ġnegot": 5998,
      "Ġboost": 5999,
      "Ġfreedom": 6000,
      "Ġbigger": 6001,
      "Ġaffected": 6002,
      "ĠCanadian": 6003,
      "ĠYOU": 6004,
      "kay": 6005,
      "ingu": 6006,
      "Ġstudio": 6007,
      "ĠRev": 6008,
      "ĠOffic": 6009,
      "Ġpatterns": 6010,
      "ĠAsia": 6011,
      "Ġanswers": 6012,
      "Ġ>": 6013,
      "Ġsizes": 6014,
      "erg": 6015,
      "icial": 6016,
      "Ġcontrast": 6017,
      "asts": 6018,
      "abled": 6019,
      "ĠHy": 6020,
      "Ġobjects": 6021,
      "ĠIll": 6022,
      "Ġequal": 6023,
      "Â°": 6024,
      "Ġresol": 6025,
      "ache": 6026,
      "Ġforced": 6027,
      "Ġpil": 6028,
      "Ġtough": 6029,
      "ĠFamily": 6030,
      "Ġauto": 6031,
      "Ġclothes": 6032,
      "Ġturns": 6033,
      "Ġtasks": 6034,
      "ĠJose": 6035,
      "look": 6036,
      "Ġped": 6037,
      "igan": 6038,
      "Ġvit": 6039,
      "Ġchief": 6040,
      "ĠArts": 6041,
      "Ġpresentation": 6042,
      "ĠÎ": 6043,
      "Ġturning": 6044,
      "merce": 6045,
      "Ġalcohol": 6046,
      "Ġrecru": 6047,
      "pes": 6048,
      "Ġincredible": 6049,
      "ĠOR": 6050,
      "Ġreplacement": 6051,
      "Ġgent": 6052,
      "ĠAtt": 6053,
      "cknow": 6054,
      "secut": 6055,
      "Ġtopics": 6056,
      "Ġrevenue": 6057,
      "Ġparticipate": 6058,
      "ĠOper": 6059,
      "Ġconstantly": 6060,
      "ingly": 6061,
      "CE": 6062,
      "?âĢĿ": 6063,
      "ĠLos": 6064,
      "Ġrecognized": 6065,
      "ĠFind": 6066,
      "Cont": 6067,
      "Ġprepar": 6068,
      "Ġmanual": 6069,
      "Ġorganic": 6070,
      "Ġdating": 6071,
      "ĠDi": 6072,
      "rum": 6073,
      "Ġexternal": 6074,
      "Ġdeck": 6075,
      "Ġwitness": 6076,
      "ĠTim": 6077,
      "Ġprison": 6078,
      "'.": 6079,
      "ensity": 6080,
      "Ġnearby": 6081,
      "ĠDig": 6082,
      "Ġacid": 6083,
      "Ġextended": 6084,
      "Ġbless": 6085,
      "ĠShow": 6086,
      "Ġroot": 6087,
      "Ġslowly": 6088,
      "Ġcake": 6089,
      "Ġrear": 6090,
      "Ġrenew": 6091,
      "Ġempt": 6092,
      "Ġshock": 6093,
      "alend": 6094,
      "Ġauthority": 6095,
      "ĠTest": 6096,
      "Ġodd": 6097,
      "Ġmachines": 6098,
      "ĠAmericans": 6099,
      "ĠCH": 6100,
      "Ġreceiving": 6101,
      "Ġjack": 6102,
      "ĠVictor": 6103,
      "Ġsuccessfully": 6104,
      "Ġsurprise": 6105,
      "Ġprompt": 6106,
      "ĠMinister": 6107,
      "ĠCath": 6108,
      "Ġhire": 6109,
      "Ġthorough": 6110,
      "ĠAdv": 6111,
      "Ġinfrastructure": 6112,
      "Ġnoticed": 6113,
      "onom": 6114,
      "ĠProduct": 6115,
      "ev": 6116,
      "ĠDownload": 6117,
      "Ġbirthday": 6118,
      "Ġtall": 6119,
      "ĠLtd": 6120,
      "OD": 6121,
      "Bl": 6122,
      "MA": 6123,
      "Ġthread": 6124,
      "Ġinvolve": 6125,
      "ĠJud": 6126,
      "Ġstars": 6127,
      "isters": 6128,
      "Ġreasonable": 6129,
      "Ġeast": 6130,
      "ĠSet": 6131,
      "ĠInstead": 6132,
      "Ġmur": 6133,
      "kins": 6134,
      "ĠNOT": 6135,
      "Ġcompr": 6136,
      "Ġdegrees": 6137,
      "stone": 6138,
      "Ġeditor": 6139,
      "Ġsignal": 6140,
      "bb": 6141,
      "Ġsolar": 6142,
      "ĠMaybe": 6143,
      "Ġspaces": 6144,
      "Ġbear": 6145,
      "fa": 6146,
      "ĠHosp": 6147,
      "ĠDemocr": 6148,
      "Ġfo": 6149,
      "ĠMach": 6150,
      "Ġcolumn": 6151,
      "Ġinstitutions": 6152,
      "bur": 6153,
      "Ġtrend": 6154,
      "Ġsad": 6155,
      "Ġsessions": 6156,
      "Ġmuseum": 6157,
      "Ġshares": 6158,
      "ĠMedical": 6159,
      "ĠGall": 6160,
      "teen": 6161,
      "ĠSpanish": 6162,
      "Ġdangerous": 6163,
      "Ġthin": 6164,
      "Ġletters": 6165,
      "Ġapartment": 6166,
      "].": 6167,
      "ĠGen": 6168,
      "Ġofficer": 6169,
      "iors": 6170,
      "SE": 6171,
      "Ġinvent": 6172,
      "ĠRE": 6173,
      "nergy": 6174,
      "Ġflag": 6175,
      "Ġvast": 6176,
      "Ġforth": 6177,
      "ĠCA": 6178,
      "ĠCup": 6179,
      "UN": 6180,
      "Ġfeatured": 6181,
      "Any": 6182,
      "she": 6183,
      "Ġwearing": 6184,
      "TA": 6185,
      "Ġspeech": 6186,
      "aze": 6187,
      "cuit": 6188,
      "Ġtelling": 6189,
      "wing": 6190,
      "Ġconducted": 6191,
      "real": 6192,
      "Ġbelieved": 6193,
      "Ġpulled": 6194,
      "Ġsubstant": 6195,
      "Ġchat": 6196,
      "Ġmassive": 6197,
      "ĠWomen": 6198,
      "Ġdur": 6199,
      "igure": 6200,
      "elines": 6201,
      "Ġpositions": 6202,
      "ĠLab": 6203,
      "PR": 6204,
      "Ġrose": 6205,
      "ĠWal": 6206,
      "erts": 6207,
      "Ġnative": 6208,
      "Ġimpossible": 6209,
      "Ġregistration": 6210,
      "Ġlandscape": 6211,
      "eration": 6212,
      "Ġemotional": 6213,
      "Ã³": 6214,
      "TER": 6215,
      "Ġclosely": 6216,
      "Ġskill": 6217,
      "ĠJim": 6218,
      "Ġdepth": 6219,
      "Then": 6220,
      "Ġexplained": 6221,
      "Ġidentity": 6222,
      "ĠIre": 6223,
      "Ġsituations": 6224,
      "Ġprocedures": 6225,
      "ĠExper": 6226,
      "anges": 6227,
      "OC": 6228,
      "igration": 6229,
      "Ġmessages": 6230,
      "Ġmoments": 6231,
      "Ġicon": 6232,
      "gging": 6233,
      "Ġtypical": 6234,
      "Ø§": 6235,
      "Ġkeeps": 6236,
      "Ġsuggested": 6237,
      "ĠBi": 6238,
      "Ġlicens": 6239,
      "ĠHead": 6240,
      "Ġelev": 6241,
      "Ġmale": 6242,
      "Ġdescription": 6243,
      "Ð¾Ð": 6244,
      "Ġhero": 6245,
      "ĠRussia": 6246,
      "ĠProv": 6247,
      "Ġcommission": 6248,
      "Res": 6249,
      "aning": 6250,
      "Ġoven": 6251,
      "Ġluxury": 6252,
      "Ġguard": 6253,
      "pon": 6254,
      "ĠON": 6255,
      "Ġtiny": 6256,
      "oured": 6257,
      "ĠThrough": 6258,
      "âĢĻ.": 6259,
      "ĠMexico": 6260,
      "gged": 6261,
      "ĠPerson": 6262,
      "Ġcycle": 6263,
      "ĠAcademy": 6264,
      "Ġwet": 6265,
      "Ġserves": 6266,
      "ĠGra": 6267,
      "Ġassessment": 6268,
      "Ġsyn": 6269,
      "Ġarrest": 6270,
      "Ġincl": 6271,
      "Ġworldwide": 6272,
      "Ġedition": 6273,
      "aren": 6274,
      "ĠHaw": 6275,
      "Ġcorrespond": 6276,
      "enced": 6277,
      "Ġchapter": 6278,
      "Ġfellow": 6279,
      "Ġsmell": 6280,
      "Ġmixed": 6281,
      "Ġeleg": 6282,
      "alle": 6283,
      "Ġstands": 6284,
      "Ġawareness": 6285,
      "Ġpublish": 6286,
      "Ġease": 6287,
      "Ġspoke": 6288,
      "ala": 6289,
      "Ġrealized": 6290,
      "Ste": 6291,
      "Ġauthent": 6292,
      "Since": 6293,
      "Ġgrass": 6294,
      "Ġdestroy": 6295,
      "irms": 6296,
      "can": 6297,
      "Ġcapable": 6298,
      "Ġinn": 6299,
      "aid": 6300,
      "Ġobvious": 6301,
      "Ġimprovement": 6302,
      "Ġticket": 6303,
      "ilst": 6304,
      "Ġagencies": 6305,
      "Ġ@": 6306,
      "Ġacknow": 6307,
      "Ġpayments": 6308,
      "Ġrand": 6309,
      "Ġexecutive": 6310,
      "ĠiPhone": 6311,
      "Ġloves": 6312,
      "Ġengage": 6313,
      "Ġcandidates": 6314,
      "Ġnarrow": 6315,
      "ansion": 6316,
      "ĠNetwork": 6317,
      "Ġdram": 6318,
      "aste": 6319,
      "hors": 6320,
      "Ġregional": 6321,
      "Ġtur": 6322,
      "Ġparam": 6323,
      "Ġkne": 6324,
      "Ġtells": 6325,
      "ĠSecond": 6326,
      "Ġinvestors": 6327,
      "Ġsupports": 6328,
      "Ġmeetings": 6329,
      "ĠMrs": 6330,
      "ĠAud": 6331,
      "pret": 6332,
      "Ġemployment": 6333,
      "Ġast": 6334,
      "Ġregul": 6335,
      "Ġli": 6336,
      "Ġtut": 6337,
      "oston": 6338,
      "va": 6339,
      "Ġagents": 6340,
      "Many": 6341,
      "Ġinspiration": 6342,
      "Ġmarriage": 6343,
      "Ġhardware": 6344,
      "Ġ<": 6345,
      "ĠPlus": 6346,
      "ĠVer": 6347,
      "ĠEU": 6348,
      "utch": 6349,
      "acks": 6350,
      "Ġprofit": 6351,
      "ĠConference": 6352,
      "?'": 6353,
      "Ġliquid": 6354,
      "Ġimpressive": 6355,
      "Ġfoundation": 6356,
      "oral": 6357,
      "Ġsearching": 6358,
      "owing": 6359,
      "ĠKeep": 6360,
      "ĠPac": 6361,
      "Ġphase": 6362,
      "Ġlaugh": 6363,
      "ĠDu": 6364,
      "ĠSeries": 6365,
      "Ġadm": 6366,
      "ĠAnother": 6367,
      "ĠDev": 6368,
      "Ġofficers": 6369,
      "ĠCert": 6370,
      "orable": 6371,
      "Ġconcrete": 6372,
      "Ġunlike": 6373,
      "Ġmissed": 6374,
      "ĠMedia": 6375,
      "SP": 6376,
      "Ġexpectations": 6377,
      "Ġpregn": 6378,
      "pot": 6379,
      "ĠSar": 6380,
      "Ġresidential": 6381,
      "Ġstyles": 6382,
      "Ġrom": 6383,
      "yc": 6384,
      "ĠThose": 6385,
      "ĠMiddle": 6386,
      "ĠKh": 6387,
      "Ġdrugs": 6388,
      "Ġordered": 6389,
      "weight": 6390,
      "illy": 6391,
      "related": 6392,
      "Ġbeer": 6393,
      "Ġremained": 6394,
      "lete": 6395,
      "Ġunable": 6396,
      "First": 6397,
      "ĠArab": 6398,
      "Ġrandom": 6399,
      "Ġinformed": 6400,
      "greg": 6401,
      "astern": 6402,
      "Ġupload": 6403,
      "Another": 6404,
      "ĠTherefore": 6405,
      "itution": 6406,
      "Ã¶": 6407,
      "Ġprecise": 6408,
      "Ġtrig": 6409,
      "ĠPass": 6410,
      "Ġmusical": 6411,
      "vy": 6412,
      "atoes": 6413,
      "Ġsan": 6414,
      "Ġdraft": 6415,
      "umes": 6416,
      "Ġsuc": 6417,
      "ĠJul": 6418,
      "Ġcompens": 6419,
      "ĠTimes": 6420,
      "ban": 6421,
      "Ġairport": 6422,
      "ras": 6423,
      "Ġenthus": 6424,
      "Ġfacing": 6425,
      "Ġhang": 6426,
      "Ġliked": 6427,
      "ĠSecret": 6428,
      "Ġexclusive": 6429,
      "ĠFurther": 6430,
      "aturally": 6431,
      "ĠStart": 6432,
      "Ġprivacy": 6433,
      "Ġmedicine": 6434,
      "Ġaccessible": 6435,
      "Ġvital": 6436,
      "OP": 6437,
      "itage": 6438,
      "ulture": 6439,
      "luded": 6440,
      "irmed": 6441,
      "Ġinterface": 6442,
      "',": 6443,
      "Ġatmosphere": 6444,
      "Most": 6445,
      "Ġlegs": 6446,
      "ĠInvest": 6447,
      "Ġdiverse": 6448,
      "nic": 6449,
      "Ġmini": 6450,
      "ĠItaly": 6451,
      "Ġsubmit": 6452,
      "Ġrein": 6453,
      "Ġentertainment": 6454,
      "Ġinches": 6455,
      "agon": 6456,
      "orders": 6457,
      "enth": 6458,
      "ĠMP": 6459,
      "Ġsoil": 6460,
      "Ġtiss": 6461,
      "Ġmixture": 6462,
      "ĠSpring": 6463,
      "Ġmic": 6464,
      "ĠCharl": 6465,
      "Ġfilter": 6466,
      "Ġsick": 6467,
      "Ġmainly": 6468,
      "Ġdefault": 6469,
      "Ġsufficient": 6470,
      "ĠGar": 6471,
      "Ġpapers": 6472,
      "Ġdestination": 6473,
      "ints": 6474,
      "Ġadvoc": 6475,
      "Ġcrack": 6476,
      "Ġnuc": 6477,
      "away": 6478,
      "Ġdefense": 6479,
      "Ġprotected": 6480,
      "Ġelig": 6481,
      "Ġdomestic": 6482,
      "ĠMax": 6483,
      "ĠForm": 6484,
      "Ġjudge": 6485,
      "Ġbanks": 6486,
      "Ġobtained": 6487,
      "Pre": 6488,
      "ĠScot": 6489,
      "Ġtechnique": 6490,
      "Ġroutine": 6491,
      "ĠGlobal": 6492,
      "ĠEconom": 6493,
      "Ġoperate": 6494,
      "Qu": 6495,
      "Ġpasseng": 6496,
      "Ġcooper": 6497,
      "ĠEqu": 6498,
      "ns": 6499,
      "Ġcollected": 6500,
      "ĠFestival": 6501,
      "ĠAC": 6502,
      "Ġsubsequ": 6503,
      "Ġadventure": 6504,
      "iate": 6505,
      "Ġintegrated": 6506,
      "Ġhappening": 6507,
      "achel": 6508,
      "ĠCEO": 6509,
      "Ġeveryday": 6510,
      "Ġpleased": 6511,
      "Ġoriginally": 6512,
      "Ġloans": 6513,
      "Ġgod": 6514,
      "Or": 6515,
      "Ġreturns": 6516,
      "Ġattached": 6517,
      "ĠBefore": 6518,
      "Ġchallenging": 6519,
      "ĠHuman": 6520,
      "ĠTable": 6521,
      "Ġarts": 6522,
      "Ġorganized": 6523,
      "ĠProte": 6524,
      "lymp": 6525,
      "Ġfacilit": 6526,
      "ĠWay": 6527,
      "Ġbare": 6528,
      "Ġgarage": 6529,
      "Ġmoist": 6530,
      "Ġphilosoph": 6531,
      "ĠMen": 6532,
      "ificate": 6533,
      "Ġdust": 6534,
      "icit": 6535,
      "Ġtab": 6536,
      "Ġcarbon": 6537,
      "ĠLibrary": 6538,
      "VE": 6539,
      "ĠSoft": 6540,
      "Ġbodies": 6541,
      "ĠCharles": 6542,
      "Ġreplaced": 6543,
      "Ġinstruct": 6544,
      "Ġhabit": 6545,
      "fortunately": 6546,
      "ĠAngeles": 6547,
      "Ġqualified": 6548,
      "Ġscr": 6549,
      "Ġcharged": 6550,
      "ĠIreland": 6551,
      "asters": 6552,
      "Ġmovies": 6553,
      "tle": 6554,
      "Ġdiscussed": 6555,
      "ava": 6556,
      "Ġpossibility": 6557,
      "Ġurban": 6558,
      "EE": 6559,
      "writ": 6560,
      "Ġrevealed": 6561,
      "Ġhur": 6562,
      "Ġreward": 6563,
      "Che": 6564,
      "Ġretire": 6565,
      "Ġspiritual": 6566,
      "Ġscholars": 6567,
      "ĠPenn": 6568,
      "Ġcable": 6569,
      "yan": 6570,
      "Ġflood": 6571,
      "ca": 6572,
      "comes": 6573,
      "ĠArmy": 6574,
      "Ġinnovation": 6575,
      "ĠVirginia": 6576,
      "ĠRichard": 6577,
      "ĠManager": 6578,
      "May": 6579,
      "Ġsurprised": 6580,
      "Ġscheduled": 6581,
      "Ġrelief": 6582,
      "rency": 6583,
      "mond": 6584,
      "Ġoutstanding": 6585,
      "Ġgear": 6586,
      "ĠLead": 6587,
      "Ġfounded": 6588,
      "Tr": 6589,
      "Ġgolf": 6590,
      "Ġkm": 6591,
      "Ġsucceed": 6592,
      "Ġsusp": 6593,
      "ĠMartin": 6594,
      "bridge": 6595,
      "Ġinstrument": 6596,
      "Ġdelay": 6597,
      "Ġbridge": 6598,
      "ĠAD": 6599,
      "Ġfing": 6600,
      "ĠWild": 6601,
      "Ġspok": 6602,
      "Ġfeaturing": 6603,
      "ĠBob": 6604,
      "Ġdisappoint": 6605,
      "elcome": 6606,
      "Ġduty": 6607,
      "gend": 6608,
      "ipl": 6609,
      "ĠCast": 6610,
      "Am": 6611,
      "Ġstunning": 6612,
      "Ġpersonally": 6613,
      "Ke": 6614,
      "Ġpill": 6615,
      "Ġrisks": 6616,
      "Ġbottle": 6617,
      "Ġproof": 6618,
      "Ġexceed": 6619,
      "Ġlau": 6620,
      "ĠBal": 6621,
      "ĠRest": 6622,
      "Ġdeploy": 6623,
      "Ġfavourite": 6624,
      "Ġconstant": 6625,
      "Ġ!": 6626,
      "Ġabsor": 6627,
      "ican": 6628,
      "Ġ;": 6629,
      "Ġflexible": 6630,
      "Ġchoosing": 6631,
      "car": 6632,
      "Ġflour": 6633,
      "berry": 6634,
      "ĠContact": 6635,
      "made": 6636,
      "omin": 6637,
      "uine": 6638,
      "Ġdropped": 6639,
      "Ġlifestyle": 6640,
      "ĠHand": 6641,
      "Ġbasket": 6642,
      "orgeous": 6643,
      "ĠNov": 6644,
      "Ġbrowser": 6645,
      "Ġfishing": 6646,
      "Ġfigures": 6647,
      "Ġhosting": 6648,
      "Ġnormally": 6649,
      "Ġformal": 6650,
      "Ġearned": 6651,
      "Ġpassing": 6652,
      "%.": 6653,
      "aper": 6654,
      "Ġincreases": 6655,
      "Ġdates": 6656,
      "ĠMA": 6657,
      "Ġvirtual": 6658,
      "class": 6659,
      "Ġarchitecture": 6660,
      "Ġprogramme": 6661,
      "Ġgifts": 6662,
      "Ġcreates": 6663,
      "ĠMic": 6664,
      "yard": 6665,
      "Ġstreets": 6666,
      "Ġcritic": 6667,
      "uzz": 6668,
      "Ġfairly": 6669,
      "Ġtub": 6670,
      "Ġaside": 6671,
      "ĠAdminist": 6672,
      "Ġveter": 6673,
      "pat": 6674,
      "stood": 6675,
      "Ġid": 6676,
      "Ġregulations": 6677,
      "Ġnetworks": 6678,
      "Ġreferred": 6679,
      "ĠUl": 6680,
      "Ġimplementation": 6681,
      "case": 6682,
      "Ġerr": 6683,
      "Ġcrucial": 6684,
      "Ġengagement": 6685,
      "idays": 6686,
      "Ġstretch": 6687,
      "ĠEnd": 6688,
      "Ġlistening": 6689,
      "Ġvisited": 6690,
      "ĠFair": 6691,
      "Ġcomponent": 6692,
      "Ġaffili": 6693,
      "swe": 6694,
      "Ġfal": 6695,
      "Te": 6696,
      "Ġdrawing": 6697,
      "edia": 6698,
      "Ġrecognize": 6699,
      "ĠChampions": 6700,
      "Ġundert": 6701,
      "Ġresistance": 6702,
      "iano": 6703,
      "Ġachieved": 6704,
      "According": 6705,
      "front": 6706,
      "gers": 6707,
      "Ġentreprene": 6708,
      "host": 6709,
      "Ġresulting": 6710,
      "rated": 6711,
      "nament": 6712,
      "Ġdifferences": 6713,
      "Ġreputation": 6714,
      "Ġresearchers": 6715,
      "owntown": 6716,
      "Ġages": 6717,
      "Ġorganis": 6718,
      "ĠTrust": 6719,
      "Ġdesired": 6720,
      "ura": 6721,
      "Ġborder": 6722,
      "eline": 6723,
      "elf": 6724,
      "ĠStep": 6725,
      "ĠVan": 6726,
      "Ġguitar": 6727,
      "Ġgrab": 6728,
      "ĠCross": 6729,
      "Ġshops": 6730,
      "Ġbell": 6731,
      "oty": 6732,
      "ĠLast": 6733,
      "Ġgentle": 6734,
      "Ġimmediate": 6735,
      "ĠFort": 6736,
      "uls": 6737,
      "ĠMid": 6738,
      "bar": 6739,
      "anger": 6740,
      "ashed": 6741,
      "ellect": 6742,
      "Ġlessons": 6743,
      "Ġremoval": 6744,
      "Ġconsistent": 6745,
      "ĠControl": 6746,
      "Ġindex": 6747,
      "Ġhidden": 6748,
      "intage": 6749,
      "ĠBoston": 6750,
      "Ġlad": 6751,
      "Ġfasc": 6752,
      "ĠExt": 6753,
      "ĠThus": 6754,
      "ĠOlymp": 6755,
      "otton": 6756,
      "Ġ)": 6757,
      "Ġsomewhere": 6758,
      "âĢĭ": 6759,
      "ĠNE": 6760,
      "Ġattended": 6761,
      "asure": 6762,
      "Ġcabin": 6763,
      "Ġbat": 6764,
      "ĠCoast": 6765,
      "ĠCab": 6766,
      "oir": 6767,
      "Ġje": 6768,
      "Ġextract": 6769,
      "Ab": 6770,
      "Ind": 6771,
      "resents": 6772,
      "Ġsavings": 6773,
      "amps": 6774,
      "Ġcharm": 6775,
      "alendar": 6776,
      "Ġmagazine": 6777,
      "cers": 6778,
      "Ġepisode": 6779,
      "ĠPlace": 6780,
      "ĠGeorg": 6781,
      "Ġtemplate": 6782,
      "ĠInf": 6783,
      "Ġprove": 6784,
      "Ġpharm": 6785,
      "Ġversions": 6786,
      "Ġheav": 6787,
      "Ġclassroom": 6788,
      "Ġtrave": 6789,
      "SC": 6790,
      "Ġpm": 6791,
      "Ġelectrical": 6792,
      "Ġguidance": 6793,
      "Ġcampus": 6794,
      "Ġwinner": 6795,
      "Ġyesterday": 6796,
      "Of": 6797,
      "PC": 6798,
      "abet": 6799,
      "Ġcounty": 6800,
      "ĠAT": 6801,
      "Ġtalent": 6802,
      "Ġtransition": 6803,
      "Ġupcoming": 6804,
      "gas": 6805,
      "Ġinvestigation": 6806,
      "Ġnoise": 6807,
      "Ġwhenever": 6808,
      "Ġmonitor": 6809,
      "Ġhonor": 6810,
      "Ġempty": 6811,
      "Ġpleasure": 6812,
      "Ġvend": 6813,
      "raid": 6814,
      "Ġwriters": 6815,
      "Ġcrisis": 6816,
      "Ġrice": 6817,
      "Ġpartnership": 6818,
      "Ġcos": 6819,
      "Ġtill": 6820,
      "Ġarrive": 6821,
      "Ġhealthcare": 6822,
      "Ġpp": 6823,
      "ĠAR": 6824,
      "Ġdesigner": 6825,
      "oking": 6826,
      "ĠCost": 6827,
      "Ġconcl": 6828,
      "Over": 6829,
      "Ġlib": 6830,
      "Ġprinted": 6831,
      "bles": 6832,
      "Ġterror": 6833,
      "Ġequipped": 6834,
      "Ġmanufacturer": 6835,
      "Im": 6836,
      "ĠPR": 6837,
      "ultural": 6838,
      "ĠFund": 6839,
      "Ġstim": 6840,
      "Ġtank": 6841,
      "Ġgenerate": 6842,
      "ideo": 6843,
      "Ġwidely": 6844,
      "Ġyounger": 6845,
      "Ġcollaboration": 6846,
      "Ġpoet": 6847,
      "Ġfighting": 6848,
      "Ġviolence": 6849,
      "ĠId": 6850,
      "ĠMur": 6851,
      "Ġlinked": 6852,
      "ĠPack": 6853,
      "Ġdivid": 6854,
      "Ġtrick": 6855,
      "Ġthousand": 6856,
      "ĠBed": 6857,
      "Ġauthors": 6858,
      "Ġcandidate": 6859,
      "ĠLittle": 6860,
      "rible": 6861,
      "Ġcapture": 6862,
      "ĠJoe": 6863,
      "Ġclimb": 6864,
      "mary": 6865,
      "ardens": 6866,
      "Ġstrange": 6867,
      "Ġcontro": 6868,
      "ĠChief": 6869,
      "Ġtested": 6870,
      "Ġvacation": 6871,
      "Ġmonitoring": 6872,
      "Ġpipe": 6873,
      "Ġsuddenly": 6874,
      "ĠZeal": 6875,
      "ĠChildren": 6876,
      "adow": 6877,
      "Ġstructures": 6878,
      "Ġhurt": 6879,
      "Ġphen": 6880,
      "Ġexpenses": 6881,
      "Ã¤": 6882,
      "Ġstir": 6883,
      "Ġsin": 6884,
      "Ġlosing": 6885,
      "ogue": 6886,
      "Ġwra": 6887,
      "Ġinvited": 6888,
      "essel": 6889,
      "Ġdescribe": 6890,
      "Have": 6891,
      "Ġcelebrate": 6892,
      "Ġfeelings": 6893,
      "Ġcrime": 6894,
      "Last": 6895,
      "Ġdefend": 6896,
      "inte": 6897,
      "grad": 6898,
      "lled": 6899,
      "rich": 6900,
      "Ġstrategic": 6901,
      "FL": 6902,
      "ĠEnergy": 6903,
      "Ġprinciples": 6904,
      "Ġrecording": 6905,
      "ĠLee": 6906,
      "Ġtrends": 6907,
      "etime": 6908,
      "ppers": 6909,
      "ĠColumb": 6910,
      "ĠFull": 6911,
      "Ġcerem": 6912,
      "aniel": 6913,
      "Ġongoing": 6914,
      "Ġhat": 6915,
      "Ġcertified": 6916,
      "Ġconfident": 6917,
      "ĠRoom": 6918,
      "Ġtransportation": 6919,
      "Ġspin": 6920,
      "Ġvul": 6921,
      "Ġzone": 6922,
      "ĠFederal": 6923,
      "See": 6924,
      "zer": 6925,
      "gypt": 6926,
      "Ġcommittee": 6927,
      "Ġwithd": 6928,
      "ographic": 6929,
      "ĠPub": 6930,
      "Ġgallery": 6931,
      "Ġmile": 6932,
      "Ġhistoric": 6933,
      "Ġwooden": 6934,
      "Ġmeals": 6935,
      "ĠCarolina": 6936,
      "Ġkit": 6937,
      "Ġpromise": 6938,
      "hire": 6939,
      "Ġimproving": 6940,
      "Ġperforming": 6941,
      "Ġoffices": 6942,
      "Ġsuperior": 6943,
      "agues": 6944,
      "ĠBoy": 6945,
      "Ġprimarily": 6946,
      "Ġsharp": 6947,
      "Ġplanet": 6948,
      "amber": 6949,
      "ĠJewish": 6950,
      "long": 6951,
      "Dr": 6952,
      "Ġdental": 6953,
      "ĠSP": 6954,
      "Ġinner": 6955,
      "Ġpowder": 6956,
      "ran": 6957,
      "VD": 6958,
      "ĠLook": 6959,
      "des": 6960,
      "Ġdealing": 6961,
      "Ġexperiment": 6962,
      "pends": 6963,
      "Ġshift": 6964,
      "Ġheads": 6965,
      "Ġrepresents": 6966,
      "ĠUsing": 6967,
      "Ġsaved": 6968,
      "Ġlie": 6969,
      "Ġexposure": 6970,
      "Ġbirds": 6971,
      "ĠAccess": 6972,
      "Ġphotograp": 6973,
      "ulating": 6974,
      "GB": 6975,
      "Ġrecon": 6976,
      "iece": 6977,
      "uction": 6978,
      "Sp": 6979,
      "Ġflavor": 6980,
      "ĠEp": 6981,
      "Ġwatched": 6982,
      "ĠZealand": 6983,
      "REE": 6984,
      "Ġincorpor": 6985,
      "Ġbond": 6986,
      "Ġreform": 6987,
      "Ġbrill": 6988,
      "ĠEs": 6989,
      "Ġanticip": 6990,
      "oup": 6991,
      "Where": 6992,
      "Ġtradition": 6993,
      "Ġrig": 6994,
      "lessly": 6995,
      "Ġbonus": 6996,
      "ĠView": 6997,
      "Ġclothing": 6998,
      "sters": 6999,
      "ĠSouthern": 7000,
      "ĠJeff": 7001,
      "Ġinch": 7002,
      "celer": 7003,
      "liament": 7004,
      "iments": 7005,
      "Ġsink": 7006,
      "aping": 7007,
      "Ġextent": 7008,
      "erning": 7009,
      "yers": 7010,
      "Ġdispos": 7011,
      "ĠAng": 7012,
      "Ġopposite": 7013,
      "Ġquote": 7014,
      "ĠCe": 7015,
      "htt": 7016,
      "ĠHenry": 7017,
      "folio": 7018,
      "ĠSometimes": 7019,
      "Ġmanaging": 7020,
      "ĠChair": 7021,
      "ĠBible": 7022,
      "inem": 7023,
      "ĠLog": 7024,
      "ĠFarm": 7025,
      "Ġfacts": 7026,
      "Ġhadn": 7027,
      "Ġjustice": 7028,
      "Ġteen": 7029,
      "ĠTru": 7030,
      "Ġeggs": 7031,
      "ĠIslam": 7032,
      "Ġbags": 7033,
      "Ġclar": 7034,
      "law": 7035,
      "worth": 7036,
      "Ġdirected": 7037,
      "ĠGame": 7038,
      "Ġseriously": 7039,
      "ht": 7040,
      "date": 7041,
      "Ġstored": 7042,
      "Ġsomewhat": 7043,
      "Ġpursu": 7044,
      "Ġcounsel": 7045,
      "Today": 7046,
      "Ġattacks": 7047,
      "Ġfolks": 7048,
      "liers": 7049,
      "live": 7050,
      "ĠVill": 7051,
      "Ġmembership": 7052,
      "eling": 7053,
      "Ġfiled": 7054,
      "eah": 7055,
      "Ġcrusher": 7056,
      "Ġchose": 7057,
      "ĠYet": 7058,
      "Ġslot": 7059,
      "ĠAuthor": 7060,
      "Ġyard": 7061,
      "Ġpreparation": 7062,
      "itan": 7063,
      "lder": 7064,
      "GE": 7065,
      "Ġreporting": 7066,
      "ĠWalk": 7067,
      "Ġultimately": 7068,
      "Ġdumpster": 7069,
      "ifies": 7070,
      "terior": 7071,
      "ba": 7072,
      "UL": 7073,
      "inent": 7074,
      "Ġconflict": 7075,
      "ĠHope": 7076,
      "odge": 7077,
      "ĠCode": 7078,
      "Ġmerch": 7079,
      "ĠMike": 7080,
      "ĠSea": 7081,
      "Ġpra": 7082,
      "Ġdynamic": 7083,
      "ĠBow": 7084,
      "Ġmagic": 7085,
      "Ġterrit": 7086,
      "ĠLiving": 7087,
      "Ġstain": 7088,
      "Ġathlet": 7089,
      "Ġagric": 7090,
      "Ġtomorrow": 7091,
      "erate": 7092,
      "Ġpossess": 7093,
      "Ġevol": 7094,
      "Ġflower": 7095,
      "Ġworst": 7096,
      "Ġcontribute": 7097,
      "Ġcommunications": 7098,
      "arters": 7099,
      "Ġtaxes": 7100,
      "Ġfollows": 7101,
      "Ġattorney": 7102,
      "Ġgraduate": 7103,
      "Ġextension": 7104,
      "ĠPoint": 7105,
      "Ġsevere": 7106,
      "ĠKen": 7107,
      "Ġengaged": 7108,
      "Ġaircraft": 7109,
      "quir": 7110,
      "Ġadds": 7111,
      "inch": 7112,
      "Ġauthorities": 7113,
      "Ġpink": 7114,
      "Ġblank": 7115,
      "ĠLib": 7116,
      "Ġtor": 7117,
      "Ġseats": 7118,
      "Ġshoulder": 7119,
      "iana": 7120,
      "ĠTri": 7121,
      "Ġther": 7122,
      "Ġawarded": 7123,
      "Ġsolve": 7124,
      "More": 7125,
      "zil": 7126,
      "Ġfitness": 7127,
      "Ġstruggle": 7128,
      "ĠCir": 7129,
      "Ġpersons": 7130,
      "Ġmanufacturers": 7131,
      "ĠSon": 7132,
      "lements": 7133,
      "Ġpermanent": 7134,
      "ĠKey": 7135,
      "Ġgate": 7136,
      "ĠDef": 7137,
      "ĠExecut": 7138,
      "Ġobserved": 7139,
      "Ġunex": 7140,
      "Ġblind": 7141,
      "Ġsuffering": 7142,
      "pel": 7143,
      "iences": 7144,
      "ĠKn": 7145,
      "Ġcute": 7146,
      "level": 7147,
      "ĠCond": 7148,
      "ĠDC": 7149,
      "ih": 7150,
      "ĠInte": 7151,
      "ĠPacific": 7152,
      "Per": 7153,
      "Ġcriminal": 7154,
      "zing": 7155,
      "Ġoverw": 7156,
      "Ġconsists": 7157,
      "Click": 7158,
      "Ġcompare": 7159,
      "ĠReferences": 7160,
      "Ġvent": 7161,
      "Ġincreasingly": 7162,
      "ãĢ": 7163,
      "Ġvictory": 7164,
      "Ġgenuine": 7165,
      "Ġillness": 7166,
      "stream": 7167,
      "Ġarmy": 7168,
      "ĠBell": 7169,
      "Ġafraid": 7170,
      "Although": 7171,
      "Ġphotography": 7172,
      "Ġsustainable": 7173,
      "ĠKingdom": 7174,
      "ml": 7175,
      "Ġplatforms": 7176,
      "Americ": 7177,
      "iverse": 7178,
      "Ġsending": 7179,
      "TC": 7180,
      "tes": 7181,
      "oster": 7182,
      "Ġcareful": 7183,
      "Ġinjuries": 7184,
      "Ġraw": 7185,
      "bered": 7186,
      "bury": 7187,
      "Ġyield": 7188,
      "Ġestimated": 7189,
      "anes": 7190,
      "Ġstorm": 7191,
      "Ġworkshop": 7192,
      "holders": 7193,
      "ancer": 7194,
      "Ġbrow": 7195,
      "rick": 7196,
      "ĠPrem": 7197,
      "eding": 7198,
      "ĠCa": 7199,
      "Ġregions": 7200,
      "Ġpolitics": 7201,
      "ĠSanta": 7202,
      "Ġtone": 7203,
      "comm": 7204,
      "Ġhook": 7205,
      "Ġvisible": 7206,
      "ĠWin": 7207,
      "MP": 7208,
      "gor": 7209,
      "Ġmemories": 7210,
      "Ġhole": 7211,
      "Ġmining": 7212,
      "Ġattractive": 7213,
      "Ġalongside": 7214,
      "othe": 7215,
      "Ġdecade": 7216,
      "ĠHospital": 7217,
      "och": 7218,
      "ĠYoung": 7219,
      "Ġnarr": 7220,
      "ĠFollow": 7221,
      "ĠSir": 7222,
      "then": 7223,
      "Ġtack": 7224,
      "Ġchest": 7225,
      "Ġdepends": 7226,
      "Ġtracks": 7227,
      "Ġpor": 7228,
      "Ġmuscle": 7229,
      "Ġwash": 7230,
      "Ġconfirmed": 7231,
      "Ġreader": 7232,
      "Ġpoker": 7233,
      "Ġinterpret": 7234,
      "rage": 7235,
      "ĠChris": 7236,
      "Ġproven": 7237,
      "Ġamounts": 7238,
      "stra": 7239,
      "profit": 7240,
      "Ġalle": 7241,
      "ĠDub": 7242,
      "Ġscan": 7243,
      "ĠColl": 7244,
      "Ġpod": 7245,
      "Ġaccord": 7246,
      "ĠHor": 7247,
      "ĠQueen": 7248,
      "plete": 7249,
      "ĠSign": 7250,
      "Ġhumans": 7251,
      "ĠSite": 7252,
      "isted": 7253,
      "uster": 7254,
      "ĠReport": 7255,
      "Ġintent": 7256,
      "ĠNote": 7257,
      "Go": 7258,
      "Ġtip": 7259,
      "Ġhoping": 7260,
      "Ġlapt": 7261,
      "haust": 7262,
      "osa": 7263,
      "ĠDivision": 7264,
      "Int": 7265,
      "Ġcommonly": 7266,
      "ĠNext": 7267,
      "Ġcontest": 7268,
      "ĠSpirit": 7269,
      "ĠOpt": 7270,
      "ennis": 7271,
      "Ġneither": 7272,
      "âĢĺ": 7273,
      "iser": 7274,
      "ĠSaf": 7275,
      "ione": 7276,
      "Ġsynt": 7277,
      "rition": 7278,
      "Ġreduction": 7279,
      "Ġstring": 7280,
      "ĠJohnson": 7281,
      "Ġgorgeous": 7282,
      "Ġexception": 7283,
      "ĠEgypt": 7284,
      "ĠCreat": 7285,
      "Ġrepeated": 7286,
      "ĠKar": 7287,
      "izer": 7288,
      "ounded": 7289,
      "nce": 7290,
      "Ġunderstood": 7291,
      "Ġjew": 7292,
      "Ġentrance": 7293,
      "Ġanyway": 7294,
      "ĠHard": 7295,
      "Ġscheme": 7296,
      "Ġdrawn": 7297,
      "Ġmillions": 7298,
      "Ġlucky": 7299,
      "Ġmarked": 7300,
      "Ġhotels": 7301,
      "ĠAri": 7302,
      "Ġintelligence": 7303,
      "eping": 7304,
      "person": 7305,
      "ĠiP": 7306,
      "unicip": 7307,
      "ĠBritain": 7308,
      "BI": 7309,
      "Ġalive": 7310,
      "Also": 7311,
      "Ġweekly": 7312,
      "irts": 7313,
      "Ġsplit": 7314,
      "Ġsatisfaction": 7315,
      "Ġhung": 7316,
      "bel": 7317,
      "Ġlaid": 7318,
      "Ġliterature": 7319,
      "Ġultimate": 7320,
      "Ġshooting": 7321,
      "Ġforgot": 7322,
      "ĠPriv": 7323,
      "Ġcarrying": 7324,
      "cons": 7325,
      "ĠPo": 7326,
      "Ġforever": 7327,
      "Ġlogo": 7328,
      "Ġpocket": 7329,
      "ĠHa": 7330,
      "eters": 7331,
      "Ġfestival": 7332,
      "ĠDoes": 7333,
      "Ġfunctional": 7334,
      "ĠHim": 7335,
      "Ġroles": 7336,
      "ument": 7337,
      "Ġunw": 7338,
      "Ġrecipes": 7339,
      "Ġproducing": 7340,
      "Ġaccomplish": 7341,
      "Ġexistence": 7342,
      "athy": 7343,
      "iking": 7344,
      "Even": 7345,
      "ĠAbout": 7346,
      "ATION": 7347,
      "ailable": 7348,
      "Ġboxes": 7349,
      "Pe": 7350,
      "ĠHon": 7351,
      "Ġentit": 7352,
      "Ġstead": 7353,
      "ati": 7354,
      "lers": 7355,
      "Ġconsideration": 7356,
      "Car": 7357,
      "anche": 7358,
      "ĠFOR": 7359,
      "Ġfirms": 7360,
      "Ġblocks": 7361,
      "ĠDisc": 7362,
      "Ġspark": 7363,
      "Ġ..": 7364,
      "ĠFrancisco": 7365,
      "ĠNorthern": 7366,
      "Ġsuggests": 7367,
      "Ġconnections": 7368,
      "Ġaccessories": 7369,
      "Ġconscious": 7370,
      "Ġcomparison": 7371,
      "Ġtech": 7372,
      "Ġmand": 7373,
      "Ġtreatments": 7374,
      "Ġnewly": 7375,
      "Ġconvent": 7376,
      "Ġcoat": 7377,
      "ayer": 7378,
      "Ġmac": 7379,
      "ĠFar": 7380,
      "Ġdriven": 7381,
      "Ġintroduction": 7382,
      "Ġprinting": 7383,
      "Ġenforce": 7384,
      "lyn": 7385,
      "LY": 7386,
      "ĠJersey": 7387,
      "ouch": 7388,
      "ĠMult": 7389,
      "ĠMS": 7390,
      "ĠGreek": 7391,
      "neys": 7392,
      "Ġmoves": 7393,
      "Ġinvolves": 7394,
      "Ġflash": 7395,
      "Ġindustries": 7396,
      "Ġvessel": 7397,
      "stery": 7398,
      "Ġprospect": 7399,
      "Ġenables": 7400,
      "ught": 7401,
      "ĠAccount": 7402,
      "Ġcrazy": 7403,
      "Ġdishes": 7404,
      "unior": 7405,
      "Ġcommunicate": 7406,
      "Ġtransp": 7407,
      "Ġdreams": 7408,
      "Ġapproval": 7409,
      "Ġdisplayed": 7410,
      "vas": 7411,
      "Ġfinance": 7412,
      "Ġinstant": 7413,
      "????": 7414,
      "Ġcontrolled": 7415,
      "ĠJon": 7416,
      "ĠTerm": 7417,
      "Ġbars": 7418,
      "ĠBath": 7419,
      "Ġenterprise": 7420,
      "df": 7421,
      "Ġdrinking": 7422,
      "Ġille": 7423,
      "Ġbench": 7424,
      "Ġsoph": 7425,
      "acle": 7426,
      "stal": 7427,
      "ĠSuch": 7428,
      "bi": 7429,
      "ĠIran": 7430,
      "Ġma": 7431,
      "ĠLive": 7432,
      "ĠApplic": 7433,
      "ĠSystems": 7434,
      "ĠCatholic": 7435,
      "Ġlies": 7436,
      "Whe": 7437,
      "During": 7438,
      "Ġnaturally": 7439,
      "izz": 7440,
      "Ġincident": 7441,
      "Ġargument": 7442,
      "Ġwave": 7443,
      "Ġreducing": 7444,
      "ĠFour": 7445,
      "Ġintellect": 7446,
      "ĠObama": 7447,
      "ĠSmall": 7448,
      "Ġvegetables": 7449,
      "sell": 7450,
      "Man": 7451,
      "Ġspecialist": 7452,
      "Ġru": 7453,
      "Ġarray": 7454,
      "Ġstuck": 7455,
      "Ġtalked": 7456,
      "elly": 7457,
      "Ġhealing": 7458,
      "Ġconcerning": 7459,
      "urse": 7460,
      "Ġpercentage": 7461,
      "ressed": 7462,
      "Ġencoun": 7463,
      "atics": 7464,
      "Ġacts": 7465,
      "tocol": 7466,
      "Ġseed": 7467,
      "uling": 7468,
      "ĠSky": 7469,
      "Ġpreferred": 7470,
      "ulpt": 7471,
      "Ġgenerated": 7472,
      "Ġcategories": 7473,
      "Ġunus": 7474,
      "Ġmanagers": 7475,
      "quality": 7476,
      "ĠConf": 7477,
      "Ġavailability": 7478,
      "Ġlatter": 7479,
      "Ġcausing": 7480,
      "ped": 7481,
      "orses": 7482,
      "Ġvulner": 7483,
      "Ġrevolution": 7484,
      "reate": 7485,
      "Ġdebut": 7486,
      "Ġpresents": 7487,
      "Ġstatements": 7488,
      "ĠLow": 7489,
      "Hi": 7490,
      "Ġrelative": 7491,
      "Ġdivision": 7492,
      "Ġhospit": 7493,
      "AB": 7494,
      "ocation": 7495,
      "ĠJac": 7496,
      "Ġfaces": 7497,
      "ĠBon": 7498,
      "rently": 7499,
      "Ġhandling": 7500,
      "Ġbreast": 7501,
      "Ġlikes": 7502,
      "Mar": 7503,
      "Ġoccurred": 7504,
      "ĠDie": 7505,
      "orters": 7506,
      "ĠThough": 7507,
      "Ġtooth": 7508,
      "ĠSports": 7509,
      "ĠEll": 7510,
      "Ġinsight": 7511,
      "Ġdefinition": 7512,
      "ĠJones": 7513,
      "Ġhell": 7514,
      "Ġrecognition": 7515,
      "Ġviewed": 7516,
      "Ġcodes": 7517,
      "Ġfalse": 7518,
      "ĠCook": 7519,
      "Ġoverwhel": 7520,
      "Who": 7521,
      "Ġinteract": 7522,
      "ĠLin": 7523,
      "Ġcontrols": 7524,
      "Ġsubmitted": 7525,
      "Ġswimming": 7526,
      "Ġexplan": 7527,
      "Ġocean": 7528,
      "andon": 7529,
      "Ġescape": 7530,
      "ĠGames": 7531,
      "ĠLine": 7532,
      "Ġphr": 7533,
      "ogen": 7534,
      "ĠDigital": 7535,
      "ĠSpain": 7536,
      "ĠNight": 7537,
      "Ġstake": 7538,
      "DS": 7539,
      "ĠRose": 7540,
      "eting": 7541,
      "inity": 7542,
      "Ġmortgage": 7543,
      "###": 7544,
      "ĠDid": 7545,
      "ĠIrish": 7546,
      "Ġdevelopers": 7547,
      "Ġcarpet": 7548,
      "aints": 7549,
      "Ġframework": 7550,
      "onto": 7551,
      "Ġmob": 7552,
      "Ġchannels": 7553,
      "Ġinfl": 7554,
      "Ġtransaction": 7555,
      "ĠDan": 7556,
      "Ġfinger": 7557,
      "ansas": 7558,
      "Ġcapabilities": 7559,
      "Ġshouldn": 7560,
      "Ġdent": 7561,
      "Ġoblig": 7562,
      "Ġcolon": 7563,
      "Ġlargely": 7564,
      "Ġlake": 7565,
      "amental": 7566,
      "Ġsorry": 7567,
      "Ġalign": 7568,
      "ĠOhio": 7569,
      "Ġsurprising": 7570,
      "Ġbehalf": 7571,
      "Ġcoal": 7572,
      "HS": 7573,
      "Bu": 7574,
      "war": 7575,
      "Ġlect": 7576,
      "Ġbull": 7577,
      "Ġreaction": 7578,
      "Ġeverywhere": 7579,
      "Ġcontained": 7580,
      "Ġpurs": 7581,
      "Ġattra": 7582,
      "Ġscored": 7583,
      "ikes": 7584,
      "Ġleague": 7585,
      "Ġexpressed": 7586,
      "Ġsuffe": 7587,
      "Ġbone": 7588,
      "Ġneighb": 7589,
      "uten": 7590,
      "ila": 7591,
      "Ġprogramming": 7592,
      "Ġrele": 7593,
      "ĠPot": 7594,
      "Ġenjoying": 7595,
      "Ġstrict": 7596,
      "ĠDar": 7597,
      "Ġsubjects": 7598,
      "Ġvibr": 7599,
      "ĠPA": 7600,
      "Ġrecommendations": 7601,
      "ensus": 7602,
      "site": 7603,
      "Ġanxiety": 7604,
      "ĠAp": 7605,
      "Ġorigin": 7606,
      "ĠMir": 7607,
      "ĠLink": 7608,
      "ĠWorks": 7609,
      "Ġnic": 7610,
      "Ġmold": 7611,
      "Ġyards": 7612,
      "Ġbroke": 7613,
      "âĢĻ,": 7614,
      "Ġmarks": 7615,
      "Ġpermission": 7616,
      "Ġham": 7617,
      "Ġmood": 7618,
      "RS": 7619,
      "Ġwhilst": 7620,
      "Ġcouncil": 7621,
      "Ġconcepts": 7622,
      "Ġcovering": 7623,
      "pack": 7624,
      "Ġsensitive": 7625,
      "Ġdiscl": 7626,
      "Ġawards": 7627,
      "CD": 7628,
      "Ġplain": 7629,
      "Ġpace": 7630,
      "Ġpricing": 7631,
      "ĠJoseph": 7632,
      "earing": 7633,
      "atell": 7634,
      "ĠAsh": 7635,
      "Ġeligible": 7636,
      "including": 7637,
      "Ġknock": 7638,
      "Ġlimits": 7639,
      "Ġrequests": 7640,
      "onym": 7641,
      "ĠWebs": 7642,
      "Ġstations": 7643,
      "Ġequival": 7644,
      "Ġbaking": 7645,
      "Ġpriority": 7646,
      "ja": 7647,
      "Ġguidelines": 7648,
      "anna": 7649,
      "ieties": 7650,
      "uous": 7651,
      "ĠEngineering": 7652,
      "ĠGarden": 7653,
      "Ġapplicable": 7654,
      "ĠMichigan": 7655,
      "Ġtrib": 7656,
      "Ġjuice": 7657,
      "Ġconsumption": 7658,
      "Ġdispl": 7659,
      "ĠJackson": 7660,
      "Ġera": 7661,
      "ĠComput": 7662,
      "Ġusage": 7663,
      "Ġlawyer": 7664,
      "Ġfactory": 7665,
      "Ġhes": 7666,
      "Ġdoctors": 7667,
      "ĠSU": 7668,
      "Ġcompliance": 7669,
      "apore": 7670,
      "Ġfaculty": 7671,
      "CO": 7672,
      "Ġcock": 7673,
      "Ġrepresented": 7674,
      "erving": 7675,
      "ĠWeek": 7676,
      "Ġportfolio": 7677,
      "friendly": 7678,
      "Ġresort": 7679,
      "Press": 7680,
      "Ġsamples": 7681,
      "ĠThree": 7682,
      "Ġpul": 7683,
      "Ġcontinuing": 7684,
      "Ġstro": 7685,
      "Ġcompat": 7686,
      "ĠLED": 7687,
      "Ġheating": 7688,
      "Ġappointed": 7689,
      "Ġcalm": 7690,
      "ĠPhys": 7691,
      "ĠExecutive": 7692,
      "plates": 7693,
      "roller": 7694,
      "uct": 7695,
      "ĠTer": 7696,
      "Ġsouthern": 7697,
      "ĠBall": 7698,
      "Ġfunny": 7699,
      "ĠFed": 7700,
      "Ġpotentially": 7701,
      "Ġrating": 7702,
      "Ġpepper": 7703,
      "Ġrising": 7704,
      "ĠPolice": 7705,
      "jo": 7706,
      "ĠAndrew": 7707,
      "Great": 7708,
      "Ġstudied": 7709,
      "AA": 7710,
      "Ġblend": 7711,
      "ĠSn": 7712,
      "Ġminim": 7713,
      "Ġsections": 7714,
      "ĠInstagram": 7715,
      "Ġexhibition": 7716,
      "Ġexpansion": 7717,
      "Ġnod": 7718,
      "Ġlists": 7719,
      "Ġjoining": 7720,
      "Ġensuring": 7721,
      "ĠPen": 7722,
      "cover": 7723,
      "fall": 7724,
      "anted": 7725,
      "Ġflying": 7726,
      "ĠNever": 7727,
      "low": 7728,
      "Ġexposed": 7729,
      "Ġincredibly": 7730,
      "Ġexhaust": 7731,
      "Ġcontaining": 7732,
      "da": 7733,
      "ĠBox": 7734,
      "ìĿ": 7735,
      "Good": 7736,
      "Ġpride": 7737,
      "Ġdeposit": 7738,
      "ĠRight": 7739,
      "ologist": 7740,
      "Ġyours": 7741,
      "ystem": 7742,
      "ĠHun": 7743,
      "Ġceiling": 7744,
      "ĠOx": 7745,
      "ĠFord": 7746,
      "Ġlift": 7747,
      "VER": 7748,
      "iversary": 7749,
      "Ġclaimed": 7750,
      "Ġpurchasing": 7751,
      "making": 7752,
      "ĠHoly": 7753,
      "ĠStore": 7754,
      "ĠOrder": 7755,
      "Ġgreatly": 7756,
      "ateful": 7757,
      "EST": 7758,
      "Ġnecessarily": 7759,
      "Ġcabinet": 7760,
      "RI": 7761,
      "omy": 7762,
      "ĠSupport": 7763,
      "Ġalarm": 7764,
      "Ġfalling": 7765,
      "cular": 7766,
      "abeth": 7767,
      "ĠWilliams": 7768,
      "ĠEnvironment": 7769,
      "Ġmaintaining": 7770,
      "ĠStudents": 7771,
      "Ġobviously": 7772,
      "ĠFather": 7773,
      "Ġhel": 7774,
      "quis": 7775,
      "Ġhttps": 7776,
      "missions": 7777,
      "Ġkil": 7778,
      "ĠMountain": 7779,
      "swered": 7780,
      "Ġstable": 7781,
      "Ġmerely": 7782,
      "Ġindicate": 7783,
      "heast": 7784,
      "cut": 7785,
      "ĠArea": 7786,
      "ĠBrazil": 7787,
      "cking": 7788,
      "Ġloose": 7789,
      "Ġseeds": 7790,
      "Ġrequirement": 7791,
      "ĠInsurance": 7792,
      "ĠGuide": 7793,
      "olid": 7794,
      "Ġregardless": 7795,
      "ĠKnow": 7796,
      "tense": 7797,
      "ĠMuslim": 7798,
      "Ġinspe": 7799,
      "Ġminimal": 7800,
      "Ġtoile": 7801,
      "Ġbact": 7802,
      "ĠFre": 7803,
      "ĠCapt": 7804,
      "ĠWhich": 7805,
      "ĠAirport": 7806,
      "bro": 7807,
      "Ġshell": 7808,
      "Ġroads": 7809,
      "Ġheaded": 7810,
      "Ġrenov": 7811,
      "ĠOS": 7812,
      "Ġtired": 7813,
      "Ġsupplement": 7814,
      "Ġenemy": 7815,
      "ocated": 7816,
      "Ġnuclear": 7817,
      "Ġoccurs": 7818,
      "acious": 7819,
      "Ġque": 7820,
      "ĠKitchen": 7821,
      "Ġhydro": 7822,
      "Ġelegant": 7823,
      "Ġrural": 7824,
      "Ġmatches": 7825,
      "ĠPak": 7826,
      "Ġerrors": 7827,
      "ags": 7828,
      "riers": 7829,
      "Ġsuggestions": 7830,
      "Ġstaying": 7831,
      "Ġbasically": 7832,
      "Ġsmoke": 7833,
      "oos": 7834,
      "Ġfilling": 7835,
      "ĠVery": 7836,
      "oted": 7837,
      "Ġexceptional": 7838,
      "igr": 7839,
      "Ġcookies": 7840,
      "osc": 7841,
      "Ġfingers": 7842,
      "ĠRam": 7843,
      "Ġloving": 7844,
      "Ġpassword": 7845,
      "Ġacting": 7846,
      "stein": 7847,
      "athered": 7848,
      "Ġgained": 7849,
      "Ġassume": 7850,
      "ulum": 7851,
      "Ġcombine": 7852,
      "una": 7853,
      "ĠWatch": 7854,
      "Ġdebate": 7855,
      "Ġpitch": 7856,
      "Ñĥ": 7857,
      "ĠCR": 7858,
      "Ġpounds": 7859,
      "bration": 7860,
      "ĠBa": 7861,
      "ĠCP": 7862,
      "Ġimper": 7863,
      "dy": 7864,
      "Ġtwe": 7865,
      "bell": 7866,
      "Ġapproaches": 7867,
      "Ġwireless": 7868,
      "ĠUt": 7869,
      "Ġassociation": 7870,
      "Ġmaintained": 7871,
      "Ġanswered": 7872,
      "ĠPop": 7873,
      "Ġunexpected": 7874,
      "ĠPerhaps": 7875,
      "Ġreligion": 7876,
      "ĠSS": 7877,
      "Ġoutcome": 7878,
      "ĠTurn": 7879,
      "Ġtrim": 7880,
      "Ġabuse": 7881,
      "ceived": 7882,
      "ckets": 7883,
      "Ġvert": 7884,
      "iger": 7885,
      "Ġrely": 7886,
      "icity": 7887,
      "ĠPDF": 7888,
      "gent": 7889,
      "Ġbuff": 7890,
      "Ġchecking": 7891,
      "Ġdrag": 7892,
      "foot": 7893,
      "lose": 7894,
      "Ã¨": 7895,
      "EA": 7896,
      "uis": 7897,
      "Ġcomplicated": 7898,
      "Ġborrow": 7899,
      "Ġpointed": 7900,
      "Ġplot": 7901,
      "Ġrecover": 7902,
      "Ġdemands": 7903,
      "Ġloud": 7904,
      "zed": 7905,
      "Ġremem": 7906,
      "Ġweren": 7907,
      "ĠSwed": 7908,
      "Ġchances": 7909,
      "Ġorange": 7910,
      "ĠChapter": 7911,
      "Ġpersonality": 7912,
      "Ġbuyers": 7913,
      "ipt": 7914,
      "Ġmountains": 7915,
      "ilipp": 7916,
      "Ġfinds": 7917,
      "Ġarrival": 7918,
      "ĠTry": 7919,
      "rect": 7920,
      "Ġbranch": 7921,
      "Tube": 7922,
      "Ġencouraged": 7923,
      "itches": 7924,
      "ucky": 7925,
      "Ġneut": 7926,
      "Ġtap": 7927,
      "Ġrespectively": 7928,
      "bra": 7929,
      "tics": 7930,
      "ĠAgain": 7931,
      "Ġinsert": 7932,
      "ĠCra": 7933,
      "Ġcalendar": 7934,
      "ĠFinancial": 7935,
      "Ġgranted": 7936,
      "Ġpackages": 7937,
      "Ġwaters": 7938,
      "Ġclock": 7939,
      "Ġlisting": 7940,
      "Mr": 7941,
      "Ġisol": 7942,
      "phones": 7943,
      "etary": 7944,
      "ĠAsian": 7945,
      "cific": 7946,
      "Fr": 7947,
      "racy": 7948,
      "MC": 7949,
      "Ġsought": 7950,
      "ĠIdeas": 7951,
      "Ġunknown": 7952,
      "Ġoutcomes": 7953,
      "Ġapplying": 7954,
      "ali": 7955,
      "Ġdiseases": 7956,
      "ĠTax": 7957,
      "ĠSher": 7958,
      "ĠFoot": 7959,
      "Ġchairs": 7960,
      "Ġobst": 7961,
      "asting": 7962,
      "Ġtissue": 7963,
      "Ġnorthern": 7964,
      "Ġtraveling": 7965,
      "Ġnights": 7966,
      "ĠGeorgia": 7967,
      "ĠMah": 7968,
      "Ġspray": 7969,
      "Ġads": 7970,
      "izza": 7971,
      "ĠCro": 7972,
      "ey": 7973,
      "Ġabandon": 7974,
      "Ġcharacteristics": 7975,
      "Ġevaluation": 7976,
      "Ġbelieves": 7977,
      "Ġzero": 7978,
      "Ġstronger": 7979,
      "Ġintegration": 7980,
      "Ġlanguages": 7981,
      "Ġjewel": 7982,
      "Ġattach": 7983,
      "Ġelectricity": 7984,
      "istant": 7985,
      "Ġacceler": 7986,
      "proof": 7987,
      "Ġrapidly": 7988,
      "reement": 7989,
      "ĠMatt": 7990,
      "Ġinvolving": 7991,
      "ĠCrus": 7992,
      "Ġdrinks": 7993,
      "Ġlesson": 7994,
      "ĠColorado": 7995,
      "eness": 7996,
      "Ġpublication": 7997,
      "ĠShop": 7998,
      "Ġproposal": 7999,
      "uing": 8000,
      "gorith": 8001,
      "Will": 8002,
      "enny": 8003,
      "igate": 8004,
      "ĠSteve": 8005,
      "Ġbab": 8006,
      "Ġtalks": 8007,
      "Rec": 8008,
      "Ġtrips": 8009,
      "looking": 8010,
      "ĠRay": 8011,
      "ĠMobile": 8012,
      "ĠHaving": 8013,
      "Ġtum": 8014,
      "Ġplane": 8015,
      "ĠProper": 8016,
      "ĠStation": 8017,
      "Ġdeeply": 8018,
      "Ġshots": 8019,
      "Ġheaven": 8020,
      "Ġcircuit": 8021,
      "Ġbooking": 8022,
      "ĠPrice": 8023,
      "ĠPract": 8024,
      "ĠPage": 8025,
      "Ġmm": 8026,
      "igent": 8027,
      "ĠWi": 8028,
      "Ġstages": 8029,
      "Ġintense": 8030,
      "ĠNon": 8031,
      "ĠSC": 8032,
      "was": 8033,
      "ĠBuy": 8034,
      "char": 8035,
      "ĠRoll": 8036,
      "weet": 8037,
      "ĠSus": 8038,
      "Ġobjective": 8039,
      "ĠSH": 8040,
      "Ġliterally": 8041,
      "Sm": 8042,
      "ĠOk": 8043,
      "ĠDisney": 8044,
      "!)": 8045,
      "Ġcenters": 8046,
      "ollywood": 8047,
      "Ġscar": 8048,
      "Ġhoriz": 8049,
      "Ġgiant": 8050,
      "ĠModern": 8051,
      "Ġspots": 8052,
      "Book": 8053,
      "Ġholidays": 8054,
      "pir": 8055,
      "ĠForce": 8056,
      "ĠLeg": 8057,
      "oto": 8058,
      "ureau": 8059,
      "Ġtelephone": 8060,
      "Ġconsultation": 8061,
      "Ġgraphics": 8062,
      "ĠFred": 8063,
      "isms": 8064,
      "Ġscientists": 8065,
      "Ġstayed": 8066,
      "Ġlegislation": 8067,
      "words": 8068,
      "Next": 8069,
      "Ġinstruction": 8070,
      "LS": 8071,
      "Ġfaced": 8072,
      "Note": 8073,
      "ĠProfessor": 8074,
      "Ġcontainer": 8075,
      "ĠEnt": 8076,
      "Ġreject": 8077,
      "ĠAff": 8078,
      "Ġassigned": 8079,
      "ĠStudies": 8080,
      "ĠViet": 8081,
      "ĠBang": 8082,
      "acon": 8083,
      "Ġgolden": 8084,
      "ificial": 8085,
      "ĠSEO": 8086,
      "igen": 8087,
      "ĠExpl": 8088,
      "ador": 8089,
      "Ġbrilliant": 8090,
      "Ġsetup": 8091,
      "Ġfundamental": 8092,
      "FC": 8093,
      "Fi": 8094,
      "Ġsatisfied": 8095,
      "Ġbroadcast": 8096,
      "Ġpainted": 8097,
      "Ġelected": 8098,
      "ults": 8099,
      "ials": 8100,
      "Ġretirement": 8101,
      "page": 8102,
      "Ġdecent": 8103,
      "nda": 8104,
      "Ġstrongly": 8105,
      "Ġupgrade": 8106,
      "ampion": 8107,
      "eras": 8108,
      "ĠBuilding": 8109,
      "Ġdamaged": 8110,
      "ĠTravel": 8111,
      "Read": 8112,
      "Ġsecondary": 8113,
      "adel": 8114,
      "Ġequally": 8115,
      "Ġmirror": 8116,
      "Ġacquired": 8117,
      "owers": 8118,
      "Ġweapons": 8119,
      "Ġclosing": 8120,
      "Ġfest": 8121,
      "ĠSpace": 8122,
      "ds": 8123,
      "Ġresume": 8124,
      "Ġhate": 8125,
      "ĠSilver": 8126,
      "iki": 8127,
      "Ġcorrectly": 8128,
      "redit": 8129,
      "Rem": 8130,
      "Ġdeeper": 8131,
      "Ġstudying": 8132,
      "Ġreturning": 8133,
      "Ġcolours": 8134,
      "Ġvenue": 8135,
      "Ġpig": 8136,
      "ĠKent": 8137,
      "ĠGirl": 8138,
      "Ġphotographs": 8139,
      "Ġdiagram": 8140,
      "tains": 8141,
      "ĠSummer": 8142,
      "Ġ`": 8143,
      "wan": 8144,
      "Ġpreparing": 8145,
      "acc": 8146,
      "Ġvolunteers": 8147,
      "ĠMcC": 8148,
      "Ġadopted": 8149,
      "Ġreact": 8150,
      "Ġshirt": 8151,
      "ruption": 8152,
      "arks": 8153,
      "oes": 8154,
      "Ġparticipation": 8155,
      "Ġhosted": 8156,
      "Ġdowntown": 8157,
      "ĠBeaut": 8158,
      "Ġphones": 8159,
      "Ġacquis": 8160,
      "Ġreprodu": 8161,
      "omatic": 8162,
      "ugs": 8163,
      "Ġchecked": 8164,
      "Ġreaching": 8165,
      "iler": 8166,
      "uma": 8167,
      "anned": 8168,
      "Ġlady": 8169,
      "ĠMov": 8170,
      "ĠIra": 8171,
      "Ġamend": 8172,
      "iform": 8173,
      "ĠMarketing": 8174,
      "Ġlicensed": 8175,
      "Ġhoney": 8176,
      "Ġlets": 8177,
      "Each": 8178,
      "ĠStill": 8179,
      "Ġscrew": 8180,
      "Ġconcert": 8181,
      "phy": 8182,
      "Ġfinest": 8183,
      "Ġentering": 8184,
      "Ġadequ": 8185,
      "Ġliability": 8186,
      "Ġaggress": 8187,
      "Ġsoldiers": 8188,
      "ĠFlo": 8189,
      "Ġrequested": 8190,
      "pending": 8191,
      "Ġphilosophy": 8192,
      "Ġinitially": 8193,
      "à¸": 8194,
      "Ġwestern": 8195,
      "ifting": 8196,
      "inking": 8197,
      "Ġbreaking": 8198,
      "icious": 8199,
      "!âĢĿ": 8200,
      "Ġpacked": 8201,
      "iour": 8202,
      "otal": 8203,
      "Ġsuspect": 8204,
      "aret": 8205,
      "rog": 8206,
      "Ġpanels": 8207,
      "Col": 8208,
      "from": 8209,
      "century": 8210,
      "Ġbeneficial": 8211,
      "Ġsacr": 8212,
      "Ġhanging": 8213,
      "arry": 8214,
      "aylor": 8215,
      "Ġtracking": 8216,
      "Ġtact": 8217,
      "Ġresponses": 8218,
      "amic": 8219,
      "adium": 8220,
      "onder": 8221,
      "Ġexplains": 8222,
      "Ġnose": 8223,
      "Pr": 8224,
      "ervations": 8225,
      "Äģ": 8226,
      "elve": 8227,
      "ĠBudd": 8228,
      "ĠFun": 8229,
      "ĠEst": 8230,
      "Ġratio": 8231,
      "Ġanymore": 8232,
      "ĠRom": 8233,
      "ĠStone": 8234,
      "Ġcompensation": 8235,
      "Ġorganisation": 8236,
      "ESS": 8237,
      "oked": 8238,
      "lections": 8239,
      "onic": 8240,
      "Ġgrace": 8241,
      "Ġcriteria": 8242,
      "Fe": 8243,
      "isdom": 8244,
      "Ġmole": 8245,
      "Ġharder": 8246,
      "Ġskilled": 8247,
      "Ġautomatic": 8248,
      "Ġphenomen": 8249,
      "Ġnegoti": 8250,
      "Ġmatt": 8251,
      "arts": 8252,
      "Ġsuffered": 8253,
      "ĠSingapore": 8254,
      "estion": 8255,
      "Ġengines": 8256,
      "Ġentitled": 8257,
      "Before": 8258,
      "AY": 8259,
      "Ġlifetime": 8260,
      "izabeth": 8261,
      "Ġcolleagues": 8262,
      "issions": 8263,
      "Ġprayer": 8264,
      "abetes": 8265,
      "Ġpubl": 8266,
      "obs": 8267,
      "ĠSav": 8268,
      "iti": 8269,
      "Ġwise": 8270,
      "ĠAwards": 8271,
      "isa": 8272,
      "utter": 8273,
      "Ġriding": 8274,
      "ĠEastern": 8275,
      "ĠStan": 8276,
      "Ġsuffer": 8277,
      "Ġpersonnel": 8278,
      "Ġsuppliers": 8279,
      "Ġspecified": 8280,
      "ĠTraining": 8281,
      "BM": 8282,
      "ĠSearch": 8283,
      "rer": 8284,
      "Ġalumin": 8285,
      "ĠFinally": 8286,
      "Ġrepresentative": 8287,
      "ĠAvenue": 8288,
      "Ġtox": 8289,
      "Ġloyal": 8290,
      "Because": 8291,
      "acular": 8292,
      "ĠRail": 8293,
      "Ġequivalent": 8294,
      "Ġvoc": 8295,
      "Ġtape": 8296,
      "ributes": 8297,
      "ĠBlo": 8298,
      "Ġax": 8299,
      "Ġlayout": 8300,
      "mble": 8301,
      "ĠStat": 8302,
      "Ġfits": 8303,
      "Ġfrequency": 8304,
      "ĠDun": 8305,
      "Ġspir": 8306,
      "Ġheading": 8307,
      "Ġevil": 8308,
      "ership": 8309,
      "ylvan": 8310,
      "ĠCreek": 8311,
      "ĠLLC": 8312,
      "Ġchildhood": 8313,
      "Ġchampions": 8314,
      "GA": 8315,
      "Ġhorses": 8316,
      "ĠSoftware": 8317,
      "Ġceremony": 8318,
      "being": 8319,
      "cue": 8320,
      "ĠLy": 8321,
      "formance": 8322,
      "Ġcotton": 8323,
      "Ġsculpt": 8324,
      "Ġcorn": 8325,
      "ĠWrit": 8326,
      "esh": 8327,
      "Ġposting": 8328,
      "Ġmodule": 8329,
      "Ġaccompan": 8330,
      "Ġimprovements": 8331,
      "Ġintention": 8332,
      "agen": 8333,
      "rooms": 8334,
      "ĠField": 8335,
      "Ġpowers": 8336,
      "Ġspeaker": 8337,
      "Ġought": 8338,
      "ĠRef": 8339,
      "ĠSmart": 8340,
      "lude": 8341,
      "ĠSup": 8342,
      "ĠDaniel": 8343,
      "zes": 8344,
      "ĠWebsite": 8345,
      "ĠSecretary": 8346,
      "Ġtemporary": 8347,
      "gel": 8348,
      "aka": 8349,
      "ĠYouTube": 8350,
      "Ġtransactions": 8351,
      "Ġski": 8352,
      "Ġadvent": 8353,
      "Ġstrike": 8354,
      "ĠRen": 8355,
      "Ġlens": 8356,
      "Ġmeets": 8357,
      "Ð»": 8358,
      "Ġdear": 8359,
      "Ġgym": 8360,
      "His": 8361,
      "mers": 8362,
      "Ġevolution": 8363,
      "Ġalter": 8364,
      "lined": 8365,
      "awa": 8366,
      "theless": 8367,
      "anny": 8368,
      "Ġcomputers": 8369,
      "step": 8370,
      "Ġresidence": 8371,
      "ĠSci": 8372,
      "Ġfunctionality": 8373,
      "style": 8374,
      "ĠSaint": 8375,
      "Ġcasual": 8376,
      "Ġrelation": 8377,
      "iac": 8378,
      "Ġfindings": 8379,
      "Ġflexibility": 8380,
      "inois": 8381,
      "Ġoperated": 8382,
      "iances": 8383,
      "ĠLatin": 8384,
      "ĠDVD": 8385,
      "rieved": 8386,
      "ĠUSB": 8387,
      "ĠVen": 8388,
      "usal": 8389,
      "stract": 8390,
      "Ġlaptop": 8391,
      "Ġending": 8392,
      "Ġemployer": 8393,
      "ĠWH": 8394,
      "ĠEss": 8395,
      "Ġemployed": 8396,
      "Ġbills": 8397,
      "je": 8398,
      "Ġmaxim": 8399,
      "Ġconsequences": 8400,
      "Ġlip": 8401,
      "Ġvisits": 8402,
      "Ġcircle": 8403,
      "Ġscores": 8404,
      "olt": 8405,
      "Gu": 8406,
      "Make": 8407,
      "Ġhasn": 8408,
      "Ġdrain": 8409,
      "etch": 8410,
      "Ġexport": 8411,
      "ĠForest": 8412,
      "Ġattitude": 8413,
      "Ġasset": 8414,
      "burgh": 8415,
      "rat": 8416,
      "Ġintellectual": 8417,
      "Ġ_The": 8418,
      "itate": 8419,
      "Ġinitiative": 8420,
      "ĠShould": 8421,
      "Ġaccommodation": 8422,
      "Ġorient": 8423,
      "ĠClin": 8424,
      "Ġinteractive": 8425,
      "Ġsees": 8426,
      "ĠIII": 8427,
      "Ġhyper": 8428,
      "ĠFREE": 8429,
      "ĠSat": 8430,
      "ĠLocal": 8431,
      "bow": 8432,
      "Ġopens": 8433,
      "erman": 8434,
      "bits": 8435,
      "sect": 8436,
      "gments": 8437,
      "Ġapparently": 8438,
      "Ġforecast": 8439,
      "Ġwanting": 8440,
      "ĠSection": 8441,
      "ylvania": 8442,
      "Ġindu": 8443,
      "ĠKim": 8444,
      "annel": 8445,
      "Ġinteraction": 8446,
      "Ġclim": 8447,
      "Ġlowest": 8448,
      "sis": 8449,
      "Ġforum": 8450,
      "Ġcomplim": 8451,
      "ĠSenate": 8452,
      "oding": 8453,
      "ĠLearn": 8454,
      "Ġgap": 8455,
      "ĠCivil": 8456,
      "ools": 8457,
      "Ġconvert": 8458,
      "FA": 8459,
      "ĠCountry": 8460,
      "Ġnewspaper": 8461,
      "Ġtransmission": 8462,
      "ĠCasino": 8463,
      "itched": 8464,
      "Ã¢": 8465,
      "EP": 8466,
      "ĠHistor": 8467,
      "asted": 8468,
      "Ġfarmers": 8469,
      "Ġfloors": 8470,
      "Ġaccordance": 8471,
      "inos": 8472,
      "ĠBrand": 8473,
      "Ġscope": 8474,
      "Ġwondering": 8475,
      "ĠRights": 8476,
      "Ġintroduce": 8477,
      "ĠPut": 8478,
      "Ġbrush": 8479,
      "Ġdesigners": 8480,
      "Ġwithdraw": 8481,
      "Ġunusual": 8482,
      "itis": 8483,
      "ĠUnfortunately": 8484,
      "wich": 8485,
      "ĠHP": 8486,
      "Ġdivided": 8487,
      "Ġrepairs": 8488,
      "Ġconfiguration": 8489,
      "ĠKorea": 8490,
      "ĠExpress": 8491,
      "aine": 8492,
      "ĠScotland": 8493,
      "orous": 8494,
      "ĠOil": 8495,
      "Take": 8496,
      "ĠMother": 8497,
      "Ġexists": 8498,
      "Ġimplemented": 8499,
      "aters": 8500,
      "Ġindicated": 8501,
      "ĠJustice": 8502,
      "OO": 8503,
      "Ġdirections": 8504,
      "Ġspeakers": 8505,
      "Ġstom": 8506,
      "ĠØ": 8507,
      "!!!!": 8508,
      "ĠMedicine": 8509,
      "ĠRa": 8510,
      "Ġmistake": 8511,
      "Ġdistingu": 8512,
      "Ġcertificate": 8513,
      "ĠVideo": 8514,
      "ĠIraq": 8515,
      "Ġguaranteed": 8516,
      "Ġfocuses": 8517,
      "Ġpushed": 8518,
      "Ġhide": 8519,
      "Ġwarranty": 8520,
      "wall": 8521,
      "pons": 8522,
      "Ġcertification": 8523,
      "Ġhopes": 8524,
      "athan": 8525,
      "Ġalgorith": 8526,
      "star": 8527,
      "Ġvintage": 8528,
      "Ġemails": 8529,
      "ĠPrime": 8530,
      "Ġaims": 8531,
      "http": 8532,
      "Ġelectron": 8533,
      "\\\\": 8534,
      "brid": 8535,
      "Ġdefine": 8536,
      "Ġcomprom": 8537,
      "Ġlayers": 8538,
      "Ġenthusi": 8539,
      "Ġpeak": 8540,
      "Ġdad": 8541,
      "ĠAdditionally": 8542,
      "Ġemotions": 8543,
      "ifully": 8544,
      "Ġaddresses": 8545,
      "leep": 8546,
      "Ġwarning": 8547,
      "ĠTar": 8548,
      "Ġdelivering": 8549,
      "ĠCorporation": 8550,
      "âĤ¬": 8551,
      "Ġprofessor": 8552,
      "vironments": 8553,
      "ĠRun": 8554,
      "Ġsegment": 8555,
      "riends": 8556,
      "tail": 8557,
      "Ġconvenience": 8558,
      "owed": 8559,
      "icket": 8560,
      "iot": 8561,
      "ira": 8562,
      "Check": 8563,
      "Ġsofa": 8564,
      "RL": 8565,
      "urious": 8566,
      "ĠDri": 8567,
      "books": 8568,
      "shire": 8569,
      "kel": 8570,
      "Ġfocusing": 8571,
      "Ġadj": 8572,
      "ĠCru": 8573,
      "ashes": 8574,
      "this": 8575,
      "Ġcontribution": 8576,
      "ĠBridge": 8577,
      "ĠLady": 8578,
      "coin": 8579,
      "Ġadvantages": 8580,
      "ji": 8581,
      "Ed": 8582,
      "run": 8583,
      "acher": 8584,
      "Ġfib": 8585,
      "ĠâĤ¬": 8586,
      "ĠRome": 8587,
      "ĠEnjoy": 8588,
      "anwhile": 8589,
      "Ġengaging": 8590,
      "Ġtie": 8591,
      "Ġfraud": 8592,
      "Ġships": 8593,
      "ilton": 8594,
      "Ġcompletion": 8595,
      "ĠNic": 8596,
      "Ġthro": 8597,
      "pire": 8598,
      "Ġproved": 8599,
      "inson": 8600,
      "Ġkeys": 8601,
      "iary": 8602,
      "Ġvisitor": 8603,
      "Ġexploring": 8604,
      "Ġfalls": 8605,
      "Ġperiods": 8606,
      "tery": 8607,
      "Ġuncertain": 8608,
      "aimed": 8609,
      "ko": 8610,
      "Ġsubstantial": 8611,
      "Ġextraord": 8612,
      "Ġdemonstrate": 8613,
      "UM": 8614,
      "Ġestimate": 8615,
      "ĠProfessional": 8616,
      "ĠOrig": 8617,
      "RC": 8618,
      "olis": 8619,
      "Ġyoga": 8620,
      "Ġgene": 8621,
      "Ġmattress": 8622,
      "Ġmaps": 8623,
      "days": 8624,
      "Ġaccuracy": 8625,
      "Ġhaz": 8626,
      "ERS": 8627,
      "ĠBroad": 8628,
      "Ġtexture": 8629,
      "ĠExternal": 8630,
      "Ġhits": 8631,
      "ifted": 8632,
      "Ġdollar": 8633,
      "ĠLind": 8634,
      "ĠâĢ¢": 8635,
      "Su": 8636,
      "Ġcul": 8637,
      "vision": 8638,
      "ĠSyd": 8639,
      "Ġmurder": 8640,
      "Ġvolunteer": 8641,
      "inton": 8642,
      "Ġsen": 8643,
      "Ġprize": 8644,
      "American": 8645,
      "Ġholes": 8646,
      "Ġvine": 8647,
      "ĠAuto": 8648,
      "alysis": 8649,
      "ller": 8650,
      "Ġtagged": 8651,
      "Ġprovision": 8652,
      "Ġsubscrib": 8653,
      "Ġattending": 8654,
      "Ġfiber": 8655,
      "ĠStock": 8656,
      "Ġcontinuous": 8657,
      "ĠBase": 8658,
      "Ġstruck": 8659,
      "omething": 8660,
      "Ġreveal": 8661,
      "Ġresid": 8662,
      "produ": 8663,
      "Ġsed": 8664,
      "Ġsteam": 8665,
      "esides": 8666,
      "ĠConc": 8667,
      "Use": 8668,
      "iffe": 8669,
      "ĠCommon": 8670,
      "tical": 8671,
      "Ġdanger": 8672,
      "alo": 8673,
      "Ġthirty": 8674,
      "Ġrefrig": 8675,
      "Ġdepression": 8676,
      "Up": 8677,
      "cm": 8678,
      "Ġleaf": 8679,
      "ĠCarl": 8680,
      "print": 8681,
      "Ġmoon": 8682,
      "ĠUr": 8683,
      "Ġimpression": 8684,
      "sylvania": 8685,
      "ĠGallery": 8686,
      "ĠSales": 8687,
      "ĠSteel": 8688,
      "Ġheavily": 8689,
      "Ġprime": 8690,
      "ĠHou": 8691,
      "omot": 8692,
      "Ġinstitution": 8693,
      "Ġhardly": 8694,
      "oof": 8695,
      "ĠRadio": 8696,
      "ĠCON": 8697,
      "Ġstatistics": 8698,
      "Ġminister": 8699,
      "ĠFL": 8700,
      "Ġlegend": 8701,
      "Ġgaming": 8702,
      "Ġmild": 8703,
      "Ġbunch": 8704,
      "Ġdifficulty": 8705,
      "jection": 8706,
      "ĠPersonal": 8707,
      "aska": 8708,
      "Ġwake": 8709,
      "Ġseasons": 8710,
      "John": 8711,
      "ĠConnect": 8712,
      "Ġbold": 8713,
      "Ġconstructed": 8714,
      "ĠMembers": 8715,
      "aza": 8716,
      "Ġtemperatures": 8717,
      "charge": 8718,
      "Ġsettled": 8719,
      "Ġprinciple": 8720,
      "Ġconventional": 8721,
      "Ġencounter": 8722,
      "atile": 8723,
      "Ġcurrency": 8724,
      "ĠRod": 8725,
      "ela": 8726,
      "AND": 8727,
      "zona": 8728,
      "rite": 8729,
      "Ġscenes": 8730,
      "Sim": 8731,
      "ĠDespite": 8732,
      "Ġinjured": 8733,
      "Ġsemi": 8734,
      "organ": 8735,
      "Ġthemes": 8736,
      "nders": 8737,
      "ĠWithout": 8738,
      "asty": 8739,
      "Ġattempts": 8740,
      "Ġsurely": 8741,
      "Ġgrateful": 8742,
      "Two": 8743,
      "Ġreception": 8744,
      "ĠToronto": 8745,
      "Ġboards": 8746,
      "ĠDog": 8747,
      "Ġdisplays": 8748,
      "ĠIllinois": 8749,
      "Ġprivile": 8750,
      "Like": 8751,
      "Ġillegal": 8752,
      "ĠAdministration": 8753,
      "ĠDrive": 8754,
      "Ġprotocol": 8755,
      "Ġproport": 8756,
      "ĠMachine": 8757,
      "hour": 8758,
      "ĠLabor": 8759,
      "riculum": 8760,
      "ĠIce": 8761,
      "EG": 8762,
      "Ðº": 8763,
      "Ġpromotion": 8764,
      "Ġrarely": 8765,
      "Ġputs": 8766,
      "nell": 8767,
      "Ġcelebration": 8768,
      "Ġcooked": 8769,
      "ĠSquare": 8770,
      "rus": 8771,
      "Ġassembly": 8772,
      "Ġconsent": 8773,
      "TV": 8774,
      "Ġboot": 8775,
      "Ġsurrounded": 8776,
      "Ġcompos": 8777,
      "Ġinvestments": 8778,
      "Ġunion": 8779,
      "Ġmg": 8780,
      "ĠPrint": 8781,
      "Ġdiversity": 8782,
      "cul": 8783,
      "DP": 8784,
      "Ġperformances": 8785,
      "after": 8786,
      "Ġsomehow": 8787,
      "iag": 8788,
      "Ġracing": 8789,
      "ormal": 8790,
      "Did": 8791,
      "mo": 8792,
      "Ġraising": 8793,
      "%,": 8794,
      "oln": 8795,
      "Ġtitles": 8796,
      "ĠBh": 8797,
      "Ġenvironments": 8798,
      "icted": 8799,
      "vals": 8800,
      "stall": 8801,
      "bing": 8802,
      "Ġconvey": 8803,
      "ping": 8804,
      "mod": 8805,
      "Ġmuscles": 8806,
      "Ġflights": 8807,
      "Ġchronic": 8808,
      "Tra": 8809,
      "Ġnerv": 8810,
      "ĠLas": 8811,
      "power": 8812,
      "Ġtons": 8813,
      "Ġsafely": 8814,
      "Ġcreativity": 8815,
      "Ġtrusted": 8816,
      "ĠWould": 8817,
      "iah": 8818,
      "Ġrust": 8819,
      "Ġroots": 8820,
      "Ġaccounting": 8821,
      "Ġdough": 8822,
      "Ġworkshops": 8823,
      "epend": 8824,
      "ouses": 8825,
      "Ġsevent": 8826,
      "Ġpilot": 8827,
      "Ġpleasant": 8828,
      "Ġseam": 8829,
      "ĠPolicy": 8830,
      "Ġcow": 8831,
      "Ġmit": 8832,
      "=\"": 8833,
      "child": 8834,
      "Ġrecyc": 8835,
      "Ġtournament": 8836,
      "Ġsurve": 8837,
      "ĠAgency": 8838,
      "ĠBern": 8839,
      "Ġgotten": 8840,
      "ĠAgreement": 8841,
      "ambling": 8842,
      "Ġfifth": 8843,
      "Ġstainless": 8844,
      "Ġordinary": 8845,
      "Ġdivor": 8846,
      "ĠPhilipp": 8847,
      "Ġgrounds": 8848,
      "pany": 8849,
      "Ġgarlic": 8850,
      "Ġassistant": 8851,
      "Us": 8852,
      "Ġformation": 8853,
      "Ġske": 8854,
      "Ġscreens": 8855,
      "ĠQuality": 8856,
      "Ġcontributions": 8857,
      "Ġbeds": 8858,
      "ĠCub": 8859,
      "ĠSydney": 8860,
      "Ġtherap": 8861,
      "aya": 8862,
      "imental": 8863,
      "Ġcontracts": 8864,
      "HA": 8865,
      "Love": 8866,
      "ĠKong": 8867,
      "Ġcuts": 8868,
      "Ġlegisl": 8869,
      "ĠPsych": 8870,
      "ĠGro": 8871,
      "Ġrum": 8872,
      "Ġcm": 8873,
      "ĠOak": 8874,
      "rison": 8875,
      "Other": 8876,
      "Ġgrey": 8877,
      "uan": 8878,
      "Ġconclusion": 8879,
      "PM": 8880,
      "Ġoppon": 8881,
      "Ġamongst": 8882,
      "Ġaer": 8883,
      "sized": 8884,
      "Ġdual": 8885,
      "Ġtender": 8886,
      "Ġclubs": 8887,
      "ĠProcess": 8888,
      "Ġstability": 8889,
      "everal": 8890,
      "ĠCB": 8891,
      "Ġhill": 8892,
      "Ġdistributed": 8893,
      "azed": 8894,
      "Ġcher": 8895,
      "cker": 8896,
      "Ġdil": 8897,
      "amsung": 8898,
      "ĠBeing": 8899,
      "ĠElizabeth": 8900,
      "Ġokay": 8901,
      "Ġprincipal": 8902,
      "Ġadmit": 8903,
      "ested": 8904,
      "Ġcush": 8905,
      "ĠLi": 8906,
      "Ġcontents": 8907,
      "Ġexpanded": 8908,
      "pled": 8909,
      "Ġgender": 8910,
      "Ġreply": 8911,
      "Ġsignature": 8912,
      "bec": 8913,
      "Ġinstruments": 8914,
      "ĠLuc": 8915,
      "Ġreserved": 8916,
      "Ġcrown": 8917,
      "abil": 8918,
      "Ġlemon": 8919,
      "ĠJr": 8920,
      "Ġcameras": 8921,
      "Ġpour": 8922,
      "ĠColumbia": 8923,
      "angle": 8924,
      "Ġsli": 8925,
      "Ġgathered": 8926,
      "Ġtours": 8927,
      "aron": 8928,
      "ludes": 8929,
      "ĠPennsylvania": 8930,
      "ĠFact": 8931,
      "rix": 8932,
      "Ġmathem": 8933,
      "ello": 8934,
      "omed": 8935,
      "Ġdurable": 8936,
      "Ġtoler": 8937,
      "Ġangle": 8938,
      "Ġeverybody": 8939,
      "sole": 8940,
      "heim": 8941,
      "Ġoverse": 8942,
      "cor": 8943,
      "ĠLew": 8944,
      "Ġabroad": 8945,
      "Ġboss": 8946,
      "Ġabund": 8947,
      "Ġfrustr": 8948,
      "atellite": 8949,
      "ordan": 8950,
      "Ġessentially": 8951,
      "Ġinventory": 8952,
      "Ġalleged": 8953,
      "ĠKat": 8954,
      "Ġmanif": 8955,
      "Ġmovements": 8956,
      "ĠFilm": 8957,
      "ĠDNA": 8958,
      "ĠEth": 8959,
      "Ġconversion": 8960,
      "ĠCome": 8961,
      "Ġcatalog": 8962,
      "Ġpermit": 8963,
      "Ġcopies": 8964,
      "Ġsurvive": 8965,
      "rug": 8966,
      "ĠUk": 8967,
      "Ġrolling": 8968,
      "Ġobjectives": 8969,
      "TE": 8970,
      "ĠProdu": 8971,
      "ima": 8972,
      "Ġclicking": 8973,
      "ĠHold": 8974,
      "Ġownership": 8975,
      "Ġlean": 8976,
      "Ġhappiness": 8977,
      "encing": 8978,
      "Ġletting": 8979,
      "onna": 8980,
      "Ġtonight": 8981,
      "Ġventure": 8982,
      "Ġstack": 8983,
      "bourne": 8984,
      "ĠExam": 8985,
      "Ġhearts": 8986,
      "ĠOp": 8987,
      "Ġreserve": 8988,
      "Ġjur": 8989,
      "Ġworried": 8990,
      "anth": 8991,
      "Ġsleeping": 8992,
      "Ġdescribes": 8993,
      "Ġcann": 8994,
      "ashing": 8995,
      "Whether": 8996,
      "ĠFac": 8997,
      "Ġviewing": 8998,
      "Ġworn": 8999,
      "Ġmad": 9000,
      "ocracy": 9001,
      "ĠSM": 9002,
      "ĠVegas": 9003,
      ".;": 9004,
      "rets": 9005,
      "Sec": 9006,
      "Ġsinging": 9007,
      "Ġmeasured": 9008,
      "Co": 9009,
      "Ġsettlement": 9010,
      "ipes": 9011,
      "Ġrecruit": 9012,
      "ĠLA": 9013,
      "cend": 9014,
      "Ġburning": 9015,
      "Ġsexual": 9016,
      "ghan": 9017,
      "Ġpackaging": 9018,
      "employ": 9019,
      "Ġopposed": 9020,
      "ĠTreat": 9021,
      "Ġwheels": 9022,
      "ho": 9023,
      "ĠDam": 9024,
      "Ġsolo": 9025,
      "ĠDO": 9026,
      "Ġbass": 9027,
      "sts": 9028,
      "Ġshapes": 9029,
      "Ġconserv": 9030,
      "ushed": 9031,
      "Ġminds": 9032,
      "urches": 9033,
      "ccer": 9034,
      "anguage": 9035,
      "ĠCloud": 9036,
      "Ġquotes": 9037,
      "Ġgran": 9038,
      "Ġ%": 9039,
      "Ġtutorial": 9040,
      "Ġsubsid": 9041,
      "Ġdeclared": 9042,
      "ĠBul": 9043,
      "ĠMess": 9044,
      "Ġbatt": 9045,
      "Ġaddressed": 9046,
      "iro": 9047,
      "Ġsour": 9048,
      "Ġsheets": 9049,
      "ĠEvent": 9050,
      "CS": 9051,
      "Ġtowns": 9052,
      "Ġmistakes": 9053,
      "ĠGolden": 9054,
      "ĠFall": 9055,
      "ĠLat": 9056,
      "Ġabilities": 9057,
      "Ġsubsequent": 9058,
      "bage": 9059,
      "Ġservers": 9060,
      "hyth": 9061,
      "Ġparalle": 9062,
      "Ġinsights": 9063,
      "anches": 9064,
      "ĠNatural": 9065,
      "Ġworship": 9066,
      "Ġrubber": 9067,
      "ĠPS": 9068,
      "ĠMinistry": 9069,
      "elling": 9070,
      "ĠVillage": 9071,
      "Ġtile": 9072,
      "Ġlegit": 9073,
      "ervice": 9074,
      "ishop": 9075,
      "Ġacquire": 9076,
      "ĠOl": 9077,
      "Ġpossibilities": 9078,
      "Ġbelt": 9079,
      "rape": 9080,
      "ĠSafety": 9081,
      "flow": 9082,
      "Ġlob": 9083,
      "Ġfounder": 9084,
      "umer": 9085,
      "Ġcombat": 9086,
      "ĠHeart": 9087,
      "thew": 9088,
      "Ġterr": 9089,
      "ĠBE": 9090,
      "Ġhub": 9091,
      "Ġemerging": 9092,
      "incoln": 9093,
      "Ġmargin": 9094,
      "aux": 9095,
      "Ġofficially": 9096,
      "Ġinvite": 9097,
      "Ġbeneath": 9098,
      "ĠLearning": 9099,
      "Ġrou": 9100,
      "Ġfranch": 9101,
      "ĠRon": 9102,
      "Ġenorm": 9103,
      "Ġpassionate": 9104,
      "Ġlaser": 9105,
      "ĠHarry": 9106,
      "TP": 9107,
      "Ġmoral": 9108,
      "ustration": 9109,
      "Ġsentence": 9110,
      "Ġcourts": 9111,
      "ĠPrince": 9112,
      "Ġmechanism": 9113,
      "aved": 9114,
      "Ġemotion": 9115,
      "oviet": 9116,
      "ĠGuys": 9117,
      "ĠCapital": 9118,
      "hesis": 9119,
      "Ġpollut": 9120,
      "ĠDI": 9121,
      "ĠHong": 9122,
      "Ġinitiatives": 9123,
      "Ġrefund": 9124,
      "ĠOnt": 9125,
      "Ġremarkable": 9126,
      "ĠLimited": 9127,
      "iami": 9128,
      "emed": 9129,
      "occ": 9130,
      "icide": 9131,
      "Ġpromoting": 9132,
      "ĠBit": 9133,
      "ĠSelect": 9134,
      "Ġdies": 9135,
      "CL": 9136,
      "Ġparticipating": 9137,
      "lar": 9138,
      "Ġsituated": 9139,
      "Ġlosses": 9140,
      "ifier": 9141,
      "Ġswing": 9142,
      "Ġrefuge": 9143,
      "pton": 9144,
      "Ġorganisations": 9145,
      "Ġspa": 9146,
      "Ġutility": 9147,
      "Find": 9148,
      "ĠTheatre": 9149,
      "Ġrepeat": 9150,
      "letter": 9151,
      "Ġmunicip": 9152,
      "Ġcomposition": 9153,
      "Ġaest": 9154,
      "uty": 9155,
      "Ġformula": 9156,
      "Ġouts": 9157,
      "ultane": 9158,
      "Ġprohib": 9159,
      "ĠBrook": 9160,
      "andy": 9161,
      "Ġcaptured": 9162,
      "ĠSem": 9163,
      "Ġthoroughly": 9164,
      "Ġwins": 9165,
      "cho": 9166,
      "Ġrespective": 9167,
      "Ġflooring": 9168,
      "Ġexamination": 9169,
      "Ġnations": 9170,
      "ĠRepublican": 9171,
      "Ġmechanical": 9172,
      "inyl": 9173,
      "ĠTaylor": 9174,
      "vity": 9175,
      "ĠArizona": 9176,
      "ĠSale": 9177,
      "Ġfewer": 9178,
      "Ġwisdom": 9179,
      "ĠNav": 9180,
      "Ġcampaigns": 9181,
      "Reg": 9182,
      "Ġvictims": 9183,
      "ĠPur": 9184,
      "Ġdocumentation": 9185,
      "Ġensures": 9186,
      "ĠBuild": 9187,
      "Ġsequence": 9188,
      "Ġcopyright": 9189,
      "Ġsuite": 9190,
      "Ġsensor": 9191,
      "arest": 9192,
      "ĠStudio": 9193,
      "Ġhomeown": 9194,
      "Ġrelating": 9195,
      "Ġanniversary": 9196,
      "ĠNO": 9197,
      "ĠAdam": 9198,
      "Ġarranged": 9199,
      "Ġwhis": 9200,
      "Ġbehaviour": 9201,
      "Ġgraphic": 9202,
      "ĠRemember": 9203,
      "boy": 9204,
      "ĠMade": 9205,
      "TR": 9206,
      "Ġcompact": 9207,
      "ĠTit": 9208,
      "Ġelsewhere": 9209,
      "PN": 9210,
      "Ġrepresentatives": 9211,
      "Ġinstantly": 9212,
      "ĠCustomer": 9213,
      "Ġsod": 9214,
      "Ġpatio": 9215,
      "ĠFox": 9216,
      "ĠArchitect": 9217,
      "Ġfiction": 9218,
      "ĠRub": 9219,
      "Spe": 9220,
      "ropical": 9221,
      "Ġspectacular": 9222,
      "ĠTal": 9223,
      "âĢ²âĢ²": 9224,
      "ĠSenior": 9225,
      "world": 9226,
      "regon": 9227,
      "Ġindoor": 9228,
      "Ġranging": 9229,
      "Ġinfection": 9230,
      "Ġaged": 9231,
      "Ġimportantly": 9232,
      "Ġproductivity": 9233,
      "Ġopinions": 9234,
      "ĠEX": 9235,
      "ĠToy": 9236,
      "Ġstylish": 9237,
      "isticated": 9238,
      "Ġresulted": 9239,
[...]
