{
  "version": "1.0",
  "truncation": null,
  "padding": null,
  "added_tokens": [
    {
      "id": 0,
      "content": "<unk>",
      "single_word": false,
      "lstrip": false,
      "rstrip": false,
      "normalized": false,
      "special": true
    },
    {
      "id": 1,
      "content": "<s>",
      "single_word": false,
      "lstrip": false,
      "rstrip": false,
      "normalized": false,
      "special": true
    },
    {
      "id": 2,
      "content": "</s>",
      "single_word": false,
      "lstrip": false,
      "rstrip": false,
      "normalized": false,
      "special": true
    }
  ],
  "normalizer": {
    "type": "Sequence",
    "normalizers": [
      {
        "type": "NFKC"
      }
    ]
  },
  "pre_tokenizer": {
    "type": "Sequence",
    "pretokenizers": [
      {
        "type": "Split",
        "pattern": {
          "Regex": " "
        },
        "behavior": "MergedWithNext",
        "invert": false
      },
      {
        "type": "Split",
        "pattern": {
          "Regex": "\\d|[⺀-⿟぀-㆏ㆠ-ㆿㇰ-ㇿ㐀-䶵一-鿿ꥠ-꥿가-퟿]"
        },
        "behavior": "Isolated",
        "invert": false
      },
      {
        "type": "Split",
        "pattern": {
          "Regex": " *(\\w+|[^\\w\\s]+)"
        },
        "behavior": "Isolated",
        "invert": false
      },
      {
        "type": "ByteLevel",
        "add_prefix_space": false,
        "trim_offsets": true,
        "use_regex": false
      }
    ]
  },
  "post_processor": null,
  "decoder": {
    "type": "Sequence",
    "decoders": [
      {
        "type": "ByteLevel",
        "add_prefix_space": true,
        "trim_offsets": true,
        "use_regex": true
      }
    ]
  },
  "model": {
    "type": "BPE",
    "dropout": null,
    "unk_token": "<unk>",
    "continuing_subword_prefix": null,
    "end_of_word_suffix": null,
    "fuse_unk": true,
    "byte_fallback": false,
    "vocab": {
      "<unk>": 0,
      "<s>": 1,
      "</s>": 2,
      "!": 3,
      "\"": 4,
      "#": 5,
      "$": 6,
      "%": 7,
      "&": 8,
      "'": 9,
      "(": 10,
      ")": 11,
      "*": 12,
      "+": 13,
      ",": 14,
      "-": 15,
      ".": 16,
      "/": 17,
      "0": 18,
      "1": 19,
      "2": 20,
      "3": 21,
      "4": 22,
      "5": 23,
      "6": 24,
      "7": 25,
      "8": 26,
      "9": 27,
      ":": 28,
      ";": 29,
      "<": 30,
      "=": 31,
      ">": 32,
      "?": 33,
      "@": 34,
      "A": 35,
      "B": 36,
      "C": 37,
      "D": 38,
      "E": 39,
      "F": 40,
      "G": 41,
      "H": 42,
      "I": 43,
      "J": 44,
      "K": 45,
      "L": 46,
      "M": 47,
      "N": 48,
      "O": 49,
      "P": 50,
      "Q": 51,
      "R": 52,
      "S": 53,
      "T": 54,
      "U": 55,
      "V": 56,
      "W": 57,
      "X": 58,
      "Y": 59,
      "Z": 60,
      "[": 61,
      "\\": 62,
      "]": 63,
      "^": 64,
      "_": 65,
      "`": 66,
      "a": 67,
      "b": 68,
      "c": 69,
      "d": 70,
      "e": 71,
      "f": 72,
      "g": 73,
      "h": 74,
      "i": 75,
      "j": 76,
      "k": 77,
      "l": 78,
      "m": 79,
      "n": 80,
      "o": 81,
      "p": 82,
      "q": 83,
      "r": 84,
      "s": 85,
      "t": 86,
      "u": 87,
      "v": 88,
      "w": 89,
      "x": 90,
      "y": 91,
      "z": 92,
      "{": 93,
      "|": 94,
      "}": 95,
      "~": 96,
      "¡": 97,
      "¢": 98,
      "£": 99,
      "¤": 100,
      "¥": 101,
      "¦": 102,
      "§": 103,
      "¨": 104,
      "©": 105,
      "ª": 106,
      "«": 107,
      "¬": 108,
      "®": 109,
      "¯": 110,
      "°": 111,
      "±": 112,
      "²": 113,
      "³": 114,
      "´": 115,
      "µ": 116,
      "¶": 117,
      "·": 118,
      "¸": 119,
      "¹": 120,
      "º": 121,
      "»": 122,
      "¼": 123,
      "½": 124,
      "¾": 125,
      "¿": 126,
      "À": 127,
      "Á": 128,
      "Â": 129,
      "Ã": 130,
      "Ä": 131,
      "Å": 132,
      "Æ": 133,
      "Ç": 134,
      "È": 135,
      "É": 136,
      "Ê": 137,
      "Ë": 138,
      "Ì": 139,
      "Í": 140,
      "Î": 141,
      "Ï": 142,
      "Ð": 143,
      "Ñ": 144,
      "Ò": 145,
      "Ó": 146,
      "Ô": 147,
      "Õ": 148,
      "Ö": 149,
      "×": 150,
      "Ø": 151,
      "Ù": 152,
      "Ú": 153,
      "Û": 154,
      "Ü": 155,
      "Ý": 156,
      "Þ": 157,
      "ß": 158,
      "à": 159,
      "á": 160,
      "â": 161,
      "ã": 162,
      "ä": 163,
      "å": 164,
      "æ": 165,
      "ç": 166,
      "è": 167,
      "é": 168,
      "ê": 169,
      "ë": 170,
      "ì": 171,
      "í": 172,
      "î": 173,
      "ï": 174,
      "ð": 175,
      "ñ": 176,
      "ò": 177,
      "ó": 178,
      "ô": 179,
      "õ": 180,
      "ö": 181,
      "÷": 182,
      "ø": 183,
      "ù": 184,
      "ú": 185,
      "û": 186,
      "ü": 187,
      "ý": 188,
      "þ": 189,
      "ÿ": 190,
      "Ā": 191,
      "ā": 192,
      "Ă": 193,
      "ă": 194,
      "Ą": 195,
      "ą": 196,
      "Ć": 197,
      "ć": 198,
      "Ĉ": 199,
      "ĉ": 200,
      "Ċ": 201,
      "ċ": 202,
      "Č": 203,
      "č": 204,
      "Ď": 205,
      "ď": 206,
      "Đ": 207,
      "đ": 208,
      "Ē": 209,
      "ē": 210,
      "Ĕ": 211,
      "ĕ": 212,
      "Ė": 213,
      "ė": 214,
      "Ę": 215,
      "ę": 216,
      "Ě": 217,
      "ě": 218,
      "Ĝ": 219,
      "ĝ": 220,
      "Ğ": 221,
      "ğ": 222,
      "Ġ": 223,
      "ġ": 224,
      "Ģ": 225,
      "ģ": 226,
      "Ĥ": 227,
      "ĥ": 228,
      "Ħ": 229,
      "ħ": 230,
      "Ĩ": 231,
      "ĩ": 232,
      "Ī": 233,
      "ī": 234,
      "Ĭ": 235,
      "ĭ": 236,
      "Į": 237,
      "į": 238,
      "İ": 239,
      "ı": 240,
      "Ĳ": 241,
      "ĳ": 242,
      "Ĵ": 243,
      "ĵ": 244,
      "Ķ": 245,
      "ķ": 246,
      "ĸ": 247,
      "Ĺ": 248,
      "ĺ": 249,
      "Ļ": 250,
      "ļ": 251,
      "Ľ": 252,
      "ľ": 253,
      "Ŀ": 254,
      "ŀ": 255,
      "Ł": 256,
      "ł": 257,
      "Ń": 258,
      "in": 259,
      "er": 260,
      "an": 261,
      "Ġo": 262,
      "Ġs": 263,
      "Ġw": 264,
      "at": 265,
      "re": 266,
      "Ġh": 267,
      "en": 268,
      "on": 269,
      "ed": 270,
      "Ġb": 271,
      "to": 272,
      "is": 273,
      "Ġc": 274,
      "it": 275,
      "ou": 276,
      "es": 277,
      "Ġf": 278,
      "al": 279,
      "Ġan": 280,
      "as": 281,
      "ar": 282,
      "ing": 283,
      "Ġof": 284,
      "Ġm": 285,
      "or": 286,
      "Ġp": 287,
      "Ġto": 288,
      "Ġand": 289,
      "Ġin": 290,
      "Ġd": 291,
      "ic": 292,
      "le": 293,
      "om": 294,
      "Ġl": 295,
      "ion": 296,
      "el": 297,
      "Ġn": 298,
      "ad": 299,
      "il": 300,
      "ac": 301,
      "ĠI": 302,
      "ent": 303,
      "Ġg": 304,
      "Ġe": 305,
      "ot": 306,
      "hat": 307,
      "ĠT": 308,
      "Ġbe": 309,
      "ut": 310,
      "Ġre": 311,
      "st": 312,
      "ow": 313,
      "id": 314,
      "ly": 315,
      "ĠS": 316,
      "im": 317,
      "et": 318,
      "her": 319,
      "ve": 320,
      "Ġon": 321,
      "am": 322,
      "ĠA": 323,
      "ro": 324,
      "Ġwas": 325,
      "gh": 326,
      "ur": 327,
      "that": 328,
      "ay": 329,
      "ver": 330,
      "Ġthat": 331,
      "ol": 332,
      "Ġy": 333,
      "ir": 334,
      "ĠC": 335,
      "us": 336,
      "Ġfor": 337,
      "un": 338,
      "ter": 339,
      "ith": 340,
      "Ġhe": 341,
      "Ġwh": 342,
      "Ġit": 343,
      "ch": 344,
      "Ġas": 345,
      "ĠM": 346,
      "âĢ": 347,
      "ri": 348,
      "em": 349,
      "Ġis": 350,
      "Ġwith": 351,
      "Ġsh": 352,
      "ĠTh": 353,
      "ab": 354,
      "Ġyou": 355,
      "Ġst": 356,
      "ĠH": 357,
      "ĠB": 358,
      "ec": 359,
      "ag": 360,
      "ld": 361,
      "ce": 362,
      "Ġal": 363,
      "ap": 364,
      "ation": 365,
      "ul": 366,
      "Ġhis": 367,
      "are": 368,
      "ĠP": 369,
      "and": 370,
      "Ġ\"": 371,
      "os": 372,
      "ght": 373,
      "if": 374,
      "Ġat": 375,
      "od": 376,
      "ĠThe": 377,
      "ke": 378,
      "ain": 379,
      "Ġher": 380,
      "Ġ(": 381,
      "ĠW": 382,
      "ill": 383,
      "tr": 384,
      "Ġfr": 385,
      "nd": 386,
      "ĠR": 387,
      "Ġcon": 388,
      "ould": 389,
      "ers": 390,
      "Ġhad": 391,
      "ĠD": 392,
      "up": 393,
      "ĠL": 394,
      "Ġr": 395,
      "ĠF": 396,
      "ess": 397,
      "Ġnot": 398,
      "ore": 399,
      "est": 400,
      "um": 401,
      "ĠG": 402,
      "ave": 403,
      "Ġby": 404,
      "Ġfrom": 405,
      "Ġor": 406,
      "art": 407,
      "ant": 408,
      "ther": 409,
      "ĠE": 410,
      "Ġch": 411,
      "op": 412,
      "ey": 413,
      "ĠN": 414,
      "ew": 415,
      "Ġcom": 416,
      "res": 417,
      "Ġv": 418,
      "qu": 419,
      "Ġse": 420,
      "Ġex": 421,
      "ist": 422,
      "all": 423,
      "Ġk": 424,
      "ard": 425,
      "ig": 426,
      ".\"": 427,
      "ell": 428,
      "Ġun": 429,
      "ĠJ": 430,
      "out": 431,
      "Ġme": 432,
      "ous": 433,
      "Ġle": 434,
      "iv": 435,
      "Ġare": 436,
      "ok": 437,
      "ate": 438,
      "his": 439,
      "ere": 440,
      "Ġde": 441,
      "Ġ_": 442,
      "ort": 443,
      "ight": 444,
      "Ġhave": 445,
      "oc": 446,
      "ity": 447,
      "Ġpro": 448,
      "ust": 449,
      "ack": 450,
      "ich": 451,
      "end": 452,
      "Ġbut": 453,
      "Ġwe": 454,
      "Ġshe": 455,
      "ĠO": 456,
      "ure": 457,
      "our": 458,
      "av": 459,
      "this": 460,
      "hing": 461,
      "Ġwere": 462,
      "Ġthis": 463,
      "ive": 464,
      "ct": 465,
      "ak": 466,
      "hey": 467,
      "Ġhim": 468,
      "Ġsp": 469,
      "Ġtr": 470,
      "ect": 471,
      "**": 472,
      "Ġsa": 473,
      "âĢĶ": 474,
      "ies": 475,
      "ast": 476,
      "ome": 477,
      "Ġab": 478,
      "ound": 479,
      "Ġall": 480,
      "they": 481,
      "ong": 482,
      "ear": 483,
      "Ġthey": 484,
      "Ġmy": 485,
      "Ġup": 486,
      "Ġdo": 487,
      "ud": 488,
      "Ġpl": 489,
      "ip": 490,
      "Ġj": 491,
      "Ġwor": 492,
      "Ġout": 493,
      "Ġac": 494,
      "ep": 495,
      "ge": 496,
      "Ġgo": 497,
      "Ġso": 498,
      "ind": 499,
      "âĢĵ": 500,
      "ish": 501,
      "ally": 502,
      "Ġone": 503,
      "se": 504,
      "ook": 505,
      "ĠHe": 506,
      "ough": 507,
      "ost": 508,
      "ment": 509,
      "Ġsu": 510,
      "ry": 511,
      "eir": 512,
      "ame": 513,
      "Ġus": 514,
      "tw": 515,
      "app": 516,
      "ide": 517,
      "ine": 518,
      "te": 519,
      "heir": 520,
      "Ġwhich": 521,
      "their": 522,
      "Ġtheir": 523,
      "aw": 524,
      "hen": 525,
      "hem": 526,
      "Ġkn": 527,
      "ber": 528,
      "Ġwould": 529,
      "Ġne": 530,
      "own": 531,
      "der": 532,
      "af": 533,
      "ie": 534,
      "Ġwho": 535,
      "tim": 536,
      "Ġcan": 537,
      "Ġman": 538,
      "them": 539,
      "ĠK": 540,
      "Ġthem": 541,
      "here": 542,
      "ĠIn": 543,
      "Ġsaid": 544,
      "Ġcl": 545,
      "one": 546,
      ",\"": 547,
      "Ġar": 548,
      "ire": 549,
      "ated": 550,
      "ace": 551,
      "Ġgr": 552,
      "age": 553,
      "ice": 554,
      "ian": 555,
      "Ġli": 556,
      "very": 557,
      "Th": 558,
      "Ġbeen": 559,
      "ass": 560,
      "ake": 561,
      "ach": 562,
      "ence": 563,
      "oun": 564,
      "ions": 565,
      "ary": 566,
      "Ġinto": 567,
      "ĠIt": 568,
      "ose": 569,
      "Ġther": 570,
      "hr": 571,
      "Ġno": 572,
      "og": 573,
      "pl": 574,
      "Ġtim": 575,
      "Ġpr": 576,
      "pt": 577,
      "ia": 578,
      "ial": 579,
      "han": 580,
      "Ġabout": 581,
      "Ġthere": 582,
      "per": 583,
      "Ġag": 584,
      "iz": 585,
      "Ġmore": 586,
      "ĠU": 587,
      "Ġim": 588,
      "Ġen": 589,
      "The": 590,
      "fer": 591,
      "Ġyour": 592,
      "ven": 593,
      "ick": 594,
      "act": 595,
      "Ġro": 596,
      "Ġwhen": 597,
      "Ġwhat": 598,
      "ue": 599,
      "ĠY": 600,
      "ely": 601,
      "Ġother": 602,
      "Ġcould": 603,
      "able": 604,
      "Ġdis": 605,
      "Ġad": 606,
      "uc": 607,
      "ĠSh": 608,
      "ans": 609,
      "ress": 610,
      "Ġover": 611,
      "ical": 612,
      "Ġtw": 613,
      "sel": 614,
      "Ġ'": 615,
      "reat": 616,
      "ub": 617,
      "ance": 618,
      "ĠV": 619,
      "ll": 620,
      "Ġres": 621,
      "Ġqu": 622,
      "ib": 623,
      "ink": 624,
      "ite": 625,
      "Ġ|": 626,
      "urn": 627,
      "Ġif": 628,
      "Ġwill": 629,
      "tor": 630,
      "Ġany": 631,
      "Ġtime": 632,
      "Ġhas": 633,
      "Ġdid": 634,
      "mer": 635,
      "ang": 636,
      "Ġbr": 637,
      "Ġlike": 638,
      "ays": 639,
      "itt": 640,
      "ile": 641,
      "ĠSt": 642,
      "Ġsome": 643,
      "ord": 644,
      "Ġaf": 645,
      "Ġcomp": 646,
      "Ġbl": 647,
      "ond": 648,
      "ff": 649,
      "Ġ,": 650,
      "ty": 651,
      "ign": 652,
      "ree": 653,
      "ade": 654,
      "than": 655,
      "?\"": 656,
      "ese": 657,
      "Ġbec": 658,
      "so": 659,
      "air": 660,
      "Ġper": 661,
      "ark": 662,
      "Ġfl": 663,
      "ĠCh": 664,
      "Ġthan": 665,
      "old": 666,
      "other": 667,
      "Ġback": 668,
      "Ġapp": 669,
      "ater": 670,
      "thing": 671,
      "irst": 672,
      "then": 673,
      "ood": 674,
      "ts": 675,
      "Ġsc": 676,
      "Ġoff": 677,
      "ations": 678,
      "Ġpe": 679,
      "Ġpart": 680,
      "Ġits": 681,
      "aus": 682,
      "ov": 683,
      "ail": 684,
      "thr": 685,
      "Ġcont": 686,
      "cl": 687,
      "Ġthen": 688,
      "Ġknow": 689,
      "Ġpre": 690,
      "..": 691,
      "ious": 692,
      "ens": 693,
      "Ġwork": 694,
      "Ġthr": 695,
      "port": 696,
      "self": 697,
      "Ġlook": 698,
      "ild": 699,
      "Ġonly": 700,
      "Ġsto": 701,
      "ted": 702,
      "ove": 703,
      "Ġte": 704,
      "ath": 705,
      "),": 706,
      "ren": 707,
      "fore": 708,
      "uch": 709,
      "Ġalso": 710,
      "ition": 711,
      "orm": 712,
      "wn": 713,
      "Ġtwo": 714,
      "Ġfirst": 715,
      "Ġfe": 716,
      "Ġri": 717,
      "oy": 718,
      "ces": 719,
      "Ġagain": 720,
      "Ġdes": 721,
      "Ġsm": 722,
      "Ġstr": 723,
      "ĠShe": 724,
      "Ġjust": 725,
      "oll": 726,
      "turn": 727,
      "ople": 728,
      "Ġcr": 729,
      "erv": 730,
      "ons": 731,
      "au": 732,
      "ought": 733,
      "hy": 734,
      "ife": 735,
      "Ġdown": 736,
      "les": 737,
      "oin": 738,
      "ĠĊ": 739,
      "ked": 740,
      "ult": 741,
      "Ġam": 742,
      "ful": 743,
      "Ġhand": 744,
      "##": 745,
      "Ġsee": 746,
      "ase": 747,
      "led": 748,
      ").": 749,
      "Ġafter": 750,
      "ied": 751,
      "orn": 752,
      "tain": 753,
      "Ġhow": 754,
      "vers": 755,
      "Ġour": 756,
      "ather": 757,
      "Ġyear": 758,
      "Ġrec": 759,
      "ng": 760,
      "ents": 761,
      "oth": 762,
      "ĠâĢĵ": 763,
      "Ġop": 764,
      "iss": 765,
      "Ġget": 766,
      "ont": 767,
      "Ġthrough": 768,
      "Ġinter": 769,
      "red": 770,
      "igh": 771,
      "Ġrem": 772,
      "uct": 773,
      "ings": 774,
      "Ġnow": 775,
      "ause": 776,
      "Ġeven": 777,
      "Ġunder": 778,
      "man": 779,
      "Ġwr": 780,
      "ks": 781,
      "ĠBut": 782,
      "ward": 783,
      "Ġsl": 784,
      "Ġpeople": 785,
      "Ġco": 786,
      "Ġwhere": 787,
      "amp": 788,
      "ee": 789,
      "Ġway": 790,
      "ting": 791,
      "Ġcomm": 792,
      "ug": 793,
      "ob": 794,
      "Ġbefore": 795,
      "Ġlong": 796,
      "ĠAnd": 797,
      "Ġwant": 798,
      "ss": 799,
      "Ġnew": 800,
      "ual": 801,
      "Ġaw": 802,
      "Ġmade": 803,
      "Ġevery": 804,
      "ates": 805,
      "Ġmost": 806,
      "ily": 807,
      "Ġdr": 808,
      "ise": 809,
      "ĠUn": 810,
      "omet": 811,
      "Ġ.": 812,
      "oss": 813,
      "ft": 814,
      "Ġshould": 815,
      "ped": 816,
      "Ġind": 817,
      "hink": 818,
      "vel": 819,
      "ms": 820,
      "think": 821,
      "Ġcons": 822,
      "Ġmay": 823,
      "gr": 824,
      "Ġvery": 825,
      "ĠRe": 826,
      "Ġrel": 827,
      "een": 828,
      "ĠBr": 829,
      "tern": 830,
      "Ġthink": 831,
      "Ġhel": 832,
      "Ġown": 833,
      "hese": 834,
      "these": 835,
      "ne": 836,
      "Ġacc": 837,
      "sh": 838,
      "Ġsup": 839,
      "Ġthese": 840,
      "Ġatt": 841,
      "ix": 842,
      "cc": 843,
      "Ġwell": 844,
      "Ġdec": 845,
      "Ġcall": 846,
      "ah": 847,
      "ĠâĢ": 848,
      "ness": 849,
      "land": 850,
      "Ġright": 851,
      "Ġmuch": 852,
      "Ġsuch": 853,
      "Ġsec": 854,
      "form": 855,
      "ĠAr": 856,
      "ten": 857,
      "Ġthing": 858,
      "ittle": 859,
      "ower": 860,
      "Ġgood": 861,
      "rop": 862,
      "az": 863,
      "ited": 864,
      "lect": 865,
      "Ġact": 866,
      "Ġob": 867,
      "aking": 868,
      "lic": 869,
      "Ġhead": 870,
      "Ġcar": 871,
      "ble": 872,
      "ever": 873,
      "ors": 874,
      "Ġmake": 875,
      "Ġem": 876,
      "ouse": 877,
      "iet": 878,
      "ĠThis": 879,
      "Ġneed": 880,
      "gin": 881,
      "ton": 882,
      "Ġke": 883,
      "Ġhere": 884,
      "Ġass": 885,
      "Ġexp": 886,
      "atch": 887,
      "gan": 888,
      "tri": 889,
      "Ġgl": 890,
      "Ġdif": 891,
      "ĠThey": 892,
      "meric": 893,
      "Ġend": 894,
      "ject": 895,
      "Ġdon": 896,
      "ener": 897,
      "Ġbel": 898,
      "Ġlife": 899,
      "Ġturn": 900,
      "ating": 901,
      "Ġtoo": 902,
      "Ġlittle": 903,
      "Ġmany": 904,
      "Ġey": 905,
      "ared": 906,
      "Ġsw": 907,
      "Ġsay": 908,
      "ĠAn": 909,
      "ool": 910,
      "Ġgreat": 911,
      "hough": 912,
      "though": 913,
      ".'": 914,
      "Ġstill": 915,
      "Ġent": 916,
      "Ġyears": 917,
      "ular": 918,
      "Ġsomet": 919,
      "Ġplay": 920,
      "ning": 921,
      "ational": 922,
      "Ġsur": 923,
      "Ġbeing": 924,
      "ĠAl": 925,
      "get": 926,
      "hought": 927,
      "thought": 928,
      "Ġcol": 929,
      "Ġbecause": 930,
      "anc": 931,
      "Ġday": 932,
      "hose": 933,
      "tal": 934,
      "Ġnever": 935,
      "Ġthought": 936,
      "xt": 937,
      "Ġmin": 938,
      "ible": 939,
      "ember": 940,
      "âĢĻ": 941,
      "ady": 942,
      "ier": 943,
      "Ġset": 944,
      "those": 945,
      "âĢĿ": 946,
      "ĠWe": 947,
      "aut": 948,
      "Ġpres": 949,
      "ters": 950,
      "Ġbetw": 951,
      "Ġthose": 952,
      "ict": 953,
      "Ġcoun": 954,
      "Ġbetween": 955,
      "Ġsub": 956,
      "als": 957,
      "Ġ**": 958,
      "Ġfound": 959,
      "ock": 960,
      "Ġev": 961,
      "ollow": 962,
      "str": 963,
      "Ġwom": 964,
      "olog": 965,
      "ĠAmeric": 966,
      "uring": 967,
      "Ġgu": 968,
      "ull": 969,
      "ĠFr": 970,
      "br": 971,
      "ĠMar": 972,
      "ened": 973,
      "Ġrep": 974,
      "Ġaround": 975,
      "ork": 976,
      "Ġpers": 977,
      "Ġsy": 978,
      "lish": 979,
      "Ġpol": 980,
      "und": 981,
      "til": 982,
      "Ġimp": 983,
      "Ġins": 984,
      "ank": 985,
      "Ġear": 986,
      "Ġold": 987,
      "take": 988,
      "Ġbu": 989,
      "Ġsame": 990,
      "Ġreg": 991,
      "ident": 992,
      "ved": 993,
      "ics": 994,
      "Ġseem": 995,
      "ince": 996,
      "Ġmen": 997,
      "Ġmight": 998,
      "clud": 999,
      "Ġlet": 1000,
      "Ġwar": 1001,
      "ĠYou": 1002,
      "tory": 1003,
      "ities": 1004,
      "ĠNew": 1005,
      "ĠâĢľ": 1006,
      "Ġfin": 1007,
      "Ġinv": 1008,
      "tell": 1009,
      "Ġfam": 1010,
      "hree": 1011,
      "three": 1012,
      "Ġmust": 1013,
      "Ġtake": 1014,
      "outh": 1015,
      "cept": 1016,
      "ross": 1017,
      "ĠAs": 1018,
      "Ġdidn": 1019,
      "ody": 1020,
      "Ġaway": 1021,
      "ĠHis": 1022,
      "Ġwhile": 1023,
      "oup": 1024,
      "Ġcome": 1025,
      "Ġfollow": 1026,
      "its": 1027,
      "oh": 1028,
      "ds": 1029,
      "ific": 1030,
      "pr": 1031,
      "Ġcame": 1032,
      "ale": 1033,
      "Ġtri": 1034,
      "ange": 1035,
      "Ġinc": 1036,
      "ism": 1037,
      "Ġworld": 1038,
      "Ġthree": 1039,
      "rib": 1040,
      "You": 1041,
      "ash": 1042,
      "iew": 1043,
      "Ġcour": 1044,
      "Ġgoing": 1045,
      "oot": 1046,
      "ead": 1047,
      "ner": 1048,
      "iel": 1049,
      "Ġadd": 1050,
      "med": 1051,
      "alt": 1052,
      "ient": 1053,
      "Ġcent": 1054,
      "ative": 1055,
      "over": 1056,
      "ĠThere": 1057,
      "He": 1058,
      "ually": 1059,
      "Ġplace": 1060,
      "ures": 1061,
      "ased": 1062,
      "ows": 1063,
      "Ġeach": 1064,
      "Ġdisc": 1065,
      "Ġanother": 1066,
      "Ġpass": 1067,
      "Ġchild": 1068,
      "Ġagainst": 1069,
      "Ġfri": 1070,
      "io": 1071,
      "ered": 1072,
      "Ã©": 1073,
      "pos": 1074,
      "Ġuntil": 1075,
      "ĠCom": 1076,
      "Ġhigh": 1077,
      "Ġuse": 1078,
      "ences": 1079,
      "Ġboth": 1080,
      "Ġ*": 1081,
      "Ġleft": 1082,
      "uck": 1083,
      "Ġgot": 1084,
      "Ġsomething": 1085,
      "ason": 1086,
      "ph": 1087,
      "Ġfind": 1088,
      ".,": 1089,
      "Ġpoin": 1090,
      "Ġlar": 1091,
      "Ġfeel": 1092,
      "orth": 1093,
      "Ġsim": 1094,
      "Ġed": 1095,
      "It": 1096,
      "ced": 1097,
      "ives": 1098,
      "Ġeyes": 1099,
      "Ġreal": 1100,
      "Ġdiffer": 1101,
      "Ġfew": 1102,
      "ling": 1103,
      "Ġstart": 1104,
      "Ġmet": 1105,
      "ists": 1106,
      "Ġter": 1107,
      "Ġlast": 1108,
      "Ġserv": 1109,
      "Ġchar": 1110,
      "ying": 1111,
      "Ġbo": 1112,
      "ern": 1113,
      "Ġdef": 1114,
      "Ġsmall": 1115,
      "ra": 1116,
      "ĠFor": 1117,
      "Ġput": 1118,
      "ret": 1119,
      "Ġused": 1120,
      "ivers": 1121,
      "aving": 1122,
      "Ġel": 1123,
      "Ġspec": 1124,
      "Ġhapp": 1125,
      "ves": 1126,
      "Ġpub": 1127,
      "ĠIf": 1128,
      "ĠOn": 1129,
      "Ġwent": 1130,
      "ury": 1131,
      "Ġtook": 1132,
      "ways": 1133,
      "Ġtrans": 1134,
      "Ġsk": 1135,
      "Ġsch": 1136,
      "Ġinclud": 1137,
      "ized": 1138,
      "Ġprod": 1139,
      "ush": 1140,
      "ax": 1141,
      "ger": 1142,
      "Ġfar": 1143,
      "ature": 1144,
      "ory": 1145,
      "Ġroom": 1146,
      "Ġwithout": 1147,
      "Ġstud": 1148,
      "ef": 1149,
      "Ġart": 1150,
      "Ġ[": 1151,
      "Ġdoes": 1152,
      "Ġtell": 1153,
      "son": 1154,
      "ments": 1155,
      "Ġnum": 1156,
      "ution": 1157,
      "Ġcle": 1158,
      "Ġmar": 1159,
      "Ġph": 1160,
      "pect": 1161,
      "Ġwater": 1162,
      "ried": 1163,
      "Ġser": 1164,
      "Ġeff": 1165,
      "Ġtal": 1166,
      "Ġmon": 1167,
      "king": 1168,
      "Sh": 1169,
      "Ġhimself": 1170,
      "In": 1171,
      "ement": 1172,
      "Ġcre": 1173,
      "Ġlooked": 1174,
      "ged": 1175,
      "Ġbeh": 1176,
      "Ġwon": 1177,
      "ĠLe": 1178,
      "Ġinst": 1179,
      "try": 1180,
      "ley": 1181,
      "Ġgener": 1182,
      "akes": 1183,
      "Ġdist": 1184,
      "Ġbook": 1185,
      "Ġform": 1186,
      "Ġnight": 1187,
      "ience": 1188,
      "be": 1189,
      "Ġcare": 1190,
      "ĠSp": 1191,
      "tre": 1192,
      "Ġface": 1193,
      "Ġfriend": 1194,
      "Ġcap": 1195,
      "ĠMr": 1196,
      "Ġlight": 1197,
      "atter": 1198,
      "Ġloc": 1199,
      "Ġasked": 1200,
      "less": 1201,
      "ility": 1202,
      "ired": 1203,
      "Ġdire": 1204,
      "ote": 1205,
      "Ġperson": 1206,
      "Ġhome": 1207,
      "uss": 1208,
      "Ġhum": 1209,
      "iving": 1210,
      "Ġposs": 1211,
      "any": 1212,
      "Ġint": 1213,
      "ĠGr": 1214,
      "ision": 1215,
      "Ġpo": 1216,
      "ised": 1217,
      "Ġmod": 1218,
      "ars": 1219,
      "Ġhouse": 1220,
      "ĠAf": 1221,
      "arr": 1222,
      "Ġcalled": 1223,
      "Ġconf": 1224,
      "elt": 1225,
      "ention": 1226,
      "ohn": 1227,
      "cent": 1228,
      "let": 1229,
      "Ġref": 1230,
      "ĠEng": 1231,
      "li": 1232,
      "Ġtold": 1233,
      "...": 1234,
      "ins": 1235,
      "ĠAt": 1236,
      "ets": 1237,
      "Ġalways": 1238,
      "ained": 1239,
      "ants": 1240,
      "ĠAmerican": 1241,
      "Ġread": 1242,
      "eter": 1243,
      "oon": 1244,
      "att": 1245,
      "ames": 1246,
      "ĠCl": 1247,
      "ĠTr": 1248,
      "Ġbre": 1249,
      "Ġsign": 1250,
      "Ġrun": 1251,
      "ĠWhen": 1252,
      "ĠInd": 1253,
      "ertain": 1254,
      "Ġthings": 1255,
      "__": 1256,
      "Ġcur": 1257,
      "ex": 1258,
      "Ġlater": 1259,
      "com": 1260,
      "augh": 1261,
      "Ġsecond": 1262,
      "ned": 1263,
      "gg": 1264,
      "Ġside": 1265,
      "min": 1266,
      "Ġthough": 1267,
      "iness": 1268,
      "irt": 1269,
      "Ġhelp": 1270,
      "ER": 1271,
      "!\"": 1272,
      "Ġbelie": 1273,
      "iting": 1274,
      "ric": 1275,
      "ural": 1276,
      "alf": 1277,
      "ages": 1278,
      "ĠIs": 1279,
      "cess": 1280,
      "ĠWh": 1281,
      "Ġhard": 1282,
      "Ġlead": 1283,
      "Ġstand": 1284,
      "Ġknew": 1285,
      "Ġnear": 1286,
      "Ġmom": 1287,
      "ple": 1288,
      "ably": 1289,
      "Ġmed": 1290,
      "ense": 1291,
      "aps": 1292,
      "ute": 1293,
      "stem": 1294,
      "aj": 1295,
      "Ġexpl": 1296,
      "ived": 1297,
      "Ġopen": 1298,
      "Ġprov": 1299,
      "ines": 1300,
      "ices": 1301,
      "Ġshow": 1302,
      "Ġinf": 1303,
      "ĠZ": 1304,
      "pe": 1305,
      "Ġmov": 1306,
      "Ġmus": 1307,
      "Ġyoung": 1308,
      "Ġsoc": 1309,
      "way": 1310,
      "den": 1311,
      "oice": 1312,
      "Ġreturn": 1313,
      "Ġduring": 1314,
      "Ġname": 1315,
      "Ġupon": 1316,
      "velop": 1317,
      "Ġfil": 1318,
      "ĠJohn": 1319,
      "Ġsaw": 1320,
      "enc": 1321,
      "ately": 1322,
      "Ġide": 1323,
      "Ġwal": 1324,
      "Ġfour": 1325,
      "Ġpower": 1326,
      "ently": 1327,
      "Ġmind": 1328,
      "ither": 1329,
      "Ġred": 1330,
      "Ġexper": 1331,
      "most": 1332,
      "ung": 1333,
      "Ġonce": 1334,
      "ane": 1335,
      "Ġdoor": 1336,
      "Ġ||": 1337,
      "ĠPr": 1338,
      "Ġenough": 1339,
      "my": 1340,
      "ues": 1341,
      "Ġkeep": 1342,
      "Ġcontin": 1343,
      "hip": 1344,
      "hs": 1345,
      "Ġocc": 1346,
      "ĠSc": 1347,
      "Ġair": 1348,
      "Ġbus": 1349,
      "What": 1350,
      "Ġnext": 1351,
      "ided": 1352,
      "Ġbet": 1353,
      "itch": 1354,
      "day": 1355,
      "ĠQ": 1356,
      "urch": 1357,
      "hor": 1358,
      "ction": 1359,
      "els": 1360,
      "Ġever": 1361,
      "ĠAd": 1362,
      "ĠGod": 1363,
      "ically": 1364,
      "irl": 1365,
      "ĠEx": 1366,
      "ral": 1367,
      "Ġmil": 1368,
      "Ġadv": 1369,
      "ize": 1370,
      "ck": 1371,
      "ene": 1372,
      "Ġdifferent": 1373,
      "rew": 1374,
      "ream": 1375,
      "Ġfamily": 1376,
      "Ġfather": 1377,
      "Ġele": 1378,
      "ĠThat": 1379,
      "ĠChr": 1380,
      "Ġmem": 1381,
      "ield": 1382,
      "iversity": 1383,
      "Ġalong": 1384,
      "ĠBe": 1385,
      "ished": 1386,
      "Ġkind": 1387,
      "Ġnothing": 1388,
      "iter": 1389,
      "Ġbest": 1390,
      "Ġland": 1391,
      "ially": 1392,
      "sw": 1393,
      "She": 1394,
      "aid": 1395,
      "Ġtoward": 1396,
      "Ġquest": 1397,
      ",'": 1398,
      "Ġdel": 1399,
      "Ġvis": 1400,
      "ime": 1401,
      "by": 1402,
      "We": 1403,
      "ĠGer": 1404,
      "ĠHow": 1405,
      "And": 1406,
      "ĠCon": 1407,
      "stand": 1408,
      "Ġdep": 1409,
      "Ġsince": 1410,
      "gether": 1411,
      "Ġturned": 1412,
      "riv": 1413,
      "Ġcor": 1414,
      "con": 1415,
      "uction": 1416,
      "iven": 1417,
      "Ġless": 1418,
      "utes": 1419,
      "Ġfac": 1420,
      "Ġfelt": 1421,
      "Ġwind": 1422,
      "ina": 1423,
      "ĠPro": 1424,
      "Ġest": 1425,
      "Ġrest": 1426,
      "Ġmother": 1427,
      "Ġpartic": 1428,
      "Ġorder": 1429,
      "Ġhands": 1430,
      "Ġmean": 1431,
      "Ġsing": 1432,
      "Ġpat": 1433,
      "Ġval": 1434,
      "bers": 1435,
      "inc": 1436,
      "Ġsystem": 1437,
      "Ġbody": 1438,
      "Ġvar": 1439,
      "ount": 1440,
      "aim": 1441,
      "Ġhour": 1442,
      "Ġlarge": 1443,
      "Ġspe": 1444,
      "Ġimport": 1445,
      "tors": 1446,
      "ĠHer": 1447,
      "iver": 1448,
      "Ġleg": 1449,
      "Ġdays": 1450,
      "Ġbetter": 1451,
      "ians": 1452,
      "Ġes": 1453,
      "reen": 1454,
      "side": 1455,
      "ĠCol": 1456,
      "Ġfore": 1457,
      "Ġwa": 1458,
      "ĠYork": 1459,
      "ides": 1460,
      "ĠBl": 1461,
      "Ġsever": 1462,
      "Ġfact": 1463,
      "ĠWhat": 1464,
      "Ġpop": 1465,
      "ister": 1466,
      "Ġmain": 1467,
      "Ġhalf": 1468,
      "Ġblack": 1469,
      "Ġpain": 1470,
      "ital": 1471,
      "ection": 1472,
      "Ġgive": 1473,
      "Ġpolit": 1474,
      "Ġcourse": 1475,
      "Ġstop": 1476,
      "Ġbegan": 1477,
      "Ġdem": 1478,
      "Ġconsid": 1479,
      "Ġdeath": 1480,
      "Ġreally": 1481,
      "Ġnumber": 1482,
      "imes": 1483,
      "Ġschool": 1484,
      "aken": 1485,
      "ĠAll": 1486,
      "Ġoften": 1487,
      "Ġsure": 1488,
      "Ġbro": 1489,
      "ison": 1490,
      "ik": 1491,
      "Ġdesc": 1492,
      "ured": 1493,
      "Ġwoman": 1494,
      "aring": 1495,
      "Ġaut": 1496,
      "Ġlove": 1497,
      "of": 1498,
      "Ġmoment": 1499,
      "aren": 1500,
      "ann": 1501,
      "Ġseen": 1502,
      "Ġpos": 1503,
      "ined": 1504,
      "ev": 1505,
      "ery": 1506,
      "Ġwomen": 1507,
      "Ġknown": 1508,
      "ended": 1509,
      "Ġcond": 1510,
      "But": 1511,
      "illed": 1512,
      "vern": 1513,
      "Ġheart": 1514,
      "Ġsat": 1515,
      "Ġtop": 1516,
      "Ġpoint": 1517,
      "Ġeas": 1518,
      "Ġ&": 1519,
      "ued": 1520,
      "Ġtogether": 1521,
      "ior": 1522,
      "Ġgroup": 1523,
      "Ġsil": 1524,
      "Ġlist": 1525,
      "gy": 1526,
      "Ġdevelop": 1527,
      "ĠPl": 1528,
      "ats": 1529,
      "Ġmove": 1530,
      "Ġbuild": 1531,
      "Ġpar": 1532,
      "Ġclos": 1533,
      "ĠRo": 1534,
      "Ġ-": 1535,
      "ĠOr": 1536,
      "enn": 1537,
      "Ġtre": 1538,
      "IN": 1539,
      "aster": 1540,
      "ards": 1541,
      "Ġmark": 1542,
      "Ġalmost": 1543,
      "Ġinterest": 1544,
      "ope": 1545,
      "ĠCar": 1546,
      "Ġclass": 1547,
      "Ġbecame": 1548,
      "ium": 1549,
      "ape": 1550,
      "Ġwanted": 1551,
      "ĠNo": 1552,
      "Ġwee": 1553,
      "Ġcertain": 1554,
      "Ġsn": 1555,
      "elf": 1556,
      "ips": 1557,
      "Ġseemed": 1558,
      "Ġlaw": 1559,
      "ains": 1560,
      "Ġdone": 1561,
      "ology": 1562,
      "Ġpublic": 1563,
      "ird": 1564,
      "Ġbehind": 1565,
      "Ġpur": 1566,
      "ries": 1567,
      "Ġgirl": 1568,
      "ĠBrit": 1569,
      "eth": 1570,
      "Ġaff": 1571,
      "tom": 1572,
      "bs": 1573,
      "Ġprom": 1574,
      "ĠUniversity": 1575,
      "Ġchildren": 1576,
      "Ġav": 1577,
      "Ġwatch": 1578,
      "ready": 1579,
      "Ġsound": 1580,
      "not": 1581,
      "Ġyet": 1582,
      "Ġrequ": 1583,
      "Ġwhite": 1584,
      "ĠEd": 1585,
      "ys": 1586,
      "Ġdark": 1587,
      "Ġanything": 1588,
      "Ġresp": 1589,
      "Ġacross": 1590,
      "rap": 1591,
      "reet": 1592,
      "ferences": 1593,
      "ĠPh": 1594,
      "eng": 1595,
      "Ġothers": 1596,
      "iety": 1597,
      "ional": 1598,
      "?'": 1599,
      "oke": 1600,
      "une": 1601,
      "eck": 1602,
      "Ġty": 1603,
      "right": 1604,
      "ĠMay": 1605,
      "Ġpresent": 1606,
      "iam": 1607,
      "Ġfun": 1608,
      "ww": 1609,
      "ert": 1610,
      "Ġstep": 1611,
      "Ġcase": 1612,
      "uff": 1613,
      "ĠSch": 1614,
      "Ġgovern": 1615,
      "ĠThen": 1616,
      "tem": 1617,
      "Ġstate": 1618,
      "Ġearly": 1619,
      "Ġhuman": 1620,
      "ĠChrist": 1621,
      "ean": 1622,
      "Ġhold": 1623,
      "Ġwhole": 1624,
      "ĠâĢĶ": 1625,
      "selves": 1626,
      "ĠUnited": 1627,
      "rol": 1628,
      "ony": 1629,
      "Ġoffic": 1630,
      "Ġshort": 1631,
      "Ġsent": 1632,
      "Ġcity": 1633,
      "Ġbig": 1634,
      "Ġpast": 1635,
      "Ġsit": 1636,
      "ĠTo": 1637,
      "Ġprof": 1638,
      "Ġalready": 1639,
      "Ġwords": 1640,
      "Ġleast": 1641,
      "Ġreach": 1642,
      "ball": 1643,
      "Ġhaving": 1644,
      "rod": 1645,
      "Ġwasn": 1646,
      "uary": 1647,
      "Ġamong": 1648,
      "ott": 1649,
      "mp": 1650,
      "Ġeffect": 1651,
      "atic": 1652,
      "que": 1653,
      "Ġcommun": 1654,
      "Ġequ": 1655,
      "Ġwhy": 1656,
      "Ġfront": 1657,
      "Ġvoice": 1658,
      "Ġgave": 1659,
      "Ġminutes": 1660,
      "Ġheard": 1661,
      "Ġwithin": 1662,
      "Ġple": 1663,
      "Ġfull": 1664,
      "Ġclear": 1665,
      "Ġview": 1666,
      "rigin": 1667,
      "Ġgiven": 1668,
      "Ġlear": 1669,
      "Ġground": 1670,
      "Ġplan": 1671,
      "Ġbecome": 1672,
      "Ġboy": 1673,
      "Ġcountry": 1674,
      "Ġsays": 1675,
      "Ġseveral": 1676,
      "Ġfoot": 1677,
      "Ġunderstand": 1678,
      "Ġrece": 1679,
      "Ġansw": 1680,
      "aced": 1681,
      "apter": 1682,
      "Ġcomple": 1683,
      "ator": 1684,
      "ively": 1685,
      "Ġappro": 1686,
      "Ġmid": 1687,
      "ches": 1688,
      "uce": 1689,
      "ping": 1690,
      "Ġappear": 1691,
      "Ġtimes": 1692,
      "Ġinform": 1693,
      "por": 1694,
      "ai": 1695,
      "lished": 1696,
      "ances": 1697,
      "fic": 1698,
      "Ġline": 1699,
      "Ġbegin": 1700,
      "int": 1701,
      "ected": 1702,
      "Ġdri": 1703,
      "ission": 1704,
      "aining": 1705,
      "taken": 1706,
      "arm": 1707,
      "ĠSo": 1708,
      "oor": 1709,
      "haps": 1710,
      "enty": 1711,
      "aged": 1712,
      "ressed": 1713,
      "tract": 1714,
      "ality": 1715,
      "owing": 1716,
      "ample": 1717,
      "ots": 1718,
      "ched": 1719,
      "ĠGerman": 1720,
      "arth": 1721,
      "Ch": 1722,
      "Ġsix": 1723,
      "ĠGe": 1724,
      "Ġconc": 1725,
      "Ġheld": 1726,
      "aces": 1727,
      "ĠComm": 1728,
      "Ġtown": 1729,
      "Ġdeep": 1730,
      "itions": 1731,
      "Ġmont": 1732,
      "sc": 1733,
      "me": 1734,
      "ĠMy": 1735,
      "ourn": 1736,
      "aul": 1737,
      "sy": 1738,
      "Ġcharac": 1739,
      "Ġorgan": 1740,
      "Ġdirect": 1741,
      "Ġbed": 1742,
      "irc": 1743,
      "ON": 1744,
      "Ġprev": 1745,
      "ether": 1746,
      "Ġlo": 1747,
      "Ġtem": 1748,
      "wh": 1749,
      "ĠWar": 1750,
      "No": 1751,
      "ler": 1752,
      "Ġrather": 1753,
      "oub": 1754,
      "ĠOne": 1755,
      "ief": 1756,
      "Ġprocess": 1757,
      "ĠWill": 1758,
      "Ġsoon": 1759,
      "ata": 1760,
      "Ġfall": 1761,
      "view": 1762,
      "Ġproble": 1763,
      "read": 1764,
      "ĠAfter": 1765,
      "Ġbas": 1766,
      "Ġimportant": 1767,
      "Ġmeet": 1768,
      "uced": 1769,
      "Ġoper": 1770,
      "ccess": 1771,
      "Ġtaken": 1772,
      "Ġbusiness": 1773,
      "ĠStates": 1774,
      "owed": 1775,
      "Ġdet": 1776,
      "umb": 1777,
      "stit": 1778,
      "ĠWor": 1779,
      "ĠNot": 1780,
      "Ġsol": 1781,
      "Ġmaking": 1782,
      "ole": 1783,
      "Ġbar": 1784,
      "rench": 1785,
      "Ġprot": 1786,
      "Ġcover": 1787,
      "Ġpract": 1788,
      "Ġcut": 1789,
      "ply": 1790,
      "Ġfood": 1791,
      "HE": 1792,
      "amed": 1793,
      "eat": 1794,
      "ĠCr": 1795,
      "Ġet": 1796,
      "Ġrecord": 1797,
      "ĠReferences": 1798,
      "Ġsupport": 1799,
      "Ġfre": 1800,
      "ept": 1801,
      "orr": 1802,
      "Ġcup": 1803,
      "Ġwall": 1804,
      "Ġap": 1805,
      "Ġorigin": 1806,
      "ization": 1807,
      "urop": 1808,
      "ising": 1809,
      "chn": 1810,
      "ĠDe": 1811,
      "Ġhowever": 1812,
      "This": 1813,
      "Ġ$": 1814,
      "isc": 1815,
      "aper": 1816,
      "Ġteam": 1817,
      "Ġfollowing": 1818,
      "sp": 1819,
      "aves": 1820,
      "Ġdoc": 1821,
      "iec": 1822,
      "Ġfire": 1823,
      "bert": 1824,
      "Ġparticular": 1825,
      "ondon": 1826,
      "par": 1827,
      "eed": 1828,
      "Ġchang": 1829,
      "Ġmoney": 1830,
      "That": 1831,
      "hys": 1832,
      "orning": 1833,
      "ES": 1834,
      "alth": 1835,
      "Ġsum": 1836,
      "Ġsuccess": 1837,
      "AR": 1838,
      "ze": 1839,
      "ike": 1840,
      "ĠEnglish": 1841,
      "Ġlooking": 1842,
      "fully": 1843,
      "Ġfive": 1844,
      ".âĢĿ": 1845,
      "ajor": 1846,
      "oto": 1847,
      "Ġfell": 1848,
      "Ġreason": 1849,
      "iously": 1850,
      "Ġfeet": 1851,
      "ering": 1852,
      "Ġdesign": 1853,
      "bo": 1854,
      "Ġshall": 1855,
      "Ġheav": 1856,
      "ps": 1857,
      "ivid": 1858,
      "bed": 1859,
      "Ġste": 1860,
      "Ġquick": 1861,
      "Ġquestion": 1862,
      "ulation": 1863,
      "ĠDr": 1864,
      "dle": 1865,
      "ency": 1866,
      "oci": 1867,
      "ones": 1868,
      "ĠPar": 1869,
      "table": 1870,
      "Ġsle": 1871,
      "Ġrepl": 1872,
      "ĠAm": 1873,
      "resent": 1874,
      "Ġable": 1875,
      "Ġstory": 1876,
      "ified": 1877,
      "ases": 1878,
      "Ġwin": 1879,
      "aud": 1880,
      "Ġword": 1881,
      "Ġsqu": 1882,
      "Ġclose": 1883,
      "Ġremember": 1884,
      "Ġoffer": 1885,
      "Ġfree": 1886,
      "ĠCan": 1887,
      "Ġincre": 1888,
      "lection": 1889,
      "ĠWith": 1890,
      "idge": 1891,
      "ending": 1892,
      "Ġreport": 1893,
      "ables": 1894,
      "Ġprob": 1895,
      "Ġfur": 1896,
      "ges": 1897,
      "ift": 1898,
      "ilt": 1899,
      "Ġmatter": 1900,
      "Ġten": 1901,
      "Ġmag": 1902,
      "ĠCoun": 1903,
      "arch": 1904,
      "na": 1905,
      "Ġve": 1906,
      "AN": 1907,
      "ination": 1908,
      "ĠSe": 1909,
      "Ġpossible": 1910,
      "gram": 1911,
      "ĠMan": 1912,
      "ģĦ": 1913,
      "Ġauthor": 1914,
      "uly": 1915,
      "Ġson": 1916,
      "angu": 1917,
      "Ġdraw": 1918,
      "âģĦ": 1919,
      "Ġstarted": 1920,
      "Ġelse": 1921,
      "Ġeither": 1922,
      "oes": 1923,
      "ript": 1924,
      "ression": 1925,
      "Ġincluding": 1926,
      "ĠEurop": 1927,
      "tra": 1928,
      "Ġbrought": 1929,
      "Ġexc": 1930,
      "Ġstrong": 1931,
      "Ġblood": 1932,
      "Ġexample": 1933,
      "Ġquite": 1934,
      "uth": 1935,
      "Ġant": 1936,
      "Ġsense": 1937,
      "Ġdoing": 1938,
      "for": 1939,
      "Ġwonder": 1940,
      "Ġidea": 1941,
      "Ġmer": 1942,
      "use": 1943,
      "Ġrele": 1944,
      "Ġperform": 1945,
      "Ġabove": 1946,
      "ĠBritish": 1947,
      "Ġitself": 1948,
      "Ġdead": 1949,
      "Ġmorning": 1950,
      "Ġcult": 1951,
      "Ġcouldn": 1952,
      "acy": 1953,
      "ecess": 1954,
      "Ġself": 1955,
      "ogn": 1956,
      "There": 1957,
      "ĠFrench": 1958,
      "Ġtrad": 1959,
      "Ġgovernment": 1960,
      "Ġjoin": 1961,
      "Ġhistory": 1962,
      "Ġext": 1963,
      "ĠHar": 1964,
      "Ġthemselves": 1965,
      "oud": 1966,
      "Ġeng": 1967,
      "idence": 1968,
      "Ġtable": 1969,
      "Ġchange": 1970,
      "Ġeverything": 1971,
      "###": 1972,
      "Ġfig": 1973,
      "ĠChar": 1974,
      "Ġmeans": 1975,
      "Ġstat": 1976,
      "Ġbit": 1977,
      "ograp": 1978,
      "lin": 1979,
      "ored": 1980,
      "Ġstay": 1981,
      "Ġdiv": 1982,
      "ĠPe": 1983,
      "Ġsun": 1984,
      "Ġsocial": 1985,
      "fort": 1986,
      "pose": 1987,
      "Ġstood": 1988,
      "Ġlay": 1989,
      "Ġhon": 1990,
      "Ġcamp": 1991,
      "Ġhot": 1992,
      "undred": 1993,
      "Ġmusic": 1994,
      "Ġdescrib": 1995,
      "line": 1996,
      "Ġ_The": 1997,
      "we": 1998,
      "Ġhair": 1999,
      "Ġlink": 2000,
      "Ġcirc": 2001,
      "Ġdev": 2002,
      "Ġpost": 2003,
      "OR": 2004,
      "ron": 2005,
      "ament": 2006,
      "Ġproper": 2007,
      "Ġobject": 2008,
      "empt": 2009,
      "ĠKing": 2010,
      "Ġlaugh": 2011,
      "Ġround": 2012,
      "ald": 2013,
      "Ġbelieve": 2014,
      "used": 2015,
      "Ġestab": 2016,
      "ĠBy": 2017,
      "Ġill": 2018,
      "Ġcommon": 2019,
      "Ġvol": 2020,
      "aught": 2021,
      "Ġmyself": 2022,
      "Ġleave": 2023,
      "iod": 2024,
      "Ġtrue": 2025,
      "Ġann": 2026,
      "test": 2027,
      "conom": 2028,
      "ĠSouth": 2029,
      "ring": 2030,
      "osp": 2031,
      "Ġbad": 2032,
      "AT": 2033,
      "ĠWorld": 2034,
      "ĠLondon": 2035,
      "Ġlost": 2036,
      "If": 2037,
      "Ġroad": 2038,
      "Ġarm": 2039,
      "oe": 2040,
      "Ġarea": 2041,
      "Ġlow": 2042,
      "Ġcharacter": 2043,
      "ĠBar": 2044,
      "iled": 2045,
      "Ġusing": 2046,
      "itting": 2047,
      "Ġpot": 2048,
      "ĠFl": 2049,
      "Ġsugg": 2050,
      "Ġsuggest": 2051,
      "Ġgone": 2052,
      "Ġer": 2053,
      "yn": 2054,
      "ening": 2055,
      "Ġbring": 2056,
      "airs": 2057,
      "Ġra": 2058,
      "Ġherself": 2059,
      "ument": 2060,
      "Ġlim": 2061,
      "oved": 2062,
      "Ġlate": 2063,
      "Ġattack": 2064,
      "Ġlevel": 2065,
      "Ġwife": 2066,
      "Ġappe": 2067,
      "attle": 2068,
      "Ġhours": 2069,
      "ĠEl": 2070,
      "aff": 2071,
      "Ġsold": 2072,
      "posed": 2073,
      "udden": 2074,
      "Ġlot": 2075,
      "Ġsomeone": 2076,
      "istr": 2077,
      "room": 2078,
      "Ġund": 2079,
      "ĠX": 2080,
      "EN": 2081,
      "ands": 2082,
      "Ġbrother": 2083,
      "Ġcal": 2084,
      "Ġhundred": 2085,
      "Ġbeaut": 2086,
      "Ġhear": 2087,
      "uit": 2088,
      "ĠSee": 2089,
      "Ġnat": 2090,
      "Ġinformation": 2091,
      "aun": 2092,
      "resh": 2093,
      "ius": 2094,
      "ude": 2095,
      "Ġsingle": 2096,
      "lu": 2097,
      "iron": 2098,
      "Ġbreat": 2099,
      "Ġabs": 2100,
      "ĠGeor": 2101,
      "Ġgeneral": 2102,
      "taking": 2103,
      "olution": 2104,
      "Ġlive": 2105,
      "Ġwhose": 2106,
      "rent": 2107,
      "ording": 2108,
      "ĠPer": 2109,
      "oul": 2110,
      "urs": 2111,
      "Ġmill": 2112,
      "Ġinside": 2113,
      ".)": 2114,
      "As": 2115,
      "ae": 2116,
      "treat": 2117,
      "ming": 2118,
      "pec": 2119,
      "thern": 2120,
      "Ġentire": 2121,
      "hus": 2122,
      "Ġpiec": 2123,
      "Ġlab": 2124,
      "ternal": 2125,
      "itary": 2126,
      "Ġcook": 2127,
      "Ġtrying": 2128,
      "An": 2129,
      "Ġtest": 2130,
      "Ġcoming": 2131,
      "ĠGu": 2132,
      "Ġpay": 2133,
      "ĠII": 2134,
      "Ġpolitical": 2135,
      "ĠAust": 2136,
      "ividual": 2137,
      "gar": 2138,
      "Ġfort": 2139,
      "Ġtried": 2140,
      "Ġsubject": 2141,
      "ett": 2142,
      "ops": 2143,
      "ster": 2144,
      "ĠPol": 2145,
      "Ġconv": 2146,
      "Ġpick": 2147,
      "Ġbreak": 2148,
      "hous": 2149,
      "Ġweek": 2150,
      "____": 2151,
      "tori": 2152,
      "ploy": 2153,
      "ging": 2154,
      ",âĢĿ": 2155,
      "men": 2156,
      "Ġoutside": 2157,
      "Ġmoved": 2158,
      "Ġlocal": 2159,
      "Ġcompany": 2160,
      "Ġobs": 2161,
      "ague": 2162,
      "Ġage": 2163,
      "Ġadm": 2164,
      "Ġfriends": 2165,
      "ilar": 2166,
      "Ġrelations": 2167,
      "ship": 2168,
      "Ġwood": 2169,
      "Ġspir": 2170,
      "Ġtalk": 2171,
      "ded": 2172,
      "Ġposition": 2173,
      "Ġcontrol": 2174,
      "Ġnor": 2175,
      "ĠThese": 2176,
      "ĠNational": 2177,
      "Ġspeak": 2178,
      "itted": 2179,
      "When": 2180,
      "Ġworking": 2181,
      "ountain": 2182,
      "Ġsal": 2183,
      "Ġwhether": 2184,
      "but": 2185,
      "ĠJan": 2186,
      "Ġexist": 2187,
      "Ġliving": 2188,
      "Ġiss": 2189,
      "Ġident": 2190,
      "yle": 2191,
      "ode": 2192,
      "Ġmajor": 2193,
      "medi": 2194,
      "Ġcentury": 2195,
      "Ġcross": 2196,
      "Ġnecess": 2197,
      "Ġfail": 2198,
      "itten": 2199,
      "Ġimag": 2200,
      "dom": 2201,
      "anger": 2202,
      "Ġfilm": 2203,
      "Ġ=": 2204,
      "Ġpress": 2205,
      "ĠNe": 2206,
      "Ġprobably": 2207,
      "ĠRep": 2208,
      "ublic": 2209,
      "aur": 2210,
      "Ġtechn": 2211,
      "ĠDav": 2212,
      "ĠCal": 2213,
      "ouble": 2214,
      "ille": 2215,
      "Ġkept": 2216,
      "iol": 2217,
      "Ġconn": 2218,
      "fect": 2219,
      "Ġalone": 2220,
      "Ġlonger": 2221,
      "Ġseason": 2222,
      "urg": 2223,
      "ĠTe": 2224,
      "ford": 2225,
      "Ġfight": 2226,
      "Ġmix": 2227,
      "Ġdiffic": 2228,
      "Ġperiod": 2229,
      "Ġarg": 2230,
      "Ġslow": 2231,
      "ĠNorth": 2232,
      "ox": 2233,
      "inn": 2234,
      "lected": 2235,
      "Ġdrop": 2236,
      "Ġcreat": 2237,
      "Ġpriv": 2238,
      "ills": 2239,
      "ĠDec": 2240,
      "ĠMc": 2241,
      "They": 2242,
      ":**": 2243,
      "Ġinvol": 2244,
      "Ġtaking": 2245,
      "ĠAug": 2246,
      "ential": 2247,
      "Ġanim": 2248,
      "Ġran": 2249,
      "Ġcommand": 2250,
      "hod": 2251,
      "Ġprogram": 2252,
      "ĠCent": 2253,
      "Ġhor": 2254,
      "AP": 2255,
      "Ġindividual": 2256,
      "ama": 2257,
      "istic": 2258,
      "Ġcannot": 2259,
      "Ġche": 2260,
      "ids": 2261,
      "Ġphys": 2262,
      "Ġbirt": 2263,
      "ha": 2264,
      "ĠSome": 2265,
      "Ġrepresent": 2266,
      "cle": 2267,
      "Ġfear": 2268,
      "Ġask": 2269,
      "itive": 2270,
      "ĠRuss": 2271,
      "Ġvill": 2272,
      "Ġdoub": 2273,
      "Ġstri": 2274,
      "ĠAb": 2275,
      "Ġevent": 2276,
      "ishing": 2277,
      "ule": 2278,
      "Ġenc": 2279,
      "tar": 2280,
      "Ġnon": 2281,
      "Ġtouch": 2282,
      "iding": 2283,
      "Ġwhom": 2284,
      "Ġjob": 2285,
      "body": 2286,
      "de": 2287,
      "ili": 2288,
      "asure": 2289,
      "ky": 2290,
      "earch": 2291,
      "Ġpul": 2292,
      "Ġneeded": 2293,
      "ĠWilliam": 2294,
      "Ġlangu": 2295,
      "ites": 2296,
      "Ġled": 2297,
      "Ġfing": 2298,
      "Ġpret": 2299,
      "Ġfav": 2300,
      "Ġperhaps": 2301,
      "Ġsong": 2302,
      "Ġcomb": 2303,
      "Ġrad": 2304,
      "Ġactiv": 2305,
      "Ġsudden": 2306,
      "Ġmiss": 2307,
      "ask": 2308,
      "ĠQu": 2309,
      "Ġclaim": 2310,
      "ledge": 2311,
      "ological": 2312,
      "Ġbuilding": 2313,
      "mon": 2314,
      "Yes": 2315,
      "Ġhur": 2316,
      "Ġgame": 2317,
      "Ġresult": 2318,
      "ceed": 2319,
      "amb": 2320,
      "iment": 2321,
      "Ġmakes": 2322,
      "Ġmembers": 2323,
      "thous": 2324,
      "Ġtrav": 2325,
      "ma": 2326,
      "Ġwrote": 2327,
      "Ġconsider": 2328,
      "iff": 2329,
      "Ġspecial": 2330,
      "Ġgetting": 2331,
      "Ġeight": 2332,
      "Ġformer": 2333,
      "oman": 2334,
      "aint": 2335,
      "ĠCo": 2336,
      "Ġfurther": 2337,
      "Ġlik": 2338,
      "pecially": 2339,
      "iful": 2340,
      "aly": 2341,
      "Ġopened": 2342,
      "Ġmonths": 2343,
      "Ġcorn": 2344,
      "lex": 2345,
      "Ġexperience": 2346,
      "rup": 2347,
      "Ġdied": 2348,
      "Ġdeal": 2349,
      "Ġsleep": 2350,
      "itional": 2351,
      "Ġfollowed": 2352,
      "ĠPress": 2353,
      "artment": 2354,
      "Ġsurpr": 2355,
      "aft": 2356,
      "uation": 2357,
      "Ġmouth": 2358,
      "ference": 2359,
      "Ġtry": 2360,
      "Ġreached": 2361,
      "ump": 2362,
      "Ġcrit": 2363,
      "',": 2364,
      "Ġrecogn": 2365,
      "Ġseries": 2366,
      "Ġtwenty": 2367,
      "emy": 2368,
      "Ġnorth": 2369,
      "ĠAss": 2370,
      "Ġsett": 2371,
      "Ġsort": 2372,
      "ara": 2373,
      "How": 2374,
      "ĠWest": 2375,
      "Ġeconom": 2376,
      "ney": 2377,
      "lo": 2378,
      "Ġnature": 2379,
      "Ġsaf": 2380,
      "Ġthous": 2381,
      "Ġeye": 2382,
      "ume": 2383,
      "ĠAugust": 2384,
      "tered": 2385,
      "ĠFe": 2386,
      "uel": 2387,
      "Ġfloor": 2388,
      "ivil": 2389,
      "Ġpri": 2390,
      "Ġforward": 2391,
      "co": 2392,
      "AL": 2393,
      "ĠNow": 2394,
      "Ġoil": 2395,
      "enth": 2396,
      "Ġdoesn": 2397,
      "ĠSoc": 2398,
      "apan": 2399,
      "Ġbur": 2400,
      "ĠRes": 2401,
      "Ġoffice": 2402,
      "Ġarms": 2403,
      "Ġ_S": 2404,
      "Ġattempt": 2405,
      "ĠTw": 2406,
      "Ġking": 2407,
      "ender": 2408,
      "Ġswe": 2409,
      "ashing": 2410,
      "reg": 2411,
      "Ġgen": 2412,
      "Ġaccept": 2413,
      "Ġvic": 2414,
      "iers": 2415,
      "Ġrev": 2416,
      "hird": 2417,
      "Ġdeter": 2418,
      "third": 2419,
      "light": 2420,
      "Ġhappened": 2421,
      "val": 2422,
      "Ġce": 2423,
      "Ġrespect": 2424,
      "Ġang": 2425,
      "Ġhope": 2426,
      "mb": 2427,
      "iced": 2428,
      "Ġvers": 2429,
      "Ġtreat": 2430,
      "Ġcold": 2431,
      "tit": 2432,
      "Ġsex": 2433,
      "Ġproblem": 2434,
      "ii": 2435,
      "rom": 2436,
      "Ġsens": 2437,
      "cto": 2438,
      "ien": 2439,
      "sych": 2440,
      "Ġdiscuss": 2441,
      "ĠEngland": 2442,
      "Ġz": 2443,
      "Ġkill": 2444,
      "Ġchurch": 2445,
      "Ġexcept": 2446,
      "Ġprofess": 2447,
      "Ġarr": 2448,
      "ushed": 2449,
      "asp": 2450,
      "Ġcontinued": 2451,
      "aughter": 2452,
      "Ġparen": 2453,
      "My": 2454,
      "Ġgold": 2455,
      "Ġpassed": 2456,
      "Ġfut": 2457,
      "ades": 2458,
      "ĠSy": 2459,
      "ĠArt": 2460,
      "Ġimmedi": 2461,
      "So": 2462,
      "Wh": 2463,
      "ĠEn": 2464,
      "Ġproject": 2465,
      "aterial": 2466,
      "stant": 2467,
      "ĠPhil": 2468,
      "ĠLord": 2469,
      "Ġmess": 2470,
      "ises": 2471,
      "Ġespecially": 2472,
      "Ġdest": 2473,
      "Ġsometimes": 2474,
      "Ġmur": 2475,
      "âĢ¢": 2476,
      "ĠAp": 2477,
      "Ġcaus": 2478,
      ");": 2479,
      "band": 2480,
      "ĠMrs": 2481,
      "Ġthinking": 2482,
      "IS": 2483,
      "Ġhy": 2484,
      "ĠAmerica": 2485,
      "Ġver": 2486,
      "Ġspace": 2487,
      "like": 2488,
      "erson": 2489,
      "Ġship": 2490,
      "Ġrelig": 2491,
      "ĠSec": 2492,
      "Ġnod": 2493,
      "Ġreturned": 2494,
      "Ġservice": 2495,
      "incip": 2496,
      "Oh": 2497,
      "Ġsouth": 2498,
      "hood": 2499,
      "Ġforce": 2500,
      "ĠAfric": 2501,
      "Ġplayers": 2502,
      "uk": 2503,
      "otion": 2504,
      "etic": 2505,
      "Ġsimply": 2506,
      "ugg": 2507,
      "ana": 2508,
      "Ã¡": 2509,
      "Ġbreath": 2510,
      "Ġtele": 2511,
      "ĠSw": 2512,
      "For": 2513,
      "Ġintern": 2514,
      "eless": 2515,
      "lege": 2516,
      "ears": 2517,
      "sequ": 2518,
      "Ġpaper": 2519,
      "ĠDon": 2520,
      "Ġjud": 2521,
      "anced": 2522,
      "Ġsour": 2523,
      "Ġarri": 2524,
      "aching": 2525,
      "apped": 2526,
      "go": 2527,
      "ĠMarch": 2528,
      "Ġapproach": 2529,
      "ĠMed": 2530,
      "On": 2531,
      "ĠSept": 2532,
      "ails": 2533,
      "struct": 2534,
      "ĠMon": 2535,
      "Ġplayed": 2536,
      "ĠJune": 2537,
      "Ġworked": 2538,
      "bl": 2539,
      "ends": 2540,
      "Ġthird": 2541,
      "ĠTHE": 2542,
      "ffer": 2543,
      "ability": 2544,
      "Ġseems": 2545,
      "ror": 2546,
      "hers": 2547,
      "Ġinvest": 2548,
      "Ġsus": 2549,
      "Ġwritten": 2550,
      "Ġgun": 2551,
      "Ġreceived": 2552,
      "ĠHowever": 2553,
      "Ġcost": 2554,
      "oph": 2555,
      "Ġpict": 2556,
      "irm": 2557,
      "ĠJapan": 2558,
      "pril": 2559,
      "cr": 2560,
      "work": 2561,
      "Ġwrong": 2562,
      "Ġgrow": 2563,
      "Ġfresh": 2564,
      "Ġwouldn": 2565,
      "elling": 2566,
      "ival": 2567,
      "ells": 2568,
      "Ġquickly": 2569,
      "iction": 2570,
      "Ġsaying": 2571,
      "Ġparty": 2572,
      "Ġfeeling": 2573,
      "roll": 2574,
      "isk": 2575,
      "Ġpoor": 2576,
      "Ġdrink": 2577,
      "Ġglass": 2578,
      "Ġaccom": 2579,
      "Ġphoto": 2580,
      "Ġattention": 2581,
      "uted": 2582,
      "Ġsimilar": 2583,
      "ĠUS": 2584,
      "Ġpan": 2585,
      "ken": 2586,
      "Ġhop": 2587,
      "Ġfa": 2588,
      "rove": 2589,
      "inal": 2590,
      "ĠMiss": 2591,
      "Ġactually": 2592,
      "ĠMich": 2593,
      "estern": 2594,
      "Ġcomes": 2595,
      "Ġanswer": 2596,
      "ino": 2597,
      "ctober": 2598,
      "Ġnational": 2599,
      "Ġbuilt": 2600,
      "ĠHouse": 2601,
      "face": 2602,
      "Ġmass": 2603,
      "ires": 2604,
      "Ġarch": 2605,
      "ham": 2606,
      "Ġdog": 2607,
      "cious": 2608,
      "Ġbased": 2609,
      "Ġterri": 2610,
      "Ġlinks": 2611,
      "Ġben": 2612,
      "Ġesc": 2613,
      "Ġdom": 2614,
      "Ġsoft": 2615,
      "Ġinflu": 2616,
      "Ġhus": 2617,
      "Ġfield": 2618,
      "Ġsea": 2619,
      "eneral": 2620,
      "ibility": 2621,
      "ĠJew": 2622,
      "Ġheat": 2623,
      "usion": 2624,
      "Ġready": 2625,
      "Ġjourn": 2626,
      "ients": 2627,
      "Ġwalked": 2628,
      "ĠJuly": 2629,
      "ously": 2630,
      "bor": 2631,
      "\\\\": 2632,
      "ctor": 2633,
      "ales": 2634,
      "ĠGl": 2635,
      "erve": 2636,
      "erc": 2637,
      "Ġprep": 2638,
      "ĠState": 2639,
      "Ġdi": 2640,
      "ĠCity": 2641,
      "mber": 2642,
      "ĠPaul": 2643,
      "Ġeduc": 2644,
      "):": 2645,
      "Ġdream": 2646,
      "ĠJack": 2647,
      "ĠAng": 2648,
      "Ġnarr": 2649,
      "Ġmeant": 2650,
      "now": 2651,
      "ĠÎ": 2652,
      "ults": 2653,
      "ĠComp": 2654,
      "Ġmat": 2655,
      "Ġperfect": 2656,
      "ĠCor": 2657,
      "ĠGeorge": 2658,
      "Ġcop": 2659,
      "ĠFrom": 2660,
      "Ġdifficult": 2661,
      "asing": 2662,
      "ĠSm": 2663,
      "tt": 2664,
      "ĠEm": 2665,
      "Ġgrand": 2666,
      "Ġborn": 2667,
      "Ġmaterial": 2668,
      "ĠSeptember": 2669,
      "rel": 2670,
      "Ġappeared": 2671,
      "joy": 2672,
      "Ġbecom": 2673,
      "owers": 2674,
      "Ġstruct": 2675,
      "orts": 2676,
      "Ġmodern": 2677,
      "Ġdam": 2678,
      "Ġfine": 2679,
      "Ġemploy": 2680,
      "Ġinstead": 2681,
      "Ġtruth": 2682,
      "action": 2683,
      "Ġnatural": 2684,
      "Ġfuture": 2685,
      ".**": 2686,
      "Ġgreen": 2687,
      "ctr": 2688,
      "reed": 2689,
      "Ġmethod": 2690,
      "Ġliter": 2691,
      "Ġalthough": 2692,
      "col": 2693,
      "Ġquiet": 2694,
      "Ġproduct": 2695,
      "Ġtyp": 2696,
      "bum": 2697,
      "Ġstra": 2698,
      "ada": 2699,
      "icy": 2700,
      "Ġspirit": 2701,
      "ique": 2702,
      "rest": 2703,
      "âĢĶ\"": 2704,
      "omew": 2705,
      "ĠMin": 2706,
      "ĠJust": 2707,
      "eder": 2708,
      "oid": 2709,
      "ĠApril": 2710,
      "Ġdata": 2711,
      "Well": 2712,
      "born": 2713,
      "Ġago": 2714,
      "Ġneg": 2715,
      "Ġwindow": 2716,
      "zz": 2717,
      "Ġfinally": 2718,
      "Ġroll": 2719,
      "Ġbow": 2720,
      "Ġfoc": 2721,
      "Ġbes": 2722,
      "Ġvarious": 2723,
      "aven": 2724,
      "ĠJames": 2725,
      "Ġbooks": 2726,
      "irty": 2727,
      "ĠOctober": 2728,
      "Ġdin": 2729,
      "ĠPres": 2730,
      "Ġau": 2731,
      "Ġburn": 2732,
      "Ġconcern": 2733,
      "Ġanyone": 2734,
      "ocr": 2735,
      "Ġadded": 2736,
      "Ġsepar": 2737,
      "Ġbey": 2738,
      "ĠPart": 2739,
      "'.": 2740,
      "To": 2741,
      "Ġexact": 2742,
      "Ġletter": 2743,
      "ĠMe": 2744,
      "Ġviol": 2745,
      "ager": 2746,
      "isted": 2747,
      "St": 2748,
      "oly": 2749,
      "Ġmis": 2750,
      "Ġcompet": 2751,
      "Ġlanguage": 2752,
      "Ġbeyond": 2753,
      "Ġdecided": 2754,
      "ĠHen": 2755,
      "Ġpath": 2756,
      "Ġrelationship": 2757,
      "off": 2758,
      "ĠRich": 2759,
      "Ġsuper": 2760,
      "Ġearth": 2761,
      "ĠBer": 2762,
      "Ġimm": 2763,
      "Ġexam": 2764,
      "ĠÂ": 2765,
      "inary": 2766,
      "Ġoccas": 2767,
      "Ġworks": 2768,
      "Ġcontr": 2769,
      "omen": 2770,
      "Ġregard": 2771,
      "Ġusually": 2772,
      "Ġlower": 2773,
      "RE": 2774,
      "unch": 2775,
      "ovember": 2776,
      "rief": 2777,
      "Ġmilitary": 2778,
      "Ġnamed": 2779,
      "Ġaction": 2780,
      "Ġvalue": 2781,
      "thus": 2782,
      "Ġcast": 2783,
      "Ġstation": 2784,
      "rying": 2785,
      "Ġavail": 2786,
      "iling": 2787,
      "ĠEven": 2788,
      "Ġbox": 2789,
      "IT": 2790,
      "erved": 2791,
      "oint": 2792,
      "Ġblue": 2793,
      "ĠJanuary": 2794,
      "Ġ;": 2795,
      "Ġtoday": 2796,
      "ander": 2797,
      "Ġess": 2798,
      "iber": 2799,
      "Ġâ": 2800,
      "Ġcompl": 2801,
      "AS": 2802,
      "Ġdisapp": 2803,
      "Ġclim": 2804,
      "ĠMus": 2805,
      "Ġprincip": 2806,
      "Not": 2807,
      "####": 2808,
      "asc": 2809,
      "aver": 2810,
      "Ġstraight": 2811,
      "Ġener": 2812,
      "Ġfem": 2813,
      "Ġrunning": 2814,
      "LE": 2815,
      "Ġfinal": 2816,
      "Ġsecret": 2817,
      "Ġmarket": 2818,
      "Ġbeautiful": 2819,
      "Ġstopped": 2820,
      "ny": 2821,
      "Ġ`": 2822,
      "ĠDavid": 2823,
      "IC": 2824,
      "ground": 2825,
      "Ġep": 2826,
      "inct": 2827,
      "top": 2828,
      "Ġassoci": 2829,
      "grap": 2830,
      "ving": 2831,
      "ĠCap": 2832,
      "acks": 2833,
      "ING": 2834,
      "Ġpersonal": 2835,
      "elled": 2836,
      "yl": 2837,
      "osed": 2838,
      "Ġslight": 2839,
      "ators": 2840,
      "Ġlives": 2841,
      "teen": 2842,
      "overed": 2843,
      "gress": 2844,
      "Ġwalk": 2845,
      "epend": 2846,
      "Ġstudy": 2847,
      "Ġthus": 2848,
      "ĠAustral": 2849,
      "Ġintrod": 2850,
      "ĠSchool": 2851,
      "ĠDes": 2852,
      "uge": 2853,
      "Ġcoup": 2854,
      "ding": 2855,
      "itor": 2856,
      "Ġenjoy": 2857,
      "Ġtit": 2858,
      "TER": 2859,
      "omb": 2860,
      "urity": 2861,
      "ĠÃ": 2862,
      "Äģ": 2863,
      "rey": 2864,
      "Ġeasy": 2865,
      "ĠFrance": 2866,
      "Ġhusband": 2867,
      "ĠPark": 2868,
      "ĠExternal": 2869,
      "ify": 2870,
      "Ġmult": 2871,
      "Ġrespons": 2872,
      "Ġlif": 2873,
      "Ġrul": 2874,
      "ĠSte": 2875,
      "ĠIr": 2876,
      "Ġyourself": 2877,
      "Ġport": 2878,
      "ĠRec": 2879,
      "II": 2880,
      "Ġconsidered": 2881,
      "ĠNor": 2882,
      "Ġdaughter": 2883,
      "wards": 2884,
      "Ġfootball": 2885,
      "Ġcoll": 2886,
      "Ġtowards": 2887,
      "see": 2888,
      "Ġaccount": 2889,
      "umn": 2890,
      "unk": 2891,
      "ĠIndian": 2892,
      "head": 2893,
      "Ġhadn": 2894,
      "Ġways": 2895,
      "Ġsuffer": 2896,
      "unt": 2897,
      "Ġpublished": 2898,
      "ounded": 2899,
      "Ġtor": 2900,
      "Ġkilled": 2901,
      "engt": 2902,
      "Ġwish": 2903,
      "Ġpulled": 2904,
      "Ġlikely": 2905,
      "ĠNovember": 2906,
      "Ġ_A": 2907,
      "Ġmiddle": 2908,
      "ĠSan": 2909,
      "Ġknowledge": 2910,
      "Ġprim": 2911,
      "Ġexpect": 2912,
      "Ġpal": 2913,
      "ecause": 2914,
      "Ġdescribed": 2915,
      "lier": 2916,
      "ture": 2917,
      "Ġclosed": 2918,
      "key": 2919,
      "Ġpercent": 2920,
      "aries": 2921,
      "Ġren": 2922,
      "Ġeveryone": 2923,
      "ĠThom": 2924,
      "Ġcourt": 2925,
      "ael": 2926,
      "Ġtext": 2927,
      "Ġsimple": 2928,
      "Ġnearly": 2929,
      "--": 2930,
      "ipped": 2931,
      "izing": 2932,
      "Ġord": 2933,
      "tables": 2934,
      "Ġfair": 2935,
      "Ġrole": 2936,
      "hic": 2937,
      "ights": 2938,
      "Ġonto": 2939,
      "Ġcurrent": 2940,
      "Ġfunction": 2941,
      "urb": 2942,
      "Ġenv": 2943,
      "Ġdue": 2944,
      "Ġfast": 2945,
      "ĠEurope": 2946,
      "Ġeat": 2947,
      "Ġbeginning": 2948,
      "ĠDecember": 2949,
      "ĠIntern": 2950,
      "Ġmention": 2951,
      "Ġstreet": 2952,
      "Ġball": 2953,
      "ĠSer": 2954,
      "Ġhost": 2955,
      "Ġdoubt": 2956,
      "Ġdevelopment": 2957,
      "emb": 2958,
      "Ġmor": 2959,
      "ensive": 2960,
      "Ġmiles": 2961,
      "Ġoriginal": 2962,
      "ĠSam": 2963,
      "Ġpopular": 2964,
      "Ġmillion": 2965,
      "Ġpack": 2966,
      "iny": 2967,
      "Ġlived": 2968,
      "ĠMary": 2969,
      "Ġshot": 2970,
      "Ġwarm": 2971,
      "aled": 2972,
      "ification": 2973,
      "dy": 2974,
      "Ġindust": 2975,
      "Ġtables": 2976,
      "Ġkey": 2977,
      "ĠAg": 2978,
      "iant": 2979,
      "Ġindic": 2980,
      "hin": 2981,
      "reng": 2982,
      "ourt": 2983,
      "roy": 2984,
      "Ġgar": 2985,
      "Ġwriting": 2986,
      "aded": 2987,
      "Ġhealth": 2988,
      "Ġinclude": 2989,
      "ests": 2990,
      "OU": 2991,
      "Ġcause": 2992,
      "Ġalbum": 2993,
      "Ġcompan": 2994,
      "Ġinit": 2995,
      "pan": 2996,
      "eds": 2997,
      "Ġserved": 2998,
      "Ġbelow": 2999,
      "Ġheavy": 3000,
      "ffic": 3001,
      "ider": 3002,
      "anks": 3003,
      "Ġnecessary": 3004,
      "\",": 3005,
      "Ġcus": 3006,
      "tast": 3007,
      "ĠTom": 3008,
      "hick": 3009,
      "oted": 3010,
      "Ġmatch": 3011,
      "thick": 3012,
      "ĠHistory": 3013,
      "Ġtalking": 3014,
      "Ġdecl": 3015,
      "Ġstanding": 3016,
      "hreat": 3017,
      "Ġden": 3018,
      "Ġret": 3019,
      "reek": 3020,
      "oyal": 3021,
      "ĠChurch": 3022,
      "Ġrock": 3023,
      "Ġhar": 3024,
      "threat": 3025,
      "a_": 3026,
      "Ġavailable": 3027,
      "Ġsmile": 3028,
      "Ġir": 3029,
      "Ġparents": 3030,
      "Ġmountain": 3031,
      "itation": 3032,
      "Ġnews": 3033,
      "rec": 3034,
      "anch": 3035,
      "bruary": 3036,
      "\".": 3037,
      "Ġconvers": 3038,
      "Ġcrow": 3039,
      "Ġpolice": 3040,
      "Ġ)": 3041,
      "ĠCounty": 3042,
      "Ġdanger": 3043,
      "riage": 3044,
      "Al": 3045,
      "Ġbab": 3046,
      "Ġsurv": 3047,
      "Ġcho": 3048,
      "ams": 3049,
      "Ġfat": 3050,
      "Ġneigh": 3051,
      "Ġhom": 3052,
      "Ġriver": 3053,
      "Ġisn": 3054,
      "Ġphil": 3055,
      "Ġfif": 3056,
      "Ġhous": 3057,
      "Ġrefer": 3058,
      "Ġshr": 3059,
      "aved": 3060,
      "Ġskin": 3061,
      "Ġsuddenly": 3062,
      "Ġcloth": 3063,
      "Why": 3064,
      "Ġach": 3065,
      "cient": 3066,
      "ĠStr": 3067,
      "Ġpark": 3068,
      "Ġspr": 3069,
      "Ġaccess": 3070,
      "ĠReg": 3071,
      "Ġcareer": 3072,
      "Ġfund": 3073,
      "Ġcommunity": 3074,
      "Ġdesp": 3075,
      "ography": 3076,
      "Ġband": 3077,
      "Ġoppos": 3078,
      "Ġsignific": 3079,
      "Ġbroad": 3080,
      "Ġdeg": 3081,
      "ĠStreet": 3082,
      "arent": 3083,
      "Ġvillage": 3084,
      "ĠGeneral": 3085,
      "Ġthick": 3086,
      "Ġtast": 3087,
      "agement": 3088,
      "Ġthreat": 3089,
      "arden": 3090,
      "vision": 3091,
      "ĠChristian": 3092,
      "Ġplaces": 3093,
      "cer": 3094,
      "ashington": 3095,
      "Ġpretty": 3096,
      "Ġnorm": 3097,
      "Ġimmediately": 3098,
      "//": 3099,
      "ĠPal": 3100,
      "Ġmach": 3101,
      "Ġmist": 3102,
      "Ġsomew": 3103,
      "Î½": 3104,
      "Ġnovel": 3105,
      "Ġcomplet": 3106,
      "ĠHigh": 3107,
      "cil": 3108,
      "well": 3109,
      "Ġchair": 3110,
      "Ġsummer": 3111,
      "Ġfigure": 3112,
      "Ġearlier": 3113,
      "aked": 3114,
      "takes": 3115,
      "Ġchance": 3116,
      "Ġwide": 3117,
      "Ġwaiting": 3118,
      "Ġemer": 3119,
      "Ġut": 3120,
      "Ġpopulation": 3121,
      "Ġterms": 3122,
      "Ġstreng": 3123,
      "Ġspent": 3124,
      "ellow": 3125,
      "Ġremained": 3126,
      "Ġcouple": 3127,
      "Ġprivate": 3128,
      "hib": 3129,
      "Ġcivil": 3130,
      "ĠPat": 3131,
      "itude": 3132,
      "Ġtravel": 3133,
      "Ġprison": 3134,
      "ration": 3135,
      "wise": 3136,
      "Ġlearn": 3137,
      "lands": 3138,
      "Ġevening": 3139,
      "ĠVal": 3140,
      "ĠDo": 3141,
      "Ġcaught": 3142,
      "Ġestablished": 3143,
      "Ġclean": 3144,
      "play": 3145,
      "Ġhit": 3146,
      "Ġarmy": 3147,
      "Ġhappy": 3148,
      "Ġbattle": 3149,
      "ees": 3150,
      "Ġaud": 3151,
      "ories": 3152,
      "Ġthousand": 3153,
      "Ġoccur": 3154,
      "Ġweeks": 3155,
      "ĠSim": 3156,
      "ĠLet": 3157,
      "nder": 3158,
      "At": 3159,
      "Ġtype": 3160,
      "Ġspecies": 3161,
      "Ġnet": 3162,
      "Ġcreated": 3163,
      "Ġevents": 3164,
      "Ġgod": 3165,
      "ĠEast": 3166,
      "ĠLou": 3167,
      "Ġmember": 3168,
      "Ġspecific": 3169,
      "ĠMad": 3170,
      "Ġsalt": 3171,
      "Ġmovement": 3172,
      "ĠFebruary": 3173,
      "ounds": 3174,
      "Ġtherefore": 3175,
      "ĠEvery": 3176,
      "ateg": 3177,
      "Ġevidence": 3178,
      "ĠPeople": 3179,
      "itz": 3180,
      "ĠSup": 3181,
      "Ġcarried": 3182,
      "Ġspoke": 3183,
      "ĠDan": 3184,
      "Ġmo": 3185,
      "Ġtakes": 3186,
      "Ġones": 3187,
      "Ġplant": 3188,
      "ari": 3189,
      "where": 3190,
      "Don": 3191,
      "wood": 3192,
      "Ġarrived": 3193,
      "Ġmarried": 3194,
      "Ġenergy": 3195,
      "lying": 3196,
      "ĠRoman": 3197,
      "aily": 3198,
      "Ġunc": 3199,
      "iles": 3200,
      "isf": 3201,
      "New": 3202,
      "astic": 3203,
      "Ġraised": 3204,
      "Ġlines": 3205,
      "Ġwhis": 3206,
      "tax": 3207,
      "Ġclub": 3208,
      "Ġful": 3209,
      "ĠFirst": 3210,
      "ĠBo": 3211,
      "fl": 3212,
      "Ġtrust": 3213,
      "Ġcapital": 3214,
      "Ġofficial": 3215,
      "ÃŃ": 3216,
      "Ġpeace": 3217,
      "Ġ_P": 3218,
      "tree": 3219,
      "Ġsoul": 3220,
      "ĠJos": 3221,
      "ilities": 3222,
      "Ġquestions": 3223,
      "aped": 3224,
      "Ġbase": 3225,
      "Ġchanged": 3226,
      "Ġresearch": 3227,
      "ĠLa": 3228,
      "iqu": 3229,
      "Ġ_C": 3230,
      "Ġacqu": 3231,
      "Ġpsych": 3232,
      "cy": 3233,
      "Ġquar": 3234,
      "Ġinn": 3235,
      "pro": 3236,
      "Ġemb": 3237,
      "Ġmeaning": 3238,
      "alk": 3239,
      "century": 3240,
      "Ġwild": 3241,
      "Ġgent": 3242,
      "Ġi": 3243,
      "Ġpp": 3244,
      "Ġshare": 3245,
      "Ġstyle": 3246,
      "Ġphone": 3247,
      "Ġleaving": 3248,
      "Ã¼": 3249,
      "Ġcool": 3250,
      "Ġparts": 3251,
      "Ġnodded": 3252,
      "Ġtrees": 3253,
      "Ġlog": 3254,
      "Is": 3255,
      "ples": 3256,
      "arily": 3257,
      "Ġhall": 3258,
      "overn": 3259,
      "Ġrout": 3260,
      "yr": 3261,
      "Ġaccording": 3262,
      "ĠSir": 3263,
      "ĠIm": 3264,
      "igher": 3265,
      "Ġconcept": 3266,
      "ĠGreat": 3267,
      "Ġdetermin": 3268,
      "inet": 3269,
      "eated": 3270,
      "Ġelectr": 3271,
      "Ġlengt": 3272,
      "Ġsociety": 3273,
      "ica": 3274,
      "ĠBlack": 3275,
      "ipp": 3276,
      "alled": 3277,
      "Then": 3278,
      "Ġsight": 3279,
      "ico": 3280,
      "atory": 3281,
      "agon": 3282,
      "Ġsituation": 3283,
      "amer": 3284,
      "ĠWhile": 3285,
      "Ġder": 3286,
      "Ġmeeting": 3287,
      "struction": 3288,
      "ago": 3289,
      "All": 3290,
      "Ġpiece": 3291,
      "Ġpractice": 3292,
      "ibly": 3293,
      "Ġallowed": 3294,
      "order": 3295,
      "Ġsitting": 3296,
      "ĠEv": 3297,
      "eel": 3298,
      "ĠWhy": 3299,
      "Ġsize": 3300,
      "ulated": 3301,
      "Ġdeb": 3302,
      "ĠHenry": 3303,
      "ours": 3304,
      "Ġengine": 3305,
      "Ġreleased": 3306,
      "ounced": 3307,
      "ĠRobert": 3308,
      "Ġreading": 3309,
      "Ġfrequ": 3310,
      "portun": 3311,
      "Ġstudents": 3312,
      "Ġslowly": 3313,
      "Ġphilos": 3314,
      "Ġindeed": 3315,
      "Ġpull": 3316,
      "Ġnote": 3317,
      "Ġbag": 3318,
      "uf": 3319,
      "iation": 3320,
      "Ġsister": 3321,
      "AC": 3322,
      "Ġspread": 3323,
      "Ġcomfort": 3324,
      "ĠDep": 3325,
      "Ġdress": 3326,
      "Ġtotal": 3327,
      "Ġbot": 3328,
      "ication": 3329,
      "Ġpen": 3330,
      "Ġprec": 3331,
      "Ġexec": 3332,
      "Ġincluded": 3333,
      "Ġmoving": 3334,
      "Ġplaced": 3335,
      "Ġboard": 3336,
      "antly": 3337,
      "ĠMart": 3338,
      "lement": 3339,
      "Ġsweet": 3340,
      "Ġmodel": 3341,
      "ĠParis": 3342,
      "road": 3343,
      "ems": 3344,
      "Ġmaster": 3345,
      "Ġpossess": 3346,
      "ĠChin": 3347,
      "uke": 3348,
      "Ġegg": 3349,
      "Ġforg": 3350,
      "utions": 3351,
      "house": 3352,
      "dr": 3353,
      "atures": 3354,
      "ĠAct": 3355,
      "ÏĦ": 3356,
      "kn": 3357,
      "Ġcenter": 3358,
      "Ġbrown": 3359,
      "....": 3360,
      "olly": 3361,
      "Ġreplied": 3362,
      "ĠRed": 3363,
      "orry": 3364,
      "Ġla": 3365,
      "omm": 3366,
      "acing": 3367,
      "ancy": 3368,
      "ĠFrank": 3369,
      "Ġspot": 3370,
      "Ġscr": 3371,
      "book": 3372,
      "Ġloss": 3373,
      "Ġgrad": 3374,
      "Ġremark": 3375,
      "Ġign": 3376,
      "ĠRiver": 3377,
      "apers": 3378,
      "ĠBel": 3379,
      "come": 3380,
      "Ġ:": 3381,
      "ental": 3382,
      "ato": 3383,
      "abb": 3384,
      "Ġwait": 3385,
      "Ġexactly": 3386,
      "ils": 3387,
      "Ġbenef": 3388,
      "ĠWashington": 3389,
      "Ġpoints": 3390,
      "ĠOther": 3391,
      "amm": 3392,
      "rect": 3393,
      "Ġdistance": 3394,
      "ords": 3395,
      "Ġrich": 3396,
      "ĠBook": 3397,
      "ĠQue": 3398,
      "Ġlooks": 3399,
      "Ġseven": 3400,
      "olic": 3401,
      "Ġregular": 3402,
      "ĠCharles": 3403,
      "Ġachie": 3404,
      "Ġwrite": 3405,
      "tained": 3406,
      "Ġbal": 3407,
      "Ġtree": 3408,
      "Ġstrugg": 3409,
      "Ġopportun": 3410,
      "Ġcolor": 3411,
      "Ġsurface": 3412,
      "Ġleaves": 3413,
      "Ġproduced": 3414,
      "Ġ/": 3415,
      "Ġlearned": 3416,
      "ĠAlex": 3417,
      "Ġbirth": 3418,
      "Ġstage": 3419,
      "asons": 3420,
      "Ġreve": 3421,
      "igure": 3422,
      "Ġgiving": 3423,
      "isto": 3424,
      "Ġbehav": 3425,
      "ĠOf": 3426,
      "ĠMag": 3427,
      "Ġcompletely": 3428,
      "uts": 3429,
      "Ġmurder": 3430,
      "Ġcreate": 3431,
      "back": 3432,
      "Ġbright": 3433,
      "Ġdirection": 3434,
      "Ġgoes": 3435,
      "Ġcertainly": 3436,
      "ospital": 3437,
      "gen": 3438,
      "Ġspl": 3439,
      "time": 3440,
      "Î±": 3441,
      "Ġshook": 3442,
      "Ġstar": 3443,
      "Ġneeds": 3444,
      "alys": 3445,
      "Ġvisit": 3446,
      "Ġfle": 3447,
      "ED": 3448,
      "eph": 3449,
      "ĠMac": 3450,
      "orrow": 3451,
      "Ġparticularly": 3452,
      "Ġchief": 3453,
      "ironment": 3454,
      "Ġbi": 3455,
      "Ã³": 3456,
      "aker": 3457,
      "Ġgather": 3458,
      "ĠGo": 3459,
      "aling": 3460,
      "Ġopt": 3461,
      "Ġstone": 3462,
      "Ġpor": 3463,
      "tellig": 3464,
      "Ġwww": 3465,
      "Ġdie": 3466,
      "outhern": 3467,
      "Ġshows": 3468,
      "Ġsmiled": 3469,
      "aze": 3470,
      "cript": 3471,
      "Chapter": 3472,
      "tight": 3473,
      "Ġperm": 3474,
      "Ġtax": 3475,
      "ĠMark": 3476,
      "Ġtemper": 3477,
      "Ġgroups": 3478,
      "Ġartic": 3479,
      "arp": 3480,
      "Ġwid": 3481,
      "Ġlarg": 3482,
      "gu": 3483,
      "Ġcases": 3484,
      "Ġproblems": 3485,
      "itchen": 3486,
      "ĠAc": 3487,
      "Ġwatched": 3488,
      "Ġprovide": 3489,
      "Ġfilled": 3490,
      "antic": 3491,
      "Ġextra": 3492,
      "ND": 3493,
      "Ġoccup": 3494,
      "Ġhorse": 3495,
      "Ġsurr": 3496,
      "Ġfavor": 3497,
      "Ġcovered": 3498,
      "ĠWil": 3499,
      "ĠThomas": 3500,
      "Ġwhatever": 3501,
      "Ġhigher": 3502,
      "Ġextre": 3503,
      "Ġsearch": 3504,
      "rael": 3505,
      "atives": 3506,
      "Ġpred": 3507,
      "Ġfish": 3508,
      "Ġpresident": 3509,
      "ĠAdd": 3510,
      "Ġcand": 3511,
      "Ġfix": 3512,
      "tro": 3513,
      "abit": 3514,
      "Ġmaybe": 3515,
      "ĠAcc": 3516,
      "zen": 3517,
      "Ġcorner": 3518,
      "uments": 3519,
      "ented": 3520,
      "ension": 3521,
      "Ġallow": 3522,
      "olf": 3523,
      "ION": 3524,
      "Ġdry": 3525,
      "field": 3526,
      "Ġcomplex": 3527,
      "ining": 3528,
      "Ġx": 3529,
      "Ġdemand": 3530,
      "pir": 3531,
      "Ġvan": 3532,
      "ux": 3533,
      "Ġcomplete": 3534,
      "Ġedge": 3535,
      "Ġyes": 3536,
      "Ġworth": 3537,
      "Ġknows": 3538,
      "ĠEuropean": 3539,
      "Ġeasily": 3540,
      "Ġempt": 3541,
      "ĠMil": 3542,
      "Ġlean": 3543,
      "ĠPeter": 3544,
      "ministr": 3545,
      "Ġah": 3546,
      "Ġhistor": 3547,
      "iforn": 3548,
      "Ġbank": 3549,
      "ements": 3550,
      "Ġleaders": 3551,
      "ĠSal": 3552,
      "ĠPresident": 3553,
      "Ġproduction": 3554,
      "www": 3555,
      "eory": 3556,
      "bid": 3557,
      "Ġtom": 3558,
      "ĠIndia": 3559,
      "Ġfingers": 3560,
      "ĠMor": 3561,
      "heory": 3562,
      "theory": 3563,
      "aign": 3564,
      "Ġexpression": 3565,
      "Ġsugar": 3566,
      "Ġfaith": 3567,
      "Ġfinished": 3568,
      "ĠYour": 3569,
      "Ġhang": 3570,
      "ingly": 3571,
      "year": 3572,
      "Ġbelieved": 3573,
      "thin": 3574,
      "ĠWhite": 3575,
      "Ġshoulder": 3576,
      "Ġweight": 3577,
      "Ġpurpose": 3578,
      "Ġimage": 3579,
      "Ġinvolved": 3580,
      "Ġbrief": 3581,
      "Ġ_M": 3582,
      "!'": 3583,
      "Ġcat": 3584,
      "ĠBen": 3585,
      "ĠRichard": 3586,
      "just": 3587,
      "Ġbelong": 3588,
      "Ġtransl": 3589,
      "oons": 3590,
      "Ġstor": 3591,
      "Ġplaying": 3592,
      "ĠCont": 3593,
      "Ġexpected": 3594,
      "Ġrights": 3595,
      "Ġrequired": 3596,
      "pm": 3597,
      "Ġwine": 3598,
      "Ġthroughout": 3599,
      "Ġchall": 3600,
      "Ġdrive": 3601,
      "Ġtrain": 3602,
      "Ġtheory": 3603,
      "Ġoffered": 3604,
      "Ġattract": 3605,
      "Now": 3606,
      "Ġaware": 3607,
      "ros": 3608,
      "Ġamb": 3609,
      "Ġgirls": 3610,
      "more": 3611,
      "Ġmale": 3612,
      "rian": 3613,
      "Ġneck": 3614,
      "Ġbare": 3615,
      "ibr": 3616,
      "Ġsand": 3617,
      "Ġlov": 3618,
      "kay": 3619,
      "onse": 3620,
      "://": 3621,
      "night": 3622,
      "with": 3623,
      "Ġforces": 3624,
      "ols": 3625,
      "Ġshown": 3626,
      "ini": 3627,
      "how": 3628,
      "Ġfocus": 3629,
      "uty": 3630,
      "ĠMore": 3631,
      "ĠChinese": 3632,
      "illing": 3633,
      "abor": 3634,
      "Ġlack": 3635,
      "?âĢĿ": 3636,
      "ĠGermany": 3637,
      "Ġremain": 3638,
      "Ġsupposed": 3639,
      "arian": 3640,
      "ampions": 3641,
      "Ġsac": 3642,
      "cher": 3643,
      "ifornia": 3644,
      "set": 3645,
      "hirty": 3646,
      "thirty": 3647,
      "Do": 3648,
      "Ġfirm": 3649,
      "Ġversion": 3650,
      "esh": 3651,
      "ties": 3652,
      "Ġobv": 3653,
      "Ġshowed": 3654,
      "ĠPre": 3655,
      "Ġholding": 3656,
      "ashed": 3657,
      "Ġmonth": 3658,
      "Ġculture": 3659,
      "ĠHere": 3660,
      "Ġwalls": 3661,
      "Ġterm": 3662,
      "Ar": 3663,
      "ito": 3664,
      "Ġpray": 3665,
      "Ġgreater": 3666,
      "EL": 3667,
      "Ġsite": 3668,
      "ĠFranc": 3669,
      "esus": 3670,
      "Ġstrengt": 3671,
      "hold": 3672,
      "irgin": 3673,
      "Ġnames": 3674,
      "Pg": 3675,
      "Ġcit": 3676,
      "ĠChina": 3677,
      "Ġrose": 3678,
      "One": 3679,
      "ipe": 3680,
      "leg": 3681,
      "nel": 3682,
      "Ġpros": 3683,
      "Ġkitchen": 3684,
      "Ġgentle": 3685,
      "âĢľ": 3686,
      "onic": 3687,
      "Ġsatisf": 3688,
      "Ġdise": 3689,
      "ula": 3690,
      "ĠItal": 3691,
      "Ġmemory": 3692,
      "Ġresults": 3693,
      "till": 3694,
      "ĠDem": 3695,
      "Ġice": 3696,
      "arl": 3697,
      "Ġsky": 3698,
      "Ġrail": 3699,
      "ĠGovern": 3700,
      "Ġcoff": 3701,
      "ĠMal": 3702,
      "Ġpresence": 3703,
      "Ġphysical": 3704,
      "Ġdistr": 3705,
      "rig": 3706,
      "itte": 3707,
      "rip": 3708,
      "Ġpage": 3709,
      "Ġcry": 3710,
      "=\"": 3711,
      "Ġenemy": 3712,
      "Ġsad": 3713,
      "CH": 3714,
      "ners": 3715,
      "Ġcred": 3716,
      "Ġcell": 3717,
      "Ġthin": 3718,
      "Ġindepend": 3719,
      "Ġtar": 3720,
      "Ġbul": 3721,
      "Ġscene": 3722,
      "aging": 3723,
      "Ġcontrib": 3724,
      "Ġscient": 3725,
      "Ġtight": 3726,
      "Ġancient": 3727,
      "Ġrange": 3728,
      "Ġloved": 3729,
      "Ġlength": 3730,
      "iences": 3731,
      "Ġpep": 3732,
      "Ġmut": 3733,
      "chan": 3734,
      "Ã¨": 3735,
      "Ġdig": 3736,
      "ĠMost": 3737,
      "Ġtro": 3738,
      "ĠVic": 3739,
      "oles": 3740,
      "istance": 3741,
      "ĠTheir": 3742,
      "Ġpicture": 3743,
      "lim": 3744,
      "Ġtablesp": 3745,
      "Ġareas": 3746,
      "uous": 3747,
      "vey": 3748,
      "osing": 3749,
      "inated": 3750,
      "Ġbrain": 3751,
      "ĠCalifornia": 3752,
      "Ġchanges": 3753,
      "arc": 3754,
      "ĠLaw": 3755,
      "ĠOF": 3756,
      "Ġrap": 3757,
      "Ġguess": 3758,
      "Ġfilms": 3759,
      "Ġrisk": 3760,
      "ka": 3761,
      "Ġshut": 3762,
      "rie": 3763,
      "Ġpoet": 3764,
      "berg": 3765,
      "Ġteasp": 3766,
      "Ġtow": 3767,
      "ĠCath": 3768,
      "ĠTrans": 3769,
      "eal": 3770,
      "Ġtrouble": 3771,
      "Ġinterview": 3772,
      "Ġcomput": 3773,
      "Ġprovided": 3774,
      "ĠDuring": 3775,
      "Ġflat": 3776,
      "rit": 3777,
      "ios": 3778,
      "ĠArmy": 3779,
      "Ġlips": 3780,
      "Ġbowl": 3781,
      "Ġboys": 3782,
      "Ġsafe": 3783,
      "icated": 3784,
      "Ġunders": 3785,
      "cles": 3786,
      "Ġpattern": 3787,
      "Ġshout": 3788,
      "ĠIsrael": 3789,
      "Ġoccasion": 3790,
      "Ġshad": 3791,
      "Ġ_L": 3792,
      "Ġforms": 3793,
      "Ġdinner": 3794,
      "ĠTer": 3795,
      "IL": 3796,
      "ĠTwo": 3797,
      "ĠRepublic": 3798,
      "urt": 3799,
      "ĠAlthough": 3800,
      "Ġdish": 3801,
      "Ġprotect": 3802,
      "Ġsteps": 3803,
      "Ġ|-": 3804,
      "ait": 3805,
      "Ġserious": 3806,
      "Ġstick": 3807,
      "ĠLeague": 3808,
      "Ġbutter": 3809,
      "Ġconstit": 3810,
      "Ġhappen": 3811,
      "Ġrace": 3812,
      "Ġbottom": 3813,
      "ĠJo": 3814,
      "ĠFin": 3815,
      "á½": 3816,
      "Ġmanner": 3817,
      "Ġbroken": 3818,
      "ocked": 3819,
      "Ġdirectly": 3820,
      "Ġtrack": 3821,
      "RO": 3822,
      "ĠCong": 3823,
      "Ġwest": 3824,
      "Ġleading": 3825,
      "Af": 3826,
      "Ġahead": 3827,
      "Ġbound": 3828,
      "Ġstories": 3829,
      "icked": 3830,
      "Î¿": 3831,
      "ĠStud": 3832,
      "Ġnone": 3833,
      "Ġshop": 3834,
      "lebr": 3835,
      "Ġstrange": 3836,
      "Ġchapter": 3837,
      "Ġdestroy": 3838,
      "itect": 3839,
      "Be": 3840,
      "Ġaddition": 3841,
      "Ġsoldiers": 3842,
      "AM": 3843,
      "ĠInternational": 3844,
      "ĠArch": 3845,
      "Ġdeveloped": 3846,
      "Ġmine": 3847,
      "itness": 3848,
      "ields": 3849,
      "Ġjoined": 3850,
      "Ġthirty": 3851,
      "Ġgenerally": 3852,
      "Ġchoice": 3853,
      "Ġforeign": 3854,
      "Ġsection": 3855,
      "udd": 3856,
      "Ġbuy": 3857,
      "Ġkiss": 3858,
      "acher": 3859,
      "Ġbaby": 3860,
      "Ġprin": 3861,
      "Ġseat": 3862,
      "icken": 3863,
      "Ġstates": 3864,
      "kin": 3865,
      "Ġdemon": 3866,
      "US": 3867,
      "Ġassum": 3868,
      "alysis": 3869,
      "Ġeducation": 3870,
      "ĠDiv": 3871,
      "Ġdefin": 3872,
      "Ġmot": 3873,
      "Ġstrength": 3874,
      "Ġlegs": 3875,
      "ĠMichael": 3876,
      "Ġdim": 3877,
      "ĠAir": 3878,
      "Ġserve": 3879,
      "Ġhun": 3880,
      "Ġpun": 3881,
      "Ġrain": 3882,
      "Ġcatch": 3883,
      "Ġtour": 3884,
      "Ġconditions": 3885,
      "dd": 3886,
      "Ġtraining": 3887,
      "Ġlocated": 3888,
      "icip": 3889,
      "Ã¶": 3890,
      "ais": 3891,
      "Ġentered": 3892,
      "ville": 3893,
      "oured": 3894,
      "ustr": 3895,
      "ading": 3896,
      "vent": 3897,
      "Ġstuff": 3898,
      "Ġconstant": 3899,
      "Ġreb": 3900,
      "Ġtelevision": 3901,
      "With": 3902,
      "Ġphotograp": 3903,
      "Ġlie": 3904,
      "awn": 3905,
      "ĠJer": 3906,
      "bb": 3907,
      "Ġweak": 3908,
      "Ġanswered": 3909,
      "ĠCollege": 3910,
      "Ġgames": 3911,
      "Ġaver": 3912,
      "isions": 3913,
      "Ġstre": 3914,
      "tood": 3915,
      "raid": 3916,
      "Ġguard": 3917,
      "tries": 3918,
      "Ġforest": 3919,
      "ĠCam": 3920,
      "Ġbene": 3921,
      "iliar": 3922,
      "Ġbeat": 3923,
      "text": 3924,
      "Ġcentral": 3925,
      "Ġcontact": 3926,
      "Ġdecision": 3927,
      "Ġarrang": 3928,
      "Ġweap": 3929,
      "gl": 3930,
      "apt": 3931,
      "Ġspeed": 3932,
      "Ġamount": 3933,
      "ingu": 3934,
      "Ġresponse": 3935,
      "Ġclearly": 3936,
      "Ġwatching": 3937,
      "Ġeffort": 3938,
      "Ġens": 3939,
      "Ġaddress": 3940,
      "ĠSl": 3941,
      "Ġbeside": 3942,
      "Ġstir": 3943,
      "Ġeast": 3944,
      "Ġsuit": 3945,
      "His": 3946,
      "Ġideas": 3947,
      "eech": 3948,
      "ossible": 3949,
      "Ġsir": 3950,
      "Ġolder": 3951,
      "Ġreligious": 3952,
      "rupt": 3953,
      "ĠChapter": 3954,
      "Ġcounter": 3955,
      "Ġregion": 3956,
      "Ġpieces": 3957,
      "ety": 3958,
      "Ġpaid": 3959,
      "nes": 3960,
      "Ġbod": 3961,
      "Ġforced": 3962,
      "Ġproperty": 3963,
      "Ġinfluence": 3964,
      "Ġparticip": 3965,
      "Ġcy": 3966,
      "ĠMex": 3967,
      "Ġcircum": 3968,
      "hro": 3969,
      "Ġhung": 3970,
      "Ġgrew": 3971,
      "inger": 3972,
      "ĠMid": 3973,
      "Ġseeing": 3974,
      "Ġinstit": 3975,
      "Ġsilence": 3976,
      "ailed": 3977,
      "Ġinvestig": 3978,
      "Ġestablish": 3979,
      "Ġproduc": 3980,
      "ena": 3981,
      "Ġformed": 3982,
      "ĠAnt": 3983,
      "ij": 3984,
      "Ġmir": 3985,
      "ilies": 3986,
      "Ġslightly": 3987,
      "Ġopin": 3988,
      "Ġsource": 3989,
      "ĠJapanese": 3990,
      "tall": 3991,
      "Ġcondition": 3992,
      "che": 3993,
      "resp": 3994,
      "Ġtitle": 3995,
      "Ġreported": 3996,
      "riving": 3997,
      "Ġspring": 3998,
      "Ġlad": 3999,
      "Ġapplic": 4000,
      "ĠAssoci": 4001,
      "Ġstret": 4002,
      "Ġtrade": 4003,
      "Ġfellow": 4004,
      "Ġinternational": 4005,
      "ĠEr": 4006,
      "Ġsymp": 4007,
      "Ġsquare": 4008,
      "Ġvirt": 4009,
      "Ġapparent": 4010,
      "Ġwhisper": 4011,
      "Ġdear": 4012,
      "ooth": 4013,
      "Ġcheck": 4014,
      "Ġsuc": 4015,
      "oo": 4016,
      "ĠSpan": 4017,
      "Ġrealized": 4018,
      "Ġeconomic": 4019,
      "ointed": 4020,
      "Ġdiss": 4021,
      "Ġgas": 4022,
      "Ġservices": 4023,
      "board": 4024,
      "thro": 4025,
      "ste": 4026,
      "Ġscience": 4027,
      "Ġprevious": 4028,
      "oper": 4029,
      "noon": 4030,
      "ores": 4031,
      "Ġhuge": 4032,
      "eek": 4033,
      "Ġgives": 4034,
      "Ġminute": 4035,
      "ĠCH": 4036,
      "Ġchest": 4037,
      "irds": 4038,
      "ĠPort": 4039,
      "Ġthoughts": 4040,
      "Ġboat": 4041,
      "ĠOh": 4042,
      "Ġexpress": 4043,
      "igned": 4044,
      "ĠPet": 4045,
      "ĠMont": 4046,
      "Ġliber": 4047,
      "Ġhelped": 4048,
      "ias": 4049,
      "Ġagreed": 4050,
      "Ġnumbers": 4051,
      "Ġsides": 4052,
      "ette": 4053,
      "ĠHall": 4054,
      "known": 4055,
      "ĠLuc": 4056,
      "ĠUnion": 4057,
      "Ġrare": 4058,
      "Ġ<": 4059,
      "ashion": 4060,
      "Ġenter": 4061,
      "Ġcampaign": 4062,
      "ĠRev": 4063,
      "Ġpurs": 4064,
      "ki": 4065,
      "you": 4066,
      "Ġtill": 4067,
      "oned": 4068,
      "Ġcard": 4069,
      "Ġfarm": 4070,
      "Ġdifference": 4071,
      "Ġisland": 4072,
      "Ġbill": 4073,
      "Ġmarriage": 4074,
      "ivity": 4075,
      "itors": 4076,
      "vert": 4077,
      "Ġcelebr": 4078,
      "Ġbeg": 4079,
      "Ġrid": 4080,
      "Ġrub": 4081,
      "Ġdropped": 4082,
      "Ġfeatures": 4083,
      "Ġveget": 4084,
      "Ġcollect": 4085,
      "Ġcontinue": 4086,
      "Ġuns": 4087,
      "Ġsend": 4088,
      "Ġmedium": 4089,
      "Ġpowerful": 4090,
      "Ġenvironment": 4091,
      "Ġcorrect": 4092,
      "ĠItalian": 4093,
      "Ġconduct": 4094,
      "ĠCons": 4095,
      "Ġdesire": 4096,
      "Ġgrowing": 4097,
      "Ġ_B": 4098,
      "look": 4099,
      "no": 4100,
      "Ġdoctor": 4101,
      "uman": 4102,
      "Ġcab": 4103,
      "Ġneither": 4104,
      "mark": 4105,
      "ĠLike": 4106,
      "Ġsusp": 4107,
      "ĠCourt": 4108,
      "Un": 4109,
      "Ġstructure": 4110,
      "Ġ_D": 4111,
      "Ġrequire": 4112,
      "ĠLouis": 4113,
      "Ġexerc": 4114,
      "Ġfol": 4115,
      "aine": 4116,
      "Ġfro": 4117,
      "Ġafraid": 4118,
      "Ġrate": 4119,
      "Ġshoot": 4120,
      "cast": 4121,
      "Ġsave": 4122,
      "ĠFil": 4123,
      "Ġempty": 4124,
      "ĠWestern": 4125,
      "Ġstaff": 4126,
      "ĠOld": 4127,
      "Ġlarger": 4128,
      "mar": 4129,
      "ĠSat": 4130,
      "Ġturning": 4131,
      "Ġsecurity": 4132,
      "Ġul": 4133,
      "Ġtall": 4134,
      "Ġdaily": 4135,
      "Ġcountries": 4136,
      "Ġimpl": 4137,
      "atively": 4138,
      "Ġdisp": 4139,
      "Ġinterp": 4140,
      "Ġlaughed": 4141,
      "Ġofficer": 4142,
      "Ġstore": 4143,
      "APTER": 4144,
      "ĠFre": 4145,
      "Ġbear": 4146,
      "Ġfreed": 4147,
      "Ġletters": 4148,
      "Ġlady": 4149,
      "bridge": 4150,
      "Ġhell": 4151,
      "Ġfeature": 4152,
      "Ġremind": 4153,
      "ET": 4154,
      "Ġcoast": 4155,
      "ĠSto": 4156,
      "________": 4157,
      "ested": 4158,
      "igr": 4159,
      "ella": 4160,
      "Ex": 4161,
      "van": 4162,
      "ĠMo": 4163,
      "Ġconversation": 4164,
      "Ġunderstanding": 4165,
      "ĠRussian": 4166,
      "porary": 4167,
      "za": 4168,
      "Ġnation": 4169,
      "Ġgarden": 4170,
      "Ġpolicy": 4171,
      "ournal": 4172,
      "OO": 4173,
      "Ġexcl": 4174,
      "Ġphilosop": 4175,
      "Ġappl": 4176,
      "avy": 4177,
      "tend": 4178,
      "Ġperformance": 4179,
      "ideo": 4180,
      "Let": 4181,
      "Ġsorry": 4182,
      "ĠSmith": 4183,
      "ĠSun": 4184,
      "ached": 4185,
      "ston": 4186,
      "illa": 4187,
      "ittee": 4188,
      "tegr": 4189,
      "Ġinj": 4190,
      "Ġfemale": 4191,
      "Ġissue": 4192,
      "ĠAnn": 4193,
      "Ġtelling": 4194,
      "After": 4195,
      "Ġreview": 4196,
      "Ġdiscovered": 4197,
      "Ġafternoon": 4198,
      "ching": 4199,
      "ĠJesus": 4200,
      "ĠJul": 4201,
      "rid": 4202,
      "Ġtaste": 4203,
      "Ġthro": 4204,
      "Ġpepper": 4205,
      "stitute": 4206,
      "Ġwalking": 4207,
      "Ġopening": 4208,
      "ĠChan": 4209,
      "Ġbread": 4210,
      "ĠGrand": 4211,
      "Ġentirely": 4212,
      "ugh": 4213,
      "ĠTur": 4214,
      "Ġclothes": 4215,
      "Ġbeneath": 4216,
      "oviet": 4217,
      "Ġbirths": 4218,
      "Ġkid": 4219,
      "Ġdoll": 4220,
      "Ġremains": 4221,
      "Ġcoffee": 4222,
      "arly": 4223,
      "oring": 4224,
      "ttp": 4225,
      "Ġintellig": 4226,
      "Ġcharge": 4227,
      "stead": 4228,
      "Ġstock": 4229,
      "ĠMany": 4230,
      "Ġcolon": 4231,
      "ĠâĢ¢": 4232,
      "ĠSen": 4233,
      "Ġpointed": 4234,
      "Ġharm": 4235,
      "Ġpock": 4236,
      "hi": 4237,
      "Ġcarry": 4238,
      "aval": 4239,
      "ĠRob": 4240,
      "Ġhors": 4241,
      "Ġanimals": 4242,
      "ĠJud": 4243,
      "Ġunderstood": 4244,
      "Ġimpossible": 4245,
      "Ġeventually": 4246,
      "Ġsick": 4247,
      "Ġforth": 4248,
      "Ġrule": 4249,
      "Ġwrit": 4250,
      "ĠGreen": 4251,
      "Ġbecomes": 4252,
      "ampionship": 4253,
      "ĠJe": 4254,
      "ta": 4255,
      "Ġguy": 4256,
      "ID": 4257,
      "Ġprepared": 4258,
      "Ġappears": 4259,
      "Ġanx": 4260,
      "Ġsnow": 4261,
      ".âĢĶ": 4262,
      "Ġfamous": 4263,
      "Ġju": 4264,
      "Ġwinter": 4265,
      "Ġsystems": 4266,
      "Ġprop": 4267,
      "ĠCommun": 4268,
      "ĠAngel": 4269,
      "Ġdrug": 4270,
      "Ġofficers": 4271,
      "Ġpicked": 4272,
      "Tr": 4273,
      "aret": 4274,
      "Ġmessage": 4275,
      "Ġge": 4276,
      "Ġcontract": 4277,
      "ources": 4278,
      "Ġrestaur": 4279,
      "lor": 4280,
      "Ġconsequ": 4281,
      "ĠServ": 4282,
      "ĠBill": 4283,
      "ĠJim": 4284,
      "ĠParty": 4285,
      "inter": 4286,
      "Ġring": 4287,
      "ĠRem": 4288,
      "Ġcaused": 4289,
      "bour": 4290,
      "Ġqual": 4291,
      "Ġscreen": 4292,
      "Ġmanaged": 4293,
      "Ġfinanc": 4294,
      "Ġhurt": 4295,
      "ĠAfrican": 4296,
      "Ġmeat": 4297,
      "Ġcontem": 4298,
      "Ġdate": 4299,
      "Ġexplained": 4300,
      "wor": 4301,
      "burg": 4302,
      "ĠGreek": 4303,
      "Ġcried": 4304,
      "Ġlatter": 4305,
      "Re": 4306,
      "thy": 4307,
      "ĠOp": 4308,
      "Ġnice": 4309,
      "Ġemot": 4310,
      "iance": 4311,
      "ĠVol": 4312,
      "Ġsauce": 4313,
      "Ġreality": 4314,
      "Ġlabor": 4315,
      "Ġconsum": 4316,
      "Ġencour": 4317,
      "Ġtend": 4318,
      "Ġunf": 4319,
      "Ġdouble": 4320,
      "Ġhospital": 4321,
      "ĠSociety": 4322,
      "icate": 4323,
      "Ġfully": 4324,
      "Ġhouses": 4325,
      "Ġmultip": 4326,
      "Ġavoid": 4327,
      "aimed": 4328,
      "ĠYet": 4329,
      "Ġiron": 4330,
      "Ġadministr": 4331,
      "Ġmel": 4332,
      "Ġrespond": 4333,
      "can": 4334,
      "Ġprogress": 4335,
      "ĠDel": 4336,
      "Ġbroke": 4337,
      "ĠWal": 4338,
      "Ġshape": 4339,
      "Ġprofessional": 4340,
      "Ġincreasing": 4341,
      "Ġchop": 4342,
      "Ġmad": 4343,
      "Ġnotice": 4344,
      "Ġabsol": 4345,
      "AD": 4346,
      "Ġadvant": 4347,
      "Ġcapt": 4348,
      "mas": 4349,
      "Ġability": 4350,
      "Ġdistrib": 4351,
      "Ġkids": 4352,
      "Ġcontent": 4353,
      "arn": 4354,
      "ĠâĢĺ": 4355,
      "Ġmap": 4356,
      "ĠHel": 4357,
      "lig": 4358,
      "pet": 4359,
      "Ġwants": 4360,
      "Ġyellow": 4361,
      "ician": 4362,
      "Ġbath": 4363,
      "ayed": 4364,
      "under": 4365,
      "Gr": 4366,
      "Ġstream": 4367,
      "org": 4368,
      "useum": 4369,
      "rial": 4370,
      "iring": 4371,
      "Ġbott": 4372,
      "ĠVer": 4373,
      "town": 4374,
      "Ġlaid": 4375,
      "ederal": 4376,
      "Ġmeas": 4377,
      "fr": 4378,
      "oom": 4379,
      "Ġdeliver": 4380,
      "ĠAfrica": 4381,
      "Ġplayer": 4382,
      "Ġtraditional": 4383,
      "asant": 4384,
      "mond": 4385,
      "Ġapart": 4386,
      "Ġrise": 4387,
      "ĠLife": 4388,
      "Ġfamiliar": 4389,
      "Cl": 4390,
      "ocks": 4391,
      "Ġdisplay": 4392,
      "ĠRoyal": 4393,
      "ĠCanada": 4394,
      "Ġpressure": 4395,
      "Ġtroops": 4396,
      "ulate": 4397,
      "ads": 4398,
      "ĠInter": 4399,
      "ropri": 4400,
      "Ġnewsp": 4401,
      "Ġappearance": 4402,
      "ya": 4403,
      "Ġprefer": 4404,
      "ĠBur": 4405,
      "ĠCompany": 4406,
      "Ġspeech": 4407,
      "ĠOnce": 4408,
      "OT": 4409,
      "Ġobserv": 4410,
      "ĠSoviet": 4411,
      "Ġforget": 4412,
      "Ġmechan": 4413,
      "ĠRos": 4414,
      "Ġcompanies": 4415,
      "ounts": 4416,
      "ections": 4417,
      "ault": 4418,
      "Ġblock": 4419,
      "Ġdegree": 4420,
      "ita": 4421,
      "Ġmilk": 4422,
      "Ġstandard": 4423,
      "ĠScott": 4424,
      "ĠGold": 4425,
      "anted": 4426,
      "hou": 4427,
      "emic": 4428,
      "uing": 4429,
      "Ġcrowd": 4430,
      "ĠLat": 4431,
      "obal": 4432,
      "illy": 4433,
      "Ġrooms": 4434,
      "ĠBu": 4435,
      "Ġworse": 4436,
      "Ġtrip": 4437,
      "Ġmeasure": 4438,
      "Ġended": 4439,
      "Ġton": 4440,
      "ugged": 4441,
      "Ġprice": 4442,
      "iable": 4443,
      "Ġsen": 4444,
      "Ġing": 4445,
      "put": 4446,
      "hes": 4447,
      "Ġstared": 4448,
      "Ġmachine": 4449,
      "ĠWell": 4450,
      "Ġconscious": 4451,
      "Ġdemonstr": 4452,
      "Ġsymb": 4453,
      "Ġtarget": 4454,
      "uries": 4455,
      "ĠAre": 4456,
      "Ġopportunity": 4457,
      "Ġnormal": 4458,
      "ulty": 4459,
      "Ġfit": 4460,
      "fast": 4461,
      "Ġsuggested": 4462,
      "ĠUp": 4463,
      "Ġban": 4464,
      "stances": 4465,
      "Ġanimal": 4466,
      "althy": 4467,
      "ĠSpanish": 4468,
      "ĠMem": 4469,
      "Ġcustom": 4470,
      "ushing": 4471,
      "Ġpure": 4472,
      "Ġhardly": 4473,
      "ĠArab": 4474,
      "ĠSince": 4475,
      "ĠBecause": 4476,
      "ĠIsland": 4477,
      "Ġjourney": 4478,
      "Ġsharp": 4479,
      "Ġcitiz": 4480,
      "ĠMos": 4481,
      "Ġstepped": 4482,
      "Ġlaun": 4483,
      "mit": 4484,
      "Ġfailed": 4485,
      "Ġcream": 4486,
      "Ġdisease": 4487,
      "icago": 4488,
      "lymp": 4489,
      "gypt": 4490,
      "Ġye": 4491,
      "ĠBritain": 4492,
      "hur": 4493,
      "ĠSomet": 4494,
      "Ġfamilies": 4495,
      "Ġannounced": 4496,
      "ĠCouncil": 4497,
      "ĠBay": 4498,
      "Of": 4499,
      "Ġusual": 4500,
      "onom": 4501,
      "ĠKe": 4502,
      "Ġteaspoon": 4503,
      "Ġeffects": 4504,
      "Ġsignificant": 4505,
      "Îµ": 4506,
      "Ġradio": 4507,
      "ĠOur": 4508,
      "ĠIts": 4509,
      "Ġincrease": 4510,
      "á¼": 4511,
      "tail": 4512,
      "Ġsmooth": 4513,
      "Ġaltern": 4514,
      "ancing": 4515,
      "Ġsuccessful": 4516,
      "ĠNat": 4517,
      "Ġmedia": 4518,
      "ĠAustralia": 4519,
      "ria": 4520,
      "ĠAssociation": 4521,
      "Ġalive": 4522,
      "ĠMer": 4523,
      "rif": 4524,
      "Ġflour": 4525,
      "Ġarchitect": 4526,
      "Ġproduce": 4527,
      "ĠLady": 4528,
      "Ġcarefully": 4529,
      "Ġsilver": 4530,
      "ares": 4531,
      "Ġtreatment": 4532,
      "Ġexch": 4533,
      "enge": 4534,
      "Ġleader": 4535,
      "inch": 4536,
      "Ġgets": 4537,
      "isl": 4538,
      "Ġquality": 4539,
      "Ġcritic": 4540,
      "heat": 4541,
      "win": 4542,
      "OM": 4543,
      "Ġentr": 4544,
      "Ġremembered": 4545,
      "Ġbuildings": 4546,
      "Ġnoticed": 4547,
      "ero": 4548,
      "Ġmerely": 4549,
      "respond": 4550,
      "ĠVirgin": 4551,
      "Ġliked": 4552,
      "Ġexplain": 4553,
      "May": 4554,
      "ĠMod": 4555,
      "isters": 4556,
      "ĠBrown": 4557,
      "Ġprevent": 4558,
      "Ġadop": 4559,
      "Ġdistinct": 4560,
      "Ġordered": 4561,
      "Ġpurch": 4562,
      "Ġproceed": 4563,
      "Ġyout": 4564,
      "Ġinstr": 4565,
      "Ġdesigned": 4566,
      "Ġissues": 4567,
      "ĠCaptain": 4568,
      "Ġactivity": 4569,
      "ST": 4570,
      "Ġstudies": 4571,
      "Ġdrew": 4572,
      "Ġluck": 4573,
      "gment": 4574,
      "Ġur": 4575,
      "Ġcloser": 4576,
      "Ġconcent": 4577,
      "ym": 4578,
      "ĠCongress": 4579,
      "ĠAND": 4580,
      "Ġsexual": 4581,
      "Ġdepart": 4582,
      "Ġmentioned": 4583,
      "Î¹": 4584,
      "ĠMel": 4585,
      "pected": 4586,
      "Ġmission": 4587,
      "och": 4588,
      "Ġpet": 4589,
      "onn": 4590,
      "eenth": 4591,
      "Ġbodies": 4592,
      "Ġcompos": 4593,
      "ĠOlymp": 4594,
      "ida": 4595,
      "Ġconsist": 4596,
      "ĠWho": 4597,
      "Ġcontain": 4598,
      "Ġremaining": 4599,
      "anda": 4600,
      "Ġrough": 4601,
      "Ġsuppose": 4602,
      "Ġrecent": 4603,
      "agn": 4604,
      "Ġpleasure": 4605,
      "âĢĶâĢĶ": 4606,
      "Ġtransform": 4607,
      "Ġfool": 4608,
      "ĠTV": 4609,
      "Ġglad": 4610,
      "ĠAccording": 4611,
      "Ġaside": 4612,
      "ĠCast": 4613,
      "IV": 4614,
      "Ġpushed": 4615,
      "umber": 4616,
      "uten": 4617,
      "Ġrapid": 4618,
      "lam": 4619,
      "ications": 4620,
      "Ġpotential": 4621,
      "Ġgrass": 4622,
      "ĠJewish": 4623,
      "met": 4624,
      "azine": 4625,
      "Ġfruit": 4626,
      "!âĢĿ": 4627,
      "s_": 4628,
      "Ġaverage": 4629,
      "Ġindustry": 4630,
      "xford": 4631,
      "ĠDay": 4632,
      "Ġmagn": 4633,
      "By": 4634,
      "ENT": 4635,
      "Ġbelief": 4636,
      "Ġescape": 4637,
      "nam": 4638,
      "Ġinteresting": 4639,
      "Ġhotel": 4640,
      "Ġscream": 4641,
      "ĠGood": 4642,
      "Ġexistence": 4643,
      "Ġrepeated": 4644,
      "istrict": 4645,
      "Ġbehavior": 4646,
      "Ġfighting": 4647,
      "Ġsigh": 4648,
      "tone": 4649,
      "ĠWhere": 4650,
      "Ġsilent": 4651,
      "ĠHam": 4652,
      "ĠMa": 4653,
      "Ġnoted": 4654,
      "elve": 4655,
      "Ġspeaking": 4656,
      "Ġcommer": 4657,
      "Ġhighly": 4658,
      "Â°": 4659,
      "Ġnerv": 4660,
      "fess": 4661,
      "Ġtea": 4662,
      "which": 4663,
      "Ġpair": 4664,
      "Ġwel": 4665,
      "Ġmedical": 4666,
      "Ġplain": 4667,
      "ado": 4668,
      "ĠSum": 4669,
      "Ġcode": 4670,
      "Ġcrew": 4671,
      "Ġmotion": 4672,
      "Ġshoulders": 4673,
      "ĠEgypt": 4674,
      "Ġfreedom": 4675,
      "iate": 4676,
      "Ġbecoming": 4677,
      "Ġwriter": 4678,
      "Ġopposite": 4679,
      "Ġwitness": 4680,
      "ĠMuseum": 4681,
      "Ġlaws": 4682,
      "asy": 4683,
      "Ġnarrow": 4684,
      "tiny": 4685,
      "ounding": 4686,
      "Ġgrowt": 4687,
      "Ġauthority": 4688,
      "Ġcollection": 4689,
      "Ġassociated": 4690,
      "ĠFort": 4691,
      "Ġschol": 4692,
      "Ġforgot": 4693,
      "ĠIN": 4694,
      "ĠBob": 4695,
      "Ġid": 4696,
      "ona": 4697,
      "ĠStep": 4698,
      "Ġfer": 4699,
      "Her": 4700,
      "Ġinstance": 4701,
      "ora": 4702,
      "IG": 4703,
      "Ġrules": 4704,
      "ĠMaybe": 4705,
      "fficient": 4706,
      "OL": 4707,
      "ĠCharl": 4708,
      "ĠBro": 4709,
      "Ġdism": 4710,
      "adian": 4711,
      "Ġconce": 4712,
      "ĠAmericans": 4713,
      "Ġcalc": 4714,
      "apping": 4715,
      "Ġfeed": 4716,
      "Ġimagine": 4717,
      "Ġdrag": 4718,
      "Ġjoy": 4719,
      "Ġsem": 4720,
      "Ġincreased": 4721,
      "Ġroof": 4722,
      "Ġdocument": 4723,
      "ala": 4724,
      "Ġlose": 4725,
      "ĠCarol": 4726,
      "ca": 4727,
      "Ġknowing": 4728,
      "Ġsyn": 4729,
      "ĠCamp": 4730,
      "Ġaspect": 4731,
      "ĠThus": 4732,
      "Ġrob": 4733,
      "Ġwaited": 4734,
      "Ġsurprise": 4735,
      "Ġgrowth": 4736,
      "istics": 4737,
      "la": 4738,
      "Ġjournal": 4739,
      "ĠKen": 4740,
      "ĠList": 4741,
      "Ġhat": 4742,
      "Ġreasons": 4743,
      "Ġdetermined": 4744,
      "Ġmetal": 4745,
      "Ġtiny": 4746,
      "ano": 4747,
      "icks": 4748,
      "Ġteeth": 4749,
      "Ġcomment": 4750,
      "umped": 4751,
      "ĠHill": 4752,
      "owned": 4753,
      "Ġdesk": 4754,
      "Ġkeeping": 4755,
      "ĠUs": 4756,
      "tears": 4757,
      "Ġhid": 4758,
      "erous": 4759,
      "ĠOnly": 4760,
      "Where": 4761,
      "Ġdistrict": 4762,
      "Ġseparate": 4763,
      "Ġopinion": 4764,
      "âĢĭ": 4765,
      "Ġrelated": 4766,
      "ĠTimes": 4767,
      "Ġrecomm": 4768,
      "...\"": 4769,
      "Who": 4770,
      "ĠQueen": 4771,
      "Ġtears": 4772,
      "Ġgoal": 4773,
      "Ġnotes": 4774,
      "idents": 4775,
      "Ġstarting": 4776,
      "atoes": 4777,
      "Ġpatient": 4778,
      "oked": 4779,
      "Ġintroduced": 4780,
      "ĠSar": 4781,
      "Ġlearning": 4782,
      "amber": 4783,
      "lem": 4784,
      "Ġships": 4785,
      "Ġelements": 4786,
      "press": 4787,
      "ĠDepartment": 4788,
      "Ġorganization": 4789,
      "ĠMass": 4790,
      "wr": 4791,
      "ĠRome": 4792,
      "Ġ{": 4793,
      "Ġyouth": 4794,
      "ĠRoad": 4795,
      "Ġcollege": 4796,
      "Ġinh": 4797,
      "Ġdetails": 4798,
      "Ġnetwork": 4799,
      "arts": 4800,
      "Ġnose": 4801,
      "Ġrelease": 4802,
      "ĠDistrict": 4803,
      "mod": 4804,
      "Ġstruck": 4805,
      "Ġlegal": 4806,
      "Ġwindows": 4807,
      "Ġdespite": 4808,
      "Just": 4809,
      "iverse": 4810,
      "ĠSpr": 4811,
      "alog": 4812,
      "Ġmaintain": 4813,
      "elle": 4814,
      "ĠOff": 4815,
      "Ġconflic": 4816,
      "task": 4817,
      "Ġstreets": 4818,
      "ulations": 4819,
      "Ġaband": 4820,
      "ĠKr": 4821,
      "Ġsucceed": 4822,
      "ĠSur": 4823,
      "ola": 4824,
      "utch": 4825,
      "Ġprior": 4826,
      "otic": 4827,
      "ĠOut": 4828,
      "Ġpil": 4829,
      "Ġcalls": 4830,
      "Ġou": 4831,
      "Ġasking": 4832,
      "Ġfifty": 4833,
      "ĠSecond": 4834,
      "hand": 4835,
      "tering": 4836,
      "aming": 4837,
      "Ġgrab": 4838,
      "Ġdrawn": 4839,
      "Ġtrail": 4840,
      "Ġnine": 4841,
      "Ġthy": 4842,
      "Ġmoral": 4843,
      "Ġextrem": 4844,
      "Ġvision": 4845,
      "enny": 4846,
      "ellect": 4847,
      "Ġwearing": 4848,
      "Ġ_E": 4849,
      "Ġuseful": 4850,
      "Ġsurprised": 4851,
      "liament": 4852,
      "xim": 4853,
      "ĠOver": 4854,
      "Ġpresented": 4855,
      "ga": 4856,
      "tun": 4857,
      "Ġtask": 4858,
      "Ġgall": 4859,
      "Ġplease": 4860,
      "Ġtradition": 4861,
      "Ġneighbor": 4862,
      "ĠEll": 4863,
      "isher": 4864,
      "Ġ_T": 4865,
      "ĠLiving": 4866,
      "Ġloud": 4867,
      "Ġupper": 4868,
      "aches": 4869,
      "Ġtone": 4870,
      "Ġremoved": 4871,
      "Ġweather": 4872,
      "Ġdirector": 4873,
      "ishop": 4874,
      "Ġbeauty": 4875,
      "Ġlit": 4876,
      "Ġvariety": 4877,
      "Ġanalysis": 4878,
      "Ġactive": 4879,
      "Ġtypes": 4880,
      "ĠFore": 4881,
      "ĠBet": 4882,
      "ects": 4883,
      "Ġwondered": 4884,
      "icted": 4885,
      "Ġschools": 4886,
      "Ġheads": 4887,
      "ufact": 4888,
      "asts": 4889,
      "tle": 4890,
      "Ġlibr": 4891,
      "ĠCenter": 4892,
      "ĠMet": 4893,
      "Ġfinancial": 4894,
      "Ġcups": 4895,
      "Ġcalm": 4896,
      "Ġhaven": 4897,
      "Ġequal": 4898,
      "Ġcrack": 4899,
      "Ġsetting": 4900,
      "EC": 4901,
      "oken": 4902,
      "ception": 4903,
      "inate": 4904,
      "Ġthroat": 4905,
      "Ġfile": 4906,
      "Ġrestr": 4907,
      "ĠMartin": 4908,
      "Ġtransfer": 4909,
      "Ġplants": 4910,
      "overy": 4911,
      "ession": 4912,
      "ĠEmp": 4913,
      "ĠClub": 4914,
      "ĠChicago": 4915,
      "Ġvalues": 4916,
      "Ġinterested": 4917,
      "Ġvictim": 4918,
      "Ġimper": 4919,
      "Ġsmaller": 4920,
      "Ġflo": 4921,
      "Ġdust": 4922,
      "Ġcomputer": 4923,
      "Ġfeelings": 4924,
      "Ġcultural": 4925,
      "Ġworkers": 4926,
      "Ġgreatest": 4927,
      "Ġchoose": 4928,
      "Ġwilling": 4929,
      "uated": 4930,
      "ls": 4931,
      "Ġintended": 4932,
      "Le": 4933,
      "ĠItaly": 4934,
      "ption": 4935,
      "olate": 4936,
      "Ġhorses": 4937,
      "uls": 4938,
      "war": 4939,
      "Ġotherwise": 4940,
      "ĠMur": 4941,
      "Ġwed": 4942,
      "tong": 4943,
      "Ġelection": 4944,
      "eren": 4945,
      "utive": 4946,
      "apes": 4947,
      "Ġduty": 4948,
      "ĠEle": 4949,
      "cean": 4950,
      "Ġhistorical": 4951,
      "ĠMill": 4952,
      "Ġcris": 4953,
      "Ġlimited": 4954,
      "Ġlevels": 4955,
      "Ġlying": 4956,
      "Ġflav": 4957,
      "Ġfinger": 4958,
      "Ġcorrespond": 4959,
      "ĠGre": 4960,
      "Ġexcell": 4961,
      "Ġarrest": 4962,
      "Ġmixture": 4963,
      "azy": 4964,
      "ĠTy": 4965,
      "Ġplans": 4966,
      "Ġimprove": 4967,
      "gn": 4968,
      "ĠSqu": 4969,
      "Ġexhib": 4970,
      "Ġcolle": 4971,
      "west": 4972,
      "owder": 4973,
      "eping": 4974,
      "Ġdarkness": 4975,
      "Ġsuppl": 4976,
      "cel": 4977,
      "Ġfashion": 4978,
      "Ġfal": 4979,
      "Ġourselves": 4980,
      "ĠHol": 4981,
      "uan": 4982,
      "iated": 4983,
      "ĠTex": 4984,
      "Ġimpro": 4985,
      "Ġimpact": 4986,
      "Ġconcerned": 4987,
      "Ġmissing": 4988,
      "Ġstudent": 4989,
      "ctions": 4990,
      "ums": 4991,
      "Ġtransport": 4992,
      "Ġforty": 4993,
      "ĠMatt": 4994,
      "ĠJoseph": 4995,
      "Ġble": 4996,
      "Ġshared": 4997,
      "ĠGroup": 4998,
      "Ġtalked": 4999,
      "Ġactivities": 5000,
      "Ġsomewhere": 5001,
      "Ġeth": 5002,
      "Ġmic": 5003,
      "Ġdescript": 5004,
      "ĠSund": 5005,
      "Ġvideo": 5006,
      "Ġ_R": 5007,
      "Ġpositive": 5008,
      "ĠCup": 5009,
      "izes": 5010,
      "Ġcharacters": 5011,
      "Ġsongs": 5012,
      "ĠRel": 5013,
      "ĠEarth": 5014,
      "ĠJac": 5015,
      "uz": 5016,
      "ĠUnder": 5017,
      "Ġmostly": 5018,
      "azz": 5019,
      "Ġ+": 5020,
      "iform": 5021,
      "Ġhill": 5022,
      "enced": 5023,
      "eness": 5024,
      "acity": 5025,
      "alle": 5026,
      "ĠEdward": 5027,
      "cial": 5028,
      "Ġbasic": 5029,
      "Ġsounds": 5030,
      "Ġtwice": 5031,
      "ĠSil": 5032,
      "ĠMen": 5033,
      "ĠCentral": 5034,
      "Ġmort": 5035,
      "Ġcoin": 5036,
      "Ġliqu": 5037,
      "Ġ_F": 5038,
      "istry": 5039,
      "ĠPerhaps": 5040,
      "icians": 5041,
      "Ġdirected": 5042,
      "Ġcalling": 5043,
      "Ġbridge": 5044,
      "Ġglanced": 5045,
      "Ġsin": 5046,
      "Ġanti": 5047,
      "Ġindividuals": 5048,
      "bon": 5049,
      "Ã¤": 5050,
      "aters": 5051,
      "Ġreligion": 5052,
      "cks": 5053,
      "istan": 5054,
      "abeth": 5055,
      "Ġintegr": 5056,
      "Ġmoon": 5057,
      "Ġserving": 5058,
      "Ġfurn": 5059,
      "ĠAcad": 5060,
      "aks": 5061,
      "Ġdelight": 5062,
      "ĠLake": 5063,
      "Ġru": 5064,
      "Ġpolitics": 5065,
      "Ġbasis": 5066,
      "Ġgro": 5067,
      "Ġactual": 5068,
      "Ġstatus": 5069,
      "ulture": 5070,
      "host": 5071,
      "Ġcities": 5072,
      "Ġconstruction": 5073,
      "ĠWood": 5074,
      "Ġcheese": 5075,
      "Ġachieve": 5076,
      "osen": 5077,
      "ÏĤ": 5078,
      "Ġspend": 5079,
      "Ġorders": 5080,
      "olved": 5081,
      "Ġpaint": 5082,
      "down": 5083,
      "Ġpassing": 5084,
      "Ġartist": 5085,
      "bur": 5086,
      "icket": 5087,
      "Ġbought": 5088,
      "Ġemp": 5089,
      "Ġconstruct": 5090,
      "azing": 5091,
      "Ġestim": 5092,
      "based": 5093,
      "Ġcaptain": 5094,
      "Ġassist": 5095,
      "Ġadvantage": 5096,
      "Ġaudience": 5097,
      "ĠWomen": 5098,
      "Ġcircumstances": 5099,
      "alls": 5100,
      "craft": 5101,
      "Ġagree": 5102,
      "Ġplat": 5103,
      "Ġdoors": 5104,
      "Ġultim": 5105,
      "Ġtong": 5106,
      "Ġreflect": 5107,
      "uits": 5108,
      "taught": 5109,
      "Ġvast": 5110,
      "ĠEliz": 5111,
      "Ġcount": 5112,
      "Ġflowers": 5113,
      "ĠTor": 5114,
      "Ġconnection": 5115,
      "Ġaccepted": 5116,
      "while": 5117,
      "Ġsettled": 5118,
      "ĠDemocr": 5119,
      "Ġlisten": 5120,
      "anta": 5121,
      "toms": 5122,
      "Ġfold": 5123,
      "Ġcompleted": 5124,
      "do": 5125,
      "ye": 5126,
      "ĠIrish": 5127,
      "icity": 5128,
      "Ġchem": 5129,
      "rees": 5130,
      "Ġalign": 5131,
      "Br": 5132,
      "Ġpocket": 5133,
      "Ġcolumn": 5134,
      "Ġlunch": 5135,
      "Mr": 5136,
      "Or": 5137,
      "Ġpale": 5138,
      "Ġunless": 5139,
      "ifying": 5140,
      "Ġwebs": 5141,
      "Ġdangerous": 5142,
      "Ġefforts": 5143,
      "Ġobserved": 5144,
      "phas": 5145,
      "Ġcompar": 5146,
      "Ġcentre": 5147,
      "cing": 5148,
      "Are": 5149,
      "ĠLand": 5150,
      "ĠAny": 5151,
      "Ġobjects": 5152,
      "ĠIII": 5153,
      "ĠDef": 5154,
      "Ġblind": 5155,
      "Ġrevolution": 5156,
      "Ġmanagement": 5157,
      "Ġimportance": 5158,
      "ket": 5159,
      "ĠRussia": 5160,
      "ĠCatholic": 5161,
      "Ġchopped": 5162,
      "Ġchec": 5163,
      "Ġtun": 5164,
      "Ġcas": 5165,
      "kins": 5166,
      "Ġappropri": 5167,
      "ĠFer": 5168,
      "ĠFather": 5169,
      "eld": 5170,
      "Ġsolid": 5171,
      "ĠJews": 5172,
      "ipl": 5173,
      "ĠPo": 5174,
      "ĠScot": 5175,
      "ĠDivision": 5176,
      "ĠSocial": 5177,
      "Ġchicken": 5178,
      "ĠKn": 5179,
      "ĠLong": 5180,
      "bre": 5181,
      "Ġsufficient": 5182,
      "Ġrecorded": 5183,
      "mach": 5184,
      "Ġviews": 5185,
      "BC": 5186,
      "va": 5187,
      "ounted": 5188,
      "Ġought": 5189,
      "otes": 5190,
      "Ġplate": 5191,
      "ĠInstead": 5192,
      "Ġmob": 5193,
      "Ġevil": 5194,
      "Good": 5195,
      "lease": 5196,
      "Ġtaught": 5197,
      "Ġrefused": 5198,
      "Ġencoun": 5199,
      "ĠDid": 5200,
      "Ġstatement": 5201,
      "ĠTown": 5202,
      "Ġcopy": 5203,
      "Ġuses": 5204,
      "ĠBoth": 5205,
      "stein": 5206,
      "Ġfinding": 5207,
      "Ġgrown": 5208,
      "Ġepis": 5209,
      "Ġturns": 5210,
      "ua": 5211,
      "ĠSpec": 5212,
      "oston": 5213,
      "acle": 5214,
      "Ġtwelve": 5215,
      "Ġsomewhat": 5216,
      "Ġapprec": 5217,
      "Ġreceive": 5218,
      "ĠPri": 5219,
      "Ġvehic": 5220,
      "Ġhabit": 5221,
      "Ġsell": 5222,
      "riend": 5223,
      "ois": 5224,
      "Ġflight": 5225,
      "Ġinstruct": 5226,
      "Ġsmoke": 5227,
      "Ġworry": 5228,
      "Ġstars": 5229,
      "Ġcamer": 5230,
      "Ġintellect": 5231,
      "eah": 5232,
      "Ġconclud": 5233,
      "Ġeating": 5234,
      "Ġincludes": 5235,
      "Ġargument": 5236,
      "ĠMax": 5237,
      "ns": 5238,
      "enes": 5239,
      "ĠJoe": 5240,
      "Ġgaze": 5241,
      "live": 5242,
      "Ġrecently": 5243,
      "Ġá¼": 5244,
      "ĠAtl": 5245,
      ",âĢĶ": 5246,
      "ĠLee": 5247,
      "Ġsupply": 5248,
      "Ġwear": 5249,
      "uzz": 5250,
      "Ġsigned": 5251,
      "ĠDoc": 5252,
      "Ġlies": 5253,
      "Ġtells": 5254,
      "Ġseconds": 5255,
      "mine": 5256,
      "Ġwet": 5257,
      "ĠAustralian": 5258,
      "peror": 5259,
      "Ġtruly": 5260,
      "ĠInc": 5261,
      "reland": 5262,
      "icious": 5263,
      "Ġfixed": 5264,
      "ĠLeg": 5265,
      "Ïģ": 5266,
      "Ġhonor": 5267,
      "hrew": 5268,
      "bing": 5269,
      "Ġauth": 5270,
      "ĠGovernment": 5271,
      "Ġfollows": 5272,
      "ĠCanadian": 5273,
      "five": 5274,
      "threw": 5275,
      "ĠCle": 5276,
      "Ġbirds": 5277,
      "ĠAnother": 5278,
      "Ġelement": 5279,
      "$$": 5280,
      "Ġrecognized": 5281,
      "aph": 5282,
      "Ġunivers": 5283,
      "Ġdial": 5284,
      "Ġcontrast": 5285,
      "Ġdeaths": 5286,
      "Ġperformed": 5287,
      "ĠOxford": 5288,
      "iday": 5289,
      "Ġadditional": 5290,
      "eared": 5291,
      "Ġangry": 5292,
      "ĠSol": 5293,
      "Ġattend": 5294,
      "Ġproducts": 5295,
      "Ġautom": 5296,
      "ĠDis": 5297,
      "rep": 5298,
      "Ġtrib": 5299,
      "Ġlargest": 5300,
      "Ġobvious": 5301,
      "Ġfaces": 5302,
      "Ġsubsequ": 5303,
      "Ġanyway": 5304,
      "astern": 5305,
      "ĠHon": 5306,
      "ĠRom": 5307,
      "arded": 5308,
      "Ġsof": 5309,
      "Ġhol": 5310,
      "Ġded": 5311,
      "Ġhyp": 5312,
      "Ġfrag": 5313,
      "itable": 5314,
      "ĠPrince": 5315,
      "ultural": 5316,
      "Ġlifted": 5317,
      "Ġactions": 5318,
      "Ġmatters": 5319,
      "ĠChampionship": 5320,
      "Ġcou": 5321,
      "anny": 5322,
      "Ġweren": 5323,
      "Ġpatients": 5324,
      "Ġdepend": 5325,
      "ĠPublic": 5326,
      "Ġterrible": 5327,
      "rich": 5328,
      "icit": 5329,
      "amin": 5330,
      "Ġ#": 5331,
      "Ġdrawing": 5332,
      "encies": 5333,
      "urally": 5334,
      "mans": 5335,
      "Ġ_H": 5336,
      "andy": 5337,
      "Ġsouthern": 5338,
      "Ġwhispered": 5339,
      "Ġthank": 5340,
      "Ġelev": 5341,
      "equ": 5342,
      "Ġhighest": 5343,
      "Ġvess": 5344,
      "Ġninet": 5345,
      "Ġvac": 5346,
      "ĠBre": 5347,
      "Ġstayed": 5348,
      "Ġpassion": 5349,
      "Ġterror": 5350,
      "Ġpossibly": 5351,
      "Ġgest": 5352,
      "tired": 5353,
      "Ġminor": 5354,
      "Ġdance": 5355,
      "Ġputting": 5356,
      "ĠBefore": 5357,
      "Ġcoat": 5358,
      "ker": 5359,
      "Ġfigures": 5360,
      "Ġdeclared": 5361,
      "Ġlocation": 5362,
      "Ġtablespoons": 5363,
      "Ġvoc": 5364,
      "Ġborder": 5365,
      "imum": 5366,
      "Ġruns": 5367,
      "rolled": 5368,
      "Ġthrew": 5369,
      "lets": 5370,
      "icine": 5371,
      "Ġquant": 5372,
      "ĠJournal": 5373,
      "ĠTim": 5374,
      "Ġmanufact": 5375,
      "Ġroute": 5376,
      "Ġears": 5377,
      "ican": 5378,
      "Ġquarter": 5379,
      "add": 5380,
      "Ġnorthern": 5381,
      "Ġfrequently": 5382,
      "ograph": 5383,
      "Ġpropos": 5384,
      "Ġliterature": 5385,
      "rough": 5386,
      "Ġdu": 5387,
      "pective": 5388,
      "Ġcritical": 5389,
      "utely": 5390,
      "UR": 5391,
      "Your": 5392,
      "avel": 5393,
      "oung": 5394,
      "Ġwore": 5395,
      "Ġcrim": 5396,
      "mann": 5397,
      "Ġoven": 5398,
      "Ġlights": 5399,
      "Ġcarrying": 5400,
      "ĠLy": 5401,
      "Ġbackground": 5402,
      "ht": 5403,
      "Ġaccompan": 5404,
      "Ġwriters": 5405,
      "Ġyounger": 5406,
      "Ġ(\"": 5407,
      "ĠDar": 5408,
      "Ġmarked": 5409,
      "Did": 5410,
      "lishing": 5411,
      "Ġsav": 5412,
      "Ġchap": 5413,
      "Ġresponsible": 5414,
      "ucle": 5415,
      "Ġpromise": 5416,
      "Ġdrove": 5417,
      "Ġhero": 5418,
      "Ġgrin": 5419,
      "Ġessential": 5420,
      "tender": 5421,
      "fortun": 5422,
      "Ġaccompl": 5423,
      "Ġexperiment": 5424,
      "ĠEach": 5425,
      "azed": 5426,
      "iana": 5427,
      "Ġindependent": 5428,
      "she": 5429,
      "quar": 5430,
      "olit": 5431,
      "bel": 5432,
      "Ġtired": 5433,
      "Ġoccurred": 5434,
      "Ġimages": 5435,
      "ĠSing": 5436,
      "ĠPop": 5437,
      "ĠProv": 5438,
      "Ġhes": 5439,
      "].": 5440,
      "inent": 5441,
      "onel": 5442,
      "Some": 5443,
      "Ġmental": 5444,
      "ĠSub": 5445,
      "Ġdistingu": 5446,
      "izations": 5447,
      "Ġpassage": 5448,
      "Ġprimary": 5449,
      "Ġviolence": 5450,
      "Bl": 5451,
      "TH": 5452,
      "Ġthousands": 5453,
      "Ġfourt": 5454,
      "tur": 5455,
      "yal": 5456,
      "Ĥ¬": 5457,
      "ĠVirginia": 5458,
      "Ġcer": 5459,
      "Ġoblig": 5460,
      "Ġ_I": 5461,
      "ĠInstitute": 5462,
      "Ġstudied": 5463,
      "Ġshowing": 5464,
      "ĠTem": 5465,
      "Ġblank": 5466,
      "Ġrang": 5467,
      "Ġaren": 5468,
      "Ġhonest": 5469,
      "Ġtemperature": 5470,
      "place": 5471,
      "Ġeggs": 5472,
      "Ġemphas": 5473,
      "IA": 5474,
      "ĠRad": 5475,
      "Ġaid": 5476,
      "Ġreject": 5477,
      "ibrary": 5478,
      "Ġcitizens": 5479,
      "Ġprem": 5480,
      "Ġfourth": 5481,
      "ulous": 5482,
      "Ġfuck": 5483,
      "Åį": 5484,
      "ĠYes": 5485,
      "Ġwis": 5486,
      "Ġmajority": 5487,
      "Ġexercise": 5488,
      "ishment": 5489,
      "Ġappointed": 5490,
      "Ġgolden": 5491,
      "ports": 5492,
      "east": 5493,
      "Ġvo": 5494,
      "Ġhoped": 5495,
      "Ġetc": 5496,
      "Ġfly": 5497,
      "Ġteaching": 5498,
      "Ġoperations": 5499,
      "cho": 5500,
      "Ġshif": 5501,
      "Ġpool": 5502,
      "ĠHot": 5503,
      "Ġcateg": 5504,
      "En": 5505,
      "Ġleaned": 5506,
      "Ġproved": 5507,
      "ĠKore": 5508,
      "ĠPost": 5509,
      "ĠIbid": 5510,
      "bar": 5511,
      "Ġride": 5512,
      "usted": 5513,
      "Ġsequ": 5514,
      "Ġcrime": 5515,
      "http": 5516,
      "Ġkm": 5517,
      "Ġspiritual": 5518,
      "ĠBal": 5519,
      "Ġperfectly": 5520,
      "Ġfields": 5521,
      "Ġcircle": 5522,
      "Ġcontains": 5523,
      "Ġ_G": 5524,
      "Ġclaimed": 5525,
      "iments": 5526,
      "Ġpictures": 5527,
      "imp": 5528,
      "pite": 5529,
      "Ġbusy": 5530,
      "uis": 5531,
      "Ġvent": 5532,
      "Ġvia": 5533,
      "estic": 5534,
      "Ġboot": 5535,
      "tories": 5536,
      "Ġsafety": 5537,
      "Ġdesper": 5538,
      "Ġgray": 5539,
      "Ġwooden": 5540,
      "Ġoperation": 5541,
      "Ġresources": 5542,
      "Ġknife": 5543,
      "Ġbreakfast": 5544,
      "Ġnumerous": 5545,
      "ube": 5546,
      "Ġwonderful": 5547,
      "ao": 5548,
      "Ġtechnology": 5549,
      "ĠBig": 5550,
      "Ġapparently": 5551,
      "Ġpaus": 5552,
      "ĠPolit": 5553,
      "law": 5554,
      "ĠIreland": 5555,
      "Ġhide": 5556,
      "ici": 5557,
      "Ġaccident": 5558,
      "ĠThree": 5559,
      "acknow": 5560,
      "stone": 5561,
      "Ġrepresented": 5562,
      "Ġtender": 5563,
      "agg": 5564,
      "Americ": 5565,
      "Ġanger": 5566,
      "Ġfounded": 5567,
      "Ġbarely": 5568,
      "Ġprovides": 5569,
      "ienced": 5570,
      "Ġdiscover": 5571,
      "Ġmethods": 5572,
      "IR": 5573,
      "Can": 5574,
      "reement": 5575,
      "Ġbird": 5576,
      "Ġgently": 5577,
      "ĠTime": 5578,
      "attered": 5579,
      "ĠPan": 5580,
      "Ne": 5581,
      "Ġheight": 5582,
      "urban": 5583,
      "rier": 5584,
      "Ġfavour": 5585,
      "Ġdecor": 5586,
      "ban": 5587,
      "OS": 5588,
      "ules": 5589,
      "vant": 5590,
      "ih": 5591,
      "oking": 5592,
      "Mar": 5593,
      "Ġends": 5594,
      "Ġsword": 5595,
      "leep": 5596,
      "Ġparties": 5597,
      "class": 5598,
      "ĠBas": 5599,
      "Ġmoments": 5600,
      "Ġdressed": 5601,
      "ĠST": 5602,
      "urance": 5603,
      "unction": 5604,
      "Ġflesh": 5605,
      "Ġcrossed": 5606,
      "Ġunable": 5607,
      "Ġrelief": 5608,
      "ĠHaw": 5609,
      "Ġcells": 5610,
      "Ġbeach": 5611,
      "ĠPers": 5612,
      "From": 5613,
      "Ġmovie": 5614,
      "izz": 5615,
      "ĠTO": 5616,
      "Ġapartment": 5617,
      "Ġreplaced": 5618,
      "Ġbat": 5619,
      "Ġcontext": 5620,
      "Ġinqu": 5621,
      "Ġ_s": 5622,
      "IM": 5623,
      "Ġeffective": 5624,
      "Ġexcellent": 5625,
      "itar": 5626,
      "high": 5627,
      "\":": 5628,
      "uh": 5629,
      "Ġ_J": 5630,
      "Ġdram": 5631,
      "Ġconnected": 5632,
      "Ġoffers": 5633,
      "ÏĢ": 5634,
      "rim": 5635,
      "Ġris": 5636,
      "Ġconcl": 5637,
      "standing": 5638,
      "iques": 5639,
      "ĠProfess": 5640,
      "thou": 5641,
      "hens": 5642,
      "utenant": 5643,
      "Ġsmell": 5644,
      "Ġvictory": 5645,
      "ĠSpain": 5646,
      "color": 5647,
      "Ġrom": 5648,
      "Ġjuice": 5649,
      "Ġpages": 5650,
      "ĠJean": 5651,
      "Ġfinish": 5652,
      "Ġacknow": 5653,
      "Ġfalling": 5654,
      "Ïĥ": 5655,
      "ĠIll": 5656,
      "Ġpressed": 5657,
      "Ġwash": 5658,
      "Ġpapers": 5659,
      "ĠMusic": 5660,
      "ĠMexico": 5661,
      "athy": 5662,
      "orter": 5663,
      "Ġnut": 5664,
      "Ġadvance": 5665,
      "Ġnative": 5666,
      "ĠTexas": 5667,
      "Ġrising": 5668,
      "Ġjustice": 5669,
      "Ġburst": 5670,
      "ĠPlace": 5671,
      "i_": 5672,
      "Ġdiscussion": 5673,
      "Ġentrance": 5674,
      "ĠDire": 5675,
      "Ġdyn": 5676,
      "iano": 5677,
      "umph": 5678,
      "ĠBoy": 5679,
      "estival": 5680,
      "lections": 5681,
      "Ġartists": 5682,
      "Ġreference": 5683,
      "ĠOb": 5684,
      "Ġfright": 5685,
      "oves": 5686,
      "ĠDen": 5687,
      "ota": 5688,
      "ĠYear": 5689,
      "Ġcandid": 5690,
      "thor": 5691,
      "Ġrestaurant": 5692,
      "Ġlawy": 5693,
      "Ġintelligence": 5694,
      "Ġcooking": 5695,
      "iat": 5696,
      "ĠChristmas": 5697,
      "Ġtrial": 5698,
      "Ġidentity": 5699,
      "Ġcommercial": 5700,
      "Ġfallen": 5701,
      "Ġsought": 5702,
      "venue": 5703,
      "ĠHarry": 5704,
      "Ġintim": 5705,
      "Ġrecords": 5706,
      "Ġquietly": 5707,
      "Ġbegins": 5708,
      "ĠWas": 5709,
      "stitution": 5710,
      "Ġarticle": 5711,
      "Ġnoise": 5712,
      "ĠAv": 5713,
      "Ġmultiple": 5714,
      "Ġtouched": 5715,
      "Figure": 5716,
      "pers": 5717,
      "ĠCambridge": 5718,
      "ĠChris": 5719,
      "ĠGall": 5720,
      "Ġheaven": 5721,
      "uses": 5722,
      "ĠSuch": 5723,
      "Fr": 5724,
      "ĠWall": 5725,
      "Ġsomehow": 5726,
      "Ġswitch": 5727,
      "rog": 5728,
      "spec": 5729,
      "osis": 5730,
      "ĠRock": 5731,
      "Ġdivision": 5732,
      "ĠCur": 5733,
      "Ġscientific": 5734,
      "Ġnearby": 5735,
      "Ġpowers": 5736,
      "Ġshel": 5737,
      "ĠLittle": 5738,
      "inking": 5739,
      "Ġexplan": 5740,
      "ourse": 5741,
      "umbled": 5742,
      "Ġprove": 5743,
      "Ġthou": 5744,
      "Ġrot": 5745,
      "omin": 5746,
      "Ġinitial": 5747,
      "Ġphen": 5748,
      "Ġhidden": 5749,
      "Ġpowder": 5750,
      "ĠWork": 5751,
      "ĠGal": 5752,
      "Ġproud": 5753,
      "Ġaim": 5754,
      "ĠTre": 5755,
      "Ġfailure": 5756,
      "Ġsigns": 5757,
      "Ġvolume": 5758,
      "Ġfought": 5759,
      "ĠSecret": 5760,
      "ĠSunday": 5761,
      "Ġpin": 5762,
      "Ġhappens": 5763,
      "ĠJohnson": 5764,
      "Ġfifteen": 5765,
      "Ġillustr": 5766,
      "Ġstress": 5767,
      "Ġwheel": 5768,
      "Ġrat": 5769,
      "Ã±": 5770,
      "Ġshadow": 5771,
      "oma": 5772,
      "erted": 5773,
      "was": 5774,
      "Ġhousehold": 5775,
      "RA": 5776,
      "Ġteacher": 5777,
      "Ġstup": 5778,
      "Ġcareful": 5779,
      "Ġinterests": 5780,
      "Ġuniform": 5781,
      "Ġphilosophy": 5782,
      "ani": 5783,
      "Ġdeeply": 5784,
      "actions": 5785,
      "Ġodd": 5786,
      "itated": 5787,
      "ocolate": 5788,
      "rick": 5789,
      "Ġextended": 5790,
      "earing": 5791,
      "Ġroyal": 5792,
      "Ġincl": 5793,
      "Ġjudge": 5794,
      "Ġdemocr": 5795,
      "onna": 5796,
      "bury": 5797,
      "vention": 5798,
      "ĠWind": 5799,
      "Ġtail": 5800,
      "Ġapplied": 5801,
      "ĠIslam": 5802,
      "Ġentertain": 5803,
      "ĠDi": 5804,
      "Ġmountains": 5805,
      "Ġsources": 5806,
      "embly": 5807,
      "Ġknees": 5808,
      "OW": 5809,
      "Ġbalance": 5810,
      "Per": 5811,
      "Ġbomb": 5812,
      "Ġstated": 5813,
      "ĠJeff": 5814,
      "ĠElizabeth": 5815,
      "Ġrever": 5816,
      "ifth": 5817,
      "ĠEmpire": 5818,
      "theat": 5819,
      "Ġbless": 5820,
      "ĠBoston": 5821,
      "Ġrolled": 5822,
      "entially": 5823,
      "Ġteams": 5824,
      "Ġadvice": 5825,
      "Ġexpand": 5826,
      "Ġmagic": 5827,
      "Ġunit": 5828,
      "ĠDad": 5829,
      "vest": 5830,
      "Ġweapons": 5831,
      "aham": 5832,
      "Ġeasier": 5833,
      "Ġstruggle": 5834,
      "Ġswim": 5835,
      "Ġpossibility": 5836,
      "Ġwebsite": 5837,
      "ello": 5838,
      "ĠHistor": 5839,
      "isco": 5840,
      "bec": 5841,
      "Ġglobal": 5842,
      "ĠFoot": 5843,
      "Ġworst": 5844,
      "Ġgarlic": 5845,
      "Ġokay": 5846,
      "Ġhandle": 5847,
      "ĠDev": 5848,
      "ram": 5849,
      "ĠAlso": 5850,
      "THE": 5851,
      "Ġadvent": 5852,
      "Ġstomach": 5853,
      "ĠLatin": 5854,
      "Ġedition": 5855,
      "ĠCarl": 5856,
      "Ġfalse": 5857,
      "Ġsolution": 5858,
      "Ġguns": 5859,
      "Ġfill": 5860,
      "ipment": 5861,
      "rd": 5862,
      "uro": 5863,
      "ĠStar": 5864,
      "Ġpreviously": 5865,
      "ĠThough": 5866,
      "Ġideal": 5867,
      "Yeah": 5868,
      "Ġstairs": 5869,
      "Ġplays": 5870,
      "ĠFur": 5871,
      "Ġcig": 5872,
      "Ġinher": 5873,
      "Ġbud": 5874,
      "Ġsail": 5875,
      "eled": 5876,
      "Ġrac": 5877,
      "odes": 5878,
      "Ġhast": 5879,
      "Ġmyst": 5880,
      "Ġtongue": 5881,
      "Ġbottle": 5882,
      "Ġrealize": 5883,
      "ĠMiddle": 5884,
      "Ġchosen": 5885,
      "ĠConf": 5886,
      "Ġdogs": 5887,
      "ĠUK": 5888,
      "Ġpush": 5889,
      "Ġpra": 5890,
      "Ġchann": 5891,
      "Ġordinary": 5892,
      "ĠMcC": 5893,
      "Ġgate": 5894,
      "ipping": 5895,
      "Ġstands": 5896,
      "ĠDaniel": 5897,
      "Ġinner": 5898,
      "Ġpartner": 5899,
      "hm": 5900,
      "Ġpersons": 5901,
      "ĠHy": 5902,
      "Ġmeal": 5903,
      "Ġreform": 5904,
      "Ġdestroyed": 5905,
      "ective": 5906,
      "asted": 5907,
      "Ġflow": 5908,
      "Ġthor": 5909,
      "ml": 5910,
      "Ġinterpret": 5911,
      "ulf": 5912,
      "uate": 5913,
      "Ġdollars": 5914,
      "Ġdriving": 5915,
      "inity": 5916,
      "Ġbell": 5917,
      "vis": 5918,
      "Ġbrothers": 5919,
      "Ġcredit": 5920,
      "hlet": 5921,
      "Ġdetail": 5922,
      "orthy": 5923,
      "ĠFar": 5924,
      "ĠEduc": 5925,
      "Ġpriest": 5926,
      "oir": 5927,
      "Ġunits": 5928,
      "Ġthrow": 5929,
      "Ġprotection": 5930,
      "Ġphr": 5931,
      "iger": 5932,
      "Ġmixed": 5933,
      "Ġvalley": 5934,
      "Ġapplication": 5935,
      "Ġshock": 5936,
      "Ġspect": 5937,
      "ĠCross": 5938,
      "Ġwave": 5939,
      "Ġflag": 5940,
      "ĠLove": 5941,
      "Ġrice": 5942,
      "Ġtheat": 5943,
      "Ġpromised": 5944,
      "Ġrow": 5945,
      "itely": 5946,
      "Ġconver": 5947,
      "Ġextremely": 5948,
      "akers": 5949,
      "ĠBern": 5950,
      "Ġcompared": 5951,
      "Ġpolic": 5952,
      "Ġwished": 5953,
      "ĠVictori": 5954,
      "Ġeconomy": 5955,
      "Ġaccur": 5956,
      "Ġec": 5957,
      "kes": 5958,
      "Ġcenturies": 5959,
      "ĠJon": 5960,
      "ĠLook": 5961,
      "uli": 5962,
      "Here": 5963,
      "Ġingred": 5964,
      "Ġhearing": 5965,
      "ĠGeorg": 5966,
      "edy": 5967,
      "using": 5968,
      "Ġnewspaper": 5969,
      "char": 5970,
      "ĠTod": 5971,
      "Ġmanager": 5972,
      "ĠVan": 5973,
      "Ġcars": 5974,
      "Ġstaring": 5975,
      "Ġprinciple": 5976,
      "Ġexperienced": 5977,
      "olt": 5978,
      "Ġmuse": 5979,
      "hee": 5980,
      "ĠScience": 5981,
      "ĠLos": 5982,
      "Ġunknown": 5983,
      "father": 5984,
      "ĠThose": 5985,
      "ĠMat": 5986,
      "Ġrum": 5987,
      "UT": 5988,
      "Ġoriginally": 5989,
      "Ġseek": 5990,
      "Ġbond": 5991,
      "vin": 5992,
      "Ġrelax": 5993,
      "long": 5994,
      "Ġreduced": 5995,
      "ĠCat": 5996,
      "Ġsuffered": 5997,
      "ador": 5998,
      "ĠMountain": 5999,
      "ĠBi": 6000,
      "ĠAward": 6001,
      "Ġhole": 6002,
      "Ġclasses": 6003,
      "Ġdamage": 6004,
      "ĠRail": 6005,
      "Ġattrib": 6006,
      "lar": 6007,
      "Ġreports": 6008,
      "Ġlistening": 6009,
      "stairs": 6010,
      "Ġheaded": 6011,
      "Ġbegun": 6012,
      "ĠTen": 6013,
      "stance": 6014,
      "IP": 6015,
      "Ġgathered": 6016,
      "ĠPac": 6017,
      "Ġfavorite": 6018,
      "ĠEp": 6019,
      "Ġclosely": 6020,
      "Ġremove": 6021,
      "ategy": 6022,
      "ĠClass": 6023,
      "Ġinstant": 6024,
      "Ġbeer": 6025,
      "orpor": 6026,
      "Ġlat": 6027,
      "NA": 6028,
      "bit": 6029,
      "ĠEarly": 6030,
      "oz": 6031,
      "ĠRog": 6032,
      "tent": 6033,
      "affic": 6034,
      "Ġstrip": 6035,
      "Ġuncle": 6036,
      "Ġincome": 6037,
      "ĠCommittee": 6038,
      "asion": 6039,
      "Ġintr": 6040,
      "ĠBooks": 6041,
      "Ġbringing": 6042,
      "Ġexchange": 6043,
      "unicip": 6044,
      "ensity": 6045,
      "Ġcorpor": 6046,
      "ĠPlay": 6047,
      "Ġsuffering": 6048,
      "part": 6049,
      "ĠStill": 6050,
      "Ġflying": 6051,
      "ĠConn": 6052,
      "Ġsounded": 6053,
      "Ġagent": 6054,
      "Ġacad": 6055,
      "ĠBest": 6056,
      "Ġdozen": 6057,
      "ĠGar": 6058,
      "CE": 6059,
      "ĠSk": 6060,
      "rete": 6061,
      "Ġearn": 6062,
      "reme": 6063,
      "Ġwealth": 6064,
      "Ġsoil": 6065,
      "Ä«": 6066,
      "Ġmagazine": 6067,
      "Ġlibrary": 6068,
      "Ã§": 6069,
      "ĠMajor": 6070,
      "ĠChild": 6071,
      "Ġonline": 6072,
      "Ġbaking": 6073,
      "ĠNever": 6074,
      "\"âĢĶ": 6075,
      "iah": 6076,
      "Ġevident": 6077,
      "iest": 6078,
      "Ġextent": 6079,
      "Ġthanks": 6080,
      "elly": 6081,
      "ĠRay": 6082,
      "Ġgain": 6083,
      "ĠVen": 6084,
      "andom": 6085,
      "ba": 6086,
      "ache": 6087,
      "Ph": 6088,
      "itual": 6089,
      "ieties": 6090,
      "Ġpill": 6091,
      "Ġcow": 6092,
      "acon": 6093,
      "Ġsheet": 6094,
      "Ġforgotten": 6095,
      "Ġreferred": 6096,
      "Tw": 6097,
      "Ġelected": 6098,
      "Ġcommission": 6099,
      "Ġdriver": 6100,
      "ĠHad": 6101,
      "Ġscale": 6102,
      "onents": 6103,
      "atically": 6104,
      "ĠJones": 6105,
      "Ġdiet": 6106,
      "ĠOt": 6107,
      "lers": 6108,
      "Ġpit": 6109,
      "ĠLibrary": 6110,
      "Ġ_W": 6111,
      "ĠBab": 6112,
      "Pr": 6113,
      "Ġunp": 6114,
      "Ġsports": 6115,
      "Ã¦": 6116,
      "Ġunique": 6117,
      "ĠSaint": 6118,
      "utation": 6119,
      "ĠSus": 6120,
      "Ġsust": 6121,
      "ĠFlor": 6122,
      "ĠCare": 6123,
      "Ġproposed": 6124,
      "Ġguys": 6125,
      "Ġtreated": 6126,
      "eman": 6127,
      "Ġblow": 6128,
      "ĠKingdom": 6129,
      "á¹": 6130,
      "Ġburied": 6131,
      "ĠNov": 6132,
      "Ġfab": 6133,
      "omp": 6134,
      "**.": 6135,
      "ĠRevolution": 6136,
      "Ġpainting": 6137,
      "Ġminister": 6138,
      "ĠGen": 6139,
      "ĠOffic": 6140,
      "Ġjack": 6141,
      "Ġdivided": 6142,
      "ĠMinister": 6143,
      "Ġmax": 6144,
      "Ġplane": 6145,
      "ĠService": 6146,
      "Ġunus": 6147,
      "Ġsched": 6148,
      "Ġsupported": 6149,
      "ĠBudd": 6150,
      "ĠCHAPTER": 6151,
      "Ġplastic": 6152,
      "Ġwestern": 6153,
      "ĠColumb": 6154,
      "Ġcoach": 6155,
      "ĠStan": 6156,
      "IE": 6157,
      "Ġcapacity": 6158,
      "Ġcreating": 6159,
      "á¿": 6160,
      "ester": 6161,
      "Ġexha": 6162,
      "Ġspoken": 6163,
      "wich": 6164,
      "Ġkinds": 6165,
      "Ġgeneration": 6166,
      "Ġaircraft": 6167,
      "Ġdefend": 6168,
      "Ġexpressed": 6169,
      "Ġpec": 6170,
      "ĠPub": 6171,
      "Ġrevealed": 6172,
      "ava": 6173,
      "icking": 6174,
      "shire": 6175,
      "pired": 6176,
      "Ġinnoc": 6177,
      "ĠBa": 6178,
      "ĠWater": 6179,
      "Ġgrace": 6180,
      "Ġlimit": 6181,
      "Ġconflict": 6182,
      "Ġbedroom": 6183,
      "amily": 6184,
      "Ġshirt": 6185,
      "ĠCommission": 6186,
      "Every": 6187,
      "ĠResearch": 6188,
      "ĠÂ£": 6189,
      "formation": 6190,
      "water": 6191,
      "Ġsoldier": 6192,
      "ĠâĢĵ,": 6193,
      "Ġsan": 6194,
      "Ġplenty": 6195,
      "looking": 6196,
      "ĠKh": 6197,
      "ĠLie": 6198,
      "Ġequipment": 6199,
      "ĠBack": 6200,
      "Ġmere": 6201,
      "Ġinternal": 6202,
      "oln": 6203,
      "Ġshouted": 6204,
      "ĠDutch": 6205,
      "Ġtermin": 6206,
      "Ġphenomen": 6207,
      "Ġdept": 6208,
      "Ġlargely": 6209,
      "Ġunw": 6210,
      "Ġfeels": 6211,
      "tical": 6212,
      "Ġdefined": 6213,
      "Ġeager": 6214,
      "iot": 6215,
      "Ġsecure": 6216,
      "Ġplanning": 6217,
      "ervation": 6218,
      "ek": 6219,
      "Ġtoss": 6220,
      "Ġnegative": 6221,
      "Ġapproxim": 6222,
      "Ġworried": 6223,
      "Ġcomfortable": 6224,
      "rehens": 6225,
      "ĠPenn": 6226,
      "eller": 6227,
      "Ġplatform": 6228,
      "EM": 6229,
      "Ġprote": 6230,
      "aints": 6231,
      "Ġchallenge": 6232,
      "Pl": 6233,
      "Ġhistori": 6234,
      "Ġdestr": 6235,
      "Ġham": 6236,
      "ĠCorn": 6237,
      "Ġcler": 6238,
      "ĠMother": 6239,
      "ĠAlexander": 6240,
      "usal": 6241,
      "gent": 6242,
      "ource": 6243,
      "Ġhorr": 6244,
      "Ġhanded": 6245,
      "Ġopp": 6246,
      "Ġplanned": 6247,
      "ĠValley": 6248,
      "ĠArthur": 6249,
      "ĠMaster": 6250,
      "antry": 6251,
      "rence": 6252,
      "oren": 6253,
      "Ġreaction": 6254,
      "othing": 6255,
      "bal": 6256,
      "Ġlock": 6257,
      "Ġinches": 6258,
      "Ġstorm": 6259,
      "Ġstrike": 6260,
      "Ġrank": 6261,
      "Ġdescription": 6262,
      "mont": 6263,
      "Ġschem": 6264,
      "ses": 6265,
      "Ġthorough": 6266,
      "Ġcloud": 6267,
      "Ġbasket": 6268,
      "Ġplus": 6269,
      "Ġmyt": 6270,
      "heless": 6271,
      "Ġshore": 6272,
      "Ġadjust": 6273,
      "Ġox": 6274,
      "Ġenorm": 6275,
      "roph": 6276,
      "Pro": 6277,
      "ĠSea": 6278,
      "Ġarriv": 6279,
      "e_": 6280,
      "Ġasc": 6281,
      "Ġnegot": 6282,
      "Ġcapable": 6283,
      "Ġsons": 6284,
      "aunt": 6285,
      "Ġadmitted": 6286,
      "Ġcous": 6287,
      "Ġburning": 6288,
      "cons": 6289,
      "ĠAcademy": 6290,
      "ĠGet": 6291,
      "Ġengaged": 6292,
      "Ġframe": 6293,
      "ĠSuper": 6294,
      "ĠNorm": 6295,
      "sk": 6296,
      "Ġunh": 6297,
      "pass": 6298,
      "ĠMir": 6299,
      "mes": 6300,
      "enger": 6301,
      "Ġrequest": 6302,
      "theless": 6303,
      "ĠMuslim": 6304,
      "log": 6305,
      "ĠProt": 6306,
      "Ġperman": 6307,
      "Ġlegisl": 6308,
      "Ġguide": 6309,
      "Ġconfidence": 6310,
      "opy": 6311,
      "Ġgrip": 6312,
      "zed": 6313,
      "Con": 6314,
      "outs": 6315,
      "eral": 6316,
      "ĠTurn": 6317,
      "ĠFigure": 6318,
      "adel": 6319,
      "iveness": 6320,
      "Ġutter": 6321,
      "Ġskills": 6322,
      "Ġsteel": 6323,
      "Ġcerem": 6324,
      "Come": 6325,
      "ĠAsia": 6326,
      "Qu": 6327,
      "ĠHarr": 6328,
      "Ġadult": 6329,
      "Ġrein": 6330,
      "ĠDuke": 6331,
      "Ġho": 6332,
      "Ġclaims": 6333,
      "Ġfant": 6334,
      "oses": 6335,
      "ĠUr": 6336,
      "Ġhate": 6337,
      "Ġdistant": 6338,
      "oms": 6339,
      "ĠBerlin": 6340,
      "Ġhumans": 6341,
      "ĠOffice": 6342,
      "Ġgift": 6343,
      "Ġconcentr": 6344,
      "Ġflash": 6345,
      "Ġlandsc": 6346,
      "Ġconsciousness": 6347,
      "icient": 6348,
      "ĠSher": 6349,
      "Ġregarded": 6350,
      "Ġanaly": 6351,
      "Ġdisappeared": 6352,
      "Ġmusical": 6353,
      "Ġchain": 6354,
      "Ġmood": 6355,
      "acter": 6356,
      "Ġstrateg": 6357,
      "Look": 6358,
      "Ġcompetition": 6359,
      "See": 6360,
      "mosp": 6361,
      "ila": 6362,
      "Ġvisible": 6363,
      "Ġadvanced": 6364,
      "Ġliquid": 6365,
      "Ġrecon": 6366,
      "],": 6367,
      "esc": 6368,
      "American": 6369,
      "Ġintellectual": 6370,
      "Ġmas": 6371,
      "Ġolive": 6372,
      "ĠBus": 6373,
      "low": 6374,
      "Ġsales": 6375,
      "Ġgrave": 6376,
      "Ġyards": 6377,
      "Ġafford": 6378,
      "Ġresponsibility": 6379,
      "Ġthinks": 6380,
      "Ġrear": 6381,
      "Ġraise": 6382,
      "Ġrelatively": 6383,
      "ĠOl": 6384,
      "Ġdepartment": 6385,
      "Ġexperiences": 6386,
      "gal": 6387,
      "ĠCook": 6388,
      "Ġpaused": 6389,
      "achers": 6390,
      "Ġappropriate": 6391,
      "real": 6392,
      "ĠAndrew": 6393,
      "ucked": 6394,
      "Ġwire": 6395,
      "Ġdiscip": 6396,
      "Ġmanif": 6397,
      "Ġliterary": 6398,
      "Ġperce": 6399,
      "Ġenthus": 6400,
      "ĠAsh": 6401,
      "Ġgods": 6402,
      "ĠDun": 6403,
      "Ġcommit": 6404,
      "ensus": 6405,
      "amental": 6406,
      "oving": 6407,
      "Ġ_d": 6408,
      "Ġimpress": 6409,
      "ĠJane": 6410,
      "Ġtur": 6411,
      "usive": 6412,
      "ĠChief": 6413,
      "ĠEnd": 6414,
      "Ġcauses": 6415,
      "ĠAngeles": 6416,
      "Ġcolour": 6417,
      "angers": 6418,
      "ĠSouthern": 6419,
      "ĠCivil": 6420,
      "Ġpup": 6421,
      "ura": 6422,
      "Will": 6423,
      "chers": 6424,
      "Ġdecades": 6425,
      "from": 6426,
      "agan": 6427,
      "iner": 6428,
      "Ġflood": 6429,
      "Ġflu": 6430,
      "onent": 6431,
      "Ġnucle": 6432,
      "Ġdecide": 6433,
      "Ġshoes": 6434,
      "Ġlake": 6435,
      "Ġsaved": 6436,
      "ĠEt": 6437,
      "Ġconsiderable": 6438,
      "Ġstupid": 6439,
      "Ġtemple": 6440,
      "Ġdebut": 6441,
      "Ġintention": 6442,
      "inging": 6443,
      "ĠZeal": 6444,
      "Ġdiscussed": 6445,
      "Ġcreation": 6446,
      "Ġpounds": 6447,
      "Ġattended": 6448,
      "umin": 6449,
      "Ġpleased": 6450,
      "Ġscar": 6451,
      "Ġloose": 6452,
      "ĠYoung": 6453,
      "agers": 6454,
      "Ġdescribe": 6455,
      "Ġseeds": 6456,
      "Ġfasc": 6457,
      "Ġrend": 6458,
      "Ġ...": 6459,
      "icing": 6460,
      "isation": 6461,
      "Ġbreast": 6462,
      "agger": 6463,
      "Ġcash": 6464,
      "Ġvisited": 6465,
      "CT": 6466,
      "olk": 6467,
      "Ġstuck": 6468,
      "ĠViet": 6469,
      "Ġconqu": 6470,
      "Ġequally": 6471,
      "ĠLar": 6472,
      "igan": 6473,
      "coh": 6474,
      "apy": 6475,
      "Ġformal": 6476,
      "ĠSwed": 6477,
      "vard": 6478,
      "ĠForce": 6479,
      "eps": 6480,
      "ĠPhilip": 6481,
      "cont": 6482,
      "Ġsenior": 6483,
      "Ġcombined": 6484,
      "ĠSometimes": 6485,
      "ĠIndians": 6486,
      "Ġstro": 6487,
      "Ġ\\\\": 6488,
      "ĠDou": 6489,
      "Ġdrinking": 6490,
      "Ġowners": 6491,
      "incoln": 6492,
      "sm": 6493,
      "Ġbenefit": 6494,
      "ĠJackson": 6495,
      "Ġassess": 6496,
      "era": 6497,
      "Ġpoetry": 6498,
      "Ġowned": 6499,
      "Ġhanging": 6500,
      "Ġprograms": 6501,
      "Ġspin": 6502,
      "oped": 6503,
      "Ġanywhere": 6504,
      "uster": 6505,
      "oting": 6506,
      "rant": 6507,
      "Ġassumed": 6508,
      "Ġcontemporary": 6509,
      "Ġchanging": 6510,
      "Ġadmir": 6511,
      "Ġprinciples": 6512,
      "Ġpractical": 6513,
      "urd": 6514,
      "tied": 6515,
      "Ġlord": 6516,
      "Ġglance": 6517,
      "Ġeverywhere": 6518,
      "irmed": 6519,
      "ĠVe": 6520,
      "Ġpersu": 6521,
      "yan": 6522,
      "Ġdad": 6523,
      "Ġobtain": 6524,
      "\")": 6525,
      "Ġhundreds": 6526,
      "greg": 6527,
      "Ġlap": 6528,
      "Ġlemon": 6529,
      "Ġpitch": 6530,
      "Ġresistance": 6531,
      "Ġrelation": 6532,
      "ĠWin": 6533,
      "anches": 6534,
      "Ġunion": 6535,
      "ĠNaz": 6536,
      "Ġowner": 6537,
      "Ġemotional": 6538,
      "Ġforever": 6539,
      "Ġbitter": 6540,
      "Ġtools": 6541,
      "ĠCa": 6542,
      "Ġmotor": 6543,
      "Ġsurrounded": 6544,
      "Ġkilling": 6545,
      "Ġflower": 6546,
      "ĠDick": 6547,
      "Ġimmediate": 6548,
      "ĠMarc": 6549,
      "ĠLiber": 6550,
      "ela": 6551,
      "Ġfederal": 6552,
      "bell": 6553,
      "Ġtraffic": 6554,
      "Ġexamples": 6555,
      "Ġmaterials": 6556,
      "Ġbrill": 6557,
      "aying": 6558,
      "Ġfate": 6559,
      "Ġtroub": 6560,
      "Ġfunctions": 6561,
      "emies": 6562,
      "tan": 6563,
      "Ġportion": 6564,
      "Ġrequires": 6565,
      "Ġmal": 6566,
      "Ġleads": 6567,
      "Ġfier": 6568,
      "Ġallows": 6569,
      "Ġembr": 6570,
      "ĠMarg": 6571,
      "ĠZealand": 6572,
      "uration": 6573,
      "isms": 6574,
      "ĠSand": 6575,
      "Ġbother": 6576,
      "position": 6577,
      "Ġrip": 6578,
      "Ġcancer": 6579,
      "ĠBank": 6580,
      "car": 6581,
      "inced": 6582,
      "ulating": 6583,
      "entions": 6584,
      "umes": 6585,
      "Ġnervous": 6586,
      "Ġenjoyed": 6587,
      "Ġwaters": 6588,
      "foot": 6589,
      "ras": 6590,
      "Ġcamera": 6591,
      "Ġagreement": 6592,
      "Ġtowns": 6593,
      "idel": 6594,
      "Because": 6595,
      "Ã³n": 6596,
      "aws": 6597,
      "mother": 6598,
      "Ġreply": 6599,
      "Ġ}": 6600,
      "Ġque": 6601,
      "Ã©e": 6602,
      "Î»": 6603,
      "zer": 6604,
      "IF": 6605,
      "who": 6606,
      "Ġatmosp": 6607,
      "Ġidentified": 6608,
      "ĠApp": 6609,
      "AK": 6610,
      "Ġrecognize": 6611,
      "ĠLew": 6612,
      ".[": 6613,
      "Ġax": 6614,
      "Ġindustrial": 6615,
      "Ġgoods": 6616,
      "Ġpig": 6617,
      "Ġgoals": 6618,
      "Ġsake": 6619,
      "Ġdying": 6620,
      "tip": 6621,
      "Ġuncom": 6622,
      "ĠOper": 6623,
      "ĠFurther": 6624,
      "Ġsets": 6625,
      "gest": 6626,
      "Ġestate": 6627,
      "unning": 6628,
      ".]": 6629,
      "bi": 6630,
      "esty": 6631,
      "uable": 6632,
      "Ġdomin": 6633,
      "ĠTechn": 6634,
      "gcolor": 6635,
      "ĠHor": 6636,
      "ĠLight": 6637,
      "Ġtomorrow": 6638,
      "Ġapproached": 6639,
      "life": 6640,
      "Ġadministration": 6641,
      "Ġwounded": 6642,
      "wing": 6643,
      "Ġsymbol": 6644,
      "Ġcoc": 6645,
      "ĠEst": 6646,
      "Ġabsor": 6647,
      "Ġselect": 6648,
      "Ġslave": 6649,
      "âĢ²": 6650,
      "Ġmovements": 6651,
      "Ġ_N": 6652,
      "bu": 6653,
      "Ġhoriz": 6654,
      "Ġdemanded": 6655,
      "ilder": 6656,
      "Ġfacts": 6657,
      "poses": 6658,
      "Ġstrategy": 6659,
      "Ġrif": 6660,
      "Ġcommunities": 6661,
      "ĠDisc": 6662,
      "Ġdried": 6663,
      "Ġresc": 6664,
      "Ġeditor": 6665,
      "lessly": 6666,
      "Ġ_n": 6667,
      "ĠLater": 6668,
      "da": 6669,
      "ĠFrancisco": 6670,
      "Ġsmiling": 6671,
      "Ġconcer": 6672,
      "icts": 6673,
      "Ġash": 6674,
      "atched": 6675,
      "onder": 6676,
      "Ġmistake": 6677,
      "ĠReview": 6678,
      "friend": 6679,
      "Ġdifficulty": 6680,
      "Ġconvention": 6681,
      "azil": 6682,
      "Ġmerch": 6683,
      "Ġtrick": 6684,
      "AY": 6685,
      "thee": 6686,
      "Ġvari": 6687,
      "Ġcontained": 6688,
      "case": 6689,
      "what": 6690,
      "Ġproof": 6691,
      "imal": 6692,
      "Ġpreced": 6693,
      "Ġattached": 6694,
      "Ġexcess": 6695,
      "ĠDor": 6696,
      "Ġcommunication": 6697,
      "Ġdreams": 6698,
      "Ind": 6699,
      "py": 6700,
      "ĠÏĦ": 6701,
      "Ġstudio": 6702,
      "Ġgrabbed": 6703,
      "Ġextract": 6704,
      "ĠNavy": 6705,
      "Ġthrown": 6706,
      "Ġacid": 6707,
      "Ġsuperior": 6708,
      "roduction": 6709,
      "Ġitems": 6710,
      "Ġburned": 6711,
      "ictions": 6712,
      "ĠNap": 6713,
      "ĠAgain": 6714,
      "Ġmissed": 6715,
      "Ġarrival": 6716,
      "Ġlosing": 6717,
      "ĠLoc": 6718,
      "Ġpink": 6719,
      "AB": 6720,
      "Ġsubjects": 6721,
      "Ġbones": 6722,
      "ĠBat": 6723,
      "ĠWay": 6724,
      "Ġoccupied": 6725,
      "Ġtent": 6726,
      "Ġguitar": 6727,
      "Ġswall": 6728,
      "Ġdriven": 6729,
      "These": 6730,
      "Ġbatter": 6731,
      "mm": 6732,
      "Go": 6733,
      "orge": 6734,
      "Ġdeck": 6735,
      "ĠPacific": 6736,
      "Ġhealthy": 6737,
      "Ġfaced": 6738,
      "inth": 6739,
      "enh": 6740,
      "Ġpour": 6741,
      "Ġstations": 6742,
      "Ġresto": 6743,
      "Ġinvited": 6744,
      "Ġcrisis": 6745,
      "tel": 6746,
      "Ġdread": 6747,
      "ray": 6748,
      "Ġingredients": 6749,
      "III": 6750,
      "Ġthee": 6751,
      "ĠTH": 6752,
      "ouds": 6753,
      "Ġcourage": 6754,
      "ATION": 6755,
      "Ġconstantly": 6756,
      "Ġimplement": 6757,
      "ĠTal": 6758,
      "AG": 6759,
      "ĠParliament": 6760,
      "Ġabsolutely": 6761,
      "mir": 6762,
      "Ġaffect": 6763,
      "Ġvisual": 6764,
      "Ġstructures": 6765,
      "rem": 6766,
      "ĠAut": 6767,
      "Ġcombination": 6768,
      "Ġrecip": 6769,
      "Ġacting": 6770,
      "Ġpermission": 6771,
      "Ġobtained": 6772,
      "Ġreturning": 6773,
      "Ġacts": 6774,
      "Ġconvinced": 6775,
      "oming": 6776,
      "after": 6777,
      "Ġmodels": 6778,
      "Ġbranch": 6779,
      "Ġoption": 6780,
      "clock": 6781,
      "Ġtra": 6782,
      "ogue": 6783,
      "AF": 6784,
      "Ġselected": 6785,
      "Ġdifferences": 6786,
      "Ġera": 6787,
      "John": 6788,
      "Ġfocused": 6789,
      "Ġorange": 6790,
      "Ġoccasionally": 6791,
      "Ġpainted": 6792,
      "works": 6793,
      "unte": 6794,
      "Ġasks": 6795,
      "Ġsees": 6796,
      "ĠIV": 6797,
      "agues": 6798,
      "ĠFour": 6799,
      "Ġlovely": 6800,
      "Ġsplit": 6801,
      "tware": 6802,
      "Ġadj": 6803,
      "Ad": 6804,
      "Ġwoods": 6805,
      "Ġofficials": 6806,
      "quarters": 6807,
      "len": 6808,
      "Ġnobody": 6809,
      "Ġnom": 6810,
      "Ġsentence": 6811,
      "ĠTest": 6812,
      "Ġbent": 6813,
      "row": 6814,
      "Ġcommitted": 6815,
      "arted": 6816,
      "ĠBlue": 6817,
      "ĠHun": 6818,
      "Ġsimpl": 6819,
      "term": 6820,
      "Ġshrugged": 6821,
      "Ġsurely": 6822,
      "iro": 6823,
      "ĠSimon": 6824,
      "iture": 6825,
      "inder": 6826,
      "Ġlic": 6827,
      "ĠMount": 6828,
      "Ġ_p": 6829,
      "Ġholds": 6830,
      "Ġhoney": 6831,
      "acked": 6832,
      "ointment": 6833,
      "Ġbrand": 6834,
      "Ġmirror": 6835,
      "Ġbgcolor": 6836,
      "nic": 6837,
      "Ġwaste": 6838,
      "ĠMarsh": 6839,
      "Ġscript": 6840,
      "onym": 6841,
      "ĠIS": 6842,
      "ĠEconom": 6843,
      "ĠMom": 6844,
      "ucks": 6845,
      "Ġvon": 6846,
      "Ġabsence": 6847,
      "Ġcomposed": 6848,
      "Ġoffering": 6849,
      "Ġreduce": 6850,
      "Ġmud": 6851,
      "acc": 6852,
      "ĠCy": 6853,
      "Ġseed": 6854,
      "Ġcosts": 6855,
      "Ġske": 6856,
      "Ġghost": 6857,
      "ĠVietnam": 6858,
      "Ġvul": 6859,
      "Ġleadership": 6860,
      "Ġlisted": 6861,
      "Ġmile": 6862,
      "Ġvoices": 6863,
      "Ġwings": 6864,
      "Ġadmit": 6865,
      "ĠWilliams": 6866,
      "lyn": 6867,
      "Ġsites": 6868,
      "Ġneighborhood": 6869,
      "De": 6870,
      "Ġalternative": 6871,
      "Ġtruck": 6872,
      "Ġadding": 6873,
      "ĠRet": 6874,
      "ĠOrder": 6875,
      "hread": 6876,
      "Ġnoble": 6877,
      "Ġabandoned": 6878,
      "uer": 6879,
      "Ġscore": 6880,
      "sew": 6881,
      "Maybe": 6882,
      "Ġtonight": 6883,
      "Ġhomes": 6884,
      "Ġbone": 6885,
      "ĠInf": 6886,
      "ĠâĪ": 6887,
      "Ġobviously": 6888,
      "appy": 6889,
      "Ġpositions": 6890,
      "Ġterritory": 6891,
      "Ġpleasant": 6892,
      "Ã©s": 6893,
      "Ġmemor": 6894,
      "arest": 6895,
      "aylor": 6896,
      "ĠSystem": 6897,
      "Ġlistened": 6898,
      "Ġrapidly": 6899,
      "Ġsev": 6900,
      "Ġmathem": 6901,
      "Ġpoem": 6902,
      "Ġ.\"": 6903,
      "Ġslipped": 6904,
      "thread": 6905,
      "Ġhappiness": 6906,
      "onto": 6907,
      "ĠWilson": 6908,
      "Ġprompt": 6909,
      "ulted": 6910,
      "Ġsport": 6911,
      "Ġcommander": 6912,
      "Ġattitude": 6913,
      "Ġheavily": 6914,
      "Ġrhy": 6915,
      "Ġchose": 6916,
      "Ġstring": 6917,
      "Ġargued": 6918,
      "Ġgreet": 6919,
      "Ġlocked": 6920,
      "Ġsleeping": 6921,
      "anguage": 6922,
      "enses": 6923,
      "achel": 6924,
      "Ġvote": 6925,
      "ĠNothing": 6926,
      "Ġmanage": 6927,
      "two": 6928,
      "Ġune": 6929,
      "Ġcir": 6930,
      "ĠMike": 6931,
      "Ġrelationships": 6932,
      "ĠMAP": 6933,
      "Ġunex": 6934,
      "Ġinstitutions": 6935,
      "Ġwidely": 6936,
      "Ġwaves": 6937,
      "Ġfriendly": 6938,
      "arrass": 6939,
      "Ġproced": 6940,
      "ĠMah": 6941,
      "Ġarmed": 6942,
      "ilding": 6943,
      "ĠHealth": 6944,
      "Ġrocks": 6945,
      "Ġkingdom": 6946,
      "Ġemployed": 6947,
      "Ġattacks": 6948,
      "Ġcaptured": 6949,
      "sch": 6950,
      "ĠPass": 6951,
      "ĠDet": 6952,
      "Ġweapon": 6953,
      "ews": 6954,
      "inem": 6955,
      "Ġannual": 6956,
      "ĠCarolina": 6957,
      "Ġaffairs": 6958,
      "ĠLincoln": 6959,
      "lan": 6960,
      "Ġdiam": 6961,
      "Ġcurrently": 6962,
      "Ġsuggests": 6963,
      "Ġproport": 6964,
      "Ġfactors": 6965,
      "Ġmassive": 6966,
      "ĠSummer": 6967,
      "Ġdough": 6968,
      "ĠLab": 6969,
      "ologist": 6970,
      "ĠFilm": 6971,
      "Ġuniversity": 6972,
      "ĠScotland": 6973,
      "ima": 6974,
      "phone": 6975,
      "Ġemotion": 6976,
      "Ġmurm": 6977,
      "ĠFinally": 6978,
      "Ġcurious": 6979,
      "Ġcreature": 6980,
      "Ġleather": 6981,
      "gor": 6982,
      "Ġsignal": 6983,
      "Ġtied": 6984,
      "Ġmarry": 6985,
      "cription": 6986,
      "tense": 6987,
      "ensions": 6988,
      "erves": 6989,
      "ĠDeath": 6990,
      "igg": 6991,
      "Ġworship": 6992,
      "mo": 6993,
      "style": 6994,
      "etr": 6995,
      "ĠEducation": 6996,
      "Ġgre": 6997,
      "Ġsighed": 6998,
      "ĠAnton": 6999,
      "udes": 7000,
      "iece": 7001,
      "teenth": 7002,
      "ibilities": 7003,
      "angle": 7004,
      "Ġdetermine": 7005,
      "Ġtip": 7006,
      "Ġspark": 7007,
      "Ġsmart": 7008,
      "ĠHuman": 7009,
      "fall": 7010,
      "ĠNorthern": 7011,
      "Ġhappening": 7012,
      "Ġhills": 7013,
      "Ġ!": 7014,
      "Ġsurprising": 7015,
      "Ġwelcome": 7016,
      "ĠAdam": 7017,
      "Ġuniverse": 7018,
      "ĠFlorida": 7019,
      "Ġexplanation": 7020,
      "Ġemerg": 7021,
      "Ġinsisted": 7022,
      "orders": 7023,
      "Sp": 7024,
      "kr": 7025,
      "ĠEastern": 7026,
      "Ġasleep": 7027,
      "Ġfan": 7028,
      "Ġincident": 7029,
      "Ġbutton": 7030,
      "Ġprepar": 7031,
      "ĠIra": 7032,
      "ĠColonel": 7033,
      "ati": 7034,
      "Ġplanet": 7035,
      "inted": 7036,
      "Ġextraord": 7037,
      "Ġaccounts": 7038,
      "berry": 7039,
      "Ġvegetables": 7040,
      "Ġocean": 7041,
      "Ġfired": 7042,
      "ugs": 7043,
      "Ġchalleng": 7044,
      "Ġ%": 7045,
      "Ġenormous": 7046,
      "Ġimpression": 7047,
      "Ġsurrounding": 7048,
      "Ġnotion": 7049,
      "SE": 7050,
      "Ġplot": 7051,
      "ione": 7052,
      "har": 7053,
      "Ġbay": 7054,
      "Ġwarning": 7055,
      "Ġproph": 7056,
      "ĠSong": 7057,
      "Ġexped": 7058,
      "xts": 7059,
      "boy": 7060,
      "Ġtablespoon": 7061,
      "ĠColl": 7062,
      "ucing": 7063,
      "Ġepisode": 7064,
      "Ġfaint": 7065,
      "Ġwing": 7066,
      "Ġcock": 7067,
      "Ġlob": 7068,
      "Ġsed": 7069,
      "pled": 7070,
      "Ġpride": 7071,
      "ington": 7072,
      "uties": 7073,
      "ele": 7074,
      "Ġadopted": 7075,
      "Ġlaughing": 7076,
      "velopment": 7077,
      "isely": 7078,
      "Ġprojects": 7079,
      "ĠRose": 7080,
      "ĠTop": 7081,
      "ammed": 7082,
      "mission": 7083,
      "Ġ\\": 7084,
      "Ġinstrument": 7085,
      "While": 7086,
      "Ġped": 7087,
      "Ġsquee": 7088,
      "ĠThrough": 7089,
      "Ġbreathing": 7090,
      "Ġbreaking": 7091,
      "Ġwedding": 7092,
      "ĠVill": 7093,
      "Ġprincipal": 7094,
      "ĠNight": 7095,
      "Ġadvert": 7096,
      "anna": 7097,
      "ĠStephen": 7098,
      "Ġdismiss": 7099,
      "ĠRecords": 7100,
      "Ġhelping": 7101,
      "bow": 7102,
      "Ġseriously": 7103,
      "ween": 7104,
      "Ġsoup": 7105,
      "vania": 7106,
      "inding": 7107,
      "Ġperspective": 7108,
      "Ġauthorities": 7109,
      "free": 7110,
      "Ġarranged": 7111,
      "Ġreader": 7112,
      "ĠRh": 7113,
      "ĠWr": 7114,
      "Ġcards": 7115,
      "Ġextreme": 7116,
      "Ġorganizations": 7117,
      "anged": 7118,
      "ĠHard": 7119,
      "Ġcouncil": 7120,
      "Ġrelative": 7121,
      "ĠProd": 7122,
      "Ġcrazy": 7123,
      "Ġcake": 7124,
      "Ġfairly": 7125,
      "Ġgained": 7126,
      "Ġprisoners": 7127,
      "ĠDespite": 7128,
      "Ġapply": 7129,
      "Ġnaturally": 7130,
      "Ġsinging": 7131,
      "roc": 7132,
      "Ġstarts": 7133,
      "thes": 7134,
      "Ġcutting": 7135,
      "ĠPower": 7136,
      "Ġwake": 7137,
      "Ġgiant": 7138,
      "aping": 7139,
      "ĠSpir": 7140,
      "Ġenemies": 7141,
      "Ġchocolate": 7142,
      "Ġorganized": 7143,
      "Ġpractices": 7144,
      "Ġ_m": 7145,
      "Ġcore": 7146,
      "ieth": 7147,
      "Ġshift": 7148,
      "urday": 7149,
      "Ġeastern": 7150,
      "Ġgentleman": 7151,
      "Ã¢": 7152,
      "OP": 7153,
      "hrop": 7154,
      "ĠProfessor": 7155,
      "uting": 7156,
      "Ġsettle": 7157,
      "ĠIran": 7158,
      "ardens": 7159,
      "ĠHit": 7160,
      "Ġbetr": 7161,
      "point": 7162,
      "Ġaccompanied": 7163,
      "OC": 7164,
      "Ġentry": 7165,
      "Ġsubs": 7166,
      "Ġthread": 7167,
      "ĠAlbert": 7168,
      "Ġdomestic": 7169,
      "ece": 7170,
      "ĠPerson": 7171,
      "ĠBrazil": 7172,
      "Ġchildhood": 7173,
      ".:": 7174,
      "ĠFound": 7175,
      "Ġoverall": 7176,
      "Ġinstinct": 7177,
      "Ġhal": 7178,
      "Ġparalle": 7179,
      "Ġreaders": 7180,
      "Ġcheer": 7181,
      "ĠAnne": 7182,
      "uin": 7183,
      "ĠHome": 7184,
      "Ġii": 7185,
      "Ġexisting": 7186,
      "Ġonion": 7187,
      "ĠSon": 7188,
      "Ġregister": 7189,
      "hol": 7190,
      "Ġincreasingly": 7191,
      "Ġteach": 7192,
      "irk": 7193,
      "Ġoptions": 7194,
      "Ġlands": 7195,
      "eeks": 7196,
      "Ġbeings": 7197,
      "ja": 7198,
      "Ġisol": 7199,
      "Ġimagination": 7200,
      "ĠGermans": 7201,
      "Ġopposition": 7202,
      "eding": 7203,
      "Ġnations": 7204,
      "ĠRod": 7205,
      "Ġembarrass": 7206,
      "Ġyours": 7207,
      "Ġleaf": 7208,
      "okes": 7209,
      "Ġ_c": 7210,
      "Ġlect": 7211,
      "Ġterr": 7212,
      "uv": 7213,
      "omed": 7214,
      "Ġdistribution": 7215,
      "asty": 7216,
      "ĠHoly": 7217,
      "Ġstiff": 7218,
      "Ġguests": 7219,
      "Sc": 7220,
      "Ġjudgment": 7221,
      "Ġ_h": 7222,
      "Ġdeliber": 7223,
      "Ġgrate": 7224,
      "Ġdefense": 7225,
      "ĠAbout": 7226,
      "Ġprocesses": 7227,
      "#####": 7228,
      "inction": 7229,
      "Ġroot": 7230,
      "Ġtot": 7231,
      "Ġminds": 7232,
      "iplom": 7233,
      "ĠPsych": 7234,
      "ĠPen": 7235,
      "ĠIndeed": 7236,
      "Ġtool": 7237,
      "ĠBes": 7238,
      "Ġleague": 7239,
      "ĠLind": 7240,
      "Ġraw": 7241,
      "Ġwound": 7242,
      "sewhere": 7243,
      "ez": 7244,
      "Ġwithdr": 7245,
      "Ah": 7246,
      "is_": 7247,
      "ĠJacob": 7248,
      "ĠLeon": 7249,
      "Ġpas": 7250,
      "Am": 7251,
      "Ġclin": 7252,
      "](": 7253,
      "icide": 7254,
      "tion": 7255,
      "Ġuncertain": 7256,
      "Ġreputation": 7257,
      "tact": 7258,
      "ĠBow": 7259,
      "Ġpregn": 7260,
      "osm": 7261,
      "Ġloyal": 7262,
      "aka": 7263,
      "Ġtriumph": 7264,
      "Ġrelie": 7265,
      "Ġafterwards": 7266,
      "Ġsuspect": 7267,
      "Ġproperly": 7268,
      "chester": 7269,
      "Ġdat": 7270,
      "Ġchat": 7271,
      "Ġcaut": 7272,
      "mitted": 7273,
      "Ġconnect": 7274,
      "Ġstim": 7275,
      "Ġknock": 7276,
      "Ġurban": 7277,
      "Ġlip": 7278,
      "tu": 7279,
      "Ġhoping": 7280,
      "TS": 7281,
      "quis": 7282,
      "ĠBell": 7283,
      "Ġconference": 7284,
      "syl": 7285,
      "etch": 7286,
      "ĠShan": 7287,
      "pes": 7288,
      "Ġfinds": 7289,
      "Ġlin": 7290,
      "Ġhook": 7291,
      "Ġexpert": 7292,
      "ĠKent": 7293,
      "Ġwarri": 7294,
      "Ab": 7295,
      "Ġstones": 7296,
      "Ġeverybody": 7297,
      "aire": 7298,
      "Ġbrilliant": 7299,
      "yt": 7300,
      "together": 7301,
      "rupted": 7302,
      "Ġunusual": 7303,
      "Ġslip": 7304,
      "Ġsteam": 7305,
      "Ġfacing": 7306,
      "Ġ_f": 7307,
      "Ġsacrif": 7308,
      "Ġbranches": 7309,
      "Ġcheek": 7310,
      "Ġbehavi": 7311,
      "ko": 7312,
      "Ġod": 7313,
      "Ġpatterns": 7314,
      "osure": 7315,
      "Ġproperties": 7316,
      "Ġdegrees": 7317,
      "eline": 7318,
      "Ġreaching": 7319,
      "Ġfiction": 7320,
      "atri": 7321,
      "ĠNic": 7322,
      "Ġstrict": 7323,
      "Ġpartners": 7324,
      "Ġsomebody": 7325,
      "Ġevolution": 7326,
      "Ġdelivered": 7327,
      "Ġbull": 7328,
      "Ġcooked": 7329,
      "rell": 7330,
      "ĠBattle": 7331,
      "ĠCas": 7332,
      "ĠRam": 7333,
      "Thank": 7334,
      "Ġannoun": 7335,
      "terday": 7336,
      "rooms": 7337,
      "Ġimpr": 7338,
      "ilty": 7339,
      "Ġmyster": 7340,
      "Ġperf": 7341,
      "Ġalcoh": 7342,
      "ĠBible": 7343,
      "Ġgrav": 7344,
      "ĠCub": 7345,
      "Ġlayer": 7346,
      "box": 7347,
      "burgh": 7348,
      "amic": 7349,
      "Ġelim": 7350,
      "Ġslaves": 7351,
      "Ġimagined": 7352,
      "asm": 7353,
      "cement": 7354,
      "ĠDam": 7355,
      "ĠHal": 7356,
      "ĠJess": 7357,
      "ĠSix": 7358,
      "Ġensure": 7359,
      "Ġwrapped": 7360,
      "Ġpoll": 7361,
      "Ġfo": 7362,
      "Ġmainly": 7363,
      "Ġconven": 7364,
      "Ġprofessor": 7365,
      "CHAPTER": 7366,
      "Ġarticles": 7367,
      "Dr": 7368,
      "ĠVi": 7369,
      "oster": 7370,
      "Ġpron": 7371,
      "imate": 7372,
      "acles": 7373,
      "CC": 7374,
      "Ġpalace": 7375,
      "ĠAthen": 7376,
      "ĠDer": 7377,
      "don": 7378,
      "Ġunto": 7379,
      "Ġinvolve": 7380,
      "Ġinformed": 7381,
      "Ġsucceeded": 7382,
      "Get": 7383,
      "mun": 7384,
      "bro": 7385,
      "Ġcontinues": 7386,
      "Ġgranted": 7387,
      "ĠStand": 7388,
      "Ġbenefits": 7389,
      "ĠAsian": 7390,
      "awa": 7391,
      "Even": 7392,
      "Ġmedicine": 7393,
      "Ġacquired": 7394,
      "Ġactor": 7395,
      "ĠTele": 7396,
      "Ġwisdom": 7397,
      "Ġassume": 7398,
      "Ġshouldn": 7399,
      "Ġrarely": 7400,
      "ante": 7401,
      "Ġlaunched": 7402,
      "ĠNick": 7403,
      "otton": 7404,
      "Ġfleet": 7405,
      "Ġmaid": 7406,
      "amps": 7407,
      "Ġissued": 7408,
      "Ġavo": 7409,
      "trop": 7410,
      "Ġchamber": 7411,
      "Ġfault": 7412,
      "Ġclient": 7413,
      "Ġagric": 7414,
      "ĠLi": 7415,
      "Ġconstitution": 7416,
      "enna": 7417,
      "SS": 7418,
      "ctors": 7419,
      "non": 7420,
      "Ġallowing": 7421,
      "Ġmemories": 7422,
      "Ġguest": 7423,
      "trait": 7424,
      "Ġpulling": 7425,
      "Ġtracks": 7426,
      "Ġcoal": 7427,
      "Ġexplos": 7428,
      "Ġuser": 7429,
      "Ġdefeat": 7430,
      "Ġshame": 7431,
      "inson": 7432,
      "ĠForm": 7433,
      "four": 7434,
      "Ġattacked": 7435,
      "Ġhonour": 7436,
      "Ġtower": 7437,
      "x_": 7438,
      "ĠMu": 7439,
      "ĠNob": 7440,
      "Ġacknowled": 7441,
      "cell": 7442,
      "Ġincred": 7443,
      "Ġdecisions": 7444,
      "Ġgotten": 7445,
      "Ġinstitution": 7446,
      "hel": 7447,
      "align": 7448,
      "ĠArm": 7449,
      "Ġdrama": 7450,
      "ĠHay": 7451,
      "isting": 7452,
      "ĠCro": 7453,
      "Ġjoint": 7454,
      "Ġremarkable": 7455,
      "rovers": 7456,
      "Ġwinning": 7457,
      "ĠFred": 7458,
      "ĠPlan": 7459,
      "igration": 7460,
      "Ġdivine": 7461,
      "Ġwand": 7462,
      "Ġladies": 7463,
      "ĠMic": 7464,
      "fe": 7465,
      "ighter": 7466,
      "Ġgradually": 7467,
      "Ġdesired": 7468,
      "Ġcruc": 7469,
      "Ġflew": 7470,
      "Ġmeasures": 7471,
      "arant": 7472,
      "avery": 7473,
      "ĠÂ©": 7474,
      "Ġconfess": 7475,
      "torial": 7476,
      "Ġpurposes": 7477,
      "ĠUse": 7478,
      "Ġdrugs": 7479,
      "sylvania": 7480,
      "umni": 7481,
      "oli": 7482,
      "ucky": 7483,
      "ĠIraq": 7484,
      "Ġexposed": 7485,
      "Ġattempts": 7486,
      "ĠInternet": 7487,
      "Ġaffected": 7488,
      "Ġsubstant": 7489,
      "UL": 7490,
      "Ġaspects": 7491,
      "Ġchron": 7492,
      "Ġinev": 7493,
      "ĠTour": 7494,
      "itate": 7495,
      "Ġdevice": 7496,
      "ĠHead": 7497,
      "UM": 7498,
      "Ġerr": 7499,
      "Ġexpensive": 7500,
      "Ġtempt": 7501,
      "ĠBul": 7502,
      "Ġgreatly": 7503,
      "Ġalongside": 7504,
      "ilton": 7505,
      "left": 7506,
      "Ġinhabit": 7507,
      "Ġsweat": 7508,
      "Ġcusto": 7509,
      "Ġvig": 7510,
      "Ġshell": 7511,
      "Ġpoison": 7512,
      "Ġexception": 7513,
      "Ġtypical": 7514,
      "Ġskill": 7515,
      "die": 7516,
      "ersey": 7517,
      "Ġfart": 7518,
      "whel": 7519,
      "Ġanxiety": 7520,
      "Ġboil": 7521,
      "Ġrailway": 7522,
      "Ġdesert": 7523,
      "Ġ_t": 7524,
      "Ġspite": 7525,
      "Ġlightly": 7526,
      "odge": 7527,
      "Ġanticip": 7528,
      "ĠLo": 7529,
      "Ġmyth": 7530,
      "Ġtypically": 7531,
      "Ġinterior": 7532,
      "Ġrecipe": 7533,
      "Ġcastle": 7534,
      "London": 7535,
      "ĠHolly": 7536,
      "Ġrush": 7537,
      "ĠFootball": 7538,
      "Ġje": 7539,
      "Ġcruel": 7540,
      "ĠBarb": 7541,
      "uations": 7542,
      "Ġbanks": 7543,
      "Ġgang": 7544,
      "going": 7545,
      "Ġconclusion": 7546,
      "tos": 7547,
      "Ġscul": 7548,
      "Ġchemical": 7549,
      "Ġaccus": 7550,
      "Ġprint": 7551,
      "Ġances": 7552,
      "ORD": 7553,
      "Ġmicro": 7554,
      "adelph": 7555,
      "atus": 7556,
      "EP": 7557,
      "hir": 7558,
      "Ġrecall": 7559,
      "Ġritual": 7560,
      "Ġexcited": 7561,
      "ĠWalter": 7562,
      "Ġjumped": 7563,
      "Ġsquad": 7564,
      "eanwhile": 7565,
      "Ġcrop": 7566,
      "Ġnurs": 7567,
      "ĠFair": 7568,
      "ĠFig": 7569,
      "rets": 7570,
      "Ġselection": 7571,
      "ĠGames": 7572,
      "Ġemerged": 7573,
      "Ġatmosphere": 7574,
      "ĠAmong": 7575,
      "agged": 7576,
      "ervative": 7577,
      "Ġsteady": 7578,
      "Ġreward": 7579,
      "Ġweb": 7580,
      "ĠPier": 7581,
      "ĠPut": 7582,
      "osa": 7583,
      "omer": 7584,
      "Ġinspired": 7585,
      "UN": 7586,
      "Ġemotions": 7587,
      "urse": 7588,
      "ĠSav": 7589,
      "AND": 7590,
      "Ġreminded": 7591,
      "auc": 7592,
      "ĠBrook": 7593,
      "Ġrational": 7594,
      "Ġdestruction": 7595,
      "Ġfulf": 7596,
      "Ġshaking": 7597,
      "Ġmuseum": 7598,
      "Ġprofession": 7599,
      "Ġtechniques": 7600,
      "Ġlandscape": 7601,
      "ĠEs": 7602,
      "Ġsid": 7603,
      "Ġwise": 7604,
      "Ġsevere": 7605,
      "Ġsole": 7606,
      "Ġopposed": 7607,
      "ĠAlf": 7608,
      "Ġanymore": 7609,
      "Ġsurre": 7610,
      "tie": 7611,
      "ĠPortug": 7612,
      "Ġsending": 7613,
      "Ġconfident": 7614,
      "ologies": 7615,
      "Ġagents": 7616,
      "Ġfoods": 7617,
      "Ġtrained": 7618,
      "Ġidentify": 7619,
      "Ġproviding": 7620,
      "Ġviolent": 7621,
      "Ġfaster": 7622,
      "ĠGil": 7623,
      "Ġshit": 7624,
      "Ġretired": 7625,
      "Ġelsewhere": 7626,
      "eur": 7627,
      "fortunately": 7628,
      "Ġattempted": 7629,
      "Ġfuel": 7630,
      "cut": 7631,
      "ĠTake": 7632,
      "Ġjobs": 7633,
      "ĠSarah": 7634,
      "Ġultimately": 7635,
      "ĠâĤ¬": 7636,
      "iley": 7637,
      "Ġgrounds": 7638,
      "Ġnarrative": 7639,
      "Ġcabin": 7640,
      "Ġaston": 7641,
      "ĠArts": 7642,
      "ĠDown": 7643,
      "people": 7644,
      "Ġgrim": 7645,
      "Ġincorpor": 7646,
      "tons": 7647,
      "Ġhorror": 7648,
      "Ġrecalled": 7649,
      "ĠAh": 7650,
      "ĠCharlie": 7651,
      "rad": 7652,
      "Ġrates": 7653,
      "ĠLes": 7654,
      "Ġprayer": 7655,
      "Ġinvestigation": 7656,
      "avig": 7657,
      "ĠOrgan": 7658,
      "ĠPennsylvania": 7659,
      "ĠSever": 7660,
      "Ġclimbed": 7661,
      "Ġdeeper": 7662,
      "Ġrecommend": 7663,
      "Ġalbums": 7664,
      "Ġcharged": 7665,
      "Ġdefeated": 7666,
      "Ġlabour": 7667,
      "Ġsoftly": 7668,
      "dam": 7669,
      "Ġgrey": 7670,
      "Ġintense": 7671,
      "eim": 7672,
      "inations": 7673,
      "achus": 7674,
      "Ġapproximately": 7675,
      "Î¼": 7676,
      "ĠBoard": 7677,
      "Okay": 7678,
      "ĠFollow": 7679,
      "Ġwhenever": 7680,
      "nedy": 7681,
      "ĠHim": 7682,
      "ĠWales": 7683,
      "ĠGab": 7684,
      "Ġrefuge": 7685,
      "ware": 7686,
      "Ġcollabor": 7687,
      "Ġhelps": 7688,
      "adelphia": 7689,
      "Ġworn": 7690,
      "ĠBrother": 7691,
      "Ġqueen": 7692,
      "Ġtact": 7693,
      "Ġshadows": 7694,
      "Ġnewly": 7695,
      "state": 7696,
      "Ġvaluable": 7697,
      "Ġlawyer": 7698,
      "Ġmode": 7699,
      "ĠWild": 7700,
      "atherine": 7701,
      "Ġchamp": 7702,
      "ribed": 7703,
      "Ġprecisely": 7704,
      "wide": 7705,
      "Ġshooting": 7706,
      "ĠHotel": 7707,
      "Ġconsequences": 7708,
      "Ġcontaining": 7709,
      "Ġcombat": 7710,
      "Ġconducted": 7711,
      "isp": 7712,
      "ĠTaylor": 7713,
      "eries": 7714,
      "Ġecho": 7715,
      "Ġtough": 7716,
      "olve": 7717,
      "iy": 7718,
      "Ġguilty": 7719,
      "ĠWithout": 7720,
      "ĠHind": 7721,
      "hal": 7722,
      "keep": 7723,
      "Ġconsult": 7724,
      "Ġguards": 7725,
      "Ġclouds": 7726,
      "itter": 7727,
      "isa": 7728,
      "zy": 7729,
      "aired": 7730,
      "Ġachieved": 7731,
      "Ġbillion": 7732,
      "Ġcommonly": 7733,
      "Ġforehead": 7734,
      "ĠAri": 7735,
      "ĠSaturday": 7736,
      "acious": 7737,
      "ĠHave": 7738,
      "Ġjump": 7739,
      "Ġfundamental": 7740,
      "ĠHitler": 7741,
      "ĠOs": 7742,
      "Ġoverwhel": 7743,
      "_The": 7744,
      "Ġbeans": 7745,
      "Ġphrase": 7746,
      "Ġcultiv": 7747,
      "Ġvehicle": 7748,
      "ders": 7749,
      "unior": 7750,
      "Ġeval": 7751,
      "ĠGreg": 7752,
      "Ġregarding": 7753,
      "Ġregret": 7754,
      "ĠFrancis": 7755,
      "ĠAvenue": 7756,
      "Ġformation": 7757,
      "Our": 7758,
      "Ġradical": 7759,
      "Ġassigned": 7760,
      "Ġoccurs": 7761,
      "Ġfactor": 7762,
      "Ġfrozen": 7763,
      "iac": 7764,
      "tic": 7765,
      "Ġexternal": 7766,
      "cow": 7767,
      "Se": 7768,
      "Ġfortune": 7769,
      "Ġfolk": 7770,
      "ĠKat": 7771,
      "Ġbroadcast": 7772,
      "Ġsacred": 7773,
      "Ġcustomers": 7774,
      "Ġbuck": 7775,
      "mat": 7776,
      "Ġoptim": 7777,
      "Ġconcluded": 7778,
      "Ġlots": 7779,
      "illery": 7780,
      "Ġseeking": 7781,
      "ĠClin": 7782,
      "sen": 7783,
      "Ġbriefly": 7784,
      "aron": 7785,
      "Ġhers": 7786,
      "ĠCall": 7787,
      "Ġstandards": 7788,
      "aux": 7789,
      "html": 7790,
      "Ġprivile": 7791,
      "irts": 7792,
      "Ġvisitors": 7793,
      "ansas": 7794,
      "Ġcrown": 7795,
      "Ġclothing": 7796,
      "Ġoun": 7797,
      "Ġven": 7798,
      "Ġclassic": 7799,
      "iped": 7800,
      "Ġfiles": 7801,
      "ĠSpecial": 7802,
      "ĠCard": 7803,
      "Ġwondering": 7804,
      "yard": 7805,
      "Ġpeculi": 7806,
      "Ġcounty": 7807,
      "ran": 7808,
      "coming": 7809,
      "Ġelectric": 7810,
      "ailing": 7811,
      "Ġnights": 7812,
      "Ġletting": 7813,
      "vi": 7814,
      "sters": 7815,
      "Ġauto": 7816,
      "itement": 7817,
      "Ġspirits": 7818,
      "Ġpoly": 7819,
      "Ġinvestment": 7820,
      "Ġconfirmed": 7821,
      "igen": 7822,
      "Ġyield": 7823,
      "ĠPrin": 7824,
      "Ġlanding": 7825,
      "Ġfunny": 7826,
      "Ġclimate": 7827,
      "Ġroots": 7828,
      "Ġflavor": 7829,
      "Ġsoftware": 7830,
      "Ġtheme": 7831,
      "power": 7832,
      "Ġyard": 7833,
      "ĠAnna": 7834,
      "ĠNews": 7835,
      "Fig": 7836,
      "Ġconcerns": 7837,
      "Ġbrings": 7838,
      "Ġanswers": 7839,
      "tin": 7840,
      "etts": 7841,
      "Ġnaked": 7842,
      "Ġobsc": 7843,
      "Ġservants": 7844,
      "Ġelder": 7845,
      "Ġpossession": 7846,
      "agu": 7847,
      "Ġlift": 7848,
      "Ġsurvive": 7849,
      "Ġsuff": 7850,
      "Ġsteep": 7851,
      "there": 7852,
      "ogle": 7853,
      "Col": 7854,
      "burn": 7855,
      "Ġgrat": 7856,
      "Ġcousin": 7857,
      "Ġhab": 7858,
      "ques": 7859,
      "aer": 7860,
      "peare": 7861,
      "Ġprominent": 7862,
      "Ġerror": 7863,
      "Ġprimarily": 7864,
      "ĠInt": 7865,
      "Ġarchitecture": 7866,
      "istol": 7867,
      "osh": 7868,
      "tank": 7869,
      "Ġboss": 7870,
      "Ġroads": 7871,
      "Ġstretched": 7872,
      "ĠLewis": 7873,
      "Ġinstructions": 7874,
      "ĠÃĹ": 7875,
      "Ġdishes": 7876,
      "ĠWeb": 7877,
      "OUR": 7878,
      "ĠUN": 7879,
      "čĊ": 7880,
      "Ġinfl": 7881,
      "Ġdistract": 7882,
      "ĠSecretary": 7883,
      "ĠModern": 7884,
      "Ġfifth": 7885,
      "ĠRen": 7886,
      "Ġextraordinary": 7887,
      "uto": 7888,
      "Ġnecessarily": 7889,
      "otte": 7890,
      "ĠFree": 7891,
      "ĠJr": 7892,
      "Ġlanguages": 7893,
      "Ġanxious": 7894,
      "ĠMaria": 7895,
      "Ġclock": 7896,
      "Ġappeal": 7897,
      "Ġles": 7898,
      "torney": 7899,
      "inating": 7900,
      "Ġsuspic": 7901,
      "ji": 7902,
      "Ġdrunk": 7903,
      "ĠUl": 7904,
      "Ġkissed": 7905,
      "Ġdeveloping": 7906,
      "Ġcollected": 7907,
      "ĠHugh": 7908,
      "riger": 7909,
      "ĠMain": 7910,
      "Ġgovernor": 7911,
      "Ġteachers": 7912,
      "tum": 7913,
      "Ġwrites": 7914,
      "des": 7915,
      "ĠStudies": 7916,
      "ĠHo": 7917,
      "Ġtrem": 7918,
      "Like": 7919,
      "Ġsod": 7920,
      "Ġillness": 7921,
      "umping": 7922,
      "Ġstriking": 7923,
      "Ġunn": 7924,
      "Ġfarther": 7925,
      "ĠSenate": 7926,
      "Ġretreat": 7927,
      "thm": 7928,
      "Ġregions": 7929,
      "Ġtoler": 7930,
      "Ġmargin": 7931,
      "CA": 7932,
      "Ġoperating": 7933,
      "Ġlanded": 7934,
      "ĠNotes": 7935,
      "usalem": 7936,
      "=#": 7937,
      "Ġprices": 7938,
      "icial": 7939,
      "Ġcriminal": 7940,
      "Ġjew": 7941,
      "Ġprotest": 7942,
      "Ġresear": 7943,
      "Ġhurried": 7944,
      "Ġrecording": 7945,
      "Ġtil": 7946,
      "Ġpartly": 7947,
      "Ġexclaimed": 7948,
      "Ġfeatured": 7949,
      "Ġvolunte": 7950,
      "Ġactors": 7951,
      "Ġalle": 7952,
      "gger": 7953,
      "ector": 7954,
      "Ġexpans": 7955,
      "unc": 7956,
      "ĠNet": 7957,
      "umps": 7958,
      "Ġmotiv": 7959,
      "Ġabsolute": 7960,
      "Ġconcrete": 7961,
      "ĠSanta": 7962,
      "Ġequival": 7963,
      "ĠOpen": 7964,
      "aya": 7965,
      "Ġtotally": 7966,
      "geant": 7967,
      "Ġbadly": 7968,
      "olas": 7969,
      "Ġaccommod": 7970,
      "ĠKar": 7971,
      "Ġsevent": 7972,
      "Ġdining": 7973,
      "ĠLine": 7974,
      "ĠColumbia": 7975,
      "tenance": 7976,
      "Ġmunicip": 7977,
      "zing": 7978,
      "ishes": 7979,
      "Ġbigger": 7980,
      "ĠMatth": 7981,
      "Ġcreative": 7982,
      "ĠRight": 7983,
      "tub": 7984,
      "ĠEmperor": 7985,
      "ĠCoast": 7986,
      "otted": 7987,
      "ĠNich": 7988,
      "ĠToday": 7989,
      "olis": 7990,
      "Ġmoves": 7991,
      "ĠAD": 7992,
      "Ġgle": 7993,
      "Ġscarc": 7994,
      "ĠHu": 7995,
      "Ġunexpected": 7996,
      "Ġinch": 7997,
      "Ġrecognition": 7998,
      "Ġdefinition": 7999,
      "uscript": 8000,
      "ĠJustice": 8001,
      "Ġlaughter": 8002,
      "Ġadvoc": 8003,
      "Ġedges": 8004,
      "ĠCount": 8005,
      "Ġdiagn": 8006,
      "Ġconfused": 8007,
      "wed": 8008,
      "Ġuniversal": 8009,
      "Ġpotatoes": 8010,
      "Ġsecretary": 8011,
      "Ġconsists": 8012,
      "----": 8013,
      "ĠWhich": 8014,
      "overty": 8015,
      "Ġprospect": 8016,
      "ĠFire": 8017,
      "Ġseparated": 8018,
      "Ġarrive": 8019,
      "Ġsurvey": 8020,
      "ĠMas": 8021,
      "ĠCD": 8022,
      "Ġdoctr": 8023,
      "anz": 8024,
      "Ġchin": 8025,
      "Ġprotein": 8026,
      "Ġgif": 8027,
      "Ġvary": 8028,
      "Ġcro": 8029,
      "Ġvital": 8030,
      "Ġscholar": 8031,
      "Ġassistant": 8032,
      "Ġcolors": 8033,
      "wen": 8034,
      "Ġselling": 8035,
      "Ġrandom": 8036,
      "Ġservant": 8037,
      "orous": 8038,
      "gian": 8039,
      "Ġprepare": 8040,
      "ĠAtlantic": 8041,
      "Ġstrongly": 8042,
      "ĠHa": 8043,
      "Ġstores": 8044,
      ".),": 8045,
      "Ġbrush": 8046,
      "Ġstronger": 8047,
      "Ã¡n": 8048,
      "usions": 8049,
      "Ġvine": 8050,
      "Ġ_See": 8051,
      "Ġaffection": 8052,
      "atics": 8053,
      "Ġbold": 8054,
      "ĠMargaret": 8055,
      "ĠChap": 8056,
      "ĠTri": 8057,
      "ĠRoss": 8058,
      "ĠBroad": 8059,
      "Ġsinger": 8060,
      "Ġdecade": 8061,
      "mouth": 8062,
      "cluding": 8063,
      "aura": 8064,
      "Ġfemin": 8065,
      "stream": 8066,
      "hetic": 8067,
      "archy": 8068,
      "about": 8069,
      "ĠOlympics": 8070,
      "uther": 8071,
      "umed": 8072,
      "Ġrode": 8073,
      "Ed": 8074,
      "Ġaffair": 8075,
      "Ġchecked": 8076,
      "eyed": 8077,
      "Ġpermanent": 8078,
      "ĠPak": 8079,
      "ĠDie": 8080,
      "God": 8081,
      "ieval": 8082,
      "Ġbars": 8083,
      "abs": 8084,
      "Ġblocks": 8085,
      "Ġlux": 8086,
      "Ġconstructed": 8087,
      "Ġdebate": 8088,
      "akespeare": 8089,
      "ĠBeach": 8090,
      "Ġshake": 8091,
      "Ġsumm": 8092,
      "Ġease": 8093,
      "Ġarrested": 8094,
      "Somet": 8095,
      "Ġteen": 8096,
      "acts": 8097,
      "Two": 8098,
      "Ġdocuments": 8099,
      "Ġignor": 8100,
      "Ġdiplom": 8101,
      "ĠGovernor": 8102,
      "Ġtranslation": 8103,
      "called": 8104,
      "Ġdiscovery": 8105,
      "tiss": 8106,
      "Ġsixty": 8107,
      "Ġcrying": 8108,
      "Ġexcitement": 8109,
      "Ġfilling": 8110,
      "Ġlucky": 8111,
      "Ġboots": 8112,
      "ĠScottish": 8113,
      "ĠNote": 8114,
      "Ġsettlement": 8115,
      "Ġbom": 8116,
      "iffer": 8117,
      "ĠPot": 8118,
      "ĠTurk": 8119,
      "Ġpubl": 8120,
      "Ġslept": 8121,
      "vas": 8122,
      "Ġate": 8123,
      "Ġtechnical": 8124,
      "esy": 8125,
      "Ġcasual": 8126,
      "anes": 8127,
      "Ġblame": 8128,
      "Ġain": 8129,
      "achusetts": 8130,
      "Ġtwent": 8131,
      "rane": 8132,
      "Ġriding": 8133,
      "Ġmarks": 8134,
      "Ġthreatened": 8135,
      "ĠSteve": 8136,
      "ĠDub": 8137,
      "uns": 8138,
      "ĠDevelopment": 8139,
      "Ġcheap": 8140,
      "eign": 8141,
      "Ġarts": 8142,
      "Ġearned": 8143,
      "Ġceiling": 8144,
      ")**": 8145,
      "Ġharder": 8146,
      "onia": 8147,
      "atern": 8148,
      "ĠAlice": 8149,
      "Ġreturns": 8150,
      "po": 8151,
      "Ãº": 8152,
      "Ġscenes": 8153,
      "Ġcheeks": 8154,
      "ĠAge": 8155,
      "ti": 8156,
      "organ": 8157,
      "Any": 8158,
      "Ġassistance": 8159,
      "Ġgay": 8160,
      "ĠKennedy": 8161,
      "ĠWalk": 8162,
      "OV": 8163,
      "Ġanybody": 8164,
      "Ġphase": 8165,
      "Ġextr": 8166,
      "Ġdescribes": 8167,
      "gery": 8168,
      "ĠCorps": 8169,
      "Ġseats": 8170,
      "ĠBon": 8171,
      "Once": 8172,
      "Ġexecutive": 8173,
      "Ġaltogether": 8174,
      "Ġneut": 8175,
      "Ġprime": 8176,
      "ĠCome": 8177,
      "Ġconfusion": 8178,
      "ĠOhio": 8179,
      "ĠDemocratic": 8180,
      "engers": 8181,
      "ĠStation": 8182,
      "ĠHan": 8183,
      "ifer": 8184,
      "Ġjacket": 8185,
      "Ġindicated": 8186,
      "ĠLieutenant": 8187,
      "Ġalarm": 8188,
      "Ġdedicated": 8189,
      "Chr": 8190,
      "Ġfalls": 8191,
      "Ġdemands": 8192,
      "vol": 8193,
      "Me": 8194,
      "Ġpersonality": 8195,
      "Ġcommittee": 8196,
      "gro": 8197,
      "away": 8198,
      "ho": 8199,
      "ĠCreek": 8200,
      "Ġbiggest": 8201,
      "Å«": 8202,
      "Ġglasses": 8203,
      "Ġfabric": 8204,
      "tas": 8205,
      "Ġfoundation": 8206,
      "Ġeleg": 8207,
      "ĠFamily": 8208,
      "ologists": 8209,
      "ĠCass": 8210,
      "OD": 8211,
      "ĠWat": 8212,
      "ali": 8213,
      "Ġyesterday": 8214,
      "Ġpuzz": 8215,
      "ships": 8216,
      "tension": 8217,
      "Ġinitially": 8218,
      "eater": 8219,
      "Ġrecr": 8220,
      "Ġouter": 8221,
      "Ġheading": 8222,
      "ĠKim": 8223,
      "ĠSet": 8224,
      "ira": 8225,
      "Ġpaying": 8226,
      "ĠAwards": 8227,
      "Ġmuscles": 8228,
      "Ġpalm": 8229,
      "Ġuncons": 8230,
      "Ġ()": 8231,
      "ĠHung": 8232,
      "Ġster": 8233,
      "Ġreflected": 8234,
      "Ġbloody": 8235,
      "Ġdamn": 8236,
      "Ġslid": 8237,
      "ubb": 8238,
      "Ġcorrid": 8239,
      "Ġdirections": 8240,
      "Ġwaist": 8241,
      "Ġhunting": 8242,
      "Ġsubsequent": 8243,
      "ĠÐ": 8244,
      "center": 8245,
      "Ġbush": 8246,
      "Ġcooper": 8247,
      "Ġretire": 8248,
      "ĠON": 8249,
      "ader": 8250,
      "Ġstranger": 8251,
      "Ġexisted": 8252,
      "Ġconstr": 8253,
      "Ġinfin": 8254,
      "ĠMake": 8255,
      "ĠMond": 8256,
      "Ġholy": 8257,
      "ĠBol": 8258,
      "Ġmaintained": 8259,
      "eore": 8260,
      "Ġcryst": 8261,
      "Ap": 8262,
      "ags": 8263,
      "atural": 8264,
      "Ġrolling": 8265,
      "eler": 8266,
      "Ġauthors": 8267,
      "Ġcleared": 8268,
      "Another": 8269,
      "Ġsymptoms": 8270,
      "aughters": 8271,
      "Ġsurf": 8272,
      "Ġdigital": 8273,
      "Ġneighb": 8274,
      "Ġhated": 8275,
      "ĠCop": 8276,
      "embled": 8277,
      "ĠSeries": 8278,
      "Ġshortly": 8279,
      "ĠMarx": 8280,
      "Ġchannel": 8281,
      "Ġbree": 8282,
      "ĠTam": 8283,
      "heore": 8284,
      "Ġpatch": 8285,
      "Ġ_New": 8286,
      "Ġreinfor": 8287,
      "uity": 8288,
      "Ġpilot": 8289,
      "ĠVictoria": 8290,
      "itis": 8291,
      "Ġdign": 8292,
      "rive": 8293,
      "ifications": 8294,
      "roid": 8295,
      "ĠAbb": 8296,
      "ĠRepublican": 8297,
      "Ġpublication": 8298,
      "________________": 8299,
      "acement": 8300,
      "ĠId": 8301,
      "BS": 8302,
      "umbling": 8303,
      "Ġcontrovers": 8304,
      "Ġkeeps": 8305,
      "Ãł": 8306,
      "ĠWould": 8307,
      "ĠMaj": 8308,
      "ĠGeorgia": 8309,
      "ĠMassachusetts": 8310,
      "Ġsupplies": 8311,
      "Ġfirmly": 8312,
      "Ġboats": 8313,
      "Ġenhan": 8314,
      "ĠCommon": 8315,
      "Ġupset": 8316,
      "Ġhyd": 8317,
      "Ġconcerning": 8318,
      "Ġweigh": 8319,
      "Ġintroduction": 8320,
      "theore": 8321,
      "INE": 8322,
      "worth": 8323,
      "uctive": 8324,
      "lock": 8325,
      "Ġfond": 8326,
      "ockey": 8327,
      "Ġalcohol": 8328,
      "Have": 8329,
      "Ġpolitician": 8330,
      "Ġvessel": 8331,
      "Ġtechnique": 8332,
      "Ġthrust": 8333,
      "Ġcreatures": 8334,
      "inals": 8335,
      "Ġliberal": 8336,
      "Ġsheep": 8337,
      "net": 8338,
      "ĠLiter": 8339,
      "Ġrural": 8340,
      "Ġvalid": 8341,
      "Ġentit": 8342,
      "Ġexists": 8343,
      "Ġeleven": 8344,
      "Ġparad": 8345,
      "Ġoz": 8346,
      "obe": 8347,
      "ĠLow": 8348,
      "Ġassociation": 8349,
      "Ġexceed": 8350,
      "wa": 8351,
      "Ġexplo": 8352,
      "ĠGi": 8353,
      "Ġfriendship": 8354,
      "Ġfled": 8355,
      "asting": 8356,
      "inked": 8357,
      "Ġcontrary": 8358,
      "Ġtiss": 8359,
      "Ġassign": 8360,
      "Ġacademic": 8361,
      "dis": 8362,
      "ĠJerusalem": 8363,
      "Ġbark": 8364,
      "Ġclassical": 8365,
      "Ġdebt": 8366,
      "Ġdesperate": 8367,
      "Ġdisturb": 8368,
      "ĠPhiladelphia": 8369,
      "white": 8370,
      "Ġts": 8371,
      "ustration": 8372,
      "Ġreign": 8373,
      "irth": 8374,
      "Ġdepth": 8375,
      "ghan": 8376,
      "Ġfunds": 8377,
      "Ġhearts": 8378,
      "Ġdirt": 8379,
      "ĠMexican": 8380,
      "Ġpointing": 8381,
      "ĠMorr": 8382,
      "Ġcraw": 8383,
      "Ġspending": 8384,
      "FL": 8385,
      "Ġlegend": 8386,
      "Ġnuclear": 8387,
      "ĠFederal": 8388,
      "Ġassured": 8389,
      "sex": 8390,
      "Ġdawn": 8391,
      "ĠBrad": 8392,
      "Ġnineteenth": 8393,
      "Ġswift": 8394,
      "Ġstirring": 8395,
      "Ġprofound": 8396,
      "Ġmarkets": 8397,
      "Ġsisters": 8398,
      "Ġinnov": 8399,
      "ordon": 8400,
      "Ġparam": 8401,
      "ĠAuthor": 8402,
      "Ġreck": 8403,
      "Ġvictims": 8404,
      "Ġinfer": 8405,
      "ĠTony": 8406,
      "Ġtremb": 8407,
      "()": 8408,
      "ĠField": 8409,
      "Ġwanting": 8410,
      "Ġsink": 8411,
      "Ġproto": 8412,
      "Ġextensive": 8413,
      "lik": 8414,
      "Ġknee": 8415,
      "Ġhandsome": 8416,
      "Ġduties": 8417,
      "Ġcompanion": 8418,
      "ĠGrant": 8419,
      "Ġdece": 8420,
      "Ġcapture": 8421,
      "Ġpreferred": 8422,
      "aki": 8423,
      "ĠFreder": 8424,
      "Ġphotograph": 8425,
      "Ġsam": 8426,
      "Ġrh": 8427,
      "Ġastr": 8428,
      "Ġguarant": 8429,
      "Ġdevoted": 8430,
      "ĠBilly": 8431,
      "Ġanch": 8432,
      "hard": 8433,
      "itage": 8434,
      "Ġparallel": 8435,
      "uy": 8436,
      "ĠSa": 8437,
      "Ġislands": 8438,
      "hon": 8439,
      "Ġdispl": 8440,
      "abled": 8441,
      "Ġtank": 8442,
      "resents": 8443,
      "Ġ_V": 8444,
      "ĠNature": 8445,
      "ĠTit": 8446,
      "olec": 8447,
      "Ġadapt": 8448,
      "actor": 8449,
      "Ġtorn": 8450,
      "Ġlabel": 8451,
      "Ġdecre": 8452,
      "Ġphilosoph": 8453,
      "Ġlimits": 8454,
      "Ġcondem": 8455,
      "Ġenfor": 8456,
      "liest": 8457,
      "Ġcontrolled": 8458,
      "Ġopportunities": 8459,
      "BI": 8460,
      "ĠSports": 8461,
      "occ": 8462,
      "Te": 8463,
      "chief": 8464,
      "Ġsnapped": 8465,
      "ĠFord": 8466,
      "Ġpacked": 8467,
      "Ġawarded": 8468,
      "Ġkil": 8469,
      "ĠHell": 8470,
      "ifies": 8471,
      "Ġmoder": 8472,
      "ĠOlympic": 8473,
      "ĠKer": 8474,
      "Ġescaped": 8475,
      "Ġglory": 8476,
      "Ġvillages": 8477,
      "attles": 8478,
      "orted": 8479,
      "ĠRout": 8480,
      "Ġpurchase": 8481,
      "Ġreass": 8482,
      "Ġserves": 8483,
      "Ġhungry": 8484,
      "Ġwhereas": 8485,
      "encing": 8486,
      "Ġfootballers": 8487,
      "Ġremote": 8488,
      "Ġindependence": 8489,
      "ĠFle": 8490,
      "mail": 8491,
      "Ġmedal": 8492,
      "ĠTherefore": 8493,
      "ĠTemple": 8494,
      "emen": 8495,
      "ERS": 8496,
      "ĠWolf": 8497,
      "Ġsale": 8498,
      "Ġresulting": 8499,
      "Ġinspir": 8500,
      "_S": 8501,
      "Ġemployees": 8502,
      "Ġhorn": 8503,
      "ĠPalest": 8504,
      "Ġpad": 8505,
      "amped": 8506,
      "ĠCab": 8507,
      "ewed": 8508,
      "Ġresponded": 8509,
      "ĠDavis": 8510,
      "Ġprinted": 8511,
      "rient": 8512,
      "Ġsatisfied": 8513,
      "Ġactress": 8514,
      "afts": 8515,
      "Ġsliced": 8516,
      "iciency": 8517,
      "ESS": 8518,
      "anting": 8519,
      "velt": 8520,
      "ĠMoscow": 8521,
      "Ġcovering": 8522,
      "ĠRon": 8523,
      "Ġdancing": 8524,
      "dess": 8525,
      "ĠStone": 8526,
      "Ġregularly": 8527,
      "Ġsurvived": 8528,
      "ĠDoctor": 8529,
      "Ġabstr": 8530,
      "ĠUsing": 8531,
      "Ġpoliticians": 8532,
      "uma": 8533,
      "jo": 8534,
      "ĠEarl": 8535,
      "active": 8536,
      "PS": 8537,
      "Ġdetailed": 8538,
      "Ġinjury": 8539,
      "vo": 8540,
      "Ġtale": 8541,
      "Ġrushed": 8542,
      "Ġneat": 8543,
      "Ġmild": 8544,
      "Ġthoroughly": 8545,
      "ĠBor": 8546,
      "erable": 8547,
      "Ġcurtain": 8548,
      "afe": 8549,
      "wan": 8550,
      "Ġmillions": 8551,
      "ĠSamuel": 8552,
      "tap": 8553,
      "Ġsession": 8554,
      "Hey": 8555,
      "Ġaddressed": 8556,
      "MS": 8557,
      "ĠAk": 8558,
      "Ġclimb": 8559,
      "etime": 8560,
      "Ġ_b": 8561,
      "related": 8562,
      "Ġsequence": 8563,
      "Ġfishing": 8564,
      "Ġcher": 8565,
      "Ġbathroom": 8566,
      "oping": 8567,
      "Ġempire": 8568,
      "Ġpeculiar": 8569,
      "Ġelabor": 8570,
      "Ġstaying": 8571,
      "vet": 8572,
      "gers": 8573,
      "Ġending": 8574,
      "atre": 8575,
      "ĠBishop": 8576,
      "AV": 8577,
      "Ġindex": 8578,
      "emble": 8579,
      "Ġwarned": 8580,
      "ophy": 8581,
      "Ġignored": 8582,
      "Ġdramatic": 8583,
      "chen": 8584,
      "Ġregional": 8585,
      "ĠGrace": 8586,
      "sec": 8587,
      "ĠFestival": 8588,
      "Ġmystery": 8589,
      "athan": 8590,
      "Ġtourn": 8591,
      "Ġspecifically": 8592,
      "ĠAff": 8593,
      "Ġ).": 8594,
      "ĠOrigin": 8595,
      "Ġ_O": 8596,
      "ĠCastle": 8597,
      "First": 8598,
      "othes": 8599,
      "Ġoffices": 8600,
      "Ġswept": 8601,
      "ĠPoland": 8602,
      "Ġgrateful": 8603,
      "othy": 8604,
      "ĠBurn": 8605,
      "Ġindicate": 8606,
      "Ġdealing": 8607,
      "Ġinnocent": 8608,
      "Ġpace": 8609,
      "ĠThird": 8610,
      "Ġtheore": 8611,
      "pent": 8612,
      "ultane": 8613,
      "Ġprince": 8614,
      "Ġgrief": 8615,
      "irect": 8616,
      "sing": 8617,
      "Ġtrop": 8618,
      "Ġseasons": 8619,
      "ĠGuard": 8620,
      "Ġstead": 8621,
      "Ġcomparison": 8622,
      "idae": 8623,
      "Ġhopes": 8624,
      "ĠJersey": 8625,
      "Ġdefinitely": 8626,
      "Ġscientists": 8627,
      "Car": 8628,
      "Ġresist": 8629,
      "Ġfancy": 8630,
      "Ġinhabitants": 8631,
      "Ġrefers": 8632,
      "inois": 8633,
      "Ġvel": 8634,
      "abil": 8635,
      "ĠGirl": 8636,
      "Ġpoured": 8637,
      "Ġhiding": 8638,
      "ÂŃ": 8639,
      "child": 8640,
      "ĠSomething": 8641,
      "osevelt": 8642,
      "hire": 8643,
      "ĠAbr": 8644,
      "Ġtests": 8645,
      "ouch": 8646,
      "ĠBrig": 8647,
      "Ġangle": 8648,
      "tery": 8649,
      "Ġrepresents": 8650,
      "iry": 8651,
      "aith": 8652,
      "Ġscarcely": 8653,
      "Ġsuspected": 8654,
      "ĠKey": 8655,
      "Ġmetap": 8656,
      "issance": 8657,
      "prise": 8658,
      "ĠRoger": 8659,
      "Ġdict": 8660,
      "Ġmeetings": 8661,
      "Ġalumni": 8662,
      "eb": 8663,
      "Ġtie": 8664,
      "aza": 8665,
      "Ġbeef": 8666,
      "us_": 8667,
      "Ġprofit": 8668,
      "Ġrival": 8669,
      "edral": 8670,
      "tock": 8671,
      "ĠEric": 8672,
      "Ġrust": 8673,
      "Ġrig": 8674,
      "Ġcoord": 8675,
      "Ġpushing": 8676,
      "Ġinstall": 8677,
      "Ġrope": 8678,
      "ĠSecurity": 8679,
      "onial": 8680,
      "Ġfever": 8681,
      "ĠCher": 8682,
      "ĠBesides": 8683,
      "fulness": 8684,
      "Ġtelephone": 8685,
      "inkle": 8686,
      "Ġcontrad": 8687,
      "ĠAnth": 8688,
      "Ġrefriger": 8689,
      "abet": 8690,
      "ayer": 8691,
      "obb": 8692,
      "Ġclosing": 8693,
      "Ġreceiving": 8694,
      "Ġtexts": 8695,
      "Ġresidents": 8696,
      "Ġunlike": 8697,
      "Ġpolicies": 8698,
      "Ġcycle": 8699,
      "tick": 8700,
      "Ġmuscle": 8701,
      "Ġneighbour": 8702,
      "gain": 8703,
      "onze": 8704,
      "eem": 8705,
      "ĠBad": 8706,
      "Ġannoy": 8707,
      "Ġdirty": 8708,
      "Ġvir": 8709,
      "Ġvit": 8710,
      "ĠAT": 8711,
      "fit": 8712,
      "Ġtum": 8713,
      "Ġromantic": 8714,
      "Ġadvis": 8715,
      "Ġargue": 8716,
      "aned": 8717,
      "Ġfeared": 8718,
      "Ġdistinction": 8719,
      "ĠMess": 8720,
      "Ġreluct": 8721,
      "wick": 8722,
      "ĠBeh": 8723,
      "aria": 8724,
      "Ġparking": 8725,
      "Ġconsequence": 8726,
      "making": 8727,
      "Des": 8728,
      "RI": 8729,
      "ĠVis": 8730,
      "ĠHarvard": 8731,
      "ĠRoy": 8732,
      "Ġbelonged": 8733,
      "Ġalien": 8734,
      "Ġridic": 8735,
      "Ġpiano": 8736,
      "Ġgrandfather": 8737,
      "horn": 8738,
      "word": 8739,
      "ĠColor": 8740,
      "ĠProject": 8741,
      "Ġjer": 8742,
      "eav": 8743,
      "Ġreveal": 8744,
      "Ġcausing": 8745,
      "Ġdepos": 8746,
      "Ġcave": 8747,
      "Ġstretch": 8748,
      "ĠEngine": 8749,
      "Ġcrossing": 8750,
      "Ġ_x_": 8751,
      "ĠHoward": 8752,
      "Ġdistinguished": 8753,
      "Ġconsidering": 8754,
      "ĠMilitary": 8755,
      "Man": 8756,
      "Ġreprod": 8757,
      "Ġsatisfaction": 8758,
      "Ġnovels": 8759,
      "ĠShakespeare": 8760,
      "Ġpasses": 8761,
      "Ġdivor": 8762,
      "Ġclubs": 8763,
      "ounting": 8764,
      "Ġblade": 8765,
      "Ro": 8766,
      "fire": 8767,
      "ĠDirector": 8768,
      "adium": 8769,
      "ibl": 8770,
      "sed": 8771,
      "ĠNext": 8772,
      "igrants": 8773,
      "Ġcogn": 8774,
      "uddenly": 8775,
      "alo": 8776,
      "Ġflex": 8777,
      "talion": 8778,
      "ĠHand": 8779,
      "world": 8780,
      "kind": 8781,
      "Ġagency": 8782,
      "ĠCorpor": 8783,
      "ĠPap": 8784,
      "Ġprovince": 8785,
      "Ġinterpretation": 8786,
      "achment": 8787,
      "dney": 8788,
      "ographic": 8789,
      "vy": 8790,
      "Pe": 8791,
      "Ġwaved": 8792,
      "Before": 8793,
      "Ġlover": 8794,
      "Ġproducer": 8795,
      "annah": 8796,
      "ĠLim": 8797,
      "idd": 8798,
      "Ġcolleagues": 8799,
      "Ġretain": 8800,
      "ĠSpirit": 8801,
      "ĠUncle": 8802,
      "Ġderived": 8803,
      "Ġmanuscript": 8804,
      "Ġbudget": 8805,
      "Ġlinked": 8806,
      "ordan": 8807,
      "Ġprocl": 8808,
      "Ġscared": 8809,
      "SP": 8810,
      "ront": 8811,
      "Ġbearing": 8812,
      "ĠMiller": 8813,
      "Ġsty": 8814,
      "Ġcompass": 8815,
      "Ġpossessed": 8816,
      "ĠWel": 8817,
      "\";": 8818,
      "Ġille": 8819,
      "ĠFox": 8820,
      "istent": 8821,
      "Ġhistoric": 8822,
      "Ġsacrifice": 8823,
      "ework": 8824,
      "Ġgrain": 8825,
      "ĠGoogle": 8826,
      "ĠDougl": 8827,
      "ĠRub": 8828,
      "Ġtesting": 8829,
      "Ġcounsel": 8830,
      "ui": 8831,
      "Ġhumanity": 8832,
      "Ġ),": 8833,
      "ĠPolish": 8834,
      "Ġrows": 8835,
      "Ġparent": 8836,
      "ĠSn": 8837,
      "Ġimperial": 8838,
      "Ġcm": 8839,
      "Ġdoorway": 8840,
      "Ġbore": 8841,
      "Ġspell": 8842,
      "Ġdrif": 8843,
      "Ġsections": 8844,
      "Ġsignificance": 8845,
      "ART": 8846,
      "ounce": 8847,
      "Ġfucking": 8848,
      "Ġsplend": 8849,
      "Ġtu": 8850,
      "Ġcharges": 8851,
      "ĠPakistan": 8852,
      "Ġheadquarters": 8853,
      "emeter": 8854,
      "ĠCirc": 8855,
      "Ġmarch": 8856,
      "Ġscan": 8857,
      "Ġfurniture": 8858,
      "Ġnewspapers": 8859,
      "oky": 8860,
      "Ġlung": 8861,
      "Ġcriticism": 8862,
      "ĠSteven": 8863,
      "urer": 8864,
      "page": 8865,
      "ĠAssembly": 8866,
      "Ġputs": 8867,
      "Ġtub": 8868,
      "Ġseized": 8869,
      "Ġnurse": 8870,
      "Ġscored": 8871,
      "ĠIsa": 8872,
      "Ġscattered": 8873,
      "ĠÅ": 8874,
      "tang": 8875,
      "ĠShort": 8876,
      "Ġcolonial": 8877,
      "Ġknocked": 8878,
      "Ġmail": 8879,
      "ĠHans": 8880,
      "Ġtas": 8881,
      "Ġhired": 8882,
      "ĠBush": 8883,
      "ĠHaving": 8884,
      "Ġfortun": 8885,
      "Ġfrequent": 8886,
      "ĠBC": 8887,
      "ĠBall": 8888,
      "ĠEverything": 8889,
      "ĠOtto": 8890,
      "ĠAR": 8891,
      "Ġdare": 8892,
      "ĠBusiness": 8893,
      "Ġprotected": 8894,
      "Ġprecious": 8895,
      "Ġinex": 8896,
      "Ġcomplicated": 8897,
      "ĠWhit": 8898,
      "iller": 8899,
      "load": 8900,
      "Ġconsc": 8901,
      "ĠLast": 8902,
      "Ġmenu": 8903,
      "Ġvulner": 8904,
      "Ġfeather": 8905,
      "Ġawful": 8906,
      "ĠSP": 8907,
      "Ġenvironmental": 8908,
      "Ġadults": 8909,
      "het": 8910,
      "Ġsilk": 8911,
      "Ġbesides": 8912,
      "tack": 8913,
      "Ġmatches": 8914,
      "ĠStat": 8915,
      "Ġmart": 8916,
      "Ġhence": 8917,
      "gas": 8918,
      "onomy": 8919,
      "Ġdoctors": 8920,
      "Ġsne": 8921,
      "amon": 8922,
      "eight": 8923,
      "olph": 8924,
      "Ġdelicate": 8925,
      "Ġshifted": 8926,
      "Ġequivalent": 8927,
      "Ġdull": 8928,
      "aser": 8929,
      "Ġtrace": 8930,
      "ILL": 8931,
      "Ġceremony": 8932,
      "ĠImp": 8933,
      "Ġsel": 8934,
      "Ġlogic": 8935,
      "ĠEli": 8936,
      "IST": 8937,
      "pson": 8938,
      "thir": 8939,
      "brew": 8940,
      "Ġtheatre": 8941,
      "Ġbaseball": 8942,
      "Ġcart": 8943,
      "Ġdrum": 8944,
      "Ġscholars": 8945,
      "Ġarguments": 8946,
      "estion": 8947,
      "Ïħ": 8948,
      "Ġclar": 8949,
      "Ġthrone": 8950,
      "Ġpause": 8951,
      "Ġstair": 8952,
      "Ġclever": 8953,
      "Ġcandidate": 8954,
      "Ġcliff": 8955,
      "Ġlatest": 8956,
      "Ġliterally": 8957,
      "Ġpap": 8958,
      "ĠTreat": 8959,
      "Ġic": 8960,
      "Ġpaintings": 8961,
      "oded": 8962,
      "El": 8963,
      ".;": 8964,
      "ĠClark": 8965,
      "sky": 8966,
      "Ġvirtue": 8967,
      "Ġstraw": 8968,
      "ĠFoundation": 8969,
      "Ġdisorder": 8970,
      "Ġreserved": 8971,
      "ĠPhilipp": 8972,
      "ĠAN": 8973,
      "Although": 8974,
      "Ġstable": 8975,
      "ĠPoint": 8976,
      "ĠRoll": 8977,
      "itzer": 8978,
      "Ġmanifest": 8979,
      "ĠIllinois": 8980,
      "ĠFriday": 8981,
      "weight": 8982,
      "ĠLt": 8983,
      "Ãª": 8984,
      "ĠChristians": 8985,
      "Ġpurchased": 8986,
      "ige": 8987,
      "ni": 8988,
      "oning": 8989,
      "ĠGOO": 8990,
      "ĠFood": 8991,
      "Har": 8992,
      "ĠSpring": 8993,
      "Ġchart": 8994,
      "Ġabund": 8995,
      "Ġterrif": 8996,
      "Ġbelt": 8997,
      "Ġload": 8998,
      "pton": 8999,
      "ĠHart": 9000,
      "tes": 9001,
      "Ġsalad": 9002,
      "Ġpoverty": 9003,
      "ĠFOR": 9004,
      "perial": 9005,
      "_Chapter": 9006,
      "ibli": 9007,
      "heater": 9008,
      "Ġupd": 9009,
      "Ġdressing": 9010,
      "tear": 9011,
      "ĠBridge": 9012,
      "Ġcovers": 9013,
      "Ġcombine": 9014,
      "una": 9015,
      ".âĢĻ": 9016,
      "Ġrifle": 9017,
      "Ġretri": 9018,
      "Ġvessels": 9019,
      "Ġusers": 9020,
      "EF": 9021,
      "ĠFive": 9022,
      "Ġweakness": 9023,
      "ĠSupreme": 9024,
      "Ġdevices": 9025,
      "Ġsubsequently": 9026,
      "Ġperpet": 9027,
      "Ġcert": 9028,
      "Ġtension": 9029,
      "oral": 9030,
      "lines": 9031,
      "Ġpainful": 9032,
      "def": 9033,
      "Ġelections": 9034,
      "eton": 9035,
      "âĪ": 9036,
      "Ġscheme": 9037,
      ";\"": 9038,
      "Sm": 9039,
      "Ġrage": 9040,
      "tape": 9041,
      "EST": 9042,
      "vation": 9043,
      "Perhaps": 9044,
      "ĠSquare": 9045,
      "Ġworthy": 9046,
      "Ġbench": 9047,
      "ĠTar": 9048,
      "itarian": 9049,
      "some": 9050,
      "Ġstorage": 9051,
      "ĠWorks": 9052,
      "weet": 9053,
      "Ġmessages": 9054,
      "nold": 9055,
      "ea": 9056,
      "arette": 9057,
      "Ġtomatoes": 9058,
      "Ġinvasion": 9059,
      "Ġvice": 9060,
      "Ġbasketball": 9061,
      "ĠHoll": 9062,
      "Ġdaughters": 9063,
      "ĀĀ": 9064,
      "ĠIslands": 9065,
      "Ġrecommended": 9066,
      "door": 9067,
      "Ġfactory": 9068,
      "Ġroughly": 9069,
      "Ġroles": 9070,
      "ĠSeveral": 9071,
      "itches": 9072,
      "Ġclo": 9073,
      "Ġmoist": 9074,
      "ranean": 9075,
      "ealous": 9076,
      "Ġswung": 9077,
      "issions": 9078,
      "Ġaccused": 9079,
      "ĠCommand": 9080,
      "Ġconsideration": 9081,
      "Ġchurches": 9082,
      "Ġestablishment": 9083,
      "nut": 9084,
      "uces": 9085,
      "Ġfigured": 9086,
      "Ġprisoner": 9087,
      "Ġencounter": 9088,
      "Ġpine": 9089,
      "Ġdates": 9090,
      "Ġdepends": 9091,
      "Ġreasonable": 9092,
      "Ġhighlight": 9093,
      "Ġrepeat": 9094,
      "Ġmachines": 9095,
      "ĠGreece": 9096,
      "ami": 9097,
      "Ġtranslated": 9098,
      "Ġcha": 9099,
      "ĠMichigan": 9100,
      "Ġraid": 9101,
      "Ġdisappear": 9102,
      "Ġshops": 9103,
      "ĠDark": 9104,
      "Ġstudying": 9105,
      "Ġdescend": 9106,
      "Ġqualities": 9107,
      "Ġencouraged": 9108,
      "Ġentitled": 9109,
      "ĠCentre": 9110,
      "oa": 9111,
      "Ġaccord": 9112,
      "Ġreception": 9113,
      "Ġwithdraw": 9114,
      "ĠConstitution": 9115,
      "Ġthir": 9116,
      "ĠMoon": 9117,
      "Ġefficient": 9118,
      "Ġreven": 9119,
      "Ġmuttered": 9120,
      "Ġcub": 9121,
      "andal": 9122,
      "Ġnest": 9123,
      "ĠBeck": 9124,
      "eating": 9125,
      "plement": 9126,
      "Ġcul": 9127,
      "Ġfrightened": 9128,
      "theater": 9129,
      "ĠConference": 9130,
      "Ġcott": 9131,
      "Ġtear": 9132,
      "nis": 9133,
      "Ġtick": 9134,
      "ecutive": 9135,
      "Ġsearching": 9136,
      "avalry": 9137,
      "iders": 9138,
      "...'": 9139,
      "ĠForest": 9140,
      "ĠEnter": 9141,
      "ĠNY": 9142,
      "Ġnecessity": 9143,
      "Ġcotton": 9144,
      "ĠAllen": 9145,
      "icism": 9146,
      "Ġemergency": 9147,
      "ĠFollowing": 9148,
      "Ġpunishment": 9149,
      "ĠMP": 9150,
      "onies": 9151,
      "Nothing": 9152,
      "Ġtrend": 9153,
      "Ġsidew": 9154,
      "Ġbass": 9155,
      "aest": 9156,
      "Ġobservation": 9157,
      "ĠPolice": 9158,
      "ĠPhoto": 9159,
      "aste": 9160,
      "ĠTheatre": 9161,
      "Ġsimultane": 9162,
      "Ġattractive": 9163,
      "fish": 9164,
      "Ġgathering": 9165,
      "ĠBeat": 9166,
      "Ġtap": 9167,
      "Ġentering": 9168,
      "ĠShow": 9169,
      "Ġjoke": 9170,
      "Ġfacilities": 9171,
      "ĠGolden": 9172,
      "ographical": 9173,
      "Ġharsh": 9174,
      "Ġgrandmother": 9175,
      "angel": 9176,
      "ĠHollywood": 9177,
      "vereign": 9178,
      "ĠRailway": 9179,
      "ĠWed": 9180,
      "ova": 9181,
      "Ġpersonnel": 9182,
      "ĠLead": 9183,
      "Ġgesture": 9184,
      "HT": 9185,
      "acking": 9186,
      "ĠAle": 9187,
      "Ġpile": 9188,
      "uine": 9189,
      "ĠHospital": 9190,
      "Ġtransferred": 9191,
      "ĠKorea": 9192,
      "Ġinstantly": 9193,
      "ĠSE": 9194,
      "ĠMerc": 9195,
      "Ġrestaurants": 9196,
      "Ġvegetable": 9197,
      "Ġoldest": 9198,
      "Ġbrick": 9199,
      "ĠAunt": 9200,
      "Ġpier": 9201,
      "Ġpatri": 9202,
      "ĠVar": 9203,
      "even": 9204,
      "Ġpoems": 9205,
      "Ġfans": 9206,
      "Ġestablishments": 9207,
      "Ġbarr": 9208,
      "Ġdragged": 9209,
      "apse": 9210,
      "ĠDu": 9211,
      "Ġassault": 9212,
      "icle": 9213,
      "Ġversions": 9214,
      "ĠNations": 9215,
      "armed": 9216,
      "ĠBrian": 9217,
      "Ġquarters": 9218,
      "rible": 9219,
      "Ġsituations": 9220,
      "kward": 9221,
      "Ġmaximum": 9222,
      "o_": 9223,
      "Ġairport": 9224,
      "Ġawareness": 9225,
      "Ġchoices": 9226,
      "Ġvisiting": 9227,
      "ixon": 9228,
      "ĠSu": 9229,
      "Ġbarrel": 9230,
      "Ġlegit": 9231,
      "lie": 9232,
      "Ġ_K": 9233,
      "Ã´": 9234,
      "ĠRoosevelt": 9235,
      "Ġassass": 9236,
      "onut": 9237,
      "Ġcharacteristics": 9238,
      "ĠHelen": 9239,
      "ĠReal": 9240,
      "ĠKate": 9241,
      "Ġencl": 9242,
      "uccess": 9243,
      "Ġbid": 9244,
      "ĠRow": 9245,
      "ERV": 9246,
      "Ġraising": 9247,
      "when": 9248,
      "atical": 9249,
      "ĠLin": 9250,
      "Ġacted": 9251,
      "humb": 9252,
      "ĠPur": 9253,
      "six": 9254,
      "Ġestimated": 9255,
      "Ġzone": 9256,
      "Ġfolded": 9257,
      "ĠUSA": 9258,
      "ruption": 9259,
      "ĠLog": 9260,
      "Ġcourts": 9261,
      "urely": 9262,
      "ĠLuke": 9263,
      "Ġdescent": 9264,
      "Ġprosec": 9265,
      "Ġtwisted": 9266,
      "imens": 9267,
      "Ġimproved": 9268,
      "ĠDesign": 9269,
      "ĠJam": 9270,
      "Ġgender": 9271,
      "Ġholes": 9272,
      "Ġbrave": 9273,
      "Ġkeen": 9274,
      "Ġshower": 9275,
      "ĠPope": 9276,
      "ĠProgram": 9277,
      "abilities": 9278,
      "Ġapple": 9279,
      "Ġpeas": 9280,
      "abel": 9281,
      "Ġsuccessfully": 9282,
      "Ġug": 9283,
      "olitan": 9284,
      "ĠPhilos": 9285,
      "Ġshar": 9286,
      "Ġgal": 9287,
      "Ġsheets": 9288,
      "Ġseated": 9289,
      "Ġmush": 9290,
      "Ġages": 9291,
      "fare": 9292,
      "miral": 9293,
      "Ġconj": 9294,
      "Ġathlet": 9295,
      "ĠChildren": 9296,
      "oard": 9297,
      "Ġnormally": 9298,
      "ĠSom": 9299,
      "Ġfee": 9300,
      "km": 9301,
      "Ġcontents": 9302,
      "Ġguilt": 9303,
      "eff": 9304,
      "Ġfed": 9305,
      "ĠMun": 9306,
      "Ġfarmers": 9307,
      "elson": 9308,
      "Ġkick": 9309,
      "ĠCre": 9310,
      "ĠAP": 9311,
      "ethod": 9312,
      "Ġhttp": 9313,
      "Ġinterrupted": 9314,
      "ancer": 9315,
      "Ġsubstance": 9316,
[...]
