{
  "version": "1.0",
  "truncation": null,
  "padding": null,
  "added_tokens": [
    {
      "id": 0,
      "content": "<unk>",
      "single_word": false,
      "lstrip": false,
      "rstrip": false,
      "normalized": false,
      "special": true
    },
    {
      "id": 1,
      "content": "<s>",
      "single_word": false,
      "lstrip": false,
      "rstrip": false,
      "normalized": false,
      "special": true
    },
    {
      "id": 2,
      "content": "</s>",
      "single_word": false,
      "lstrip": false,
      "rstrip": false,
      "normalized": false,
      "special": true
    }
  ],
  "normalizer": {
    "type": "Sequence",
    "normalizers": [
      {
        "type": "NFKC"
      }
    ]
  },
  "pre_tokenizer": {
    "type": "Sequence",
    "pretokenizers": [
      {
        "type": "Split",
        "pattern": {
          "Regex": " "
        },
        "behavior": "MergedWithNext",
        "invert": false
      },
      {
        "type": "Split",
        "pattern": {
          "Regex": "\\d|[⺀-⿟぀-㆏ㆠ-ㆿㇰ-ㇿ㐀-䶵一-鿿ꥠ-꥿가-퟿]"
        },
        "behavior": "Isolated",
        "invert": false
      },
      {
        "type": "Split",
        "pattern": {
          "Regex": " *(\\w+|[^\\w\\s]+)"
        },
        "behavior": "Isolated",
        "invert": false
      },
      {
        "type": "ByteLevel",
        "add_prefix_space": false,
        "trim_offsets": true,
        "use_regex": false
      }
    ]
  },
  "post_processor": null,
  "decoder": {
    "type": "Sequence",
    "decoders": [
      {
        "type": "ByteLevel",
        "add_prefix_space": true,
        "trim_offsets": true,
        "use_regex": true
      }
    ]
  },
  "model": {
    "type": "BPE",
    "dropout": null,
    "unk_token": "<unk>",
    "continuing_subword_prefix": null,
    "end_of_word_suffix": null,
    "fuse_unk": true,
    "byte_fallback": false,
    "vocab": {
      "<unk>": 0,
      "<s>": 1,
      "</s>": 2,
      "!": 3,
      "\"": 4,
      "#": 5,
      "$": 6,
      "%": 7,
      "&": 8,
      "'": 9,
      "(": 10,
      ")": 11,
      "*": 12,
      "+": 13,
      ",": 14,
      "-": 15,
      ".": 16,
      "/": 17,
      "0": 18,
      "1": 19,
      "2": 20,
      "3": 21,
      "4": 22,
      "5": 23,
      "6": 24,
      "7": 25,
      "8": 26,
      "9": 27,
      ":": 28,
      ";": 29,
      "<": 30,
      "=": 31,
      ">": 32,
      "?": 33,
      "@": 34,
      "A": 35,
      "B": 36,
      "C": 37,
      "D": 38,
      "E": 39,
      "F": 40,
      "G": 41,
      "H": 42,
      "I": 43,
      "J": 44,
      "K": 45,
      "L": 46,
      "M": 47,
      "N": 48,
      "O": 49,
      "P": 50,
      "Q": 51,
      "R": 52,
      "S": 53,
      "T": 54,
      "U": 55,
      "V": 56,
      "W": 57,
      "X": 58,
      "Y": 59,
      "Z": 60,
      "[": 61,
      "\\": 62,
      "]": 63,
      "^": 64,
      "_": 65,
      "`": 66,
      "a": 67,
      "b": 68,
      "c": 69,
      "d": 70,
      "e": 71,
      "f": 72,
      "g": 73,
      "h": 74,
      "i": 75,
      "j": 76,
      "k": 77,
      "l": 78,
      "m": 79,
      "n": 80,
      "o": 81,
      "p": 82,
      "q": 83,
      "r": 84,
      "s": 85,
      "t": 86,
      "u": 87,
      "v": 88,
      "w": 89,
      "x": 90,
      "y": 91,
      "z": 92,
      "{": 93,
      "|": 94,
      "}": 95,
      "~": 96,
      "¡": 97,
      "¢": 98,
      "£": 99,
      "¤": 100,
      "¥": 101,
      "¦": 102,
      "§": 103,
      "¨": 104,
      "©": 105,
      "ª": 106,
      "«": 107,
      "¬": 108,
      "®": 109,
      "¯": 110,
      "°": 111,
      "±": 112,
      "²": 113,
      "³": 114,
      "´": 115,
      "µ": 116,
      "¶": 117,
      "·": 118,
      "¸": 119,
      "¹": 120,
      "º": 121,
      "»": 122,
      "¼": 123,
      "½": 124,
      "¾": 125,
      "¿": 126,
      "À": 127,
      "Á": 128,
      "Â": 129,
      "Ã": 130,
      "Ä": 131,
      "Å": 132,
      "Æ": 133,
      "Ç": 134,
      "È": 135,
      "É": 136,
      "Ê": 137,
      "Ë": 138,
      "Ì": 139,
      "Í": 140,
      "Î": 141,
      "Ï": 142,
      "Ð": 143,
      "Ñ": 144,
      "Ò": 145,
      "Ó": 146,
      "Ô": 147,
      "Õ": 148,
      "Ö": 149,
      "×": 150,
      "Ø": 151,
      "Ù": 152,
      "Ú": 153,
      "Û": 154,
      "Ü": 155,
      "Ý": 156,
      "Þ": 157,
      "ß": 158,
      "à": 159,
      "á": 160,
      "â": 161,
      "ã": 162,
      "ä": 163,
      "å": 164,
      "æ": 165,
      "ç": 166,
      "è": 167,
      "é": 168,
      "ê": 169,
      "ë": 170,
      "ì": 171,
      "í": 172,
      "î": 173,
      "ï": 174,
      "ð": 175,
      "ñ": 176,
      "ò": 177,
      "ó": 178,
      "ô": 179,
      "õ": 180,
      "ö": 181,
      "÷": 182,
      "ø": 183,
      "ù": 184,
      "ú": 185,
      "û": 186,
      "ü": 187,
      "ý": 188,
      "þ": 189,
      "ÿ": 190,
      "Ā": 191,
      "ā": 192,
      "Ă": 193,
      "ă": 194,
      "Ą": 195,
      "ą": 196,
      "Ć": 197,
      "ć": 198,
      "Ĉ": 199,
      "ĉ": 200,
      "Ċ": 201,
      "ċ": 202,
      "Č": 203,
      "č": 204,
      "Ď": 205,
      "ď": 206,
      "Đ": 207,
      "đ": 208,
      "Ē": 209,
      "ē": 210,
      "Ĕ": 211,
      "ĕ": 212,
      "Ė": 213,
      "ė": 214,
      "Ę": 215,
      "ę": 216,
      "Ě": 217,
      "ě": 218,
      "Ĝ": 219,
      "ĝ": 220,
      "Ğ": 221,
      "ğ": 222,
      "Ġ": 223,
      "ġ": 224,
      "Ģ": 225,
      "ģ": 226,
      "Ĥ": 227,
      "ĥ": 228,
      "Ħ": 229,
      "ħ": 230,
      "Ĩ": 231,
      "ĩ": 232,
      "Ī": 233,
      "ī": 234,
      "Ĭ": 235,
      "ĭ": 236,
      "Į": 237,
      "į": 238,
      "İ": 239,
      "ı": 240,
      "Ĳ": 241,
      "ĳ": 242,
      "Ĵ": 243,
      "ĵ": 244,
      "Ķ": 245,
      "ķ": 246,
      "ĸ": 247,
      "Ĺ": 248,
      "ĺ": 249,
      "Ļ": 250,
      "ļ": 251,
      "Ľ": 252,
      "ľ": 253,
      "Ŀ": 254,
      "ŀ": 255,
      "Ł": 256,
      "ł": 257,
      "Ń": 258,
      "Ġt": 259,
      "he": 260,
      "Ġa": 261,
      "in": 262,
      "Ġthe": 263,
      "re": 264,
      "Ġo": 265,
      "Ġs": 266,
      "Ġw": 267,
      "er": 268,
      "nd": 269,
      "at": 270,
      "on": 271,
      "ed": 272,
      "Ġb": 273,
      "is": 274,
      "Ġc": 275,
      "it": 276,
      "en": 277,
      "ou": 278,
      "Ġf": 279,
      "or": 280,
      "es": 281,
      "ing": 282,
      "Ġof": 283,
      "an": 284,
      "Ġh": 285,
      "Ġm": 286,
      "ar": 287,
      "Ġp": 288,
      "Ġto": 289,
      "Ġand": 290,
      "al": 291,
      "Ġin": 292,
      "Ġd": 293,
      "as": 294,
      "Ġth": 295,
      "le": 296,
      "ic": 297,
      "om": 298,
      "Ġl": 299,
      "ion": 300,
      "ll": 301,
      "Ġn": 302,
      "Ġhe": 303,
      "ĠI": 304,
      "Ġe": 305,
      "ad": 306,
      "ly": 307,
      "Ġg": 308,
      "ent": 309,
      "st": 310,
      "ot": 311,
      "Ġbe": 312,
      "ve": 313,
      "ut": 314,
      "ĠT": 315,
      "Ġre": 316,
      "ow": 317,
      "ac": 318,
      "id": 319,
      "ĠS": 320,
      "im": 321,
      "se": 322,
      "Ġon": 323,
      "ĠA": 324,
      "ld": 325,
      "et": 326,
      "ro": 327,
      "Ġwas": 328,
      "ig": 329,
      "ay": 330,
      "ur": 331,
      "Ġthat": 332,
      "am": 333,
      "Ġy": 334,
      "ir": 335,
      "ĠC": 336,
      "ver": 337,
      "Ġfor": 338,
      "Ġu": 339,
      "Ġst": 340,
      "ith": 341,
      "Ġit": 342,
      "ĠM": 343,
      "Ġwh": 344,
      "Ġas": 345,
      "âĢ": 346,
      "Ġis": 347,
      "ct": 348,
      "Ġwith": 349,
      "ce": 350,
      "Ġyou": 351,
      "ĠH": 352,
      "il": 353,
      "ĠB": 354,
      "ter": 355,
      "Ġwe": 356,
      "ch": 357,
      "ol": 358,
      "ĠThe": 359,
      "Ġan": 360,
      "ation": 361,
      "her": 362,
      "Ġhis": 363,
      "ĠP": 364,
      "and": 365,
      "ht": 366,
      "if": 367,
      "Ġ\"": 368,
      "Ġr": 369,
      "ke": 370,
      "Ġat": 371,
      "oo": 372,
      "Ġfr": 373,
      "ain": 374,
      "Ġ(": 375,
      "ĠW": 376,
      "Ġse": 377,
      "ill": 378,
      "ge": 379,
      "ul": 380,
      "us": 381,
      "ap": 382,
      "ĠR": 383,
      "th": 384,
      "ould": 385,
      "Ġhad": 386,
      "Ġde": 387,
      "ri": 388,
      "ĠD": 389,
      "ore": 390,
      "ers": 391,
      "ĠL": 392,
      "Ġcon": 393,
      "ĠF": 394,
      "Ġher": 395,
      "ist": 396,
      "Ġnot": 397,
      "ave": 398,
      "ab": 399,
      "pe": 400,
      "ight": 401,
      "um": 402,
      "ess": 403,
      "Ġor": 404,
      "ĠG": 405,
      "em": 406,
      "red": 407,
      "un": 408,
      "Ġsh": 409,
      "Ġby": 410,
      "el": 411,
      "Ġfrom": 412,
      "ant": 413,
      "est": 414,
      "ĠE": 415,
      "res": 416,
      "op": 417,
      "ĠN": 418,
      "ie": 419,
      "ate": 420,
      "Ġcom": 421,
      "os": 422,
      "qu": 423,
      "Ġne": 424,
      "Ġex": 425,
      "Ġv": 426,
      "all": 427,
      "Ġsu": 428,
      "Ġal": 429,
      "Ġk": 430,
      "ard": 431,
      ".\"": 432,
      "Ġme": 433,
      "oug": 434,
      "ĠJ": 435,
      "Ġle": 436,
      "Ġch": 437,
      "Ġare": 438,
      "art": 439,
      "ust": 440,
      "nt": 441,
      "oc": 442,
      "Ġ_": 443,
      "ive": 444,
      "Ġhave": 445,
      "ity": 446,
      "Ġpro": 447,
      "Ġshe": 448,
      "iv": 449,
      "our": 450,
      "ack": 451,
      "Ġbut": 452,
      "od": 453,
      "ag": 454,
      "out": 455,
      "ĠO": 456,
      "ich": 457,
      "Ġwere": 458,
      "ies": 459,
      "Ġsa": 460,
      "ort": 461,
      "ome": 462,
      "Ġthis": 463,
      "ast": 464,
      "Ġtr": 465,
      "ak": 466,
      "Ġhim": 467,
      "**": 468,
      "âĢĶ": 469,
      "Ġdo": 470,
      "Ġint": 471,
      "Ġwhe": 472,
      "Ġab": 473,
      "ound": 474,
      "Ġall": 475,
      "pp": 476,
      "ous": 477,
      "ong": 478,
      "Ġthey": 479,
      "Ġso": 480,
      "Ġwor": 481,
      "Ġmy": 482,
      "ment": 483,
      "Ġpl": 484,
      "ĠHe": 485,
      "Ġup": 486,
      "Ġj": 487,
      "Ġout": 488,
      "ide": 489,
      "Ġar": 490,
      "ind": 491,
      "âĢĵ": 492,
      "ud": 493,
      "ally": 494,
      "Ġone": 495,
      "ook": 496,
      "ough": 497,
      "ure": 498,
      "ost": 499,
      "ine": 500,
      "one": 501,
      "ame": 502,
      "av": 503,
      "Ġwho": 504,
      "fe": 505,
      "ood": 506,
      "Ġwhich": 507,
      "Ġtheir": 508,
      "pt": 509,
      "own": 510,
      "The": 511,
      "Ġkn": 512,
      "Ġwould": 513,
      "ther": 514,
      "ip": 515,
      "Ġcan": 516,
      "ber": 517,
      "Ġman": 518,
      "ĠK": 519,
      "Ġthem": 520,
      "Ġsaid": 521,
      "ell": 522,
      "Ġcl": 523,
      "ace": 524,
      ",\"": 525,
      "ian": 526,
      "ated": 527,
      "ry": 528,
      "au": 529,
      "ew": 530,
      "ĠIn": 531,
      "Ġgr": 532,
      "ice": 533,
      "ike": 534,
      "very": 535,
      "ond": 536,
      "age": 537,
      "hed": 538,
      "are": 539,
      "ish": 540,
      "Ġbeen": 541,
      "og": 542,
      "ime": 543,
      "ake": 544,
      "ass": 545,
      "Ġgo": 546,
      "ions": 547,
      "per": 548,
      "ary": 549,
      "Ġno": 550,
      "ĠIt": 551,
      "Ġinto": 552,
      "act": 553,
      "ia": 554,
      "ĠSt": 555,
      "Ġun": 556,
      "pl": 557,
      "ial": 558,
      "Ġpr": 559,
      "Ġus": 560,
      "ear": 561,
      "Ġthere": 562,
      "Ġabout": 563,
      "ĠTh": 564,
      "iz": 565,
      "Ġag": 566,
      "ra": 567,
      "Ġmore": 568,
      "ĠU": 569,
      "Ġsp": 570,
      "Ġim": 571,
      "Ġen": 572,
      "ep": 573,
      "Ġyour": 574,
      "ven": 575,
      "ĠCh": 576,
      "Ġwhen": 577,
      "ue": 578,
      "Ġro": 579,
      "sel": 580,
      "cc": 581,
      "ick": 582,
      "ĠY": 583,
      "ite": 584,
      "Ġother": 585,
      "Ġcould": 586,
      "able": 587,
      "ib": 588,
      "Ġad": 589,
      "ire": 590,
      "ress": 591,
      "Ġlike": 592,
      "ans": 593,
      "ence": 594,
      "Ġover": 595,
      "ical": 596,
      "ance": 597,
      "Ġtw": 598,
      "ren": 599,
      "ose": 600,
      "itt": 601,
      "Ġbr": 602,
      "Ġwhat": 603,
      "ach": 604,
      "Ġ'": 605,
      "reat": 606,
      "Ġsome": 607,
      "ord": 608,
      "ĠV": 609,
      "Ġdis": 610,
      "ub": 611,
      "Ġqu": 612,
      "way": 613,
      "uc": 614,
      "ink": 615,
      "Ġ|": 616,
      "Ġcont": 617,
      "Ġif": 618,
      "ove": 619,
      "Ġwill": 620,
      "ff": 621,
      "Ġtime": 622,
      "Ġany": 623,
      "Ġhas": 624,
      "Ġdid": 625,
      "urn": 626,
      "ile": 627,
      "mer": 628,
      "ree": 629,
      "ang": 630,
      "Ġpe": 631,
      "ction": 632,
      "Ġ,": 633,
      "ings": 634,
      "fter": 635,
      "Ġcomp": 636,
      "Ġoff": 637,
      "ade": 638,
      "ign": 639,
      "Ġbl": 640,
      "cl": 641,
      "nder": 642,
      "te": 643,
      "ked": 644,
      "hing": 645,
      "?\"": 646,
      "Ġsc": 647,
      "Ġper": 648,
      "ne": 649,
      "so": 650,
      "Ġbec": 651,
      "Ġfl": 652,
      "Ġthan": 653,
      "ult": 654,
      "other": 655,
      "Ġback": 656,
      "ount": 657,
      "irst": 658,
      "Ġte": 659,
      "ater": 660,
      "Ġres": 661,
      "ory": 662,
      "ations": 663,
      "Ġpart": 664,
      "Ġits": 665,
      "ru": 666,
      "we": 667,
      "wn": 668,
      "ved": 669,
      "ark": 670,
      "ild": 671,
      "ious": 672,
      "Ġthen": 673,
      "Ġknow": 674,
      "..": 675,
      "orm": 676,
      "Ġthr": 677,
      "self": 678,
      "Ġlook": 679,
      "Ġonly": 680,
      "int": 681,
      "ens": 682,
      "ces": 683,
      "Ġtoo": 684,
      "ĠShe": 685,
      "),": 686,
      "fore": 687,
      "Ġco": 688,
      "Ġfe": 689,
      "Ġalso": 690,
      "ition": 691,
      "Ġtwo": 692,
      "Ġfirst": 693,
      "Ġpre": 694,
      "oy": 695,
      "les": 696,
      "ath": 697,
      "Ġagain": 698,
      "Ġsm": 699,
      "ail": 700,
      "ks": 701,
      "Ġjust": 702,
      "ft": 703,
      "ull": 704,
      "ople": 705,
      "Ġspe": 706,
      "ife": 707,
      "ons": 708,
      "Ġdes": 709,
      "ought": 710,
      "ors": 711,
      "ĠĊ": 712,
      "hen": 713,
      "ict": 714,
      "Ġpo": 715,
      "ase": 716,
      "ied": 717,
      "Ġam": 718,
      "Ġhand": 719,
      "##": 720,
      "Ġdown": 721,
      "Ġsee": 722,
      ").": 723,
      "rit": 724,
      "Ġway": 725,
      "Ġbet": 726,
      "Ġafter": 727,
      "Ġfo": 728,
      "Ġunder": 729,
      "hat": 730,
      "Ġhow": 731,
      "Ġour": 732,
      "Ġyear": 733,
      "vers": 734,
      "Ġrec": 735,
      "ĠâĢĵ": 736,
      "ward": 737,
      "orn": 738,
      "Ġget": 739,
      "iss": 740,
      "Ġthrough": 741,
      "air": 742,
      "Ġday": 743,
      "ng": 744,
      "ĠRe": 745,
      "Ġrem": 746,
      "ause": 747,
      "ents": 748,
      "Ġnow": 749,
      "ather": 750,
      "Ġeven": 751,
      "led": 752,
      "ily": 753,
      "man": 754,
      "ĠBut": 755,
      "Ġser": 756,
      "Ġsay": 757,
      "pen": 758,
      "uch": 759,
      "Ġpeople": 760,
      "Ġwork": 761,
      "Ġimp": 762,
      "Ġsl": 763,
      "Ġwhere": 764,
      "ob": 765,
      "tern": 766,
      "amp": 767,
      "ise": 768,
      "Ġcomm": 769,
      "Ġbefore": 770,
      "ect": 771,
      "Ġlong": 772,
      "Ġwant": 773,
      "ĠAnd": 774,
      "oth": 775,
      "igh": 776,
      "Ġnew": 777,
      "ual": 778,
      "Ġmade": 779,
      "ss": 780,
      "aw": 781,
      "ty": 782,
      "Ġevery": 783,
      "ates": 784,
      "Ġmost": 785,
      "omet": 786,
      "Ġapp": 787,
      "hy": 788,
      "Ġ.": 789,
      "tain": 790,
      "oss": 791,
      "ĠUn": 792,
      "vel": 793,
      "Ġshould": 794,
      "ĠSe": 795,
      "old": 796,
      "Ġind": 797,
      "ont": 798,
      "hes": 799,
      "ful": 800,
      "ov": 801,
      "Ġmay": 802,
      "Ġvery": 803,
      "Ġrel": 804,
      "Ġthink": 805,
      "xt": 806,
      "ars": 807,
      "Ġown": 808,
      "Ġcons": 809,
      "Ġatt": 810,
      "land": 811,
      "Ġthese": 812,
      "Ġacc": 813,
      "Ġac": 814,
      "Ġwell": 815,
      "Ġcall": 816,
      "ĠâĢ": 817,
      "Ġact": 818,
      "Ġright": 819,
      "Ġmuch": 820,
      "Ġsuch": 821,
      "up": 822,
      "form": 823,
      "Ġcr": 824,
      "ittle": 825,
      "Ġgood": 826,
      "ms": 827,
      "ock": 828,
      "ĠAr": 829,
      "ness": 830,
      "ited": 831,
      "Ġob": 832,
      "aking": 833,
      "ouse": 834,
      "Ġhead": 835,
      "anc": 836,
      "lic": 837,
      "ble": 838,
      "Ġsec": 839,
      "Ġmake": 840,
      "iet": 841,
      "Ġrep": 842,
      "Ġstr": 843,
      "ug": 844,
      "Ġem": 845,
      "arly": 846,
      "ĠThis": 847,
      "Ġhere": 848,
      "Ġneed": 849,
      "Ġke": 850,
      "ting": 851,
      "Ġplay": 852,
      "ower": 853,
      "be": 854,
      "ĠWe": 855,
      "ix": 856,
      "Ġgl": 857,
      "gan": 858,
      "lect": 859,
      "Ġdif": 860,
      "ĠThey": 861,
      "meric": 862,
      "Ġend": 863,
      "Ġdon": 864,
      "pect": 865,
      "Ġlife": 866,
      "Ġturn": 867,
      "Ġlittle": 868,
      "ating": 869,
      "ener": 870,
      "Ġmany": 871,
      "Ġey": 872,
      "Ġwr": 873,
      "ared": 874,
      "gr": 875,
      "Ġent": 876,
      "Ġgreat": 877,
      "Ġap": 878,
      ".'": 879,
      "ween": 880,
      "Ġstill": 881,
      "Ġyears": 882,
      "Ġsomet": 883,
      "Ġcar": 884,
      "ational": 885,
      "Ġsur": 886,
      "Ġbeing": 887,
      "Ġbel": 888,
      "ĠAl": 889,
      "ange": 890,
      "ject": 891,
      "Ġbecause": 892,
      "ning": 893,
      "Ġcol": 894,
      "llow": 895,
      "Ġnever": 896,
      "Ġthought": 897,
      "ted": 898,
      "olog": 899,
      "ible": 900,
      "âĢĻ": 901,
      "ady": 902,
      "Ġset": 903,
      "ĠAn": 904,
      "âĢĿ": 905,
      "ters": 906,
      "az": 907,
      "the": 908,
      "ĠYou": 909,
      "Ġmin": 910,
      "ried": 911,
      "rent": 912,
      "Ġthose": 913,
      "Ġpres": 914,
      "ped": 915,
      "als": 916,
      "ier": 917,
      "Ġbetween": 918,
      "get": 919,
      "Ġsub": 920,
      "Ġass": 921,
      "ĠAs": 922,
      "Ġ**": 923,
      "Ġfound": 924,
      "Ġev": 925,
      "aug": 926,
      "Ġwom": 927,
      "ĠAmeric": 928,
      "ts": 929,
      "Ġgu": 930,
      "alk": 931,
      "ah": 932,
      "uring": 933,
      "Ġbu": 934,
      "Ġaround": 935,
      "ale": 936,
      "ork": 937,
      "He": 938,
      "Ġsy": 939,
      "ank": 940,
      "Ġpol": 941,
      "ative": 942,
      "ince": 943,
      "fect": 944,
      "ished": 945,
      "cept": 946,
      "Ġold": 947,
      "ĠFr": 948,
      "Ġdec": 949,
      "Ġsame": 950,
      "ific": 951,
      "ph": 952,
      "Ġreg": 953,
      "ident": 954,
      "Ġpers": 955,
      "Ġinv": 956,
      "Ġinc": 957,
      "oh": 958,
      "clud": 959,
      "Ġseem": 960,
      "ics": 961,
      "ered": 962,
      "Ġmight": 963,
      "Ġsupp": 964,
      "ĠNew": 965,
      "Ġret": 966,
      "ĠMar": 967,
      "ĠâĢľ": 968,
      "imes": 969,
      "Ġinst": 970,
      "ĠDe": 971,
      "cess": 972,
      "Ġlet": 973,
      "ins": 974,
      "ities": 975,
      "Ġunt": 976,
      "Ġfam": 977,
      "Ġmen": 978,
      "ody": 979,
      "hip": 980,
      "ves": 981,
      "Ġins": 982,
      "Ġtake": 983,
      "Ġmust": 984,
      "ool": 985,
      "Ġdist": 986,
      "Ġdr": 987,
      "arm": 988,
      "ross": 989,
      "Ġdidn": 990,
      "Ġaway": 991,
      "ism": 992,
      "Ġwhile": 993,
      "Ġcome": 994,
      "Ġfollow": 995,
      "rib": 996,
      "Ġadd": 997,
      "You": 998,
      "gg": 999,
      "ci": 1000,
      "Ġcame": 1001,
      "feren": 1002,
      "Ġfin": 1003,
      "oup": 1004,
      "its": 1005,
      "und": 1006,
      "thing": 1007,
      "Ġworld": 1008,
      "pr": 1009,
      "Ġthree": 1010,
      "ck": 1011,
      "ĠLe": 1012,
      "Ġopen": 1013,
      "iew": 1014,
      "Ġche": 1015,
      "Ġcour": 1016,
      "Ġgoing": 1017,
      "ever": 1018,
      "ner": 1019,
      "Ġinter": 1020,
      "ows": 1021,
      "der": 1022,
      "ĠThere": 1023,
      "Ġcent": 1024,
      "ually": 1025,
      "Ġhel": 1026,
      "Ġplace": 1027,
      "ling": 1028,
      "ased": 1029,
      "ures": 1030,
      "Ġeach": 1031,
      "Ġdisc": 1032,
      "Ġanother": 1033,
      "Ġpass": 1034,
      "Ġchild": 1035,
      "outh": 1036,
      "du": 1037,
      "Ġbo": 1038,
      "ott": 1039,
      "ular": 1040,
      "Ġagainst": 1041,
      "Ġform": 1042,
      "Ġleft": 1043,
      "Ã©": 1044,
      "Ġuntil": 1045,
      "Ġref": 1046,
      "ĠCom": 1047,
      "Ġuse": 1048,
      "uth": 1049,
      "Ġboth": 1050,
      "Ġ*": 1051,
      "It": 1052,
      "ern": 1053,
      "Ġsomething": 1054,
      "ret": 1055,
      "io": 1056,
      "ason": 1057,
      "ines": 1058,
      "ivers": 1059,
      "Ġfind": 1060,
      "uck": 1061,
      ".,": 1062,
      "ying": 1063,
      "less": 1064,
      "Ġph": 1065,
      "ments": 1066,
      "Ġlar": 1067,
      "Ġfeel": 1068,
      "ĠBe": 1069,
      "Ġsim": 1070,
      "Ġed": 1071,
      "Ġpoint": 1072,
      "ric": 1073,
      "Ġreal": 1074,
      "Ġeyes": 1075,
      "ere": 1076,
      "Ġfew": 1077,
      "Ġstart": 1078,
      "Ġmet": 1079,
      "Ġter": 1080,
      "ists": 1081,
      "Ġlast": 1082,
      "ote": 1083,
      "ced": 1084,
      "ways": 1085,
      "ives": 1086,
      "Ġmat": 1087,
      "Ġword": 1088,
      "oun": 1089,
      "Ġhap": 1090,
      "Ġsmall": 1091,
      "ĠFor": 1092,
      "Ġmar": 1093,
      "Ġput": 1094,
      "rap": 1095,
      "ched": 1096,
      "Ġused": 1097,
      "Ġcount": 1098,
      "ution": 1099,
      "Ġpub": 1100,
      "ĠSh": 1101,
      "ĠIf": 1102,
      "Ġwent": 1103,
      "ury": 1104,
      "Ġtook": 1105,
      "Ġsk": 1106,
      "Ġinclud": 1107,
      "ton": 1108,
      "ized": 1109,
      "Ġtrans": 1110,
      "ined": 1111,
      "arn": 1112,
      "Ġmon": 1113,
      "Ġexp": 1114,
      "Ġgot": 1115,
      "Ġroom": 1116,
      "Ġwithout": 1117,
      "aving": 1118,
      "Ġstud": 1119,
      "Ġ[": 1120,
      "ene": 1121,
      "Ġtell": 1122,
      "Ġdoes": 1123,
      "ĠOn": 1124,
      "Ġhigh": 1125,
      "Ġnum": 1126,
      "ĠBr": 1127,
      "Ġcle": 1128,
      "Ġappe": 1129,
      "ember": 1130,
      "arl": 1131,
      "chool": 1132,
      "Ġwater": 1133,
      "Ġchar": 1134,
      "Ġspec": 1135,
      "Ġhimself": 1136,
      "me": 1137,
      "Ġsw": 1138,
      "Ġlooked": 1139,
      "Ġcre": 1140,
      "Ġrest": 1141,
      "iend": 1142,
      "ute": 1143,
      "att": 1144,
      "ility": 1145,
      "ley": 1146,
      "Ġgener": 1147,
      "Ġcap": 1148,
      "akes": 1149,
      "Ġbook": 1150,
      "Ġnight": 1151,
      "osed": 1152,
      "Ġhome": 1153,
      "Ġface": 1154,
      "Ġbeh": 1155,
      "ĠAt": 1156,
      "Ġfriend": 1157,
      "here": 1158,
      "Ġlight": 1159,
      "ĠMr": 1160,
      "Ġloc": 1161,
      "Ġasked": 1162,
      "cent": 1163,
      "ield": 1164,
      "any": 1165,
      "Ġhouse": 1166,
      "ired": 1167,
      "arr": 1168,
      "Ġdire": 1169,
      "Th": 1170,
      "Ġperson": 1171,
      "Ġel": 1172,
      "Ġhum": 1173,
      "iving": 1174,
      "Ġposs": 1175,
      "Ġside": 1176,
      "Ġart": 1177,
      "ision": 1178,
      "Ġconf": 1179,
      "iver": 1180,
      "ense": 1181,
      "ax": 1182,
      "ised": 1183,
      "ann": 1184,
      "Ġmod": 1185,
      "ger": 1186,
      "Ġfact": 1187,
      "Ġcalled": 1188,
      "In": 1189,
      "ention": 1190,
      "ohn": 1191,
      "ames": 1192,
      "Ġcare": 1193,
      "com": 1194,
      "uss": 1195,
      "vern": 1196,
      "ature": 1197,
      "oon": 1198,
      "ash": 1199,
      "Ġtold": 1200,
      "...": 1201,
      "elt": 1202,
      "Ġbre": 1203,
      "hap": 1204,
      "Ġalways": 1205,
      "ĠEng": 1206,
      "ained": 1207,
      "ants": 1208,
      "ĠAmerican": 1209,
      "Ġread": 1210,
      "ĠCl": 1211,
      "orth": 1212,
      "ient": 1213,
      "son": 1214,
      "Ġsign": 1215,
      "Ġrun": 1216,
      "to": 1217,
      "ertain": 1218,
      "Ġthings": 1219,
      "ĠInd": 1220,
      "__": 1221,
      "Ġcur": 1222,
      "Ġlater": 1223,
      "Ġsecond": 1224,
      "iness": 1225,
      "Ġthough": 1226,
      "atch": 1227,
      "Ġhelp": 1228,
      "ĠIs": 1229,
      "ER": 1230,
      "ĠGr": 1231,
      "!\"": 1232,
      "ĠWhen": 1233,
      "Ġdet": 1234,
      "dd": 1235,
      "Ġbelie": 1236,
      "ferent": 1237,
      "med": 1238,
      "ural": 1239,
      "ages": 1240,
      "duc": 1241,
      "lish": 1242,
      "ane": 1243,
      "ĠHis": 1244,
      "alf": 1245,
      "br": 1246,
      "Ġhard": 1247,
      "rop": 1248,
      "Ġlead": 1249,
      "Ġstand": 1250,
      "Ġknew": 1251,
      "Ġname": 1252,
      "Ġmom": 1253,
      "ably": 1254,
      "Ġmed": 1255,
      "Ġbus": 1256,
      "stem": 1257,
      "ĠWh": 1258,
      "ffect": 1259,
      "Ġexpl": 1260,
      "ung": 1261,
      "Ġshow": 1262,
      "ived": 1263,
      "Ġprov": 1264,
      "ues": 1265,
      "Ġfar": 1266,
      "ĠZ": 1267,
      "Ġyoung": 1268,
      "Ġsoc": 1269,
      "oice": 1270,
      "aj": 1271,
      "Ġreturn": 1272,
      "Ġext": 1273,
      "Ġduring": 1274,
      "ral": 1275,
      "ik": 1276,
      "Ġupon": 1277,
      "ains": 1278,
      "rist": 1279,
      "erv": 1280,
      "ĠJohn": 1281,
      "Ġsaw": 1282,
      "Ġfil": 1283,
      "ately": 1284,
      "Ġide": 1285,
      "ices": 1286,
      "Ġfour": 1287,
      "ten": 1288,
      "oved": 1289,
      "ĠSp": 1290,
      "ets": 1291,
      "ird": 1292,
      "Ġcomple": 1293,
      "Ġmind": 1294,
      "Ġexper": 1295,
      "Ġlarge": 1296,
      "Ġonce": 1297,
      "Ġinf": 1298,
      "most": 1299,
      "Ġdoor": 1300,
      "irl": 1301,
      "Ġdifferent": 1302,
      "my": 1303,
      "Ġ||": 1304,
      "day": 1305,
      "cy": 1306,
      "Ġenough": 1307,
      "Ġcontin": 1308,
      "ĠPr": 1309,
      "ged": 1310,
      "Ġocc": 1311,
      "Ġpower": 1312,
      "gin": 1313,
      "ience": 1314,
      "ither": 1315,
      "ĠTr": 1316,
      "ex": 1317,
      "Ġnext": 1318,
      "velop": 1319,
      "ided": 1320,
      "Ġkeep": 1321,
      "Ġwar": 1322,
      "Ġmus": 1323,
      "ĠQ": 1324,
      "Ġserv": 1325,
      "ple": 1326,
      "Ġever": 1327,
      "Ġbest": 1328,
      "ĠGod": 1329,
      "ipp": 1330,
      "enn": 1331,
      "ering": 1332,
      "con": 1333,
      "ically": 1334,
      "ize": 1335,
      "Ġadv": 1336,
      "Ġhist": 1337,
      "Ġlove": 1338,
      "Ġsince": 1339,
      "ream": 1340,
      "ee": 1341,
      "Ġmil": 1342,
      "rew": 1343,
      "Ġpur": 1344,
      "Ġpat": 1345,
      "Ġfamily": 1346,
      "What": 1347,
      "She": 1348,
      "ĠThat": 1349,
      "Ġfather": 1350,
      "Ġmem": 1351,
      "Ġthing": 1352,
      "ĠEx": 1353,
      "ians": 1354,
      "iversity": 1355,
      "Ġalong": 1356,
      "ok": 1357,
      "Ġkind": 1358,
      "Ġair": 1359,
      "ured": 1360,
      "Ġnothing": 1361,
      "aring": 1362,
      "riv": 1363,
      "Ġland": 1364,
      "We": 1365,
      "ina": 1366,
      "by": 1367,
      "Ġcor": 1368,
      "Ġtoward": 1369,
      "Ġquest": 1370,
      ",'": 1371,
      "Ġvis": 1372,
      "ery": 1373,
      "ĠHow": 1374,
      "ently": 1375,
      "And": 1376,
      "ĠGer": 1377,
      "stand": 1378,
      "iven": 1379,
      "Ġturned": 1380,
      "Ġest": 1381,
      "arch": 1382,
      "iam": 1383,
      "inc": 1384,
      "Ġdef": 1385,
      "Ġless": 1386,
      "utes": 1387,
      "Ġfull": 1388,
      "Ġfelt": 1389,
      "Ġwind": 1390,
      "mon": 1391,
      "ruct": 1392,
      "Ġdirect": 1393,
      "Ġhands": 1394,
      "Ġwa": 1395,
      "aken": 1396,
      "Ġmother": 1397,
      "min": 1398,
      "Ġpartic": 1399,
      "Ġste": 1400,
      "Ġmean": 1401,
      "Ġsing": 1402,
      "Ġval": 1403,
      "Ġsystem": 1404,
      "Ġbody": 1405,
      "reen": 1406,
      "idd": 1407,
      "bers": 1408,
      "Ġhour": 1409,
      "ĠCon": 1410,
      "Ġimport": 1411,
      "ĠOr": 1412,
      "Ġdays": 1413,
      "Ġfore": 1414,
      "Ġvar": 1415,
      "Ġbetter": 1416,
      "ĠPro": 1417,
      "side": 1418,
      "ides": 1419,
      "ĠHer": 1420,
      "ĠCol": 1421,
      "ĠYork": 1422,
      "Ġes": 1423,
      "ope": 1424,
      "Ġconst": 1425,
      "ys": 1426,
      "Ġblack": 1427,
      "ital": 1428,
      "Ġhalf": 1429,
      "ĠBl": 1430,
      "ferences": 1431,
      "Ġgive": 1432,
      "erest": 1433,
      "ract": 1434,
      "oll": 1435,
      "Ġstop": 1436,
      "Ġcourse": 1437,
      "Ġbegan": 1438,
      "Ġreally": 1439,
      "Ġdeath": 1440,
      "Ġschool": 1441,
      "Ġmoment": 1442,
      "Ġsure": 1443,
      "Ġbro": 1444,
      "ison": 1445,
      "mb": 1446,
      "Ġoften": 1447,
      "rie": 1448,
      "Ġwoman": 1449,
      "Ġpop": 1450,
      "Ġmain": 1451,
      "used": 1452,
      "Ġseen": 1453,
      "nded": 1454,
      "ograp": 1455,
      "Ġpolit": 1456,
      "Ġwomen": 1457,
      "Ġknown": 1458,
      "Ġcond": 1459,
      "Ġpain": 1460,
      "ĠAll": 1461,
      "Ġdep": 1462,
      "But": 1463,
      "Ġnumber": 1464,
      "illed": 1465,
      "ats": 1466,
      "let": 1467,
      "oney": 1468,
      "Ġeas": 1469,
      "iqu": 1470,
      "Ġbuild": 1471,
      "Ġ&": 1472,
      "gether": 1473,
      "ior": 1474,
      "Ġtogether": 1475,
      "alth": 1476,
      "use": 1477,
      "Ġgroup": 1478,
      "ots": 1479,
      "Ġlist": 1480,
      "ĠPl": 1481,
      "aces": 1482,
      "Ġdevelop": 1483,
      "gy": 1484,
      "osition": 1485,
      "Ġmove": 1486,
      "Ġ-": 1487,
      "ĠWhat": 1488,
      "Ġtre": 1489,
      "ology": 1490,
      "Ġheart": 1491,
      "ek": 1492,
      "sh": 1493,
      "ĠChrist": 1494,
      "IN": 1495,
      "raw": 1496,
      "aced": 1497,
      "Ġpast": 1498,
      "Ġalmost": 1499,
      "Ġinterest": 1500,
      "ec": 1501,
      "ued": 1502,
      "Ġopp": 1503,
      "Ġsat": 1504,
      "Ġclass": 1505,
      "Ġbecame": 1506,
      "Ġwanted": 1507,
      "Ġleg": 1508,
      "ĠNo": 1509,
      "Ġcertain": 1510,
      "ths": 1511,
      "Ġtalk": 1512,
      "ĠSc": 1513,
      "Ġseemed": 1514,
      "ron": 1515,
      "Ġele": 1516,
      "aut": 1517,
      "Ġdone": 1518,
      "Ġsn": 1519,
      "augh": 1520,
      "ium": 1521,
      "ĠBrit": 1522,
      "Ġpublic": 1523,
      "Ġprodu": 1524,
      "aster": 1525,
      "Ġbehind": 1526,
      "ister": 1527,
      "veral": 1528,
      "Ġgirl": 1529,
      "of": 1530,
      "Ġsil": 1531,
      "Ġprom": 1532,
      "ĠUniversity": 1533,
      "Ġchildren": 1534,
      "Ġdel": 1535,
      "aid": 1536,
      "ready": 1537,
      "Ġsound": 1538,
      "reet": 1539,
      "Ġyet": 1540,
      "Ġwhite": 1541,
      "Ġrequ": 1542,
      "Ġtop": 1543,
      "ĠPh": 1544,
      "Ġgovern": 1545,
      "uro": 1546,
      "ards": 1547,
      "Ġsal": 1548,
      "Ġdark": 1549,
      "Ġanything": 1550,
      "iety": 1551,
      "Ġacross": 1552,
      "Ġresp": 1553,
      "ened": 1554,
      "orts": 1555,
      "not": 1556,
      "Ġothers": 1557,
      "ert": 1558,
      "Ġwrit": 1559,
      "une": 1560,
      "ĠMay": 1561,
      "?'": 1562,
      "ional": 1563,
      "Ġhold": 1564,
      "Ġclose": 1565,
      "Ġpresent": 1566,
      "ober": 1567,
      "ww": 1568,
      "Ġfun": 1569,
      "eng": 1570,
      "pend": 1571,
      "Ġstate": 1572,
      "Ġcase": 1573,
      "ĠThen": 1574,
      "ider": 1575,
      "oke": 1576,
      "uff": 1577,
      "Ġearly": 1578,
      "over": 1579,
      "Ġty": 1580,
      "Ġhuman": 1581,
      "Ġwhole": 1582,
      "ĠâĢĶ": 1583,
      "selves": 1584,
      "ĠUnited": 1585,
      "ape": 1586,
      "Ġoffic": 1587,
      "Ġlaw": 1588,
      "Ġsent": 1589,
      "Ġcity": 1590,
      "Ġbig": 1591,
      "Ġfront": 1592,
      "Ġsit": 1593,
      "arent": 1594,
      "Ġline": 1595,
      "Ġalready": 1596,
      "Ġav": 1597,
      "Ġwords": 1598,
      "Ġprof": 1599,
      "Ġleast": 1600,
      "Ġhappen": 1601,
      "Ġresult": 1602,
      "oint": 1603,
      "ball": 1604,
      "Ġhaving": 1605,
      "inal": 1606,
      "Ġwasn": 1607,
      "de": 1608,
      "bs": 1609,
      "Ġamong": 1610,
      "ached": 1611,
      "Ġeffect": 1612,
      "atic": 1613,
      "mber": 1614,
      "Ġcommun": 1615,
      "Ġequ": 1616,
      "Ġwhy": 1617,
      "Ġple": 1618,
      "Ġgave": 1619,
      "Ġorder": 1620,
      "Ġvoice": 1621,
      "els": 1622,
      "Ġminutes": 1623,
      "Ġheard": 1624,
      "ccess": 1625,
      "Ġwithin": 1626,
      "rol": 1627,
      "Ġview": 1628,
      "Ġpar": 1629,
      "Ġgiven": 1630,
      "Ġground": 1631,
      "ĠGe": 1632,
      "Ġshort": 1633,
      "Ġbecome": 1634,
      "Ġboy": 1635,
      "Ġcountry": 1636,
      "Ġtri": 1637,
      "Ġans": 1638,
      "Ġsays": 1639,
      "ien": 1640,
      "Ġdesc": 1641,
      "Ġseveral": 1642,
      "Ġunderstand": 1643,
      "Ġfoot": 1644,
      "aim": 1645,
      "ully": 1646,
      "ances": 1647,
      "Ġappro": 1648,
      "vent": 1649,
      "urch": 1650,
      "ips": 1651,
      "Ġtimes": 1652,
      "Ġinform": 1653,
      "ories": 1654,
      "lished": 1655,
      "though": 1656,
      "Ġve": 1657,
      "ĠSo": 1658,
      "ler": 1659,
      "ission": 1660,
      "aining": 1661,
      "Ġnear": 1662,
      "iting": 1663,
      "ressed": 1664,
      "sc": 1665,
      "ĠAd": 1666,
      "oor": 1667,
      "lf": 1668,
      "haps": 1669,
      "aged": 1670,
      "uthor": 1671,
      "ĠTo": 1672,
      "ample": 1673,
      "eth": 1674,
      "ush": 1675,
      "irc": 1676,
      "Ġrece": 1677,
      "ĠGerman": 1678,
      "owing": 1679,
      "Ġconc": 1680,
      "Ġheld": 1681,
      "ored": 1682,
      "ole": 1683,
      "Ġtown": 1684,
      "itions": 1685,
      "ality": 1686,
      "ĠMy": 1687,
      "view": 1688,
      "Ġcharac": 1689,
      "Ġorgan": 1690,
      "ĠWill": 1691,
      "Ġbed": 1692,
      "ON": 1693,
      "ified": 1694,
      "sy": 1695,
      "Ġtem": 1696,
      "ator": 1697,
      "ata": 1698,
      "Ġrather": 1699,
      "Ġmark": 1700,
      "oub": 1701,
      "No": 1702,
      "read": 1703,
      "Ġsix": 1704,
      "ead": 1705,
      "ĠOne": 1706,
      "Ġprocess": 1707,
      "orr": 1708,
      "Ġsoon": 1709,
      "owed": 1710,
      "Ġfall": 1711,
      "ĠAfter": 1712,
      "ony": 1713,
      "isc": 1714,
      "af": 1715,
      "Ġelse": 1716,
      "Ġbas": 1717,
      "Ġproble": 1718,
      "ai": 1719,
      "Ġimportant": 1720,
      "Ġmeet": 1721,
      "oud": 1722,
      "ĠWar": 1723,
      "mp": 1724,
      "Ġtaken": 1725,
      "ief": 1726,
      "Ġbusiness": 1727,
      "Ġoper": 1728,
      "ĠStates": 1729,
      "ĠNot": 1730,
      "Ġcut": 1731,
      "iter": 1732,
      "arth": 1733,
      "Ġrecord": 1734,
      "Ġmaking": 1735,
      "Ġfree": 1736,
      "rench": 1737,
      "ĠWor": 1738,
      "Ġpract": 1739,
      "Ġfood": 1740,
      "Ġwon": 1741,
      "Ġsle": 1742,
      "Ġsol": 1743,
      "HE": 1744,
      "amed": 1745,
      "chn": 1746,
      "ones": 1747,
      "por": 1748,
      "ĠReferences": 1749,
      "ement": 1750,
      "inn": 1751,
      "Ġsqu": 1752,
      "Ġorig": 1753,
      "ches": 1754,
      "vious": 1755,
      "ster": 1756,
      "ference": 1757,
      "ization": 1758,
      "Ġwall": 1759,
      "ising": 1760,
      "Ġaw": 1761,
      "Ġhowever": 1762,
      "ĠPe": 1763,
      "par": 1764,
      "This": 1765,
      "Ġ$": 1766,
      "Ġteam": 1767,
      "Ġfollowing": 1768,
      "Ġfire": 1769,
      "enty": 1770,
      "ps": 1771,
      "Ġbar": 1772,
      "umb": 1773,
      "aper": 1774,
      "Ġred": 1775,
      "ilt": 1776,
      "That": 1777,
      "ondon": 1778,
      "orning": 1779,
      "Ġmoney": 1780,
      "Ġcup": 1781,
      "ES": 1782,
      "Ġchang": 1783,
      "Ġsum": 1784,
      "hys": 1785,
      "Ġsuccess": 1786,
      "AR": 1787,
      "ries": 1788,
      "aves": 1789,
      "Ġlooking": 1790,
      "ĠEnglish": 1791,
      "Ġfive": 1792,
      ".âĢĿ": 1793,
      "fully": 1794,
      "ajor": 1795,
      "Ġfell": 1796,
      "Ġreason": 1797,
      "ĠEd": 1798,
      "Ġfeet": 1799,
      "ze": 1800,
      "Ġwond": 1801,
      "Ġask": 1802,
      "Ġdesign": 1803,
      "Ġshall": 1804,
      "Ġheav": 1805,
      "idge": 1806,
      "Ġquick": 1807,
      "aul": 1808,
      "Ġquestion": 1809,
      "ulation": 1810,
      "oci": 1811,
      "ternal": 1812,
      "ney": 1813,
      "ĠComm": 1814,
      "bed": 1815,
      "Ġdri": 1816,
      "Ġeng": 1817,
      "Ġplan": 1818,
      "Ġrepl": 1819,
      "Ġprop": 1820,
      "Ġdem": 1821,
      "resent": 1822,
      "Ġable": 1823,
      "Ġstory": 1824,
      "ases": 1825,
      "Ġprot": 1826,
      "iber": 1827,
      "Ġsupport": 1828,
      "Ġdeep": 1829,
      "urope": 1830,
      "Ġincre": 1831,
      "urg": 1832,
      "ĠWith": 1833,
      "ables": 1834,
      "Ġprob": 1835,
      "Ġfur": 1836,
      "Ġpull": 1837,
      "St": 1838,
      "duced": 1839,
      "ivid": 1840,
      "Ġbit": 1841,
      "ĠNe": 1842,
      "ĠCan": 1843,
      "ript": 1844,
      "Ġmag": 1845,
      "oot": 1846,
      "Ġstrong": 1847,
      "Ġfre": 1848,
      "ring": 1849,
      "Ġlow": 1850,
      "AN": 1851,
      "overed": 1852,
      "Ġpossible": 1853,
      "ģĦ": 1854,
      "Ġson": 1855,
      "angu": 1856,
      "ination": 1857,
      "âģĦ": 1858,
      "ese": 1859,
      "Ġstarted": 1860,
      "Ġstay": 1861,
      "Ġhapp": 1862,
      "Ġeither": 1863,
      "ĠEl": 1864,
      "head": 1865,
      "ression": 1866,
      "bo": 1867,
      "gram": 1868,
      "Ġincluding": 1869,
      "Ġauthor": 1870,
      "Ġbrought": 1871,
      "Ġblood": 1872,
      "ffic": 1873,
      "Ġexample": 1874,
      "yn": 1875,
      "Ġquite": 1876,
      "Ġsense": 1877,
      "Ġdoing": 1878,
      "Ġcult": 1879,
      "Ġidea": 1880,
      "for": 1881,
      "ude": 1882,
      "Ġbegin": 1883,
      "Ġrele": 1884,
      "Ġswe": 1885,
      "Ġperform": 1886,
      "Ġabove": 1887,
      "ĠBritish": 1888,
      "Ġitself": 1889,
      "Ġdead": 1890,
      "Ġfriends": 1891,
      "Ġmorning": 1892,
      "ges": 1893,
      "fic": 1894,
      "Ġdiv": 1895,
      "Ġexpect": 1896,
      "Ġcouldn": 1897,
      "irt": 1898,
      "ogn": 1899,
      "acy": 1900,
      "ĠEurope": 1901,
      "Ġ_The": 1902,
      "Ġmatter": 1903,
      "ĠFrench": 1904,
      "Ġlay": 1905,
      "Ġgovernment": 1906,
      "Ġtrad": 1907,
      "Ġhistory": 1908,
      "Ġself": 1909,
      "Ġchange": 1910,
      "conom": 1911,
      "Ġthemselves": 1912,
      "uly": 1913,
      "wh": 1914,
      "idence": 1915,
      "Ġtable": 1916,
      "There": 1917,
      "oe": 1918,
      "Ġeverything": 1919,
      "###": 1920,
      "ourn": 1921,
      "Ġfig": 1922,
      "Ġmeans": 1923,
      "Ġwin": 1924,
      "ctor": 1925,
      "ping": 1926,
      "Ġsocial": 1927,
      "Ġlive": 1928,
      "Ġinde": 1929,
      "Ġelect": 1930,
      "Ġstood": 1931,
      "Ġca": 1932,
      "Ġsun": 1933,
      "Ġstat": 1934,
      "Ġpost": 1935,
      "Ġhot": 1936,
      "Ġcamp": 1937,
      "undred": 1938,
      "Ġmusic": 1939,
      "where": 1940,
      "empt": 1941,
      "Ġlink": 1942,
      "Ġra": 1943,
      "Ġcirc": 1944,
      "Ġpie": 1945,
      "OR": 1946,
      "ald": 1947,
      "alked": 1948,
      "fort": 1949,
      "ĠCar": 1950,
      "Ġproper": 1951,
      "aught": 1952,
      "Ġhair": 1953,
      "ĠKing": 1954,
      "ĠHar": 1955,
      "Ġdev": 1956,
      "pped": 1957,
      "oes": 1958,
      "Ġround": 1959,
      "wer": 1960,
      "Ġbelieve": 1961,
      "ĠMan": 1962,
      "Ġestab": 1963,
      "sp": 1964,
      "Ġill": 1965,
      "Ġmov": 1966,
      "Ġcommon": 1967,
      "Ġvol": 1968,
      "ĠBy": 1969,
      "Ġleave": 1970,
      "Ġmyself": 1971,
      "iod": 1972,
      "ift": 1973,
      "eter": 1974,
      "fer": 1975,
      "Ġann": 1976,
      "Ġtrue": 1977,
      "iled": 1978,
      "Ġstep": 1979,
      "ĠTe": 1980,
      "na": 1981,
      "Ġwalk": 1982,
      "Ġbad": 1983,
      "AT": 1984,
      "Ġlearn": 1985,
      "ĠWorld": 1986,
      "Ġlost": 1987,
      "Ġroad": 1988,
      "If": 1989,
      "ĠFl": 1990,
      "ĠLondon": 1991,
      "ĠDr": 1992,
      "Ġarea": 1993,
      "Ġarm": 1994,
      "Ġcharacter": 1995,
      "Ġusing": 1996,
      "itting": 1997,
      "Ġpot": 1998,
      "Ġsugg": 1999,
      "Ġsuggest": 2000,
      "Ġsold": 2001,
      "Ġgone": 2002,
      "ĠMe": 2003,
      "ument": 2004,
      "Ġbring": 2005,
      "Ġlate": 2006,
      "airs": 2007,
      "Ġherself": 2008,
      "Ġage": 2009,
      "che": 2010,
      "Ġwife": 2011,
      "room": 2012,
      "Ġattack": 2013,
      "Ġlim": 2014,
      "ĠPer": 2015,
      "Ġant": 2016,
      "Ġhours": 2017,
      "rict": 2018,
      "Ġobject": 2019,
      "attle": 2020,
      "ague": 2021,
      "ency": 2022,
      "Ġpay": 2023,
      "Ġlot": 2024,
      "Ġsomeone": 2025,
      "hern": 2026,
      "ĠX": 2027,
      "EN": 2028,
      "Ġbrother": 2029,
      "ae": 2030,
      "ands": 2031,
      "ĠGu": 2032,
      "Ġhundred": 2033,
      "oul": 2034,
      "Ġnat": 2035,
      "Ġdest": 2036,
      "Ġlevel": 2037,
      "Ġten": 2038,
      "itive": 2039,
      "Ġbeaut": 2040,
      "Ġinformation": 2041,
      "As": 2042,
      "lu": 2043,
      "Ġfield": 2044,
      "vol": 2045,
      "men": 2046,
      "ĠSouth": 2047,
      "iron": 2048,
      "Ġsingle": 2049,
      "Ġcomplete": 2050,
      "Ġhear": 2051,
      "Ġbreat": 2052,
      "ius": 2053,
      "Ġabs": 2054,
      "ration": 2055,
      "ĠGeor": 2056,
      "nding": 2057,
      "ham": 2058,
      "Ġtest": 2059,
      "Ġgeneral": 2060,
      "Ġwhose": 2061,
      "ording": 2062,
      "Ġmill": 2063,
      "ĠAb": 2064,
      "ĠSee": 2065,
      "itary": 2066,
      "Ġinside": 2067,
      ".)": 2068,
      "atter": 2069,
      "line": 2070,
      "Ġentire": 2071,
      "Ġwatch": 2072,
      "Ġlab": 2073,
      "cially": 2074,
      "Ġcook": 2075,
      "Ġtrying": 2076,
      "ploy": 2077,
      "iff": 2078,
      "Ġcoming": 2079,
      "Ġord": 2080,
      "Ġrese": 2081,
      "resh": 2082,
      "Ġmot": 2083,
      "oad": 2084,
      "iddle": 2085,
      "ĠII": 2086,
      "Ġpolitical": 2087,
      "ĠAust": 2088,
      "ividual": 2089,
      "port": 2090,
      "ode": 2091,
      "Ġtried": 2092,
      "Ġfilm": 2093,
      "Ġbreak": 2094,
      "Ġpick": 2095,
      "____": 2096,
      "ĠAf": 2097,
      ",âĢĿ": 2098,
      "Ġoutside": 2099,
      "Ġmoved": 2100,
      "Ġlocal": 2101,
      "Ġcompany": 2102,
      "Ġsubject": 2103,
      "ids": 2104,
      "Ġclear": 2105,
      "Ġobs": 2106,
      "Ġrelations": 2107,
      "unt": 2108,
      "ĠAm": 2109,
      "gar": 2110,
      "ops": 2111,
      "lin": 2112,
      "Ġwood": 2113,
      "Ġspir": 2114,
      "ĠPar": 2115,
      "Ġposition": 2116,
      "Ġcontrol": 2117,
      "aughter": 2118,
      "ĠThese": 2119,
      "ĠNational": 2120,
      "Ġspeak": 2121,
      "itted": 2122,
      "Ġworking": 2123,
      "Ġreport": 2124,
      "Ġwhether": 2125,
      "ply": 2126,
      "yle": 2127,
      "Ch": 2128,
      "Ġexist": 2129,
      "Ġliving": 2130,
      "Ġident": 2131,
      "Ġiss": 2132,
      "Ġbene": 2133,
      "rom": 2134,
      "Ġcal": 2135,
      "eb": 2136,
      "Ġet": 2137,
      "Ġmajor": 2138,
      "anger": 2139,
      "medi": 2140,
      "ĠJan": 2141,
      "Ġcentury": 2142,
      "ficult": 2143,
      "itten": 2144,
      "Ġnecess": 2145,
      "Ġfail": 2146,
      "Ġcross": 2147,
      "Ġimag": 2148,
      "Ġ=": 2149,
      "Ġla": 2150,
      "Ġpress": 2151,
      "ille": 2152,
      "Ġprobably": 2153,
      "When": 2154,
      "Ġdeal": 2155,
      "ublic": 2156,
      "oman": 2157,
      "Ġcrit": 2158,
      "ha": 2159,
      "Ġaff": 2160,
      "Ġadm": 2161,
      "ĠPol": 2162,
      "ox": 2163,
      "An": 2164,
      "ma": 2165,
      "Ġtechn": 2166,
      "ĠHist": 2167,
      "ouble": 2168,
      "ĠDav": 2169,
      "ĠSome": 2170,
      "Ġport": 2171,
      "Ġbir": 2172,
      "Ġkept": 2173,
      "Ġappear": 2174,
      "work": 2175,
      "Ġalone": 2176,
      "Ġlonger": 2177,
      "Ġtou": 2178,
      "Ġseason": 2179,
      "iol": 2180,
      "Ġjo": 2181,
      "odd": 2182,
      "Ġfight": 2183,
      "Ġarg": 2184,
      "Ġperiod": 2185,
      "Ġslow": 2186,
      "lled": 2187,
      "Ġdifficult": 2188,
      "Ġcreat": 2189,
      "Ġaccount": 2190,
      "ĠCal": 2191,
      "ills": 2192,
      "Ġconne": 2193,
      "pecially": 2194,
      "ĠMc": 2195,
      "Ġinvol": 2196,
      "asure": 2197,
      ":**": 2198,
      "Ġpriv": 2199,
      "ĠAug": 2200,
      "Ġtaking": 2201,
      "amb": 2202,
      "ternational": 2203,
      "Ġanim": 2204,
      "Ġcommand": 2205,
      "aur": 2206,
      "ological": 2207,
      "ĠCent": 2208,
      "Ġprogram": 2209,
      "Ġcolle": 2210,
      "AP": 2211,
      "Ġindividual": 2212,
      "Ġran": 2213,
      "but": 2214,
      "Ġcannot": 2215,
      "osp": 2216,
      "istic": 2217,
      "iding": 2218,
      "erm": 2219,
      "ental": 2220,
      "They": 2221,
      "Ġphys": 2222,
      "cle": 2223,
      "ĠCount": 2224,
      "ama": 2225,
      "Ġsoft": 2226,
      "ays": 2227,
      "Ġrepresent": 2228,
      "Ġhon": 2229,
      "apter": 2230,
      "Ġfear": 2231,
      "dden": 2232,
      "ledge": 2233,
      "Ġbur": 2234,
      "ĠNorth": 2235,
      "Ġnon": 2236,
      "Ġhope": 2237,
      "aff": 2238,
      "like": 2239,
      "ival": 2240,
      "Ġvill": 2241,
      "Ġdoub": 2242,
      "udd": 2243,
      "Ġevent": 2244,
      "Ġhor": 2245,
      "ford": 2246,
      "ask": 2247,
      "right": 2248,
      "isk": 2249,
      "Ġwhom": 2250,
      "Ġjob": 2251,
      "rest": 2252,
      "body": 2253,
      "ĠBar": 2254,
      "Ġneeded": 2255,
      "ĠWilliam": 2256,
      "Ġlangu": 2257,
      "aint": 2258,
      "Ġled": 2259,
      "Ġfing": 2260,
      "Ġconv": 2261,
      "Ġsuper": 2262,
      "ĠQu": 2263,
      "Ġdescrib": 2264,
      "Ġgame": 2265,
      "Ġperhaps": 2266,
      "Ġcomb": 2267,
      "Ġfav": 2268,
      "Ġrad": 2269,
      "Ġsong": 2270,
      "ential": 2271,
      "Ġactiv": 2272,
      "Ġsudden": 2273,
      "Ġmiss": 2274,
      "hel": 2275,
      "Ġer": 2276,
      "tered": 2277,
      "ili": 2278,
      "Ġclaim": 2279,
      "raft": 2280,
      "ule": 2281,
      "Ġbuilding": 2282,
      "ging": 2283,
      "aly": 2284,
      "Yes": 2285,
      "Ġenc": 2286,
      "oose": 2287,
      "co": 2288,
      "pper": 2289,
      "Ġhur": 2290,
      "ceed": 2291,
      "Ġinvest": 2292,
      "ffe": 2293,
      "Ġmakes": 2294,
      "Ġstri": 2295,
      "Ġmembers": 2296,
      "Ġwrote": 2297,
      "irm": 2298,
      "Ġconsider": 2299,
      "ially": 2300,
      "Ġspecial": 2301,
      "Ġgetting": 2302,
      "Ġeight": 2303,
      "Ġformer": 2304,
      "Ġopened": 2305,
      "Ġmonths": 2306,
      "Ġfurther": 2307,
      "Ġexperience": 2308,
      "Ġdied": 2309,
      "ara": 2310,
      "Ġfollowed": 2311,
      "lex": 2312,
      "ĠPress": 2313,
      "artment": 2314,
      "stit": 2315,
      "Ġsurpr": 2316,
      "Ġfa": 2317,
      "Ġdro": 2318,
      "ively": 2319,
      "Ġtry": 2320,
      "Ġreached": 2321,
      "',": 2322,
      "Ġrecogn": 2323,
      "Ġseries": 2324,
      "Ġtwenty": 2325,
      "Ġtrave": 2326,
      "ana": 2327,
      "Ġsett": 2328,
      "kn": 2329,
      "urs": 2330,
      "uation": 2331,
      "ĠAugust": 2332,
      "ume": 2333,
      "ocr": 2334,
      "ining": 2335,
      "ĠWest": 2336,
      "Ġmount": 2337,
      "How": 2338,
      "Ġeconom": 2339,
      "ĠRep": 2340,
      "unch": 2341,
      "Ġmouth": 2342,
      "Ġremember": 2343,
      "Ġthous": 2344,
      "Ġnature": 2345,
      "Ġeye": 2346,
      "Ġcold": 2347,
      "Ġcorn": 2348,
      "Ġdraw": 2349,
      "uary": 2350,
      "reg": 2351,
      "itch": 2352,
      "Wh": 2353,
      "Ġfloor": 2354,
      "Ġfine": 2355,
      "ump": 2356,
      "ĠCr": 2357,
      "Ġforward": 2358,
      "AL": 2359,
      "ĠNow": 2360,
      "Ġoil": 2361,
      "Ġbott": 2362,
      "ivil": 2363,
      "itional": 2364,
      "anced": 2365,
      "Ġdoesn": 2366,
      "ening": 2367,
      "iers": 2368,
      "Ġoffice": 2369,
      "Ġsleep": 2370,
      "ales": 2371,
      "Ġarms": 2372,
      "apan": 2373,
      "Ġattempt": 2374,
      "Ġaccept": 2375,
      "Ġking": 2376,
      "Ġce": 2377,
      "str": 2378,
      "Ġgen": 2379,
      "wo": 2380,
      "cious": 2381,
      "uit": 2382,
      "ashing": 2383,
      "oph": 2384,
      "Ġaut": 2385,
      "Ġhappened": 2386,
      "Ġrespect": 2387,
      "ĠSy": 2388,
      "Ġspace": 2389,
      "ilar": 2390,
      "ii": 2391,
      "uct": 2392,
      "het": 2393,
      "Ġtreat": 2394,
      "Ġvers": 2395,
      "Ġhealth": 2396,
      "Ġpri": 2397,
      "val": 2398,
      "itor": 2399,
      "Ġproblem": 2400,
      "iced": 2401,
      "light": 2402,
      "Ġsens": 2403,
      "Ġsex": 2404,
      "So": 2405,
      "Ġexc": 2406,
      "hod": 2407,
      "Ġdiscuss": 2408,
      "ĠEngland": 2409,
      "yond": 2410,
      "Ġkill": 2411,
      "Ġz": 2412,
      "set": 2413,
      "Ġexcept": 2414,
      "Ġweek": 2415,
      "Ġprofess": 2416,
      "Ġcontinued": 2417,
      "ushed": 2418,
      "asp": 2419,
      "My": 2420,
      "Ġcoun": 2421,
      "Ġgold": 2422,
      "Ġpassed": 2423,
      "ĠGo": 2424,
      "Ġfut": 2425,
      "Ġimmedi": 2426,
      "ades": 2427,
      "Ġarr": 2428,
      "ique": 2429,
      "aterial": 2430,
      "ĠLord": 2431,
      "ises": 2432,
      "ving": 2433,
      "Ġmess": 2434,
      "bor": 2435,
      "ĠOct": 2436,
      "Ġespecially": 2437,
      "Ġparent": 2438,
      "Ġsometimes": 2439,
      "Ġmur": 2440,
      "âĢ¢": 2441,
      ");": 2442,
      "ĠPhil": 2443,
      "omin": 2444,
      "ĠMrs": 2445,
      "Ġthinking": 2446,
      "erc": 2447,
      "Ġhy": 2448,
      "Ġtext": 2449,
      "ĠAmerica": 2450,
      "IS": 2451,
      "Ġver": 2452,
      "erson": 2453,
      "band": 2454,
      "ĠRes": 2455,
      "antly": 2456,
      "Ġrelig": 2457,
      "sych": 2458,
      "ĠRuss": 2459,
      "Ġservice": 2460,
      "Ġreturned": 2461,
      "go": 2462,
      "rel": 2463,
      "Oh": 2464,
      "Ġforce": 2465,
      "incip": 2466,
      "Ġcover": 2467,
      "ĠAfric": 2468,
      "Ġeff": 2469,
      "ĠSept": 2470,
      "Ġthird": 2471,
      "Ġplayers": 2472,
      "Ġpict": 2473,
      "ĠSoc": 2474,
      "Ġsimply": 2475,
      "Ġtele": 2476,
      "Ġworks": 2477,
      "Ã¡": 2478,
      "Ġdefe": 2479,
      "For": 2480,
      "Ġproject": 2481,
      "sequ": 2482,
      "Ġpaper": 2483,
      "Ġphot": 2484,
      "Ġhig": 2485,
      "Ġsour": 2486,
      "Ġarri": 2487,
      "Ġwat": 2488,
      "Ġjud": 2489,
      "ĠDon": 2490,
      "Ġwee": 2491,
      "ĠMed": 2492,
      "rugg": 2493,
      "Ġwide": 2494,
      "emy": 2495,
      "hers": 2496,
      "ky": 2497,
      "Ġplayed": 2498,
      "ĠJune": 2499,
      "ĠSec": 2500,
      "Ġworked": 2501,
      "add": 2502,
      "ĠTHE": 2503,
      "Ġfac": 2504,
      "ability": 2505,
      "Ġseems": 2506,
      "On": 2507,
      "Ġsea": 2508,
      "Ġsus": 2509,
      "Ġwritten": 2510,
      "Ġreceived": 2511,
      "ĠHowever": 2512,
      "Ġgun": 2513,
      "ror": 2514,
      "ctions": 2515,
      "Ġcost": 2516,
      "iful": 2517,
      "ipped": 2518,
      "ĠMarch": 2519,
      "Ġnorth": 2520,
      "Ġwrong": 2521,
      "ĠJapan": 2522,
      "Ġtruth": 2523,
      "pril": 2524,
      "Ġgrow": 2525,
      "Ġda": 2526,
      "ibr": 2527,
      "Ġquickly": 2528,
      "Ġwouldn": 2529,
      "Ġsaying": 2530,
      "Ġparty": 2531,
      "ĠChar": 2532,
      "dom": 2533,
      "Ġfif": 2534,
      "Ġfeeling": 2535,
      "ĠHouse": 2536,
      "Ġinte": 2537,
      "Ġdrink": 2538,
      "Ġglass": 2539,
      "Ġaccom": 2540,
      "Ġfresh": 2541,
      "Ġdecl": 2542,
      "ĠUS": 2543,
      "ett": 2544,
      "Ġattention": 2545,
      "ingly": 2546,
      "ĠComp": 2547,
      "face": 2548,
      "Ġ_S": 2549,
      "ĠMiss": 2550,
      "uted": 2551,
      "Ġactually": 2552,
      "ĠSw": 2553,
      "Ġcomes": 2554,
      "estern": 2555,
      "Ġanswer": 2556,
      "Ġnational": 2557,
      "Ġbuilt": 2558,
      "Ġmass": 2559,
      "iction": 2560,
      "Ġearl": 2561,
      "Ġbased": 2562,
      "Ġlinks": 2563,
      "ĠMon": 2564,
      "Ġperfect": 2565,
      "ires": 2566,
      "ails": 2567,
      "Ġhus": 2568,
      "Ġinflu": 2569,
      "ograph": 2570,
      "eneral": 2571,
      "alt": 2572,
      "ibility": 2573,
      "Ġheat": 2574,
      "ĠJew": 2575,
      "usion": 2576,
      "oid": 2577,
      "Ġesc": 2578,
      "Ġready": 2579,
      "ken": 2580,
      "ĠDo": 2581,
      "ĠEn": 2582,
      "erve": 2583,
      "owd": 2584,
      "Ġwalked": 2585,
      "wards": 2586,
      "ĠJuly": 2587,
      "ularly": 2588,
      "\\\\": 2589,
      "Ġprep": 2590,
      "lling": 2591,
      "Ġpoor": 2592,
      "nds": 2593,
      "ĠState": 2594,
      "uk": 2595,
      "Ġdi": 2596,
      "ĠCor": 2597,
      "ously": 2598,
      "Ġdam": 2599,
      "hood": 2600,
      "ĠCity": 2601,
      "ĠPaul": 2602,
      "app": 2603,
      "Ġeduc": 2604,
      "Ġsort": 2605,
      "ĠGl": 2606,
      "Ġtot": 2607,
      "Ġdog": 2608,
      "ustom": 2609,
      "):": 2610,
      "Ġdream": 2611,
      "ruction": 2612,
      "ĠJack": 2613,
      "Ġnarr": 2614,
      "ino": 2615,
      "Ġmeant": 2616,
      "ĠÎ": 2617,
      "ournal": 2618,
      "see": 2619,
      "ients": 2620,
      "ani": 2621,
      "owers": 2622,
      "ĠFrom": 2623,
      "aching": 2624,
      "Ġcop": 2625,
      "Ġgrand": 2626,
      "Ġvarious": 2627,
      "ĠSm": 2628,
      "Ġmaterial": 2629,
      "ĠSeptember": 2630,
      "Ġappeared": 2631,
      "Ġmid": 2632,
      "joy": 2633,
      "Ġbecom": 2634,
      "Ġcell": 2635,
      "Ġstruct": 2636,
      "Ġmodern": 2637,
      "Ġemploy": 2638,
      "Ġinstead": 2639,
      "Ġstra": 2640,
      "ĠEm": 2641,
      "reed": 2642,
      "Well": 2643,
      "Ġgreen": 2644,
      "Ġnatural": 2645,
      "Ġfuture": 2646,
      ".**": 2647,
      "Ġpan": 2648,
      "Ġop": 2649,
      "Ġmethod": 2650,
      "Ġwarm": 2651,
      "Ġliter": 2652,
      "apped": 2653,
      "Ġalthough": 2654,
      "Ġquiet": 2655,
      "Ġspirit": 2656,
      "ada": 2657,
      "bum": 2658,
      "iment": 2659,
      "Ġhistor": 2660,
      "icy": 2661,
      "Ġarch": 2662,
      "ĠJust": 2663,
      "Ġdata": 2664,
      "âĢĶ\"": 2665,
      "ĠApril": 2666,
      "cient": 2667,
      "ites": 2668,
      "Ġneg": 2669,
      "ĠPart": 2670,
      "ĠGeorge": 2671,
      "Ġago": 2672,
      "Ġsouth": 2673,
      "zz": 2674,
      "ĠNove": 2675,
      "Ġparticular": 2676,
      "idered": 2677,
      "imate": 2678,
      "Ġwindow": 2679,
      "Ġfinally": 2680,
      "Ġearth": 2681,
      "Ġfoc": 2682,
      "ĠSu": 2683,
      "well": 2684,
      "Ġbow": 2685,
      "eder": 2686,
      "aven": 2687,
      "yl": 2688,
      "Ġcast": 2689,
      "irty": 2690,
      "ĠCo": 2691,
      "ĠOctober": 2692,
      "ĠSch": 2693,
      "Ġconcern": 2694,
      "Ġanyone": 2695,
      "uge": 2696,
      "Ġmis": 2697,
      "ĠKe": 2698,
      "Ġadded": 2699,
      "Ġsepar": 2700,
      "vision": 2701,
      "Ġexact": 2702,
      "ators": 2703,
      "'.": 2704,
      "lected": 2705,
      "ĠJames": 2706,
      "ĠPres": 2707,
      "ĠAss": 2708,
      "ager": 2709,
      "Ġviol": 2710,
      "Ġfeat": 2711,
      "Ġletter": 2712,
      "isted": 2713,
      "Ġpret": 2714,
      "Ġintro": 2715,
      "Ġlanguage": 2716,
      "Ġcompet": 2717,
      "iling": 2718,
      "Ġbeyond": 2719,
      "Ġship": 2720,
      "Ġdecided": 2721,
      "Ġrelationship": 2722,
      "ography": 2723,
      "ĠHen": 2724,
      "oly": 2725,
      "rupt": 2726,
      "Ġexam": 2727,
      "rying": 2728,
      "ĠÂ": 2729,
      "Ġoccas": 2730,
      "Ġpurp": 2731,
      "Ġregard": 2732,
      "omen": 2733,
      "Ġusually": 2734,
      "ences": 2735,
      "RE": 2736,
      "Ġmilitary": 2737,
      "Ġnamed": 2738,
      "Ġaction": 2739,
      "Ġsimilar": 2740,
      "Ġvalue": 2741,
      "tr": 2742,
      "Ġstation": 2743,
      "Ġimm": 2744,
      "Ġund": 2745,
      "Ġavail": 2746,
      "ĠCap": 2747,
      "Ġtyp": 2748,
      "rief": 2749,
      "IT": 2750,
      "ĠEven": 2751,
      "atever": 2752,
      "Ġbox": 2753,
      "Ġbooks": 2754,
      "Ġblue": 2755,
      "Ġchurch": 2756,
      "ĠJanuary": 2757,
      "Ġ;": 2758,
      "Ġtoday": 2759,
      "Ġnor": 2760,
      "Ġang": 2761,
      "inary": 2762,
      "Ġâ": 2763,
      "Ġcompl": 2764,
      "AS": 2765,
      "Ġvisit": 2766,
      "Not": 2767,
      "Ġmult": 2768,
      "cember": 2769,
      "Ġcurrent": 2770,
      "Ġhop": 2771,
      "ĠMin": 2772,
      "cul": 2773,
      "ĠMus": 2774,
      "####": 2775,
      "Ġprincip": 2776,
      "Ġsecret": 2777,
      "Ġstraight": 2778,
      "Ġener": 2779,
      "ls": 2780,
      "Ġfem": 2781,
      "Ġrunning": 2782,
      "LE": 2783,
      "Ġep": 2784,
      "Ġfinal": 2785,
      "itc": 2786,
      "Ġmarket": 2787,
      "Ġstopped": 2788,
      "ĠDavid": 2789,
      "Ġ`": 2790,
      "action": 2791,
      "Ġproduct": 2792,
      "IC": 2793,
      "ground": 2794,
      "Ġtit": 2795,
      "erved": 2796,
      "cil": 2797,
      "ĠRich": 2798,
      "Ġclos": 2799,
      "Ġassoci": 2800,
      "Ġvict": 2801,
      "reme": 2802,
      "Ġopt": 2803,
      "Ġess": 2804,
      "ING": 2805,
      "enth": 2806,
      "Ġpersonal": 2807,
      "acks": 2808,
      "bl": 2809,
      "Ġslight": 2810,
      "gress": 2811,
      "Ġstudy": 2812,
      "Ġthus": 2813,
      "ĠAustral": 2814,
      "Ġwonder": 2815,
      "ify": 2816,
      "ĠSchool": 2817,
      "Ġborn": 2818,
      "Ġenjoy": 2819,
      "TER": 2820,
      "ĠRober": 2821,
      "hem": 2822,
      "urity": 2823,
      "ĠÃ": 2824,
      "Äģ": 2825,
      "ounded": 2826,
      "ĠFrance": 2827,
      "teen": 2828,
      "Ġeasy": 2829,
      "Ġbes": 2830,
      "aps": 2831,
      "Ġhusband": 2832,
      "Ġpos": 2833,
      "ander": 2834,
      "Ġcoup": 2835,
      "umn": 2836,
      "ĠExternal": 2837,
      "ĠPark": 2838,
      "Ġ_A": 2839,
      "Ġrespons": 2840,
      "Ġrul": 2841,
      "fl": 2842,
      "II": 2843,
      "Ġprevious": 2844,
      "rey": 2845,
      "Ġyourself": 2846,
      "omb": 2847,
      "Ġconsidered": 2848,
      "ours": 2849,
      "Ġdaughter": 2850,
      "off": 2851,
      "Ġcoll": 2852,
      "Ġfootball": 2853,
      "Ġtowards": 2854,
      "uel": 2855,
      "ray": 2856,
      "Ġlif": 2857,
      "ĠIr": 2858,
      "ĠIndian": 2859,
      "eds": 2860,
      "Ġhadn": 2861,
      "Ġpath": 2862,
      "Ġpublished": 2863,
      "ĠDes": 2864,
      "Ġkilled": 2865,
      "Ġpulled": 2866,
      "Ġlikely": 2867,
      "ĠNovember": 2868,
      "ĠSte": 2869,
      "Ġmiddle": 2870,
      "Ġknowledge": 2871,
      "Ġrock": 2872,
      "que": 2873,
      "Ġoriginal": 2874,
      "Ġdescribed": 2875,
      "cer": 2876,
      "key": 2877,
      "Ġclosed": 2878,
      "Ġways": 2879,
      "aries": 2880,
      "unk": 2881,
      "Ġpercent": 2882,
      "Ġeveryone": 2883,
      "itude": 2884,
      "aled": 2885,
      "ĠThom": 2886,
      "Ġsimple": 2887,
      "Ġmer": 2888,
      "Re": 2889,
      "ĠJe": 2890,
      "To": 2891,
      "Ġnearly": 2892,
      "ights": 2893,
      "inct": 2894,
      "--": 2895,
      "ny": 2896,
      "Ġrole": 2897,
      "Ġprim": 2898,
      "ification": 2899,
      "Ġfunction": 2900,
      "Ġdue": 2901,
      "Ġfast": 2902,
      "Ġwild": 2903,
      "ael": 2904,
      "Ġlives": 2905,
      "izing": 2906,
      "Ġburn": 2907,
      "Ġeat": 2908,
      "Ġbeginning": 2909,
      "urb": 2910,
      "iously": 2911,
      "ĠDecember": 2912,
      "Ġcontr": 2913,
      "Ġstreet": 2914,
      "Ġmention": 2915,
      "Ġball": 2916,
      "Ġhost": 2917,
      "lement": 2918,
      "Ġcause": 2919,
      "Ġfair": 2920,
      "Ġdoubt": 2921,
      "ĠBer": 2922,
      "Ġdevelopment": 2923,
      "Ġmor": 2924,
      "ĠAg": 2925,
      "reng": 2926,
      "ensive": 2927,
      "ĠSam": 2928,
      "Ġmiles": 2929,
      "rect": 2930,
      "Ġmillion": 2931,
      "Ġpack": 2932,
      "anks": 2933,
      "Ġlived": 2934,
      "that": 2935,
      "ĠMary": 2936,
      "Ġshot": 2937,
      "born": 2938,
      "Ġpal": 2939,
      "Ġindust": 2940,
      "Ġkey": 2941,
      "Ġtables": 2942,
      "ears": 2943,
      "oted": 2944,
      "ĠLa": 2945,
      "Ġwriting": 2946,
      "Ġworth": 2947,
      "pro": 2948,
      "Ġcourt": 2949,
      "Ġheavy": 2950,
      "Ġinclude": 2951,
      "col": 2952,
      "OU": 2953,
      "iny": 2954,
      "Ġalbum": 2955,
      "Ġcompan": 2956,
      "Ġinit": 2957,
      "Ġserved": 2958,
      "ĠFeb": 2959,
      "Ġfish": 2960,
      "roy": 2961,
      "ols": 2962,
      "volution": 2963,
      "Ġchance": 2964,
      "Ġreve": 2965,
      "Ġpopular": 2966,
      "Ġbelow": 2967,
      "ming": 2968,
      "Ġnecessary": 2969,
      "Ġmist": 2970,
      "\",": 2971,
      "chie": 2972,
      "iles": 2973,
      "ortun": 2974,
      "ĠTom": 2975,
      "Ġprotect": 2976,
      "ĠMich": 2977,
      "Ġbeautiful": 2978,
      "ĠHistory": 2979,
      "Ġtalking": 2980,
      "Ġstanding": 2981,
      "reek": 2982,
      "Ġnews": 2983,
      "Ġden": 2984,
      "Ġindic": 2985,
      "oyal": 2986,
      "Ġbreath": 2987,
      "Ġut": 2988,
      "Ġavailable": 2989,
      "At": 2990,
      "Ġsmile": 2991,
      "wood": 2992,
      "Ġir": 2993,
      "Ġparents": 2994,
      "play": 2995,
      "inner": 2996,
      "riage": 2997,
      "ruary": 2998,
      "Ġtype": 2999,
      "Ġimpro": 3000,
      "ĠArt": 3001,
      "\".": 3002,
      "aste": 3003,
      "Ġcat": 3004,
      "Ġmix": 3005,
      "pan": 3006,
      "Ġonto": 3007,
      "Ġpolice": 3008,
      "Ġ)": 3009,
      "ĠCounty": 3010,
      "Ġdanger": 3011,
      "ĠSer": 3012,
      "ams": 3013,
      "Ġbab": 3014,
      "Al": 3015,
      "Ġrepe": 3016,
      "Ġpen": 3017,
      "Ġsurv": 3018,
      "Ġnodd": 3019,
      "icle": 3020,
      "Ġclot": 3021,
      "Ġriver": 3022,
      "Ġisn": 3023,
      "Ġphil": 3024,
      "Ġconvers": 3025,
      "Ġfat": 3026,
      "Ġbeg": 3027,
      "Ġoffe": 3028,
      "Ġneigh": 3029,
      "ores": 3030,
      "Ġsuddenly": 3031,
      "Why": 3032,
      "Ġaccess": 3033,
      "Ġcareer": 3034,
      "Ġfund": 3035,
      "Ġcommunity": 3036,
      "Ġdesp": 3037,
      "ests": 3038,
      "Ġlo": 3039,
      "ĠReg": 3040,
      "ĠStreet": 3041,
      "Ġfort": 3042,
      "Ġhit": 3043,
      "Ġband": 3044,
      "Ġsignific": 3045,
      "Ġbroad": 3046,
      "Ġdeg": 3047,
      "ari": 3048,
      "Ġtouch": 3049,
      "Ġvillage": 3050,
      "arily": 3051,
      "uce": 3052,
      "Ġthick": 3053,
      "ĠGeneral": 3054,
      "Ġlaug": 3055,
      "agement": 3056,
      "wise": 3057,
      "Ġwish": 3058,
      "Ġthreat": 3059,
      "ĠAnt": 3060,
      "ament": 3061,
      "Ġplaces": 3062,
      "Ġpretty": 3063,
      "ĠChristian": 3064,
      "ashington": 3065,
      "Ġnorm": 3066,
      "Ġimmediately": 3067,
      "ength": 3068,
      "//": 3069,
      "arden": 3070,
      "useum": 3071,
      "a_": 3072,
      "Î½": 3073,
      "Ġnovel": 3074,
      "rs": 3075,
      "Ġdisp": 3076,
      "Ġchair": 3077,
      "Ġfigure": 3078,
      "Ġearlier": 3079,
      "Ġskin": 3080,
      "Ġspecific": 3081,
      "Ġsummer": 3082,
      "aked": 3083,
      "Ġenv": 3084,
      "hib": 3085,
      "Ġwaiting": 3086,
      "Ġemer": 3087,
      "asc": 3088,
      "ĠChurch": 3089,
      "Ġpopulation": 3090,
      "Ġstreng": 3091,
      "Ġterms": 3092,
      "Ġspent": 3093,
      "ĠLet": 3094,
      "Ġremained": 3095,
      "Ġcouple": 3096,
      "Ġnet": 3097,
      "Ġprivate": 3098,
      "lands": 3099,
      "Ġprison": 3100,
      "Ġevening": 3101,
      "ĠPal": 3102,
      "ĠPat": 3103,
      "Ġclean": 3104,
      "Ġcaught": 3105,
      "Ġmach": 3106,
      "Ġestablished": 3107,
      "Ġsalt": 3108,
      "Ġcivil": 3109,
      "Ġarmy": 3110,
      "Ġhappy": 3111,
      "Ġbattle": 3112,
      "Ġyell": 3113,
      "Ġaud": 3114,
      "field": 3115,
      "ĠSan": 3116,
      "Ġunc": 3117,
      "Ġthousand": 3118,
      "inally": 3119,
      "ĠHigh": 3120,
      "Ġoccur": 3121,
      "Ġweeks": 3122,
      "ĠSim": 3123,
      "lying": 3124,
      "Ġspecies": 3125,
      "Ġcreated": 3126,
      "Ġevents": 3127,
      "Ġatte": 3128,
      "ĠVal": 3129,
      "Ġmember": 3130,
      "Ġcrowd": 3131,
      "uses": 3132,
      "ĠLou": 3133,
      "ĠEast": 3134,
      "Ġmovement": 3135,
      "inet": 3136,
      "ĠFebruary": 3137,
      "ounds": 3138,
      "Ġtherefore": 3139,
      "ords": 3140,
      "ĠEvery": 3141,
      "Ġevidence": 3142,
      "Ġamount": 3143,
      "ĠPeople": 3144,
      "ateg": 3145,
      "Ġcarried": 3146,
      "Ġspoke": 3147,
      "Ġtakes": 3148,
      "Ġones": 3149,
      "Ġplant": 3150,
      "Ġmere": 3151,
      "Ġpred": 3152,
      "astic": 3153,
      "tt": 3154,
      "Ġarrived": 3155,
      "Ġmarried": 3156,
      "Ġenergy": 3157,
      "Don": 3158,
      "ĠRoman": 3159,
      "New": 3160,
      "Ġraised": 3161,
      "Ġlines": 3162,
      "Ġlower": 3163,
      "Ġclub": 3164,
      "ilities": 3165,
      "isf": 3166,
      "Ġemot": 3167,
      "ĠFirst": 3168,
      "ees": 3169,
      "rug": 3170,
      "Ġtrust": 3171,
      "itation": 3172,
      "Ġofficial": 3173,
      "Ġcapital": 3174,
      "ÃŃ": 3175,
      "Ġbase": 3176,
      "Ġpeace": 3177,
      "Ġ_P": 3178,
      "king": 3179,
      "iant": 3180,
      "ipe": 3181,
      "Ġsoul": 3182,
      "Ġgar": 3183,
      "bert": 3184,
      "Ġsweet": 3185,
      "amm": 3186,
      "Ġquestions": 3187,
      "Ġchanged": 3188,
      "Ġresearch": 3189,
      "oons": 3190,
      "Ġhom": 3191,
      "Ġacqu": 3192,
      "Be": 3193,
      "Ġemb": 3194,
      "burg": 3195,
      "Ġsafe": 3196,
      "Ġi": 3197,
      "ston": 3198,
      "century": 3199,
      "Ġmeaning": 3200,
      "hold": 3201,
      "Ġgent": 3202,
      "Ġphone": 3203,
      "ĠColle": 3204,
      "Ġstyle": 3205,
      "Ġpp": 3206,
      "Ġleaving": 3207,
      "Ã¼": 3208,
      "Ġpiece": 3209,
      "Ġparts": 3210,
      "Ġnodded": 3211,
      "Ġtrees": 3212,
      "Ġlog": 3213,
      "Ġinn": 3214,
      "Ġhall": 3215,
      "Ġsuff": 3216,
      "Ġhous": 3217,
      "Is": 3218,
      "Ġrout": 3219,
      "Ġaccording": 3220,
      "ĠSir": 3221,
      "Ġdoc": 3222,
      "Ġconcept": 3223,
      "Ġ_C": 3224,
      "ĠGreat": 3225,
      "Ġhorse": 3226,
      "olic": 3227,
      "Ġsociety": 3228,
      "ĠBlack": 3229,
      "Ġcustom": 3230,
      "Ġge": 3231,
      "alled": 3232,
      "Ġdeterm": 3233,
      "Ġbehav": 3234,
      "atory": 3235,
      "Ġsight": 3236,
      "amer": 3237,
      "Ġsituation": 3238,
      "raz": 3239,
      "yr": 3240,
      "ĠWhile": 3241,
      "Ġmeeting": 3242,
      "Ġpractice": 3243,
      "ibly": 3244,
      "Ġallowed": 3245,
      "minist": 3246,
      "Ġsitting": 3247,
      "Then": 3248,
      "apt": 3249,
      "agon": 3250,
      "Ġrefer": 3251,
      "ĠWhy": 3252,
      "ica": 3253,
      "Ġsize": 3254,
      "ĠCont": 3255,
      "itchen": 3256,
      "ĠBro": 3257,
      "Ġdeb": 3258,
      "ĠHenry": 3259,
      "ĠBel": 3260,
      "een": 3261,
      "Ġengine": 3262,
      "Ġreleased": 3263,
      "ounced": 3264,
      "ĠRobert": 3265,
      "Ġreading": 3266,
      "Ġfrequ": 3267,
      "Ġstudents": 3268,
      "Ġslowly": 3269,
      "Ġpsych": 3270,
      "come": 3271,
      "Ġphilos": 3272,
      "Ġindeed": 3273,
      "ĠMart": 3274,
      "Ġbird": 3275,
      "All": 3276,
      "Ġsister": 3277,
      "AC": 3278,
      "Ġspread": 3279,
      "Ġdress": 3280,
      "Ġgrad": 3281,
      "ĠAdd": 3282,
      "ĠParis": 3283,
      "asing": 3284,
      "Ġexec": 3285,
      "Ġincluded": 3286,
      "Ġegg": 3287,
      "Ġquar": 3288,
      "Ġcapt": 3289,
      "Ġplaced": 3290,
      "anch": 3291,
      "ico": 3292,
      "Ġtra": 3293,
      "ĠAct": 3294,
      "Ġboard": 3295,
      "Ġprec": 3296,
      "Ġmoving": 3297,
      "Ġmodel": 3298,
      "uke": 3299,
      "utions": 3300,
      "Ġpossess": 3301,
      "Ġforg": 3302,
      "ils": 3303,
      "ÏĦ": 3304,
      "Ġcenter": 3305,
      "ples": 3306,
      "Ġbrown": 3307,
      "....": 3308,
      "ems": 3309,
      "ĠBill": 3310,
      "aches": 3311,
      "ĠRed": 3312,
      "ancy": 3313,
      "Ġreplied": 3314,
      "orry": 3315,
      "Ġbag": 3316,
      "oses": 3317,
      "Ġtro": 3318,
      "Ġspot": 3319,
      "cial": 3320,
      "Ġloss": 3321,
      "Ġign": 3322,
      "ĠRiver": 3323,
      "Ġcool": 3324,
      "Ġdepend": 3325,
      "apers": 3326,
      "ago": 3327,
      "Ġ:": 3328,
      "ĠFrank": 3329,
      "Ġwhis": 3330,
      "acing": 3331,
      "Ġwait": 3332,
      "Sh": 3333,
      "la": 3334,
      "Chap": 3335,
      "arp": 3336,
      "ĠQue": 3337,
      "Ġexactly": 3338,
      "abb": 3339,
      "itz": 3340,
      "Ġstage": 3341,
      "ĠWashington": 3342,
      "Ġpoints": 3343,
      "ĠOther": 3344,
      "ourt": 3345,
      "ĠBo": 3346,
      "Ġdistance": 3347,
      "Ġclim": 3348,
      "Ġoffer": 3349,
      "Ġstone": 3350,
      "ĠBook": 3351,
      "inese": 3352,
      "Ġlooks": 3353,
      "aph": 3354,
      "Ġseven": 3355,
      "Ġble": 3356,
      "Ġachie": 3357,
      "Ġwrite": 3358,
      "tained": 3359,
      "Ġstrugg": 3360,
      "ĠJes": 3361,
      "Ġcolor": 3362,
      "Ġsurface": 3363,
      "Ġleaves": 3364,
      "Ġcomfort": 3365,
      "ville": 3366,
      "Ġbi": 3367,
      "Ġproduced": 3368,
      "Ġ/": 3369,
      "Ġder": 3370,
      "Ġlearned": 3371,
      "Ġopportun": 3372,
      "ĠAlex": 3373,
      "asons": 3374,
      "Ġpark": 3375,
      "igure": 3376,
      "ĠMac": 3377,
      "Ġgiving": 3378,
      "anish": 3379,
      "Ġbirth": 3380,
      "ĠMad": 3381,
      "Ġpoet": 3382,
      "ĠCharles": 3383,
      "ication": 3384,
      "ux": 3385,
      "Ġcompletely": 3386,
      "ato": 3387,
      "ĠOf": 3388,
      "Ġcreate": 3389,
      "cell": 3390,
      "Ġdirection": 3391,
      "Ġgoes": 3392,
      "Ġcertainly": 3393,
      "ospital": 3394,
      "back": 3395,
      "Ġbright": 3396,
      "ĠMag": 3397,
      "alys": 3398,
      "Î±": 3399,
      "Ġshook": 3400,
      "aling": 3401,
      "ellig": 3402,
      "duction": 3403,
      "Ġneeds": 3404,
      "Ġfle": 3405,
      "cript": 3406,
      "Ġtree": 3407,
      "ED": 3408,
      "gest": 3409,
      "appe": 3410,
      "ĠIm": 3411,
      "Ġparticularly": 3412,
      "orrow": 3413,
      "ironment": 3414,
      "Ã³": 3415,
      "Ġdie": 3416,
      "Ġwww": 3417,
      "gen": 3418,
      "outhern": 3419,
      "ĠDep": 3420,
      "Ġsmiled": 3421,
      "Ġbal": 3422,
      "Ġperm": 3423,
      "Ġtax": 3424,
      "Ġrose": 3425,
      "aker": 3426,
      "Ġgroups": 3427,
      "Ġshows": 3428,
      "Ġmaster": 3429,
      "sec": 3430,
      "Ġrisk": 3431,
      "Ġextra": 3432,
      "Ġstrange": 3433,
      "Ġcases": 3434,
      "Ġproblems": 3435,
      "ĠChe": 3436,
      "Ġwatched": 3437,
      "Ġprovide": 3438,
      "Ġfilled": 3439,
      "ND": 3440,
      "Ġsurr": 3441,
      "Ġlength": 3442,
      "Ġoccup": 3443,
      "Ġfavor": 3444,
      "Ġcovered": 3445,
      "ĠMark": 3446,
      "rael": 3447,
      "ĠThomas": 3448,
      "Ġwhatever": 3449,
      "Ġpurpose": 3450,
      "ech": 3451,
      "Ġhigher": 3452,
      "Ġsearch": 3453,
      "ĠPre": 3454,
      "antic": 3455,
      "aze": 3456,
      "abit": 3457,
      "atives": 3458,
      "Ġli": 3459,
      "Ġpresident": 3460,
      "Ġcand": 3461,
      "Ġreach": 3462,
      "ĠAc": 3463,
      "with": 3464,
      "Ġmaybe": 3465,
      "oom": 3466,
      "zen": 3467,
      "Ġtotal": 3468,
      "Ġcorner": 3469,
      "Ġcheck": 3470,
      "uments": 3471,
      "ension": 3472,
      "Ġallow": 3473,
      "ION": 3474,
      "Ġedge": 3475,
      "Ġdry": 3476,
      "ĠWhite": 3477,
      "Ġcomplex": 3478,
      "Ġexperien": 3479,
      "Ġx": 3480,
      "Chapter": 3481,
      "Ġdemand": 3482,
      "otten": 3483,
      "bered": 3484,
      "ey": 3485,
      "Ġyes": 3486,
      "Ġknows": 3487,
      "ĠAcc": 3488,
      "ĠEuropean": 3489,
      "Ġempt": 3490,
      "Ġeasily": 3491,
      "Ġkitchen": 3492,
      "house": 3493,
      "ĠPeter": 3494,
      "Ġlean": 3495,
      "Do": 3496,
      "iforn": 3497,
      "ibrary": 3498,
      "Ġbank": 3499,
      "Ġleaders": 3500,
      "ĠPresident": 3501,
      "Ġproduction": 3502,
      "www": 3503,
      "ĠIndia": 3504,
      "Ġfingers": 3505,
      "ĠMor": 3506,
      "Ġexpression": 3507,
      "li": 3508,
      "Ġtemper": 3509,
      "Ġsugar": 3510,
      "time": 3511,
      "Ġchief": 3512,
      "Ġfaith": 3513,
      "Ġfinished": 3514,
      "ĠYour": 3515,
      "Ġhang": 3516,
      "aign": 3517,
      "ĠSal": 3518,
      "pir": 3519,
      "year": 3520,
      "Ġbelieved": 3521,
      "osing": 3522,
      "Ġshoulder": 3523,
      "Ġweight": 3524,
      "ev": 3525,
      "Ġstar": 3526,
      "Ġimage": 3527,
      "Ġfarm": 3528,
      "Ġinvolved": 3529,
      "Ġconnect": 3530,
      "Ġ_M": 3531,
      "!'": 3532,
      "Ġbrief": 3533,
      "ĠSpe": 3534,
      "ĠRichard": 3535,
      "just": 3536,
      "Ġbelong": 3537,
      "Ġwine": 3538,
      "Ġtransl": 3539,
      "ĠSl": 3540,
      "Ġplaying": 3541,
      "Ġattract": 3542,
      "Ġexpected": 3543,
      "Ġdrive": 3544,
      "ĠJer": 3545,
      "Ġrights": 3546,
      "Ġrequired": 3547,
      "pm": 3548,
      "Ġtrain": 3549,
      "Ġthroughout": 3550,
      "Ġchall": 3551,
      "ĠMil": 3552,
      "Ġtheory": 3553,
      "Ġoffered": 3554,
      "Now": 3555,
      "Ġsand": 3556,
      "Ġaware": 3557,
      "Ġamb": 3558,
      "Ġneck": 3559,
      "Ġmale": 3560,
      "Ġgirls": 3561,
      "onse": 3562,
      "arian": 3563,
      "Ġsac": 3564,
      "Ġbare": 3565,
      "kay": 3566,
      "://": 3567,
      "night": 3568,
      "vere": 3569,
      "Ġshad": 3570,
      "what": 3571,
      "more": 3572,
      "rian": 3573,
      "Ġforces": 3574,
      "how": 3575,
      "Ġshown": 3576,
      "rig": 3577,
      "uty": 3578,
      "ĠChinese": 3579,
      "ĠHere": 3580,
      "Ġrap": 3581,
      "?âĢĿ": 3582,
      "Ġlack": 3583,
      "orthern": 3584,
      "ĠGermany": 3585,
      "Ġremain": 3586,
      "Ġsupposed": 3587,
      "Ġtour": 3588,
      "ampions": 3589,
      "han": 3590,
      "Ġestablish": 3591,
      "abor": 3592,
      "ifornia": 3593,
      "Ġfirm": 3594,
      "ĠPort": 3595,
      "Ġversion": 3596,
      "uf": 3597,
      "Ġshowed": 3598,
      "ĠWell": 3599,
      "Ġholding": 3600,
      "ĠFranc": 3601,
      "Ġmonth": 3602,
      "Ġculture": 3603,
      "uts": 3604,
      "cause": 3605,
      "Ġwalls": 3606,
      "Ġterm": 3607,
      "ĠMore": 3608,
      "Ġpray": 3609,
      "Ġgreater": 3610,
      "Ġsite": 3611,
      "EL": 3612,
      "Ġcit": 3613,
      "oring": 3614,
      "Ġnote": 3615,
      "illing": 3616,
      "Ġnames": 3617,
      "Pg": 3618,
      "ocked": 3619,
      "ĠNor": 3620,
      "ĠChina": 3621,
      "Ġaf": 3622,
      "One": 3623,
      "lection": 3624,
      "order": 3625,
      "Ġice": 3626,
      "Ġgentle": 3627,
      "Ġdise": 3628,
      "ĠDem": 3629,
      "âĢľ": 3630,
      "ini": 3631,
      "Ġsatisf": 3632,
      "ashed": 3633,
      "berg": 3634,
      "ĠItal": 3635,
      "Ġmemory": 3636,
      "Ġresults": 3637,
      "ĠGovern": 3638,
      "Ġobvious": 3639,
      "Ġbottom": 3640,
      "Ġsky": 3641,
      "Ġrail": 3642,
      "ula": 3643,
      "Ġfix": 3644,
      "Ġpresence": 3645,
      "Ġapproach": 3646,
      "Ġshare": 3647,
      "Ġphysical": 3648,
      "Ġbrain": 3649,
      "using": 3650,
      "Ġexte": 3651,
      "Ġcollect": 3652,
      "Ġpage": 3653,
      "Ġcry": 3654,
      "=\"": 3655,
      "Ġenemy": 3656,
      "CH": 3657,
      "Ġcred": 3658,
      "Ġindepend": 3659,
      "Ġscene": 3660,
      "aging": 3661,
      "Ġrange": 3662,
      "Ġscient": 3663,
      "Ġcontrib": 3664,
      "Ġtight": 3665,
      "wered": 3666,
      "ka": 3667,
      "ext": 3668,
      "Ġtom": 3669,
      "ching": 3670,
      "Ġloved": 3671,
      "ĠBen": 3672,
      "ault": 3673,
      "olf": 3674,
      "oles": 3675,
      "ĠMost": 3676,
      "Ġshut": 3677,
      "Ġancient": 3678,
      "Ã¨": 3679,
      "Ġdig": 3680,
      "Ġaffect": 3681,
      "istance": 3682,
      "ĠTheir": 3683,
      "Ġpicture": 3684,
      "irgin": 3685,
      "vey": 3686,
      "Ġtablesp": 3687,
      "Ġareas": 3688,
      "urt": 3689,
      "Ġliber": 3690,
      "fficient": 3691,
      "ĠCalifornia": 3692,
      "ĠMal": 3693,
      "Ġchanges": 3694,
      "ĠOF": 3695,
      "Ġguess": 3696,
      "Ġfilms": 3697,
      "Ġmut": 3698,
      "raid": 3699,
      "Ġprote": 3700,
      "Ġteasp": 3701,
      "Ġrace": 3702,
      "icated": 3703,
      "Ġtrouble": 3704,
      "Ġdemon": 3705,
      "Ġcomput": 3706,
      "ĠTrans": 3707,
      "Ġprovided": 3708,
      "ĠDuring": 3709,
      "ulated": 3710,
      "Ġwit": 3711,
      "ĠArmy": 3712,
      "Ġlips": 3713,
      "Ġboys": 3714,
      "chan": 3715,
      "ocks": 3716,
      "Ġrich": 3717,
      "Ġshout": 3718,
      "Ġpattern": 3719,
      "ĠIsrael": 3720,
      "Ġoccasion": 3721,
      "Ġ_L": 3722,
      "Ġforms": 3723,
      "Ġdinner": 3724,
      "hered": 3725,
      "book": 3726,
      "IL": 3727,
      "Ġvan": 3728,
      "ĠRepublic": 3729,
      "gu": 3730,
      "ĠTwo": 3731,
      "ĠAlthough": 3732,
      "Ġ|-": 3733,
      "Ġsteps": 3734,
      "olute": 3735,
      "Ġserious": 3736,
      "ĠLeague": 3737,
      "Ġstick": 3738,
      "Ġconstit": 3739,
      "Ġbutter": 3740,
      "Ar": 3741,
      "arsh": 3742,
      "ĠDist": 3743,
      "á½": 3744,
      "Ġbroken": 3745,
      "Ġdirectly": 3746,
      "Ġtrack": 3747,
      "ĠLaw": 3748,
      "Ġinterview": 3749,
      "RO": 3750,
      "Ġwest": 3751,
      "Ġleading": 3752,
      "ij": 3753,
      "Ġahead": 3754,
      "Ġnone": 3755,
      "ĠCong": 3756,
      "Ġbound": 3757,
      "Ġstories": 3758,
      "Ġgod": 3759,
      "icked": 3760,
      "Î¿": 3761,
      "ste": 3762,
      "itect": 3763,
      "unn": 3764,
      "Ġshop": 3765,
      "Ġchapter": 3766,
      "Ġdestroy": 3767,
      "ĠWil": 3768,
      "Ġmanner": 3769,
      "Ġaddition": 3770,
      "Ġsoldiers": 3771,
      "lt": 3772,
      "AM": 3773,
      "ĠStud": 3774,
      "Ġmine": 3775,
      "ĠInternational": 3776,
      "Ġmir": 3777,
      "ios": 3778,
      "Ġdeveloped": 3779,
      "Ġrain": 3780,
      "Ġjoined": 3781,
      "Ġchoice": 3782,
      "Ġthirty": 3783,
      "Ġgenerally": 3784,
      "Ġforeign": 3785,
      "Ġsection": 3786,
      "Ġbuy": 3787,
      "Ġkiss": 3788,
      "ĠDiv": 3789,
      "Ġbaby": 3790,
      "icken": 3791,
      "Ġseat": 3792,
      "Ġstates": 3793,
      "US": 3794,
      "Ġassum": 3795,
      "Ġhun": 3796,
      "acher": 3797,
      "alysis": 3798,
      "Ġdefin": 3799,
      "Ġeducation": 3800,
      "Ġserve": 3801,
      "Ġlegs": 3802,
      "Ġstrength": 3803,
      "lim": 3804,
      "Ġbenef": 3805,
      "Ġdim": 3806,
      "ĠMichael": 3807,
      "ĠCam": 3808,
      "oured": 3809,
      "ĠAir": 3810,
      "noon": 3811,
      "Ġpun": 3812,
      "Ġconditions": 3813,
      "ĠMount": 3814,
      "Ġtraining": 3815,
      "Ġlocated": 3816,
      "icip": 3817,
      "Ã¶": 3818,
      "Ġentered": 3819,
      "Ġhuge": 3820,
      "Ġsch": 3821,
      "verage": 3822,
      "Ġstuff": 3823,
      "ustr": 3824,
      "Ġtelevision": 3825,
      "Ġprint": 3826,
      "vert": 3827,
      "With": 3828,
      "Ġreb": 3829,
      "Ġlie": 3830,
      "Ġchest": 3831,
      "Ġappoint": 3832,
      "Ġanswered": 3833,
      "ĠInt": 3834,
      "ĠCollege": 3835,
      "Ġgames": 3836,
      "isions": 3837,
      "Ġstre": 3838,
      "Ġforest": 3839,
      "ingu": 3840,
      "Ġguard": 3841,
      "Ġremem": 3842,
      "Ġhar": 3843,
      "Ġtar": 3844,
      "Ġcontact": 3845,
      "Ġbeat": 3846,
      "uous": 3847,
      "you": 3848,
      "Ġcentral": 3849,
      "van": 3850,
      "Ġdecision": 3851,
      "ĠAnge": 3852,
      "ĠRec": 3853,
      "Ġprevent": 3854,
      "Ġweap": 3855,
      "Ġspeed": 3856,
      "Ġhung": 3857,
      "Ġresponse": 3858,
      "Ġclearly": 3859,
      "stood": 3860,
      "Ġwatching": 3861,
      "Ġeffort": 3862,
      "olly": 3863,
      "Ġaddress": 3864,
      "Ġbeside": 3865,
      "mar": 3866,
      "Ġstir": 3867,
      "icles": 3868,
      "Ġeast": 3869,
      "Ġideas": 3870,
      "ossible": 3871,
      "lls": 3872,
      "Ġsir": 3873,
      "inger": 3874,
      "Ġolder": 3875,
      "Ġreligious": 3876,
      "ĠChapter": 3877,
      "Ġthin": 3878,
      "Ġcy": 3879,
      "Ġregion": 3880,
      "Ġpieces": 3881,
      "ixt": 3882,
      "Ġpaid": 3883,
      "Ġforced": 3884,
      "aine": 3885,
      "Ġproperty": 3886,
      "iliar": 3887,
      "Ġinfluence": 3888,
      "Ġbod": 3889,
      "Ġparticip": 3890,
      "ĠMex": 3891,
      "Ġcircum": 3892,
      "Ġflat": 3893,
      "Ġgrew": 3894,
      "lict": 3895,
      "ĠMa": 3896,
      "Ġinstit": 3897,
      "Ġseeing": 3898,
      "Ġsilence": 3899,
      "Ġinvestig": 3900,
      "Ġformed": 3901,
      "semb": 3902,
      "ilies": 3903,
      "Ġslightly": 3904,
      "Ġsource": 3905,
      "Ġnice": 3906,
      "Ġproduc": 3907,
      "Ġopin": 3908,
      "arc": 3909,
      "ĠJapanese": 3910,
      "Ġminute": 3911,
      "Ġcounter": 3912,
      "resp": 3913,
      "Ġcondition": 3914,
      "Ġdom": 3915,
      "aded": 3916,
      "enc": 3917,
      "ailed": 3918,
      "Ġtitle": 3919,
      "riving": 3920,
      "Ġreported": 3921,
      "Ġtrade": 3922,
      "Ġspring": 3923,
      "Ġapplic": 3924,
      "ĠAssoci": 3925,
      "Ġstret": 3926,
      "Ġinternational": 3927,
      "ĠApp": 3928,
      "ĠCoun": 3929,
      "Ġcontract": 3930,
      "rawn": 3931,
      "ship": 3932,
      "Ġvirt": 3933,
      "Ġapparent": 3934,
      "Ġinj": 3935,
      "lebr": 3936,
      "Ġconduct": 3937,
      "Ġadminist": 3938,
      "Ġrare": 3939,
      "Ġrealized": 3940,
      "Ġeconomic": 3941,
      "ĠPet": 3942,
      "esh": 3943,
      "Ġservices": 3944,
      "known": 3945,
      "board": 3946,
      "idden": 3947,
      "Ġdrop": 3948,
      "Ġscience": 3949,
      "Ġextreme": 3950,
      "Ġfro": 3951,
      "ĠOh": 3952,
      "Ġgives": 3953,
      "ĠCH": 3954,
      "ym": 3955,
      "Ġspl": 3956,
      "Ġstore": 3957,
      "Ġthoughts": 3958,
      "ias": 3959,
      "Ġren": 3960,
      "Ġscr": 3961,
      "Ġinterp": 3962,
      "igned": 3963,
      "imately": 3964,
      "Ġexpress": 3965,
      "Ġdistrict": 3966,
      "illa": 3967,
      "Ġhelped": 3968,
      "Ġagreed": 3969,
      "Ġnumbers": 3970,
      "Ġsides": 3971,
      "Ġbill": 3972,
      "ĠHall": 3973,
      "cience": 3974,
      "ĠLike": 3975,
      "Ġ<": 3976,
      "aped": 3977,
      "ĠUnion": 3978,
      "ashion": 3979,
      "Ġcampaign": 3980,
      "Ġpurs": 3981,
      "Ġenter": 3982,
      "Ġsmell": 3983,
      "Ġcard": 3984,
      "Ġtill": 3985,
      "Ġboat": 3986,
      "Ġdifference": 3987,
      "Ġisland": 3988,
      "Ġmarriage": 3989,
      "ivity": 3990,
      "leg": 3991,
      "iation": 3992,
      "ĠMat": 3993,
      "bour": 3994,
      "ait": 3995,
      "oned": 3996,
      "Ġstaff": 3997,
      "Ġrub": 3998,
      "ros": 3999,
      "Ġbul": 4000,
      "Ġveget": 4001,
      "Ġdropped": 4002,
      "Ġfeatures": 4003,
      "Ġlad": 4004,
      "Ġcontinue": 4005,
      "Ġsend": 4006,
      "Ġmedium": 4007,
      "Ġenvironment": 4008,
      "Ġremark": 4009,
      "Ġdisappe": 4010,
      "Ġpowerful": 4011,
      "ĠItalian": 4012,
      "Ġdesire": 4013,
      "Ġgrowing": 4014,
      "look": 4015,
      "Ġdoctor": 4016,
      "Ġcab": 4017,
      "Ġneither": 4018,
      "ki": 4019,
      "edy": 4020,
      "ĠEr": 4021,
      "Ġcontent": 4022,
      "Ġstructure": 4023,
      "Ġrequire": 4024,
      "ĠLouis": 4025,
      "ĠFil": 4026,
      "Ġexerc": 4027,
      "Ġafraid": 4028,
      "Ġstock": 4029,
      "Ġrate": 4030,
      "Ġsave": 4031,
      "Ġcoffe": 4032,
      "ares": 4033,
      "uman": 4034,
      "anged": 4035,
      "ĠStr": 4036,
      "Ġempty": 4037,
      "Ġfit": 4038,
      "Ġcatch": 4039,
      "ĠWestern": 4040,
      "ĠOld": 4041,
      "ĠLuc": 4042,
      "ĠArch": 4043,
      "ĠCons": 4044,
      "Ġlarger": 4045,
      "ena": 4046,
      "cast": 4047,
      "ulf": 4048,
      "atively": 4049,
      "Ġharm": 4050,
      "Ġturning": 4051,
      "Ġmap": 4052,
      "Ġsecurity": 4053,
      "Ġtall": 4054,
      "Ġdaily": 4055,
      "Ġcountries": 4056,
      "Ġimpl": 4057,
      "ĠAnn": 4058,
      "och": 4059,
      "Ġlaughed": 4060,
      "rible": 4061,
      "Ġ_D": 4062,
      "Ġgas": 4063,
      "Ġofficer": 4064,
      "Ġscreen": 4065,
      "Ġbowl": 4066,
      "bridge": 4067,
      "APTER": 4068,
      "ancing": 4069,
      "Ġfreed": 4070,
      "Ġsmo": 4071,
      "Ġletters": 4072,
      "Ġlady": 4073,
      "Ġhell": 4074,
      "ĠCourt": 4075,
      "Ġremind": 4076,
      "ET": 4077,
      "Ġcoast": 4078,
      "________": 4079,
      "Ġconversation": 4080,
      "Ġunderstanding": 4081,
      "igr": 4082,
      "ĠRussian": 4083,
      "porary": 4084,
      "Ġgarden": 4085,
      "Ġnation": 4086,
      "Ġpolicy": 4087,
      "OO": 4088,
      "Let": 4089,
      "After": 4090,
      "Ġphilosop": 4091,
      "Ġexcl": 4092,
      "avy": 4093,
      "Ġperformance": 4094,
      "za": 4095,
      "fast": 4096,
      "ideo": 4097,
      "Ġspr": 4098,
      "Ġsorry": 4099,
      "arning": 4100,
      "met": 4101,
      "ĠSmith": 4102,
      "ittee": 4103,
      "Ġweak": 4104,
      "Ġfemale": 4105,
      "Ġissue": 4106,
      "Ġthro": 4107,
      "Ġtelling": 4108,
      "Ġreview": 4109,
      "Ġ_B": 4110,
      "Ġdiscovered": 4111,
      "Ġafternoon": 4112,
      "Ġbread": 4113,
      "itable": 4114,
      "ĠCath": 4115,
      "ĠJesus": 4116,
      "Ġcorrect": 4117,
      "stitute": 4118,
      "Ġdear": 4119,
      "now": 4120,
      "Ġwalking": 4121,
      "ĠJul": 4122,
      "Ġfellow": 4123,
      "Ġconscious": 4124,
      "Ġtaste": 4125,
      "Ġopening": 4126,
      "ĠTur": 4127,
      "Ġcontro": 4128,
      "ĠGrand": 4129,
      "Ġentirely": 4130,
      "Ġclothes": 4131,
      "ception": 4132,
      "oviet": 4133,
      "Ġbeneath": 4134,
      "Ġbirths": 4135,
      "ĠSat": 4136,
      "Ġcolon": 4137,
      "Ġsuc": 4138,
      "wor": 4139,
      "Ġuns": 4140,
      "Ġremains": 4141,
      "Ġcoffee": 4142,
      "org": 4143,
      "Ġintellig": 4144,
      "Ġearn": 4145,
      "Ġcharge": 4146,
      "ĠMany": 4147,
      "anned": 4148,
      "stead": 4149,
      "ĠâĢ¢": 4150,
      "olk": 4151,
      "win": 4152,
      "Ġpointed": 4153,
      "Ġpock": 4154,
      "Ġcarry": 4155,
      "lied": 4156,
      "Ġobl": 4157,
      "ĠRob": 4158,
      "Ġens": 4159,
      "aval": 4160,
      "Ġanimals": 4161,
      "Ġunderstood": 4162,
      "Ġimpossible": 4163,
      "rid": 4164,
      "ĠTer": 4165,
      "Ġeventually": 4166,
      "ĠMont": 4167,
      "Ġsick": 4168,
      "hest": 4169,
      "Ġrule": 4170,
      "osite": 4171,
      "Ġforth": 4172,
      "Ex": 4173,
      "ĠGreen": 4174,
      "pic": 4175,
      "olution": 4176,
      "Ġbecomes": 4177,
      "ampionship": 4178,
      "uing": 4179,
      "cles": 4180,
      "Ġguy": 4181,
      "ID": 4182,
      "Ġprepared": 4183,
      "ĠVict": 4184,
      "ĠJose": 4185,
      "Ġappears": 4186,
      "sing": 4187,
      "Ġanx": 4188,
      "Ġcelebr": 4189,
      "ĠJud": 4190,
      ".âĢĶ": 4191,
      "Ġfamous": 4192,
      "Ġsystems": 4193,
      "Ġwinter": 4194,
      "Ġju": 4195,
      "ĠCommun": 4196,
      "Ġofficers": 4197,
      "Ġpicked": 4198,
      "can": 4199,
      "Ġmessage": 4200,
      "asant": 4201,
      "ources": 4202,
      "Ġsnow": 4203,
      "Ġrestaur": 4204,
      "Ġconsequ": 4205,
      "ĠJim": 4206,
      "rim": 4207,
      "ĠRem": 4208,
      "ether": 4209,
      "Ġshape": 4210,
      "ĠParty": 4211,
      "Ġcloud": 4212,
      "Ġring": 4213,
      "pered": 4214,
      "road": 4215,
      "Ġcaused": 4216,
      "cher": 4217,
      "Ġtend": 4218,
      "Ġqual": 4219,
      "Ġmanaged": 4220,
      "eal": 4221,
      "bid": 4222,
      "Ġmeat": 4223,
      "Ġapart": 4224,
      "Ġhurt": 4225,
      "ĠAfrican": 4226,
      "Ġdate": 4227,
      "rial": 4228,
      "Ġcontem": 4229,
      "Ġexplained": 4230,
      "ĠGreek": 4231,
      "Ġcried": 4232,
      "Ġlatter": 4233,
      "iance": 4234,
      "iot": 4235,
      "Ġsauce": 4236,
      "Ġreality": 4237,
      "sey": 4238,
      "hens": 4239,
      "ĠDel": 4240,
      "Ġconsum": 4241,
      "Ġbroke": 4242,
      "ancial": 4243,
      "Ġencour": 4244,
      "aud": 4245,
      "ĠAp": 4246,
      "iable": 4247,
      "Ġrespond": 4248,
      "Ġdouble": 4249,
      "Ġhospital": 4250,
      "ĠSociety": 4251,
      "Ġfully": 4252,
      "Ġhouses": 4253,
      "ya": 4254,
      "ĠBu": 4255,
      "Ġmultip": 4256,
      "ora": 4257,
      "Ġmatch": 4258,
      "ĠYet": 4259,
      "Ġavoid": 4260,
      "ollow": 4261,
      "Ġiron": 4262,
      "Ġprogress": 4263,
      "kin": 4264,
      "Ġprofessional": 4265,
      "Ġchop": 4266,
      "Ġnotice": 4267,
      "under": 4268,
      "Ġshoot": 4269,
      "Ġbear": 4270,
      "AD": 4271,
      "Ġadvant": 4272,
      "ety": 4273,
      "Ġability": 4274,
      "Ġdistrib": 4275,
      "ishing": 4276,
      "Ġkids": 4277,
      "ĠMer": 4278,
      "ĠâĢĺ": 4279,
      "oms": 4280,
      "Ġwants": 4281,
      "Ġyellow": 4282,
      "Ġappre": 4283,
      "Ġstro": 4284,
      "Ġpepper": 4285,
      "Ġhero": 4286,
      "iring": 4287,
      "Ġdoll": 4288,
      "Ġstream": 4289,
      "ropri": 4290,
      "Ġtroops": 4291,
      "Ġdrug": 4292,
      "Ġprice": 4293,
      "Ġlaid": 4294,
      "ĠLife": 4295,
      "ented": 4296,
      "ederal": 4297,
      "end": 4298,
      "ĠAfrica": 4299,
      "Ġmeas": 4300,
      "Ġtraditional": 4301,
      "Ġplayer": 4302,
      "Ġrise": 4303,
      "Ġdisplay": 4304,
      "ĠRoyal": 4305,
      "ĠCanada": 4306,
      "Ġpressure": 4307,
      "Ġmagn": 4308,
      "ĠAre": 4309,
      "ners": 4310,
      "Ġnewsp": 4311,
      "Ġappearance": 4312,
      "ĠSen": 4313,
      "mark": 4314,
      "ician": 4315,
      "ĠCompany": 4316,
      "ĠOnce": 4317,
      "Ġspeech": 4318,
      "ĠSoviet": 4319,
      "OT": 4320,
      "ĠScott": 4321,
      "ĠServ": 4322,
      "Ġforget": 4323,
      "obal": 4324,
      "Ġmechan": 4325,
      "Ġpa": 4326,
      "ĠGold": 4327,
      "Ġcompanies": 4328,
      "Un": 4329,
      "Ġpure": 4330,
      "Ġblock": 4331,
      "Ġdegree": 4332,
      "inter": 4333,
      "Ġmilk": 4334,
      "den": 4335,
      "mas": 4336,
      "ourney": 4337,
      "ading": 4338,
      "Ġstandard": 4339,
      "anted": 4340,
      "Ġsquare": 4341,
      "ĠBur": 4342,
      "eed": 4343,
      "ita": 4344,
      "inch": 4345,
      "Ġregular": 4346,
      "gypt": 4347,
      "Ġmel": 4348,
      "Ġfamiliar": 4349,
      "ĠVol": 4350,
      "ware": 4351,
      "bing": 4352,
      "Ġrooms": 4353,
      "Ġmeasure": 4354,
      "Ġdiss": 4355,
      "Ġworse": 4356,
      "Ġfocus": 4357,
      "Ġended": 4358,
      "rough": 4359,
      "no": 4360,
      "ria": 4361,
      "mond": 4362,
      "Ġunf": 4363,
      "oices": 4364,
      "Ġing": 4365,
      "put": 4366,
      "Ġsen": 4367,
      "ĠSun": 4368,
      "Ġstared": 4369,
      "ĠLat": 4370,
      "Ġmachine": 4371,
      "Ġsymb": 4372,
      "Ġtarget": 4373,
      "uries": 4374,
      "ĠSince": 4375,
      "lo": 4376,
      "pping": 4377,
      "Ġhat": 4378,
      "mit": 4379,
      "Ġopportunity": 4380,
      "Ġnormal": 4381,
      "Ġ_T": 4382,
      "Ġsuggested": 4383,
      "stances": 4384,
      "edd": 4385,
      "Ġanimal": 4386,
      "Ġprefer": 4387,
      "ĠSpanish": 4388,
      "ĠMem": 4389,
      "Ġhardly": 4390,
      "ĠArab": 4391,
      "ushing": 4392,
      "ĠBecause": 4393,
      "ĠBay": 4394,
      "ĠIsland": 4395,
      "ĠHel": 4396,
      "ested": 4397,
      "Ġcitiz": 4398,
      "omme": 4399,
      "Ġtal": 4400,
      "lymp": 4401,
      "Ġstepped": 4402,
      "Ġfailed": 4403,
      "Ġcream": 4404,
      "Ġdisease": 4405,
      "aved": 4406,
      "Ġye": 4407,
      "icago": 4408,
      "ront": 4409,
      "bon": 4410,
      "ĠBritain": 4411,
      "ĠSomet": 4412,
      "Ġfamilies": 4413,
      "Ġannounced": 4414,
      "va": 4415,
      "ĠCouncil": 4416,
      "ifying": 4417,
      "Ġusual": 4418,
      "Of": 4419,
      "Ġteaspoon": 4420,
      "Ġeffects": 4421,
      "Ġsignificant": 4422,
      "Îµ": 4423,
      "ĠOur": 4424,
      "Ġfold": 4425,
      "ĠIts": 4426,
      "Ġradio": 4427,
      "Ġmad": 4428,
      "Ġincrease": 4429,
      "á¼": 4430,
      "Ġpositive": 4431,
      "ishes": 4432,
      "Ġaltern": 4433,
      "ĠCast": 4434,
      "Ġsuccessful": 4435,
      "Ġmedia": 4436,
      "ĠAustralia": 4437,
      "Ġtravel": 4438,
      "ĠAssociation": 4439,
      "Ġalive": 4440,
      "Ġarchitect": 4441,
      "Ġpros": 4442,
      "Ġflour": 4443,
      "agn": 4444,
      "Ġproduce": 4445,
      "ĠLady": 4446,
      "Ġcarefully": 4447,
      "oves": 4448,
      "Ġabsolute": 4449,
      "Ġtreatment": 4450,
      "ris": 4451,
      "Ġexch": 4452,
      "ounding": 4453,
      "elve": 4454,
      "Ġleader": 4455,
      "Ġgets": 4456,
      "Ġcritic": 4457,
      "Ġquality": 4458,
      "OM": 4459,
      "isters": 4460,
      "Ġremembered": 4461,
      "Ġaim": 4462,
      "osh": 4463,
      "respond": 4464,
      "Ġbuildings": 4465,
      "Ġnoticed": 4466,
      "lam": 4467,
      "Ġmerely": 4468,
      "Ġliked": 4469,
      "May": 4470,
      "Ġexplain": 4471,
      "Le": 4472,
      "ĠBrown": 4473,
      "Ġadop": 4474,
      "ĠMod": 4475,
      "Ġordered": 4476,
      "Ġpurch": 4477,
      "Ġproceed": 4478,
      "Ġsilver": 4479,
      "stant": 4480,
      "Ġdesigned": 4481,
      "Ġissues": 4482,
      "ĠCaptain": 4483,
      "Ġactivity": 4484,
      "ST": 4485,
      "ida": 4486,
      "Ġstudies": 4487,
      "Ġscar": 4488,
      "eenth": 4489,
      "Ġluck": 4490,
      "Ġdrew": 4491,
      "Ġcloser": 4492,
      "Ġconcent": 4493,
      "ĠOl": 4494,
      "Ġconsist": 4495,
      "ĠCongress": 4496,
      "Ġpet": 4497,
      "vin": 4498,
      "ĠVirgin": 4499,
      "ĠAND": 4500,
      "Ġsad": 4501,
      "Ġsexual": 4502,
      "Ġdepart": 4503,
      "ette": 4504,
      "Ġmentioned": 4505,
      "uls": 4506,
      "Ġkid": 4507,
      "icro": 4508,
      "Î¹": 4509,
      "ĠOlymp": 4510,
      "pected": 4511,
      "Ġmission": 4512,
      "aret": 4513,
      "Ġbodies": 4514,
      "Cl": 4515,
      "anda": 4516,
      "Ġcontain": 4517,
      "Ġterr": 4518,
      "Ġremaining": 4519,
      "Ġsuppose": 4520,
      "craft": 4521,
      "His": 4522,
      "Ġrecent": 4523,
      "Ġpleasure": 4524,
      "âĢĶâĢĶ": 4525,
      "ervation": 4526,
      "Ġtransform": 4527,
      "ĠTV": 4528,
      "Ġsevent": 4529,
      "orses": 4530,
      "ĠAccording": 4531,
      "Ġaside": 4532,
      "ocol": 4533,
      "ĠRoad": 4534,
      "IV": 4535,
      "Ġpushed": 4536,
      "Ġrapid": 4537,
      "uten": 4538,
      "ĠTw": 4539,
      "iest": 4540,
      "Ġpotential": 4541,
      "ala": 4542,
      "Ġgrass": 4543,
      "ĠJewish": 4544,
      "Ġlabor": 4545,
      "Ġfruit": 4546,
      "s_": 4547,
      "Ġaverage": 4548,
      "!âĢĿ": 4549,
      "ĠDay": 4550,
      "ĠMel": 4551,
      "Ġindustry": 4552,
      "Ġalt": 4553,
      "xford": 4554,
      "enge": 4555,
      "By": 4556,
      "ENT": 4557,
      "ero": 4558,
      "Ġbelief": 4559,
      "Ġescape": 4560,
      "ĠWho": 4561,
      "Ġrob": 4562,
      "Ġinteresting": 4563,
      "lly": 4564,
      "Ġhotel": 4565,
      "rance": 4566,
      "ĠEgypt": 4567,
      "ĠCharl": 4568,
      "Ġglad": 4569,
      "azine": 4570,
      "Ġscream": 4571,
      "cing": 4572,
      "ola": 4573,
      "ĠGood": 4574,
      "Ġexistence": 4575,
      "Ġrepeated": 4576,
      "Ġbehavior": 4577,
      "Ġfighting": 4578,
      "Ġcode": 4579,
      "Ġrid": 4580,
      "isl": 4581,
      "ĠHam": 4582,
      "Ġsilent": 4583,
      "ption": 4584,
      "Ġmountain": 4585,
      "Ġnoted": 4586,
      "Ġspeaking": 4587,
      "Ġcommer": 4588,
      "ĠWhere": 4589,
      "Ġhighly": 4590,
      "Â°": 4591,
      "Ġrough": 4592,
      "Ġtea": 4593,
      "mod": 4594,
      "Ġdrag": 4595,
      "Ġpair": 4596,
      "fess": 4597,
      "Ġmedical": 4598,
      "ĠSum": 4599,
      "Ġplain": 4600,
      "etic": 4601,
      "Ġcrew": 4602,
      "Ġopposite": 4603,
      "Ġeth": 4604,
      "which": 4605,
      "Ġlaugh": 4606,
      "Ġmotion": 4607,
      "erous": 4608,
      "Ġshoulders": 4609,
      "ĠDistrict": 4610,
      "Ġbecoming": 4611,
      "Ġwriter": 4612,
      "ĠMuseum": 4613,
      "Ġlaws": 4614,
      "lor": 4615,
      "Ġnarrow": 4616,
      "Ġwitness": 4617,
      "asy": 4618,
      "Ġru": 4619,
      "ties": 4620,
      "Ġauthority": 4621,
      "Ġcollection": 4622,
      "Ġinstruct": 4623,
      "Ġassociated": 4624,
      "ĠIN": 4625,
      "ĠMaybe": 4626,
      "Ġfeed": 4627,
      "ĠBob": 4628,
      "Ġschol": 4629,
      "ĠVictor": 4630,
      "Ġwealth": 4631,
      "pet": 4632,
      "Ġid": 4633,
      "Ġinstance": 4634,
      "IG": 4635,
      "Ġrules": 4636,
      "vis": 4637,
      "ixture": 4638,
      "Ġspect": 4639,
      "OL": 4640,
      "illy": 4641,
      "Ġdism": 4642,
      "adian": 4643,
      "ĠAmericans": 4644,
      "Ġconce": 4645,
      "ĠOff": 4646,
      "Ġgro": 4647,
      "Ġdocument": 4648,
      "Ġimagine": 4649,
      "Ġjoy": 4650,
      "duce": 4651,
      "Ġjournal": 4652,
      "Ġincreased": 4653,
      "isp": 4654,
      "inated": 4655,
      "Ġlose": 4656,
      "ado": 4657,
      "kins": 4658,
      "osen": 4659,
      "cks": 4660,
      "Ġknowing": 4661,
      "Ġgoal": 4662,
      "Ġaspect": 4663,
      "ĠList": 4664,
      "Ġjoin": 4665,
      "ĠThus": 4666,
      "Ġwaited": 4667,
      "Ġsurprise": 4668,
      "Ġgrowth": 4669,
      "Ġmurder": 4670,
      "istics": 4671,
      "Ġreasons": 4672,
      "Ġdetermined": 4673,
      "ĠCarol": 4674,
      "ef": 4675,
      "Ġmetal": 4676,
      "ĠQueen": 4677,
      "ona": 4678,
      "Ġtiny": 4679,
      "ĠHill": 4680,
      "Ġcomment": 4681,
      "umped": 4682,
      "ĠStep": 4683,
      "owned": 4684,
      "Ġteeth": 4685,
      "Ġdesk": 4686,
      "Ġkeeping": 4687,
      "Ġadult": 4688,
      "eper": 4689,
      "ĠOnly": 4690,
      "Where": 4691,
      "rem": 4692,
      "ribe": 4693,
      "Ġseparate": 4694,
      "Ġopinion": 4695,
      "âĢĭ": 4696,
      "Ġloud": 4697,
      "Ġrelated": 4698,
      "ĠTimes": 4699,
      "ipping": 4700,
      "icks": 4701,
      "Ġtrip": 4702,
      "...\"": 4703,
      "Ġtears": 4704,
      "Ġjourney": 4705,
      "arliam": 4706,
      "Ġsmooth": 4707,
      "ĠJo": 4708,
      "Ġnotes": 4709,
      "Ġships": 4710,
      "idents": 4711,
      "Ġstarting": 4712,
      "atoes": 4713,
      "Ġpatient": 4714,
      "Ġintroduced": 4715,
      "Ġdomin": 4716,
      "ye": 4717,
      "Ġfal": 4718,
      "ĠVer": 4719,
      "ĠRome": 4720,
      "Ġlearning": 4721,
      "emic": 4722,
      "Ġodd": 4723,
      "Ġelements": 4724,
      "ĠDepartment": 4725,
      "Ġorganization": 4726,
      "Ġframe": 4727,
      "Ġfreedom": 4728,
      "Ġ{": 4729,
      "Ġnose": 4730,
      "Ġyouth": 4731,
      "Ġcollege": 4732,
      "Ġinh": 4733,
      "Ġdetails": 4734,
      "Ġnetwork": 4735,
      "arts": 4736,
      "alog": 4737,
      "iverse": 4738,
      "ano": 4739,
      "Ġult": 4740,
      "Who": 4741,
      "Ġrelease": 4742,
      "Ġstruck": 4743,
      "ĠInter": 4744,
      "Ġwindows": 4745,
      "Ġlegal": 4746,
      "Just": 4747,
      "Ġdespite": 4748,
      "ocratic": 4749,
      "Ġmaintain": 4750,
      "Ġconflict": 4751,
      "Ġstreets": 4752,
      "Ġaband": 4753,
      "verse": 4754,
      "oving": 4755,
      "Ġrecomme": 4756,
      "Ġsucceed": 4757,
      "aming": 4758,
      "ications": 4759,
      "ulate": 4760,
      "Ġdu": 4761,
      "ĠOut": 4762,
      "Ġprior": 4763,
      "Her": 4764,
      "rees": 4765,
      "Ġpil": 4766,
      "Ġcalls": 4767,
      "ĠSur": 4768,
      "ĠBet": 4769,
      "Ġnine": 4770,
      "Ġasking": 4771,
      "Ġfifty": 4772,
      "hand": 4773,
      "Ġsharp": 4774,
      "ĠSar": 4775,
      "ĠSecond": 4776,
      "Ġ_E": 4777,
      "Ġdirector": 4778,
      "ĠJoseph": 4779,
      "Ġgrab": 4780,
      "Ġdrawn": 4781,
      "Ġdistinct": 4782,
      "Ġcru": 4783,
      "Ġtrail": 4784,
      "Ġmoral": 4785,
      "ufact": 4786,
      "Ġvision": 4787,
      "Ġwearing": 4788,
      "ellect": 4789,
      "Ġtask": 4790,
      "know": 4791,
      "arliament": 4792,
      "ned": 4793,
      "Ġsurprised": 4794,
      "Ġuseful": 4795,
      "Ġpresented": 4796,
      "asted": 4797,
      "ĠCamp": 4798,
      "oir": 4799,
      "htt": 4800,
      "Ġgall": 4801,
      "Ġwid": 4802,
      "Ġplease": 4803,
      "Ġtradition": 4804,
      "isher": 4805,
      "utch": 4806,
      "urd": 4807,
      "Ġneighbor": 4808,
      "ĠFore": 4809,
      "Ġdelic": 4810,
      "Ġstorm": 4811,
      "ĠLiving": 4812,
      "ga": 4813,
      "cr": 4814,
      "Ġupper": 4815,
      "Ġtone": 4816,
      "ĠFred": 4817,
      "Ġremoved": 4818,
      "ishop": 4819,
      "Ġbeauty": 4820,
      "Ġload": 4821,
      "Ġvariety": 4822,
      "Ġanalysis": 4823,
      "yer": 4824,
      "abeth": 4825,
      "Ġactive": 4826,
      "ĠUnder": 4827,
      "Ġtypes": 4828,
      "rence": 4829,
      "Ġwondered": 4830,
      "Ġtrib": 4831,
      "Ġschools": 4832,
      "ĠSpr": 4833,
      "oken": 4834,
      "rep": 4835,
      "asts": 4836,
      "ĠCenter": 4837,
      "ĠMass": 4838,
      "Ġfinancial": 4839,
      "Ġcups": 4840,
      "Ġcalm": 4841,
      "Ġhaven": 4842,
      "Ġequal": 4843,
      "Ġcrack": 4844,
      "ĠJoe": 4845,
      "Ġsetting": 4846,
      "EC": 4847,
      "Ġthroat": 4848,
      "Ġfile": 4849,
      "olid": 4850,
      "gment": 4851,
      "Ġgrave": 4852,
      "Ġplants": 4853,
      "Ġtransfer": 4854,
      "Ġdescript": 4855,
      "ession": 4856,
      "ĠClub": 4857,
      "ĠChicago": 4858,
      "Ġvalues": 4859,
      "ĠMet": 4860,
      "ĠCle": 4861,
      "Ġinterested": 4862,
      "attered": 4863,
      "Ġimper": 4864,
      "Ġvictim": 4865,
      "alle": 4866,
      "Ġheads": 4867,
      "ĠEmp": 4868,
      "Ġsmaller": 4869,
      "Ġbath": 4870,
      "Ġdust": 4871,
      "Ġfool": 4872,
      "Ġfeelings": 4873,
      "Ġthy": 4874,
      "Ġchoose": 4875,
      "ĠMartin": 4876,
      "Ġcultural": 4877,
      "utive": 4878,
      "Ġcomputer": 4879,
      "Ġworkers": 4880,
      "gn": 4881,
      "Ġgreatest": 4882,
      "Ġwilling": 4883,
      "Ġintended": 4884,
      "uated": 4885,
      "onn": 4886,
      "ĠItaly": 4887,
      "do": 4888,
      "Ġhorses": 4889,
      "ram": 4890,
      "Ġotherwise": 4891,
      "ĠCarl": 4892,
      "Ġconstruct": 4893,
      "orter": 4894,
      "Ġelection": 4895,
      "Ġemp": 4896,
      "Ġduty": 4897,
      "cean": 4898,
      "ĠAng": 4899,
      "Ġhistorical": 4900,
      "Ġlimited": 4901,
      "Ġwel": 4902,
      "igg": 4903,
      "Ġlevels": 4904,
      "west": 4905,
      "Ġflav": 4906,
      "Ġlying": 4907,
      "Ġarrest": 4908,
      "Ġcorrespond": 4909,
      "Ġfinger": 4910,
      "Ġexcell": 4911,
      "Ġmixture": 4912,
      "ĠWal": 4913,
      "enny": 4914,
      "Ġplans": 4915,
      "gl": 4916,
      "Ġimprove": 4917,
      "ĠMill": 4918,
      "ĠSqu": 4919,
      "Ġflo": 4920,
      "Ġexhib": 4921,
      "oop": 4922,
      "Ġdarkness": 4923,
      "Ġfashion": 4924,
      "ught": 4925,
      "eping": 4926,
      "Ġdemonstr": 4927,
      "Ġourselves": 4928,
      "Ġimpact": 4929,
      "ĠTy": 4930,
      "Ġconcerned": 4931,
      "iform": 4932,
      "Ġstudent": 4933,
      "Ġmissing": 4934,
      "Ġforty": 4935,
      "Ġcheese": 4936,
      "Ġshared": 4937,
      "Ġ_H": 4938,
      "Ġtalked": 4939,
      "Ġactivities": 4940,
      "Ġsomewhere": 4941,
      "ĠSund": 4942,
      "ĠEarth": 4943,
      "Ġvideo": 4944,
      "ĠJac": 4945,
      "izes": 4946,
      "hetic": 4947,
      "Ġcharacters": 4948,
      "ĠRel": 4949,
      "Ġsongs": 4950,
      "Ġartist": 4951,
      "essel": 4952,
      "Ġmostly": 4953,
      "Ġ+": 4954,
      "Gr": 4955,
      "erves": 4956,
      "Ġhill": 4957,
      "ĠGroup": 4958,
      "Ġcas": 4959,
      "acity": 4960,
      "host": 4961,
      "nce": 4962,
      "Ġreflect": 4963,
      "ĠLake": 4964,
      "ĠEdward": 4965,
      "Ġroof": 4966,
      "eness": 4967,
      "Ġbasic": 4968,
      "je": 4969,
      "Ġsounds": 4970,
      "ĠSil": 4971,
      "Ġtwice": 4972,
      "Ġlit": 4973,
      "Ġmort": 4974,
      "Ġplat": 4975,
      "ĠCentral": 4976,
      "wing": 4977,
      "Ġ_F": 4978,
      "ĠPerhaps": 4979,
      "Ġbridge": 4980,
      "Ġdirected": 4981,
      "aks": 4982,
      "Ġcalling": 4983,
      "Ġweather": 4984,
      "ĠCup": 4985,
      "Ġglanced": 4986,
      "Ġindividuals": 4987,
      "Ã¤": 4988,
      "Ġreligion": 4989,
      "ĠMen": 4990,
      "war": 4991,
      "ller": 4992,
      "amber": 4993,
      "ĠOver": 4994,
      "Ġintegr": 4995,
      "Ġanti": 4996,
      "uan": 4997,
      "Ġmoon": 4998,
      "Ġpaint": 4999,
      "Ġserving": 5000,
      "Ġinstr": 5001,
      "Ġfurn": 5002,
      "ĠAcad": 5003,
      "icians": 5004,
      "Ġdelight": 5005,
      "Ġpolitics": 5006,
      "ĠSant": 5007,
      "Ġactual": 5008,
      "ulture": 5009,
      "Ġbasis": 5010,
      "Ġtim": 5011,
      "Ġcities": 5012,
      "overy": 5013,
      "Ġconstruction": 5014,
      "oz": 5015,
      "ĠWood": 5016,
      "Ġachieve": 5017,
      "ÏĤ": 5018,
      "Ġterrit": 5019,
      "Ġspend": 5020,
      "Ġorders": 5021,
      "Ġcontext": 5022,
      "Ġpassing": 5023,
      "azz": 5024,
      "icket": 5025,
      "Tr": 5026,
      "Ġbought": 5027,
      "Ġstatus": 5028,
      "Ġassist": 5029,
      "Ġcaptain": 5030,
      "istry": 5031,
      "based": 5032,
      "Ġadvantage": 5033,
      "Ġaudience": 5034,
      "ĠWomen": 5035,
      "Ġcircumstances": 5036,
      "Ġagree": 5037,
      "Ġtong": 5038,
      "alls": 5039,
      "ĠEliz": 5040,
      "Ġflowers": 5041,
      "Ġvast": 5042,
      "Ġliqu": 5043,
      "Ġdoors": 5044,
      "bre": 5045,
      "while": 5046,
      "Ġconnection": 5047,
      "Ġtor": 5048,
      "Ġaccepted": 5049,
      "umber": 5050,
      "Ġsettled": 5051,
      "Ġcolumn": 5052,
      "Ġlisten": 5053,
      "Ġcompleted": 5054,
      "worth": 5055,
      "ĠEll": 5056,
      "ĠIrish": 5057,
      "Ġpale": 5058,
      "hi": 5059,
      "Ġalign": 5060,
      "Ġstars": 5061,
      "Ġpocket": 5062,
      "orough": 5063,
      "ĠInc": 5064,
      "aniel": 5065,
      "ĠKn": 5066,
      "Ġdangerous": 5067,
      "Ġunless": 5068,
      "ĠTex": 5069,
      "Ġwebs": 5070,
      "Ġefforts": 5071,
      "Are": 5072,
      "Ġobserved": 5073,
      "phas": 5074,
      "ipl": 5075,
      "ĠCat": 5076,
      "ĠLong": 5077,
      "azing": 5078,
      "Ġcompar": 5079,
      "Ġchem": 5080,
      "ĠAny": 5081,
      "ooper": 5082,
      "Ġobjects": 5083,
      "down": 5084,
      "ĠIII": 5085,
      "Ġshr": 5086,
      "ĠLand": 5087,
      "Ġblind": 5088,
      "Ġarrange": 5089,
      "Ġsaf": 5090,
      "Ġdoct": 5091,
      "Ġrevolution": 5092,
      "ĠCatholic": 5093,
      "ket": 5094,
      "Ġmanagement": 5095,
      "ĠFe": 5096,
      "Ġimportance": 5097,
      "ĠRussia": 5098,
      "Ġchopped": 5099,
      "ais": 5100,
      "Ġmo": 5101,
      "Ġol": 5102,
      "nam": 5103,
      "Ġappropri": 5104,
      "earch": 5105,
      "ĠFather": 5106,
      "onel": 5107,
      "upp": 5108,
      "Ġsolid": 5109,
      "ĠJews": 5110,
      "oma": 5111,
      "Ġban": 5112,
      "ĠDivision": 5113,
      "ĠSocial": 5114,
      "ĠScot": 5115,
      "Ġchicken": 5116,
      "Ġpassage": 5117,
      "ĠTor": 5118,
      "orial": 5119,
      "Ġcere": 5120,
      "Ġsufficient": 5121,
      "imum": 5122,
      "Ġrecorded": 5123,
      "Ġviews": 5124,
      "Ġcentre": 5125,
      "BC": 5126,
      "Ġur": 5127,
      "Ġplate": 5128,
      "ache": 5129,
      "Ġjudge": 5130,
      "ĠInstead": 5131,
      "Ġought": 5132,
      "Ġmob": 5133,
      "Ġhorr": 5134,
      "Ġevil": 5135,
      "Good": 5136,
      "lease": 5137,
      "Ġtaught": 5138,
      "she": 5139,
      "Ġrefused": 5140,
      "Ġtransport": 5141,
      "Ġstatement": 5142,
      "Or": 5143,
      "ĠTown": 5144,
      "Ġcopy": 5145,
      "Ġuses": 5146,
      "ĠBoth": 5147,
      "Ġsmoke": 5148,
      "otes": 5149,
      "Ġfinding": 5150,
      "spe": 5151,
      "Ġgrown": 5152,
      "stein": 5153,
      "Ġturns": 5154,
      "atre": 5155,
      "acle": 5156,
      "Ġreceive": 5157,
      "Ġepis": 5158,
      "oston": 5159,
      "Ġtwelve": 5160,
      "Ġveh": 5161,
      "Ġworry": 5162,
      "Ġsomewhat": 5163,
      "Ġappreci": 5164,
      "ĠPri": 5165,
      "Ġear": 5166,
      "Ġhabit": 5167,
      "enced": 5168,
      "enes": 5169,
      "Ġflight": 5170,
      "ĠHistor": 5171,
      "Ġrev": 5172,
      "tering": 5173,
      "Ġcamer": 5174,
      "Ġintellect": 5175,
      "ĠEv": 5176,
      "Ġconclud": 5177,
      "Ġeating": 5178,
      "orted": 5179,
      "Ġargument": 5180,
      "Ġincludes": 5181,
      "inking": 5182,
      "amin": 5183,
      "ighter": 5184,
      "Ġrecently": 5185,
      "Ġá¼": 5186,
      "ĠAtl": 5187,
      ",âĢĶ": 5188,
      "Some": 5189,
      "Ġgaze": 5190,
      "mann": 5191,
      "Ġsigned": 5192,
      "eled": 5193,
      "lets": 5194,
      "ĠMax": 5195,
      "ĠDid": 5196,
      "Ġ_I": 5197,
      "Ġlies": 5198,
      "Ġtells": 5199,
      "Ġseconds": 5200,
      "eah": 5201,
      "otic": 5202,
      "Ġadvance": 5203,
      "ua": 5204,
      "ĠAustralian": 5205,
      "venue": 5206,
      "peror": 5207,
      "ads": 5208,
      "Ġtruly": 5209,
      "odes": 5210,
      "reland": 5211,
      "Ġfixed": 5212,
      "Ïģ": 5213,
      "Ġhonor": 5214,
      "Ġdeter": 5215,
      "ĠGovernment": 5216,
      "ĠLee": 5217,
      "five": 5218,
      "ois": 5219,
      "Ġelement": 5220,
      "Ġfollows": 5221,
      "ĠCanadian": 5222,
      "ĠAnother": 5223,
      "$$": 5224,
      "Ġrecognized": 5225,
      "Se": 5226,
      "Ġbirds": 5227,
      "Ġunivers": 5228,
      "Ġdial": 5229,
      "Ġdeaths": 5230,
      "Ġperformed": 5231,
      "ĠOxford": 5232,
      "Ġwet": 5233,
      "vention": 5234,
      "Ġadditional": 5235,
      "Ġangry": 5236,
      "Ġattend": 5237,
      "olved": 5238,
      "Ġproducts": 5239,
      "Ġautom": 5240,
      "Ġfaces": 5241,
      "Ġlargest": 5242,
      "lem": 5243,
      "ĠPrince": 5244,
      "Ġsubsequ": 5245,
      "Ġanyway": 5246,
      "ĠUp": 5247,
      "astern": 5248,
      "rate": 5249,
      "icit": 5250,
      "Ġded": 5251,
      "apping": 5252,
      "Ġfrag": 5253,
      "apes": 5254,
      "itely": 5255,
      "Ġmanufact": 5256,
      "Bl": 5257,
      "ultural": 5258,
      "Ġlifted": 5259,
      "anny": 5260,
      "Ġactions": 5261,
      "Ġmatters": 5262,
      "ifted": 5263,
      "ĠChampionship": 5264,
      "estic": 5265,
      "Ġweren": 5266,
      "Ġcou": 5267,
      "Ġpatients": 5268,
      "Ġquant": 5269,
      "thur": 5270,
      "urally": 5271,
      "ĠPublic": 5272,
      "Ġterrible": 5273,
      "Ġdesce": 5274,
      "place": 5275,
      "Ġ#": 5276,
      "Ġdrawing": 5277,
      "Ġgather": 5278,
      "Ġhyp": 5279,
      "Ġsouthern": 5280,
      "Ġwhispered": 5281,
      "uzz": 5282,
      "andy": 5283,
      "Ġthank": 5284,
      "Ġhighest": 5285,
      "Ġninet": 5286,
      "Ġvac": 5287,
      "Ġstayed": 5288,
      "Ġpassion": 5289,
      "Ġ_R": 5290,
      "Ġterror": 5291,
      "Ġdance": 5292,
      "Ġpossibly": 5293,
      "Ġsuit": 5294,
      "Ġvessel": 5295,
      "Ġminor": 5296,
      "Ġputting": 5297,
      "ĠBefore": 5298,
      "Ġcoat": 5299,
      "Ġfigures": 5300,
      "wers": 5301,
      "Ġdeclared": 5302,
      "Ġlocation": 5303,
      "ulations": 5304,
      "Ġtablespoons": 5305,
      "ker": 5306,
      "ĠJournal": 5307,
      "De": 5308,
      "Ġvoc": 5309,
      "Ġruns": 5310,
      "icine": 5311,
      "Ġgate": 5312,
      "Ġears": 5313,
      "Ġthrew": 5314,
      "olit": 5315,
      "Ġroute": 5316,
      "Ġquarter": 5317,
      "Ġdetect": 5318,
      "aimed": 5319,
      "Ġnorthern": 5320,
      "Ġdisapp": 5321,
      "Ġfrequently": 5322,
      "Ġwear": 5323,
      "Ġstom": 5324,
      "itar": 5325,
      "ĠMur": 5326,
      "gel": 5327,
      "ĠFort": 5328,
      "lies": 5329,
      "Ġliterature": 5330,
      "pective": 5331,
      "Ġcritical": 5332,
      "UR": 5333,
      "Your": 5334,
      "ĠTim": 5335,
      "Ġwore": 5336,
      "Ġoven": 5337,
      "Ġdish": 5338,
      "Ġcarrying": 5339,
      "ta": 5340,
      "mans": 5341,
      "Ġcrim": 5342,
      "Ġwave": 5343,
      "Ġbackground": 5344,
      "ĠNat": 5345,
      "vi": 5346,
      "Ġaccompan": 5347,
      "Ġwriters": 5348,
      "Ġyounger": 5349,
      "Ġ(\"": 5350,
      "Ġlights": 5351,
      "Ġmarked": 5352,
      "bar": 5353,
      "Ġchap": 5354,
      "osis": 5355,
      "Ġpromise": 5356,
      "Ġresponsible": 5357,
      "Ġlunch": 5358,
      "ican": 5359,
      "Ġdrove": 5360,
      "ucle": 5361,
      "iana": 5362,
      "Did": 5363,
      "Ġessential": 5364,
      "fortun": 5365,
      "annel": 5366,
      "rip": 5367,
      "ĠLy": 5368,
      "Ġaccompl": 5369,
      "owder": 5370,
      "ĠEach": 5371,
      "ca": 5372,
      "Ġindependent": 5373,
      "Ġtired": 5374,
      "Ġsym": 5375,
      "Ġoccurred": 5376,
      "Ġimages": 5377,
      "ĠLove": 5378,
      "ĠSing": 5379,
      "ĠDar": 5380,
      "].": 5381,
      "ĠTem": 5382,
      "Ġ_G": 5383,
      "ronic": 5384,
      "Ġhes": 5385,
      "izations": 5386,
      "Ġmental": 5387,
      "ĠSub": 5388,
      "Ġprimary": 5389,
      "Ġviolence": 5390,
      "Ġdistingu": 5391,
      "ĠBre": 5392,
      "lder": 5393,
      "yal": 5394,
      "TH": 5395,
      "Ġgest": 5396,
      "Ġthousands": 5397,
      "Ĥ¬": 5398,
      "ĠVirginia": 5399,
      "ĠHol": 5400,
      "Ġoblig": 5401,
      "ĠInstitute": 5402,
      "Ġstudied": 5403,
      "Ġshowing": 5404,
      "Ġblank": 5405,
      "rier": 5406,
      "Ġaren": 5407,
      "stone": 5408,
      "Ġhonest": 5409,
      "ĠYes": 5410,
      "Ġtemperature": 5411,
      "equ": 5412,
      "ella": 5413,
      "ĠPost": 5414,
      "Ġeggs": 5415,
      "Ġemphas": 5416,
      "IA": 5417,
      "ĠPop": 5418,
      "Ġcitizens": 5419,
      "Ġprem": 5420,
      "ĠRad": 5421,
      "omy": 5422,
      "Ġfourth": 5423,
      "rog": 5424,
      "Ġton": 5425,
      "Ġfuck": 5426,
      "Åį": 5427,
      "Ġmajority": 5428,
      "inate": 5429,
      "Ġexercise": 5430,
      "vant": 5431,
      "Ġgray": 5432,
      "Ġappointed": 5433,
      "Ġhoped": 5434,
      "Ġetc": 5435,
      "Ġfly": 5436,
      "Ġoperations": 5437,
      "Ġgolden": 5438,
      "ĠKore": 5439,
      "Ġcateg": 5440,
      "Ġleaned": 5441,
      "Ġproved": 5442,
      "Ġride": 5443,
      "ĠIbid": 5444,
      "ulous": 5445,
      "Ġcrime": 5446,
      "Ġsequ": 5447,
      "http": 5448,
      "Ġkm": 5449,
      "Ġspiritual": 5450,
      "ĠRom": 5451,
      "Ġperfectly": 5452,
      "cked": 5453,
      "ington": 5454,
      "Ġvent": 5455,
      "Ġcircle": 5456,
      "Ġcontains": 5457,
      "Ġclaimed": 5458,
      "Ġpictures": 5459,
      "merican": 5460,
      "riend": 5461,
      "pite": 5462,
      "iments": 5463,
      "izz": 5464,
      "Ġfields": 5465,
      "Ġbusy": 5466,
      "Ġhousehold": 5467,
      "usted": 5468,
      "Ġmas": 5469,
      "Ġvia": 5470,
      "ses": 5471,
      "Ġphotograph": 5472,
      "Ġhide": 5473,
      "was": 5474,
      "Ġaward": 5475,
      "ih": 5476,
      "Ġsafety": 5477,
      "Ġdesper": 5478,
      "inent": 5479,
      "athered": 5480,
      "Ġwooden": 5481,
      "Ġsem": 5482,
      "Ġoperation": 5483,
      "Ġknife": 5484,
      "Ġresources": 5485,
      "ĠTime": 5486,
      "Ġbreakfast": 5487,
      "Ġnumerous": 5488,
      "Ġtechnology": 5489,
      "Ġapparently": 5490,
      "ements": 5491,
      "Ġwonderful": 5492,
      "ĠBas": 5493,
      "ĠIreland": 5494,
      "ĠThree": 5495,
      "Ġaccident": 5496,
      "bb": 5497,
      "ĠFer": 5498,
      "ĠPolit": 5499,
      "Ġrepresented": 5500,
      "Ġanger": 5501,
      "Ġfounded": 5502,
      "Ġbarely": 5503,
      "Ġprovides": 5504,
      "otion": 5505,
      "Ġmethods": 5506,
      "ĠHot": 5507,
      "usal": 5508,
      "Ġsell": 5509,
      "IR": 5510,
      "vest": 5511,
      "class": 5512,
      "Ġprecise": 5513,
      "reement": 5514,
      "law": 5515,
      "iques": 5516,
      "Ġgently": 5517,
      "Ġpra": 5518,
      "elf": 5519,
      "Ġsav": 5520,
      "Ġheight": 5521,
      "Ġdecor": 5522,
      "ĠElizabeth": 5523,
      "OS": 5524,
      "Ġfavour": 5525,
      "Ġsupply": 5526,
      "Ġends": 5527,
      "ĠFour": 5528,
      "Ġparties": 5529,
      "hus": 5530,
      "urban": 5531,
      "Ġmoments": 5532,
      "Ġsword": 5533,
      "Ġdressed": 5534,
      "ĠST": 5535,
      "urance": 5536,
      "unction": 5537,
      "Ġcrossed": 5538,
      "Ġunable": 5539,
      "Ġtender": 5540,
      "Ġrelief": 5541,
      "Ġcontrast": 5542,
      "Ġbeach": 5543,
      "From": 5544,
      "Ġmovie": 5545,
      "Ġcells": 5546,
      "ĠTO": 5547,
      "Ġapartment": 5548,
      "Ġsacr": 5549,
      "Ġreplaced": 5550,
      "ounce": 5551,
      "Ġeditor": 5552,
      "jo": 5553,
      "ube": 5554,
      "Ġinqu": 5555,
      "IM": 5556,
      "Ġsin": 5557,
      "Ġfalse": 5558,
      "Ġeffective": 5559,
      "Ġexcellent": 5560,
      "\":": 5561,
      "Can": 5562,
      "ĠHaw": 5563,
      "Ġ_J": 5564,
      "Ġdram": 5565,
      "Ġconnected": 5566,
      "Ġoffers": 5567,
      "Ġelectric": 5568,
      "ÏĢ": 5569,
      "Ġconcl": 5570,
      "standing": 5571,
      "ishment": 5572,
      "Ġnerv": 5573,
      "utenant": 5574,
      "lyn": 5575,
      "ĠProfess": 5576,
      "color": 5577,
      "Ġvictory": 5578,
      "ĠSpain": 5579,
      "Ġflesh": 5580,
      "Ġjuice": 5581,
      "Ġpages": 5582,
      "aun": 5583,
      "rich": 5584,
      "Ġloose": 5585,
      "Ġrom": 5586,
      "Ġacknow": 5587,
      "Ġfalling": 5588,
      "Ġrecon": 5589,
      "ĠJean": 5590,
      "ĠPan": 5591,
      "ĠMusic": 5592,
      "Ïĥ": 5593,
      "azed": 5594,
      "Ġcredit": 5595,
      "athy": 5596,
      "Ġpressed": 5597,
      "Ġpapers": 5598,
      "ĠMexico": 5599,
      "Ġcott": 5600,
      "ĠSol": 5601,
      "Ġnative": 5602,
      "ĠTexas": 5603,
      "Ġrising": 5604,
      "Ġjustice": 5605,
      "quar": 5606,
      "Ġrepro": 5607,
      "Ġburst": 5608,
      "ĠPlace": 5609,
      "ighed": 5610,
      "Ġmountains": 5611,
      "hr": 5612,
      "iano": 5613,
      "Ġentrance": 5614,
      "Ġdiscussion": 5615,
      "ĠOb": 5616,
      "ĠDire": 5617,
      "Ġrat": 5618,
      "Ġdyn": 5619,
      "ĠBoy": 5620,
      "estival": 5621,
      "Ġdiscover": 5622,
      "ĠIll": 5623,
      "Ġartists": 5624,
      "leep": 5625,
      "Ġreference": 5626,
      "ura": 5627,
      "Com": 5628,
      "Ġcandid": 5629,
      "ĠYear": 5630,
      "ĠDen": 5631,
      "Ġrestaurant": 5632,
      "imal": 5633,
      "Ġintelligence": 5634,
      "Ġfright": 5635,
      "Ġcooking": 5636,
      "En": 5637,
      "Ġwarn": 5638,
      "ĠWas": 5639,
      "ĠChristmas": 5640,
      "Ġtrial": 5641,
      "Ġidentity": 5642,
      "Ġcommercial": 5643,
      "Ġfallen": 5644,
      "Ġsought": 5645,
      "Ġfer": 5646,
      "onscious": 5647,
      "ĠBig": 5648,
      "ĠHarry": 5649,
      "ĠJeff": 5650,
      "Ġrecords": 5651,
      "Ġquietly": 5652,
      "Ġbegins": 5653,
      "Ġsuffe": 5654,
      "Ġarticle": 5655,
      "Ġnoise": 5656,
      "Ġprove": 5657,
      "cho": 5658,
      "stitution": 5659,
      "Ġmultiple": 5660,
      "Ġtouched": 5661,
      "Figure": 5662,
      "ĠCambridge": 5663,
      "ĠWall": 5664,
      "ĠGall": 5665,
      "Ġheaven": 5666,
      "ĠBudd": 5667,
      "Ġshel": 5668,
      "Ġsomehow": 5669,
      "Ġwithd": 5670,
      "Ġscientific": 5671,
      "ourse": 5672,
      "Ġdivision": 5673,
      "Ġnearby": 5674,
      "ĠRock": 5675,
      "Ġpowers": 5676,
      "ĠLittle": 5677,
      "Ġexplan": 5678,
      "ĠDan": 5679,
      "umbled": 5680,
      "Ġthou": 5681,
      "ĠDis": 5682,
      "Ġsymp": 5683,
      "ao": 5684,
      "uits": 5685,
      "Ġunique": 5686,
      "Ġnut": 5687,
      "ĠFin": 5688,
      "Ġphen": 5689,
      "lla": 5690,
      "Ġinitial": 5691,
      "Ġhidden": 5692,
      "ĠSecret": 5693,
      "ĠMos": 5694,
      "ĠWork": 5695,
      "force": 5696,
      "inned": 5697,
      "Ġfailure": 5698,
      "Ġsigns": 5699,
      "Ġproud": 5700,
      "Ġvolume": 5701,
      "Ġfought": 5702,
      "ĠGal": 5703,
      "ĠSunday": 5704,
      "ĠSuch": 5705,
      "anging": 5706,
      "Ġhappens": 5707,
      "ĠJohnson": 5708,
      "Ġfifteen": 5709,
      "Ġstress": 5710,
      "Ġillustr": 5711,
      "Ġflow": 5712,
      "water": 5713,
      "Ġelev": 5714,
      "Ã±": 5715,
      "Ġassemb": 5716,
      "Ġshadow": 5717,
      "erted": 5718,
      "rick": 5719,
      "ota": 5720,
      "ocolate": 5721,
      "RA": 5722,
      "Ġteacher": 5723,
      "Ġinterests": 5724,
      "Ġreact": 5725,
      "ums": 5726,
      "Ġuniform": 5727,
      "load": 5728,
      "Ġphilosophy": 5729,
      "Ġcareful": 5730,
      "Ġdeeply": 5731,
      "Ġbat": 5732,
      "itated": 5733,
      "ĠDef": 5734,
      "Ġunlike": 5735,
      "Ġextended": 5736,
      "Mar": 5737,
      "bury": 5738,
      "Ġroyal": 5739,
      "Ġincl": 5740,
      "Pro": 5741,
      "Ġfeature": 5742,
      "ĠWind": 5743,
      "Ġtail": 5744,
      "ogether": 5745,
      "Ġapplied": 5746,
      "ĠIslam": 5747,
      "Ġentertain": 5748,
      "ĠSuper": 5749,
      "Ġsources": 5750,
      "Ġknees": 5751,
      "OW": 5752,
      "i_": 5753,
      "Ġbalance": 5754,
      "Ġlat": 5755,
      "Ġstated": 5756,
      "ĠEmpire": 5757,
      "ban": 5758,
      "cont": 5759,
      "Ġrolled": 5760,
      "ĠBoston": 5761,
      "point": 5762,
      "icted": 5763,
      "Ġteams": 5764,
      "inte": 5765,
      "Ġbless": 5766,
      "Ġadvice": 5767,
      "Ġinner": 5768,
      "Per": 5769,
      "Ġexpand": 5770,
      "Ġmagic": 5771,
      "ivered": 5772,
      "Ġunit": 5773,
      "asty": 5774,
      "Ġweapons": 5775,
      "row": 5776,
      "Ġeasier": 5777,
      "Ġstruggle": 5778,
      "Ġswim": 5779,
      "rete": 5780,
      "ĠDi": 5781,
      "Ġpossibility": 5782,
      "Ġwebsite": 5783,
      "ĠFre": 5784,
      "isco": 5785,
      "Ġglobal": 5786,
      "isis": 5787,
      "Ġworst": 5788,
      "Ġgarlic": 5789,
      "umph": 5790,
      "oral": 5791,
      "Ġokay": 5792,
      "Ġhandle": 5793,
      "ĠCur": 5794,
      "py": 5795,
      "ĠPo": 5796,
      "ĠAlso": 5797,
      "THE": 5798,
      "Ġadvent": 5799,
      "Ġstomach": 5800,
      "ĠLatin": 5801,
      "Ġedition": 5802,
      "Ġsolution": 5803,
      "Ġfill": 5804,
      "Ġcart": 5805,
      "Ġguns": 5806,
      "Ġconstant": 5807,
      "Ġpreviously": 5808,
      "Ġideal": 5809,
      "nes": 5810,
      "ipment": 5811,
      "ĠThough": 5812,
      "Yeah": 5813,
      "Ġstairs": 5814,
      "Ġcig": 5815,
      "bel": 5816,
      "Ġsail": 5817,
      "ĠFur": 5818,
      "gal": 5819,
      "Ġbomb": 5820,
      "Ġplays": 5821,
      "rain": 5822,
      "ĠProv": 5823,
      "ĠRos": 5824,
      "Ġmyst": 5825,
      "Ġtongue": 5826,
      "Ġbottle": 5827,
      "Ġrealize": 5828,
      "ĠFar": 5829,
      "Ġchosen": 5830,
      "Ġdogs": 5831,
      "ĠUK": 5832,
      "Ġordinary": 5833,
      "Ġstands": 5834,
      "iner": 5835,
      "Ġpersons": 5836,
      "ĠHy": 5837,
      "Here": 5838,
      "Ġreform": 5839,
      "Ġdestroyed": 5840,
      "Ġinterpret": 5841,
      "Ġdollars": 5842,
      "Ġdriving": 5843,
      "inity": 5844,
      "Ġ_s": 5845,
      "Ġbrothers": 5846,
      "entially": 5847,
      "Ġdetail": 5848,
      "uate": 5849,
      "ĠEduc": 5850,
      "Ġunits": 5851,
      "Ġprotection": 5852,
      "rd": 5853,
      "Ġthrow": 5854,
      "Ġmixed": 5855,
      "Ġvalley": 5856,
      "ml": 5857,
      "Ġapplication": 5858,
      "Ġshock": 5859,
      "ĠBi": 5860,
      "Ġast": 5861,
      "oking": 5862,
      "ortion": 5863,
      "istan": 5864,
      "Ġmurd": 5865,
      "ĠJon": 5866,
      "Ġphr": 5867,
      "ĠMcC": 5868,
      "Ġrice": 5869,
      "itors": 5870,
      "ĠPlay": 5871,
      "encies": 5872,
      "Ġpromised": 5873,
      "ternet": 5874,
      "iat": 5875,
      "ĠCross": 5876,
      "Ġextremely": 5877,
      "cel": 5878,
      "Ġcompared": 5879,
      "Ġpolic": 5880,
      "akers": 5881,
      "ĠMiddle": 5882,
      "Ġwished": 5883,
      "Ġsports": 5884,
      "Ġeconomy": 5885,
      "Ġaccur": 5886,
      "Ġsuspic": 5887,
      "ĠHon": 5888,
      "eless": 5889,
      "acon": 5890,
      "Ġcenturies": 5891,
      "Ġprete": 5892,
      "ĠFoot": 5893,
      "ĠKh": 5894,
      "ĠLook": 5895,
      "ĠTre": 5896,
      "Ġingred": 5897,
      "Ġhearing": 5898,
      "ĠGeorg": 5899,
      "Ġnewspaper": 5900,
      "Ġcars": 5901,
      "tle": 5902,
      "ĠRose": 5903,
      "Ġstaring": 5904,
      "Ġbatt": 5905,
      "Ġprinciple": 5906,
      "Ġexperienced": 5907,
      "ĠBern": 5908,
      "ĠScience": 5909,
      "ĠEs": 5910,
      "Ġunknown": 5911,
      "Ġmanager": 5912,
      "ĠThose": 5913,
      "Ġrum": 5914,
      "nic": 5915,
      "UT": 5916,
      "Ġseek": 5917,
      "Ġbond": 5918,
      "Ġborder": 5919,
      "Ġoriginally": 5920,
      "upid": 5921,
      "Ġmeal": 5922,
      "elly": 5923,
      "Ġrelax": 5924,
      "Ġsevere": 5925,
      "Ġorigin": 5926,
      "Ġreduced": 5927,
      "Ġsuffered": 5928,
      "father": 5929,
      "ĠAward": 5930,
      "Ġhole": 5931,
      "ĠStar": 5932,
      "Ġclasses": 5933,
      "Ġdamage": 5934,
      "Ġreports": 5935,
      "Ġattrib": 5936,
      "part": 5937,
      "Br": 5938,
      "Ġfinish": 5939,
      "ĠRail": 5940,
      "bit": 5941,
      "Ġlistening": 5942,
      "Ġselect": 5943,
      "Ġheaded": 5944,
      "ĠWhe": 5945,
      "iah": 5946,
      "stairs": 5947,
      "Ġbegun": 5948,
      "stance": 5949,
      "Ġgathered": 5950,
      "Ġflag": 5951,
      "then": 5952,
      "IP": 5953,
      "ĠBest": 5954,
      "Ġfavorite": 5955,
      "Ġremove": 5956,
      "Ġclosely": 5957,
      "orpor": 5958,
      "Ġinstant": 5959,
      "ĠClass": 5960,
      "Ġrac": 5961,
      "ĠVen": 5962,
      "ĠVan": 5963,
      "ĠPac": 5964,
      "Ġbeer": 5965,
      "ador": 5966,
      "Ġcow": 5967,
      "NA": 5968,
      "pel": 5969,
      "ĠLos": 5970,
      "ĠEarly": 5971,
      "ĠSk": 5972,
      "Ġrent": 5973,
      "Ġuncle": 5974,
      "Ġincome": 5975,
      "ĠCommittee": 5976,
      "asion": 5977,
      "ĠHug": 5978,
      "Ġbringing": 5979,
      "Ġexchange": 5980,
      "antry": 5981,
      "ĠYoung": 5982,
      "unicip": 5983,
      "ensity": 5984,
      "Ġcorpor": 5985,
      "Ġsuffering": 5986,
      "ĠStill": 5987,
      "Ġflying": 5988,
      "Ġagent": 5989,
      "Ġsounded": 5990,
      "ĠChild": 5991,
      "Ġacad": 5992,
      "Ġdozen": 5993,
      "elle": 5994,
      "CE": 5995,
      "ĠRog": 5996,
      "Ġpit": 5997,
      "Ġsoil": 5998,
      "Ä«": 5999,
      "ĠAv": 6000,
      "Ġmagazine": 6001,
      "Ġlibrary": 6002,
      "Ã§": 6003,
      "ĠKenn": 6004,
      "ĠMajor": 6005,
      "ĠRay": 6006,
      "Ġonline": 6007,
      "Ġbaking": 6008,
      "\"âĢĶ": 6009,
      "Ġteach": 6010,
      "Ġevident": 6011,
      "outs": 6012,
      "ĠNever": 6013,
      "Ġextent": 6014,
      "ĠPers": 6015,
      "Ġthanks": 6016,
      "real": 6017,
      "Ġgain": 6018,
      "ĠDa": 6019,
      "ategy": 6020,
      "writ": 6021,
      "ieties": 6022,
      "itual": 6023,
      "ĠHad": 6024,
      "Ġpill": 6025,
      "Ġpartner": 6026,
      "andom": 6027,
      "ĠCare": 6028,
      "Ġsheet": 6029,
      "Ġforgotten": 6030,
      "Ġreferred": 6031,
      "ĠGar": 6032,
      "ila": 6033,
      "Ġelected": 6034,
      "Ġcommission": 6035,
      "Ġrow": 6036,
      "ĠDor": 6037,
      "ĠLiber": 6038,
      "Ġcalcul": 6039,
      "Ġdriver": 6040,
      "Ġscale": 6041,
      "Ġapprox": 6042,
      "onents": 6043,
      "Ġjoint": 6044,
      "atically": 6045,
      "Ġdiet": 6046,
      "las": 6047,
      "phone": 6048,
      "Ph": 6049,
      "ĠLibrary": 6050,
      "ĠBab": 6051,
      "Ã¦": 6052,
      "Ġrot": 6053,
      "utation": 6054,
      "Ġproposed": 6055,
      "Ġguys": 6056,
      "Ġtreated": 6057,
      "ĠKingdom": 6058,
      "Ġben": 6059,
      "á¹": 6060,
      "Ġsust": 6061,
      "Ġburied": 6062,
      "ĠSaint": 6063,
      "**.": 6064,
      "ĠRevolution": 6065,
      "Ġpainting": 6066,
      "ĠSus": 6067,
      "Ġblow": 6068,
      "Ġfab": 6069,
      "Ġfault": 6070,
      "oday": 6071,
      "Ġdivided": 6072,
      "ĠOffic": 6073,
      "Ġjack": 6074,
      "ĠJones": 6075,
      "Ġmax": 6076,
      "ĠService": 6077,
      "Ġunus": 6078,
      "ĠMinister": 6079,
      "Ġwis": 6080,
      "Ġsched": 6081,
      "Ġtherap": 6082,
      "onic": 6083,
      "Ġsupported": 6084,
      "ĠStan": 6085,
      "ĠCHAPTER": 6086,
      "ĠBooks": 6087,
      "Ġplastic": 6088,
      "iar": 6089,
      "ĠSea": 6090,
      "pass": 6091,
      "Ġwestern": 6092,
      "ĠColumb": 6093,
      "Ġ_W": 6094,
      "ĠLie": 6095,
      "IE": 6096,
      "Ġcapacity": 6097,
      "Ġaircraft": 6098,
      "Ġcreating": 6099,
      "á¿": 6100,
      "Ġcoach": 6101,
      "Ġexha": 6102,
      "Ġshirt": 6103,
      "Ġspoken": 6104,
      "Ġkinds": 6105,
      "Ġgeneration": 6106,
      "Ġdefend": 6107,
      "Me": 6108,
      "ava": 6109,
      "ns": 6110,
      "Ġexpressed": 6111,
      "ĠPub": 6112,
      "Ġrevealed": 6113,
      "pired": 6114,
      "Ġplane": 6115,
      "icking": 6116,
      "mun": 6117,
      "ĠFlor": 6118,
      "Ġinnoc": 6119,
      "Ġlimit": 6120,
      "Ġgrace": 6121,
      "ĠWater": 6122,
      "Ġbedroom": 6123,
      "amily": 6124,
      "gent": 6125,
      "char": 6126,
      "ĠCommission": 6127,
      "Every": 6128,
      "formation": 6129,
      "ĠÂ£": 6130,
      "omer": 6131,
      "lessly": 6132,
      "ĠOs": 6133,
      "ĠâĢĵ,": 6134,
      "terly": 6135,
      "gend": 6136,
      "Ġplenty": 6137,
      "looking": 6138,
      "ĠBack": 6139,
      "Ġequipment": 6140,
      "Ġinternal": 6141,
      "Ġshouted": 6142,
      "angers": 6143,
      "ĠProt": 6144,
      "Ġphenomen": 6145,
      "Ġlargely": 6146,
      "oln": 6147,
      "Ġtermin": 6148,
      "ĠMic": 6149,
      "Ġsecure": 6150,
      "Ġfeels": 6151,
      "Ġdefined": 6152,
      "ĠResearch": 6153,
      "Ġeager": 6154,
      "igan": 6155,
      "oti": 6156,
      "Ġplanning": 6157,
      "Ġtoss": 6158,
      "Ġnegative": 6159,
      "lers": 6160,
      "Ġworried": 6161,
      "ĠGree": 6162,
      "Ġcomfortable": 6163,
      "Ġsoldier": 6164,
      "Ġmuseum": 6165,
      "Ġplatform": 6166,
      "Ġ_N": 6167,
      "EM": 6168,
      "Ġchallenge": 6169,
      "ource": 6170,
      "Ġminister": 6171,
      "Ġsan": 6172,
      "icate": 6173,
      "Ġroll": 6174,
      "ĠMother": 6175,
      "ĠAlexander": 6176,
      "mes": 6177,
      "Ġhanded": 6178,
      "Ġmicro": 6179,
      "Ġplanned": 6180,
      "ĠValley": 6181,
      "kes": 6182,
      "ĠDutch": 6183,
      "iger": 6184,
      "ĠArthur": 6185,
      "Ġreaction": 6186,
      "Ġox": 6187,
      "Ġlock": 6188,
      "ocracy": 6189,
      "ĠMir": 6190,
      "ikes": 6191,
      "Ġinches": 6192,
      "ĠDaniel": 6193,
      "Pl": 6194,
      "raham": 6195,
      "Ġstrike": 6196,
      "Ġrank": 6197,
      "Ġdescription": 6198,
      "Ġplus": 6199,
      "tical": 6200,
      "Ġthorough": 6201,
      "Ġbasket": 6202,
      "Ġadjust": 6203,
      "ĠLu": 6204,
      "Ġunp": 6205,
      "Ġaid": 6206,
      "Ġshore": 6207,
      "ĠPenn": 6208,
      "See": 6209,
      "Ġpriest": 6210,
      "Ġenorm": 6211,
      "theless": 6212,
      "Ġarriv": 6213,
      "Ġguide": 6214,
      "Ġcapable": 6215,
      "Ġsons": 6216,
      "Ġadmitted": 6217,
      "Ġestim": 6218,
      "Ġcous": 6219,
      "Ġburning": 6220,
      "ĠAcademy": 6221,
      "Ġengaged": 6222,
      "ĠMaster": 6223,
      "ĠNorm": 6224,
      "Ġrequest": 6225,
      "ĠCa": 6226,
      "Ġcler": 6227,
      "ĠJane": 6228,
      "Ġpool": 6229,
      "oli": 6230,
      "razy": 6231,
      "Ġdisappoint": 6232,
      "ĠMuslim": 6233,
      "Ġperman": 6234,
      "Ġlegisl": 6235,
      "Qu": 6236,
      "Ġconfidence": 6237,
      "adel": 6238,
      "ran": 6239,
      "ĠFigure": 6240,
      "Come": 6241,
      "Ġinterrupt": 6242,
      "bell": 6243,
      "iveness": 6244,
      "Ġwheel": 6245,
      "long": 6246,
      "Ġsteel": 6247,
      "ĠTurn": 6248,
      "Ġceremon": 6249,
      "Ġteaching": 6250,
      "ĠAsia": 6251,
      "ĠBus": 6252,
      "ĠDuke": 6253,
      "Ġskills": 6254,
      "Ġfant": 6255,
      "ĠGet": 6256,
      "nel": 6257,
      "Ġclaims": 6258,
      "ĠHor": 6259,
      "Ġconver": 6260,
      "Ġpowder": 6261,
      "agan": 6262,
      "Ġhate": 6263,
      "Ġdistant": 6264,
      "Ġgift": 6265,
      "ĠConf": 6266,
      "uns": 6267,
      "Ġhumans": 6268,
      "Ġrib": 6269,
      "ĠOffice": 6270,
      "Ġlandsc": 6271,
      "Ġconsciousness": 6272,
      "ĠBerlin": 6273,
      "Ġregarded": 6274,
      "Ġanaly": 6275,
      "Ġdisappeared": 6276,
      "Ġmusical": 6277,
      "Ġchain": 6278,
      "rated": 6279,
      "fection": 6280,
      "Ġmood": 6281,
      "osure": 6282,
      "mosp": 6283,
      "Look": 6284,
      "Ġcompetition": 6285,
      "Go": 6286,
      "Ġvisible": 6287,
      "Ġcharm": 6288,
      "Ġadvanced": 6289,
      "Ġliquid": 6290,
      "],": 6291,
      "Ġstrateg": 6292,
      "American": 6293,
      "ĠHarr": 6294,
      "Ġintellectual": 6295,
      "Ġolive": 6296,
      "enger": 6297,
      "Ġsales": 6298,
      "Con": 6299,
      "ĠGen": 6300,
      "acter": 6301,
      "Ġyards": 6302,
      "Ġafford": 6303,
      "Ġresponsibility": 6304,
      "Ġthinks": 6305,
      "unched": 6306,
      "Ġraise": 6307,
      "ĠCorn": 6308,
      "Ġtur": 6309,
      "Ġrelatively": 6310,
      "iro": 6311,
      "Ġdepartment": 6312,
      "Ġexperiences": 6313,
      "Ġformal": 6314,
      "ogue": 6315,
      "ĠCook": 6316,
      "Ġpaused": 6317,
      "achers": 6318,
      "Ġappropriate": 6319,
      "Ġwire": 6320,
      "gle": 6321,
      "Ġdiscip": 6322,
      "opy": 6323,
      "ĠAndrew": 6324,
      "Ġmanif": 6325,
      "ucked": 6326,
      "Ġliterary": 6327,
      "bal": 6328,
      "icing": 6329,
      "ensus": 6330,
      "Ġcommit": 6331,
      "works": 6332,
      "Ġreject": 6333,
      "ĠSher": 6334,
      "usive": 6335,
      "Ġimpress": 6336,
      "anna": 6337,
      "Ġrein": 6338,
      "Ġrear": 6339,
      "eding": 6340,
      "oto": 6341,
      "Ġenthus": 6342,
      "ĠAngeles": 6343,
      "Ġperce": 6344,
      "Ġcauses": 6345,
      "Will": 6346,
      "Ġcolour": 6347,
      "ĠSouthern": 6348,
      "Ã©e": 6349,
      "rical": 6350,
      "zer": 6351,
      "from": 6352,
      "ĠCivil": 6353,
      "Ġdecades": 6354,
      "Ġflood": 6355,
      "aus": 6356,
      "onent": 6357,
      "Ġlake": 6358,
      "isms": 6359,
      "Ġdecide": 6360,
      "Ġflu": 6361,
      "Ġnucle": 6362,
      "ĠDev": 6363,
      "Ġsaved": 6364,
      "Ġconsiderable": 6365,
      "Ġtemple": 6366,
      "Ġstupid": 6367,
      "da": 6368,
      "Ġdebut": 6369,
      "Ġintention": 6370,
      "Ġwedd": 6371,
      "ĠZeal": 6372,
      "Ġdiscussed": 6373,
      "Ġcreation": 6374,
      "Ġpounds": 6375,
      "Ġattended": 6376,
      "zed": 6377,
      "ĠEst": 6378,
      "Ġpleased": 6379,
      "Ġdescribe": 6380,
      "Ġseeds": 6381,
      "greg": 6382,
      "Ġwal": 6383,
      "umin": 6384,
      "Ġ...": 6385,
      "isation": 6386,
      "Ġbreast": 6387,
      "Ġvisited": 6388,
      "ĠViet": 6389,
      "ĠVe": 6390,
      "CT": 6391,
      "Ġbull": 6392,
      "Ġstuck": 6393,
      "agger": 6394,
      "vard": 6395,
      "ĠForce": 6396,
      "Ġequally": 6397,
      "Ġconqu": 6398,
      "ĠSwed": 6399,
      "Ġlemon": 6400,
      "ĠChief": 6401,
      "Ġsenior": 6402,
      "Ġcombined": 6403,
      "Ġunw": 6404,
      "coh": 6405,
      "ĠSometimes": 6406,
      "ĠIndians": 6407,
      "Ġgods": 6408,
      "Ġshoes": 6409,
      "Ġ\\\\": 6410,
      "rugged": 6411,
      "Ġdrinking": 6412,
      "Ġowners": 6413,
      "uh": 6414,
      "agers": 6415,
      "Ġbenefit": 6416,
      "Ġobserv": 6417,
      "ĠJackson": 6418,
      "Ġpoetry": 6419,
      "Ġowned": 6420,
      "Ġassess": 6421,
      "incoln": 6422,
      "Ġpush": 6423,
      "Ġhanging": 6424,
      "ĠPhilip": 6425,
      "Ġprograms": 6426,
      "Ġanywhere": 6427,
      "Ġlic": 6428,
      "oked": 6429,
      "Ġmotor": 6430,
      "ĠMarg": 6431,
      "Ġassumed": 6432,
      "Ġcontemporary": 6433,
      "Ġchanging": 6434,
      "ĠInf": 6435,
      "Ġprinciples": 6436,
      "Ġpractical": 6437,
      "Bec": 6438,
      "onna": 6439,
      "Ġglance": 6440,
      "Ġeverywhere": 6441,
      "athan": 6442,
      "irmed": 6443,
      "Ġpersu": 6444,
      "ĠBell": 6445,
      "Ġfasc": 6446,
      "Ġconsult": 6447,
      "Ġobtain": 6448,
      "\")": 6449,
      "Ġhundreds": 6450,
      "yan": 6451,
      "Ġresistance": 6452,
      "Ġtools": 6453,
      "press": 6454,
      "Ġrelation": 6455,
      "ĠNaz": 6456,
      "Ġunion": 6457,
      "ĠAtt": 6458,
      "Ġemotional": 6459,
      "Ġowner": 6460,
      "Ġforever": 6461,
      "ba": 6462,
      "uster": 6463,
      "Ġsurrounded": 6464,
      "Ġkilling": 6465,
      "Ġscore": 6466,
      "Ġimmediate": 6467,
      "unning": 6468,
      "ĠDick": 6469,
      "Ġfederal": 6470,
      "Ġtraffic": 6471,
      "Ġexamples": 6472,
      "Ġmaterials": 6473,
      "Ġfate": 6474,
      "Ġbrill": 6475,
      "Ġtroub": 6476,
      "Ġris": 6477,
      "they": 6478,
      "Ġfunctions": 6479,
      "ĠSand": 6480,
      "Ġportion": 6481,
      "Ġrequires": 6482,
      "emies": 6483,
      "ifts": 6484,
      "oting": 6485,
      "Ġleads": 6486,
      "Ġmal": 6487,
      "Ġque": 6488,
      "inced": 6489,
      "ĠBank": 6490,
      "Ġtort": 6491,
      "Ġfier": 6492,
      "Ġallows": 6493,
      "umes": 6494,
      "uration": 6495,
      "Ġembr": 6496,
      "idel": 6497,
      "Ġcraft": 6498,
      "ĠZealand": 6499,
      "is_": 6500,
      "car": 6501,
      "Ġcancer": 6502,
      "Ġintense": 6503,
      "Ġnervous": 6504,
      "Ġcoc": 6505,
      "Ġenjoyed": 6506,
      "mother": 6507,
      "Ġwaters": 6508,
      "Ġcamera": 6509,
      "Ġagreement": 6510,
      "Because": 6511,
      "Ġspin": 6512,
      "eral": 6513,
      "Ġreply": 6514,
      "ario": 6515,
      "Ġ}": 6516,
      "hist": 6517,
      "Î»": 6518,
      "Ġbell": 6519,
      "IF": 6520,
      "mm": 6521,
      "Ġatmosp": 6522,
      "foot": 6523,
      "anches": 6524,
      "Ġidentified": 6525,
      "AK": 6526,
      "ologist": 6527,
      "Ġrecognize": 6528,
      "iral": 6529,
      "ĠWild": 6530,
      "ĠLew": 6531,
      ".[": 6532,
      "Ġax": 6533,
      "lend": 6534,
      "Ġsake": 6535,
      "Ġindustrial": 6536,
      "ĠAh": 6537,
      "Ġgoods": 6538,
      "Ġgoals": 6539,
      "Ġdying": 6540,
      "Ã³n": 6541,
      "ĠFurther": 6542,
      "Ġpig": 6543,
      "Ġsets": 6544,
      "Ġestate": 6545,
      ".]": 6546,
      "Ġuncom": 6547,
      "sect": 6548,
      "ĠLight": 6549,
      "life": 6550,
      "uable": 6551,
      "ĠNap": 6552,
      "ĠTechn": 6553,
      "ĠOper": 6554,
      "Ġextract": 6555,
      "Ġpul": 6556,
      "gcolor": 6557,
      "Ġtomorrow": 6558,
      "Ġapproached": 6559,
      "inging": 6560,
      "Ġslave": 6561,
      "Ġadministration": 6562,
      "Ġwounded": 6563,
      "aft": 6564,
      "Ġsymbol": 6565,
      "lishing": 6566,
      "Ġ_d": 6567,
      "mission": 6568,
      "Ab": 6569,
      "Ġabsor": 6570,
      "Ġscholars": 6571,
      "esty": 6572,
      "âĢ²": 6573,
      "ĠHealth": 6574,
      "Ġmovements": 6575,
      "Ġhoriz": 6576,
      "Ġdemanded": 6577,
      "Ġfacts": 6578,
      "Ġstrategy": 6579,
      "Ġcommunities": 6580,
      "ĠDisc": 6581,
      "top": 6582,
      "four": 6583,
      "Ġdried": 6584,
      "Ġham": 6585,
      "Ġresc": 6586,
      "ĠLater": 6587,
      "ĠFrancisco": 6588,
      "Ġcro": 6589,
      "ras": 6590,
      "Ġyield": 6591,
      "Ġmistake": 6592,
      "ĠReview": 6593,
      "Ġdifficulty": 6594,
      "Ġconvention": 6595,
      "Ġvari": 6596,
      "after": 6597,
      "Ġtrick": 6598,
      "Ġmerch": 6599,
      "AY": 6600,
      "ĠWay": 6601,
      "sm": 6602,
      "who": 6603,
      "Ġcontained": 6604,
      "Ġtow": 6605,
      "Ġfaint": 6606,
      "Ġpreced": 6607,
      "ĠLoc": 6608,
      "Ġattached": 6609,
      "Ġproof": 6610,
      "Ġcommunication": 6611,
      "Ġdreams": 6612,
      "Ġexcess": 6613,
      "ima": 6614,
      "Ind": 6615,
      "ĠÏĦ": 6616,
      "Ġstudio": 6617,
      "Ġgrabbed": 6618,
      "ĠNavy": 6619,
      "Ġthrown": 6620,
      "Ġacid": 6621,
      "Ġsuperior": 6622,
      "ĠLar": 6623,
      "rad": 6624,
      "Ġburned": 6625,
      "ĠAgain": 6626,
      "Ġmissed": 6627,
      "Ġrestrict": 6628,
      "Ġarrival": 6629,
      "Ġlosing": 6630,
      "Ġitems": 6631,
      "asingly": 6632,
      "Ġpink": 6633,
      "AB": 6634,
      "Ġbones": 6635,
      "Ġsubjects": 6636,
      "Ġscript": 6637,
      "Ġoccupied": 6638,
      "yard": 6639,
      "III": 6640,
      "Ġguitar": 6641,
      "Ġneare": 6642,
      "Ġdriven": 6643,
      "Ġswall": 6644,
      "ĠPacific": 6645,
      "ĠEnd": 6646,
      "cest": 6647,
      "Ġune": 6648,
      "ali": 6649,
      "orge": 6650,
      "agg": 6651,
      "Ġdeck": 6652,
      "Ġfaced": 6653,
      "Ġhealthy": 6654,
      "Ġstations": 6655,
      "Ġinvited": 6656,
      "Ġcrisis": 6657,
      "Ġrig": 6658,
      "Ġdread": 6659,
      "ĠEp": 6660,
      "Ġpor": 6661,
      "Ġingredients": 6662,
      "Ġpour": 6663,
      "Ġbatter": 6664,
      "Ġbud": 6665,
      "imp": 6666,
      "Ġconcer": 6667,
      "friend": 6668,
      "oration": 6669,
      "Ġthee": 6670,
      "Ġimplement": 6671,
      "ĠTest": 6672,
      "ĠTH": 6673,
      "Ġiniti": 6674,
      "ĠParliament": 6675,
      "Ġflower": 6676,
      "Ġcourage": 6677,
      "ATION": 6678,
      "Ġconstantly": 6679,
      "Ġscrap": 6680,
      "AG": 6681,
      "Ġabsolutely": 6682,
      "Ġvisual": 6683,
      "Ġstructures": 6684,
      "Ġalarm": 6685,
      "ĠLeg": 6686,
      "Ġcombination": 6687,
      "Ġorange": 6688,
      "sell": 6689,
      "Ġacting": 6690,
      "sk": 6691,
      "Ġobtained": 6692,
      "Ġpermission": 6693,
      "Ġrecip": 6694,
      "incess": 6695,
      "Ġ_n": 6696,
      "heast": 6697,
      "Ġreturning": 6698,
      "omp": 6699,
      "Ġconvinced": 6700,
      "Ġisol": 6701,
      "Ġacts": 6702,
      "Ġwise": 6703,
      "Ġbent": 6704,
      "Ġtent": 6705,
      "Ġmodels": 6706,
      "Ġsmiling": 6707,
      "clock": 6708,
      "Ġoption": 6709,
      "unte": 6710,
      "Ġbranch": 6711,
      "AF": 6712,
      "Ġselected": 6713,
      "Ġdifferences": 6714,
      "Ġera": 6715,
      "Ġfocused": 6716,
      "These": 6717,
      "John": 6718,
      "Ġoccasionally": 6719,
      "Ġpainted": 6720,
      "Mr": 6721,
      "agues": 6722,
      "Ġasks": 6723,
      "Ġsees": 6724,
      "ĠIV": 6725,
      "ĠTra": 6726,
      "inted": 6727,
      "ira": 6728,
      "Ġlovely": 6729,
      "Ġsplit": 6730,
      "quarters": 6731,
      "Ġofficials": 6732,
      "Ġvine": 6733,
      "urday": 6734,
      "Ġwoods": 6735,
      "Ġnobody": 6736,
      "inson": 6737,
      "Ġsentence": 6738,
      "uer": 6739,
      "Ġcommitted": 6740,
      "nect": 6741,
      "inem": 6742,
      "ĠMom": 6743,
      "Ġcash": 6744,
      "Ġsimpl": 6745,
      "Ġshrugged": 6746,
      "Ġsurely": 6747,
      "ĠSimon": 6748,
      "ati": 6749,
      "Ġholds": 6750,
      "acked": 6751,
      "Ġske": 6752,
      "ureau": 6753,
      "Ġbrand": 6754,
      "Ġincreasing": 6755,
      "Ġec": 6756,
      "Ġmirror": 6757,
      "term": 6758,
      "Ġbgcolor": 6759,
      "Ġpleasant": 6760,
      "Ġwaste": 6761,
      "ĠCy": 6762,
      "razil": 6763,
      "hemat": 6764,
      "Ġtowns": 6765,
      "ĠEconom": 6766,
      "ĠIS": 6767,
      "Ġvon": 6768,
      "Ġexperiment": 6769,
      "Ġabsence": 6770,
      "Ġcomposed": 6771,
      "Ġreduce": 6772,
      "Ġoffering": 6773,
      "eling": 6774,
      "iture": 6775,
      "roll": 6776,
      "Ġcosts": 6777,
      "ĠDet": 6778,
      "Ġghost": 6779,
      "pes": 6780,
      "ĠMah": 6781,
      "Ġvul": 6782,
      "Ġleadership": 6783,
      "Ġlisted": 6784,
      "Ġmile": 6785,
      "Ġvoices": 6786,
      "Ġwings": 6787,
      "Ġadmit": 6788,
      "ucks": 6789,
      "Ġsites": 6790,
      "Ġneighborhood": 6791,
      "Ġtruck": 6792,
      "inth": 6793,
      "Ġalternative": 6794,
      "Ġadding": 6795,
      "Ġnoble": 6796,
      "Ġbone": 6797,
      "Maybe": 6798,
      "Ġabandoned": 6799,
      "ifle": 6800,
      "ĠMike": 6801,
      "Ġhomes": 6802,
      "Ġtonight": 6803,
      "Ġlaughing": 6804,
      "coming": 6805,
      "ĠâĪ": 6806,
      "Ġobviously": 6807,
      "Ġpositions": 6808,
      "Ġmanage": 6809,
      "Ġterritory": 6810,
      "ĠSystem": 6811,
      "aylor": 6812,
      "ĠPen": 6813,
      "Ġlistened": 6814,
      "Ġrapidly": 6815,
      "Ġgreet": 6816,
      "Ġpoem": 6817,
      "ĠLes": 6818,
      "Ġ.\"": 6819,
      "Ġslipped": 6820,
      "ĠRet": 6821,
      "Pr": 6822,
      "okes": 6823,
      "Ġprompt": 6824,
      "ĠWilson": 6825,
      "cely": 6826,
      "Ġhappiness": 6827,
      "Ġash": 6828,
      "ĠRam": 6829,
      "Ġcommander": 6830,
      "Ġattitude": 6831,
      "Ġheavily": 6832,
      "Ġchose": 6833,
      "Ġrhy": 6834,
      "Ġbay": 6835,
      "Ġstring": 6836,
      "Ġargued": 6837,
      "achel": 6838,
      "Ġlocked": 6839,
      "anguage": 6840,
      "Ġsleeping": 6841,
      "enses": 6842,
      "Ã©s": 6843,
      "Ġvote": 6844,
      "Ġrevol": 6845,
      "ĠLab": 6846,
      "omed": 6847,
      "Ġcir": 6848,
      "Ġ_p": 6849,
      "Ġrelationships": 6850,
      "ĠMAP": 6851,
      "Ġinstitutions": 6852,
      "rene": 6853,
      "Ġwidely": 6854,
      "Ġwaves": 6855,
      "Ġfriendly": 6856,
      "Ġunex": 6857,
      "arrass": 6858,
      "Ġproced": 6859,
      "ĠNothing": 6860,
      "Ġarmed": 6861,
      "arted": 6862,
      "Ġrocks": 6863,
      "Ġkingdom": 6864,
      "Ġemployed": 6865,
      "eks": 6866,
      "ĠSummer": 6867,
      "Ġdeliver": 6868,
      "Ġattacks": 6869,
      "Ġcaptured": 6870,
      "iece": 6871,
      "low": 6872,
      "Ġweapon": 6873,
      "Ġannual": 6874,
      "ĠCarolina": 6875,
      "Ġaffairs": 6876,
      "struct": 6877,
      "ĠOrder": 6878,
      "Ġdiam": 6879,
      "Ġcurrently": 6880,
      "ĠWilliams": 6881,
      "ulpt": 6882,
      "Ġsuggests": 6883,
      "ĠBlue": 6884,
      "ĠLincoln": 6885,
      "Ġfactors": 6886,
      "Ġmassive": 6887,
      "ĠRo": 6888,
      "una": 6889,
      "Ġdough": 6890,
      "two": 6891,
      "udes": 6892,
      "Ġdetermin": 6893,
      "Ġuniversity": 6894,
      "ĠFilm": 6895,
      "ĠScotland": 6896,
      "Ġseed": 6897,
      "Ġemotion": 6898,
      "lar": 6899,
      "Ġgre": 6900,
      "Ġmurm": 6901,
      "ĠFinally": 6902,
      "Ġcreature": 6903,
      "Ġcurious": 6904,
      "Ġhal": 6905,
      "ĠHome": 6906,
      "Ġsignal": 6907,
      "Ġtied": 6908,
      "ĠSon": 6909,
      "Ġmarry": 6910,
      "cription": 6911,
      "ensions": 6912,
      "ĠDeath": 6913,
      "ione": 6914,
      "Ġhoney": 6915,
      "ĠNic": 6916,
      "ĠEducation": 6917,
      "Ġplanet": 6918,
      "angle": 6919,
      "Ġsighed": 6920,
      "bow": 6921,
      "ĠPass": 6922,
      "fall": 6923,
      "Ġdomestic": 6924,
      "ilding": 6925,
      "ibilities": 6926,
      "Ġdetermine": 6927,
      "Ġsmart": 6928,
      "Ġleather": 6929,
      "ĠSong": 6930,
      "ĠNorthern": 6931,
      "Ġhappening": 6932,
      "Ġhills": 6933,
      "asting": 6934,
      "Ġ!": 6935,
      "nat": 6936,
      "Ġsurprising": 6937,
      "Ġwelcome": 6938,
      "Ġuniverse": 6939,
      "ĠHuman": 6940,
      "ĠFlorida": 6941,
      "Ġexplanation": 6942,
      "Ġinsisted": 6943,
      "uthors": 6944,
      "ĠAdam": 6945,
      "orders": 6946,
      "ĠIra": 6947,
      "Ġ_m": 6948,
      "ĠEastern": 6949,
      "Ġincident": 6950,
      "Ġbutton": 6951,
      "duct": 6952,
      "Ġasleep": 6953,
      "ĠColonel": 6954,
      "ifice": 6955,
      "Ġextraord": 6956,
      "teenth": 6957,
      "ĠTop": 6958,
      "Ġvegetables": 6959,
      "Ġfired": 6960,
      "Ġocean": 6961,
      "Ġchalleng": 6962,
      "anges": 6963,
      "Ġ%": 6964,
      "SE": 6965,
      "Ġenormous": 6966,
      "Ġimpression": 6967,
      "Ġaccounts": 6968,
      "Ġsurrounding": 6969,
      "Ġnotion": 6970,
      "berry": 6971,
      "Ġplot": 6972,
      "Ġwarning": 6973,
      "ĠDoug": 6974,
      "jection": 6975,
      "oty": 6976,
      "Ġexped": 6977,
      "ĠColl": 6978,
      "Ġprepar": 6979,
      "Ġlect": 6980,
      "Ġtablespoon": 6981,
      "Ġnegoti": 6982,
      "Ġepisode": 6983,
      "Ġwing": 6984,
      "Ġsyn": 6985,
      "Ġlob": 6986,
      "Ġpride": 6987,
      "Ġsed": 6988,
      "uties": 6989,
      "ante": 6990,
      "Ġadopted": 6991,
      "velopment": 6992,
      "Ġprojects": 6993,
      "Ġencoun": 6994,
      "ĠHit": 6995,
      "Ġopposition": 6996,
      "Ġinstrument": 6997,
      "free": 6998,
      "bu": 6999,
      "Ġ\\": 7000,
      "amental": 7001,
      "Ġsquee": 7002,
      "While": 7003,
      "ĠThrough": 7004,
      "ammed": 7005,
      "ĠMarsh": 7006,
      "ĠBes": 7007,
      "Ad": 7008,
      "Ne": 7009,
      "Ġbreaking": 7010,
      "Ġwedding": 7011,
      "Ġadvert": 7012,
      "Ah": 7013,
      "ĠNight": 7014,
      "Ġdismiss": 7015,
      "ĠWat": 7016,
      "Ġhelping": 7017,
      "Ġprincipal": 7018,
      "aws": 7019,
      "ĠStephen": 7020,
      "ieth": 7021,
      "Ġseriously": 7022,
      "ĠRecords": 7023,
      "oos": 7024,
      "arked": 7025,
      "vania": 7026,
      "Ġbreathing": 7027,
      "Ġconsid": 7028,
      "Ġperspective": 7029,
      "ĠVill": 7030,
      "inding": 7031,
      "Ġauthorities": 7032,
      "Ġarranged": 7033,
      "Ġreader": 7034,
      "ader": 7035,
      "boy": 7036,
      "Ġ_c": 7037,
      "Ġsoup": 7038,
      "Ġorganizations": 7039,
      "Ġcake": 7040,
      "Ġcouncil": 7041,
      "Ġrelative": 7042,
      "Ġcock": 7043,
      "Ġcrazy": 7044,
      "Ġlord": 7045,
      "Ġfairly": 7046,
      "Ġgained": 7047,
      "Ġchocolate": 7048,
      "Ġprisoners": 7049,
      "ĠDespite": 7050,
      "Ġapply": 7051,
      "shire": 7052,
      "Ġnaturally": 7053,
      "ĠOpen": 7054,
      "style": 7055,
      "Ġsinging": 7056,
      "Ġstarts": 7057,
      "Ġsympt": 7058,
      "Ġcutting": 7059,
      "Ġwake": 7060,
      "Ġcore": 7061,
      "Ġwand": 7062,
      "ĠAnne": 7063,
      "ĠCro": 7064,
      "Ġment": 7065,
      "Ġgiant": 7066,
      "pers": 7067,
      "ĠHard": 7068,
      "Ġenemies": 7069,
      "Ġcards": 7070,
      "hips": 7071,
      "fr": 7072,
      "Ġshift": 7073,
      "Ġflash": 7074,
      "Ġorganized": 7075,
      "Ġpractices": 7076,
      "Ġeastern": 7077,
      "Ġconfront": 7078,
      "Ġgentleman": 7079,
      "Ã¢": 7080,
      "Ġfart": 7081,
      "Ġcheek": 7082,
      "OP": 7083,
      "rer": 7084,
      "ĠLind": 7085,
      "Ġsettle": 7086,
      "ĠIran": 7087,
      "ĠAlbert": 7088,
      "Ġaccompanied": 7089,
      "OC": 7090,
      "Ġroot": 7091,
      "Ġentry": 7092,
      "ardens": 7093,
      "Ġthread": 7094,
      "ĠDad": 7095,
      "ĠPerson": 7096,
      "urse": 7097,
      "hire": 7098,
      "Ġdefense": 7099,
      "ĠBrazil": 7100,
      "ela": 7101,
      "Ġchildhood": 7102,
      "ĠGi": 7103,
      ".:": 7104,
      "ja": 7105,
      "ĠFound": 7106,
      "Ġoverall": 7107,
      "Ġinstinct": 7108,
      "ĠPower": 7109,
      "Ġparalle": 7110,
      "eps": 7111,
      "Ġreaders": 7112,
      "ĠGre": 7113,
      "Ġcheer": 7114,
      "Ġmyth": 7115,
      "Ġundert": 7116,
      "ĠMu": 7117,
      "Ġii": 7118,
      "Ġexisting": 7119,
      "Ġonion": 7120,
      "Ġincreasingly": 7121,
      "anche": 7122,
      "Ġoptions": 7123,
      "Ġdad": 7124,
      "Ġbeings": 7125,
      "orous": 7126,
      "dro": 7127,
      "Ġimagination": 7128,
      "ĠGermans": 7129,
      "Ġdivine": 7130,
      "Ġnations": 7131,
      "eman": 7132,
      "asm": 7133,
      "Ġembarrass": 7134,
      "Ġlands": 7135,
      "uting": 7136,
      "ules": 7137,
      "Ġresemb": 7138,
      "Ġyours": 7139,
      "ĠProfessor": 7140,
      "ĠHun": 7141,
      "anes": 7142,
      "crib": 7143,
      "Ġdistribution": 7144,
      "Ġleaf": 7145,
      "ĠHoly": 7146,
      "Ġguests": 7147,
      "ĠMarc": 7148,
      "Ġjudgment": 7149,
      "Ġtool": 7150,
      "Ġurg": 7151,
      "Ġgrate": 7152,
      "Ġdeliber": 7153,
      "Ġstiff": 7154,
      "throp": 7155,
      "ĠAbout": 7156,
      "Ġprocesses": 7157,
      "rait": 7158,
      "#####": 7159,
      "rah": 7160,
      "inction": 7161,
      "iplom": 7162,
      "ĠDun": 7163,
      "Ġdelay": 7164,
      "alm": 7165,
      "onym": 7166,
      "ĠIndeed": 7167,
      "Ġleague": 7168,
      "Ġwound": 7169,
      "weet": 7170,
      "ĠJacob": 7171,
      "terday": 7172,
      "dr": 7173,
      "](": 7174,
      "Ġuncertain": 7175,
      "mitted": 7176,
      "Ġreputation": 7177,
      "Ġpregn": 7178,
      "orious": 7179,
      "Ġrelie": 7180,
      "Ġloyal": 7181,
      "irk": 7182,
      "Ġsuspect": 7183,
      "Ġafterwards": 7184,
      "Ġproperly": 7185,
      "rooms": 7186,
      "ĠKen": 7187,
      "ennis": 7188,
      "Ġclin": 7189,
      "inder": 7190,
      "atri": 7191,
      "Ġerr": 7192,
      "ĠLeon": 7193,
      "Ġminds": 7194,
      "wick": 7195,
      "Ġstim": 7196,
      "Ġknock": 7197,
      "Ġhoping": 7198,
      "TS": 7199,
      "ĠKent": 7200,
      "quis": 7201,
      "ĠSpir": 7202,
      "Ġconference": 7203,
      "Ġintent": 7204,
      "Ġraw": 7205,
      "Ġurban": 7206,
      "Ġlip": 7207,
      "Ġexpert": 7208,
      "Ġfinds": 7209,
      "Ġhook": 7210,
      "icide": 7211,
      "ĠField": 7212,
      "Ġwarri": 7213,
      "syl": 7214,
      "ĠWalk": 7215,
      "Ġstones": 7216,
      "ilty": 7217,
      "Ġeverybody": 7218,
      "Ġdat": 7219,
      "rine": 7220,
      "Ġunusual": 7221,
      "x_": 7222,
      "Ġfacing": 7223,
      "Ġbranches": 7224,
      "Ġstrict": 7225,
      "ĠArm": 7226,
      "Ġbehavi": 7227,
      "iency": 7228,
      "Ġpatterns": 7229,
      "Ġproperties": 7230,
      "Ġdraft": 7231,
      "Ġdegrees": 7232,
      "Ġfiction": 7233,
      "Ġreaching": 7234,
      "Ġpartners": 7235,
      "Ġsomebody": 7236,
      "odge": 7237,
      "Ġevolution": 7238,
      "Ġdelivered": 7239,
      "Ġcooked": 7240,
      "ĠEve": 7241,
      "ĠBattle": 7242,
      "Thank": 7243,
      "Ġmyster": 7244,
      "Ġalcoh": 7245,
      "ĠBible": 7246,
      "ĠCub": 7247,
      "ĠDam": 7248,
      "Ġlayer": 7249,
      "Ġpin": 7250,
      "Ġelim": 7251,
      "Ġslaves": 7252,
      "Ġimagined": 7253,
      "arse": 7254,
      "aping": 7255,
      "mary": 7256,
      "ĠPot": 7257,
      "wide": 7258,
      "oster": 7259,
      "Ġensure": 7260,
      "Ġwrapped": 7261,
      "ova": 7262,
      "iel": 7263,
      "Ġmainly": 7264,
      "Am": 7265,
      "CHAPTER": 7266,
      "Ġarticles": 7267,
      "uine": 7268,
      "acles": 7269,
      "Ġpalace": 7270,
      "amic": 7271,
      "Ġsuffer": 7272,
      "CC": 7273,
      "Ġpron": 7274,
      "ĠAsh": 7275,
      "Ġconven": 7276,
      "ĠSaturday": 7277,
      "Ġinvolve": 7278,
      "Ġdawn": 7279,
      "Ġinformed": 7280,
      "Get": 7281,
      "osm": 7282,
      "Ġsucceeded": 7283,
      "xual": 7284,
      "isa": 7285,
      "Ġcontinues": 7286,
      "Ġgranted": 7287,
      "ĠStand": 7288,
      "Ġbenefits": 7289,
      "ĠAsian": 7290,
      "gro": 7291,
      "ĠPsych": 7292,
      "Ġmedicine": 7293,
      "Even": 7294,
      "this": 7295,
      "Ġacquired": 7296,
      "ĠHave": 7297,
      "ĠEle": 7298,
      "Ġactor": 7299,
      "Ġwisdom": 7300,
      "Ġavo": 7301,
      "Ġassume": 7302,
      "era": 7303,
      "orne": 7304,
      "Ġrarely": 7305,
      "Ġlaunched": 7306,
      "Ġfleet": 7307,
      "Ġshouldn": 7308,
      "Ġissued": 7309,
      "ĠRus": 7310,
      "Ġmaid": 7311,
      "ĠTele": 7312,
      "amps": 7313,
      "fin": 7314,
      "Ġagric": 7315,
      "ko": 7316,
      "zy": 7317,
      "Ġclient": 7318,
      "Ġconstitution": 7319,
      "burgh": 7320,
      "etch": 7321,
      "Ġallowing": 7322,
      "Ġmemories": 7323,
      "Ġweb": 7324,
      "Ġpulling": 7325,
      "Ġtracks": 7326,
      "Ġemerg": 7327,
      "ĠHa": 7328,
      "Ġexplos": 7329,
      "Ġdefeat": 7330,
      "ĠBarb": 7331,
      "Ġshame": 7332,
      "Ġuser": 7333,
      "Ġadministr": 7334,
      "Ġje": 7335,
      "Ġattacked": 7336,
      "Ġhonour": 7337,
      "Ġfan": 7338,
      "rets": 7339,
      "Ġtower": 7340,
      "ĠNob": 7341,
      "Ġsport": 7342,
      "ĠHay": 7343,
      "ĠForm": 7344,
      "ĠElect": 7345,
      "Ġincred": 7346,
      "Ġdecisions": 7347,
      "Ġgotten": 7348,
      "align": 7349,
      "Ġcoal": 7350,
      "Ġinstitution": 7351,
      "Ġdrama": 7352,
      "umni": 7353,
      "ulating": 7354,
      "isting": 7355,
      "Ġremarkable": 7356,
      "Ġwinning": 7357,
      "rose": 7358,
      "igration": 7359,
      "Ġladies": 7360,
      "ĠUse": 7361,
      "awa": 7362,
      "Ġgradually": 7363,
      "Ġdesired": 7364,
      "Ġmeasures": 7365,
      "Ġflew": 7366,
      "Ġcruc": 7367,
      "Ġhtt": 7368,
      "left": 7369,
      "erate": 7370,
      "ĠÂ©": 7371,
      "enly": 7372,
      "arant": 7373,
      "aning": 7374,
      "Ġpurposes": 7375,
      "Ġtear": 7376,
      "Sp": 7377,
      "sylvania": 7378,
      "Ġcloth": 7379,
      "ĠDec": 7380,
      "ĠIraq": 7381,
      "ucky": 7382,
      "Ġexposed": 7383,
      "ĠBa": 7384,
      "Ġattempts": 7385,
      "ĠInternet": 7386,
      "Ġaffected": 7387,
      "Ġ_t": 7388,
      "Ġsubstant": 7389,
      "UL": 7390,
      "Ġaspects": 7391,
      "Ġinev": 7392,
      "Ġdevice": 7393,
      "itate": 7394,
      "UM": 7395,
      "ilton": 7396,
      "Ġconfess": 7397,
      "ĠUs": 7398,
      "Ġexpensive": 7399,
      "Ġtempt": 7400,
      "Ġgreatly": 7401,
      "Ġath": 7402,
      "SS": 7403,
      "ĠTour": 7404,
      "Ġalongside": 7405,
      "Ġskill": 7406,
      "Ġoverw": 7407,
      "Ġinhabit": 7408,
      "box": 7409,
      "enna": 7410,
      "Ġvig": 7411,
      "Ġshell": 7412,
      "Ġpubl": 7413,
      "Ġpoison": 7414,
      "Ġexception": 7415,
      "Ġtypical": 7416,
      "ĠImp": 7417,
      "Ġanxiety": 7418,
      "Ġancest": 7419,
      "bro": 7420,
      "Ġdesert": 7421,
      "Ġboil": 7422,
      "Ġrailway": 7423,
      "cut": 7424,
      "Ġchamber": 7425,
      "Ġspite": 7426,
      "Ġlightly": 7427,
      "Ġabst": 7428,
      "Ġanticip": 7429,
      "Ġrecipe": 7430,
      "Ġtypically": 7431,
      "Ġinterior": 7432,
      "Ġcastle": 7433,
      "atus": 7434,
      "Ġped": 7435,
      "ĠFootball": 7436,
      "Ġpropos": 7437,
      "orage": 7438,
      "London": 7439,
      "uations": 7440,
      "Ġbanks": 7441,
      "ologies": 7442,
      "ĠHolly": 7443,
      "Ġcompos": 7444,
      "going": 7445,
      "Ġconclusion": 7446,
      "Ġchemical": 7447,
      "Ġsubs": 7448,
      "ORD": 7449,
      "ĠHead": 7450,
      "ĠRod": 7451,
      "EP": 7452,
      "Ġtriumph": 7453,
      "adelph": 7454,
      "Ġcompre": 7455,
      "Ġrecall": 7456,
      "ĠWalter": 7457,
      "Ġgang": 7458,
      "Ġritual": 7459,
      "Ġexcited": 7460,
      "Ġweeke": 7461,
      "Ġjumped": 7462,
      "anwhile": 7463,
      "Ġsquad": 7464,
      "ĠPut": 7465,
      "Ġselection": 7466,
      "elling": 7467,
      "icity": 7468,
      "Ġemerged": 7469,
      "Ġatmosphere": 7470,
      "ĠGames": 7471,
      "ĠAmong": 7472,
      "ĠMas": 7473,
      "ĠFig": 7474,
      "agged": 7475,
      "ervative": 7476,
      "rup": 7477,
      "Ġsteady": 7478,
      "Ġreward": 7479,
      "ĠHal": 7480,
      "Ġshit": 7481,
      "ĠBow": 7482,
      "ĠFair": 7483,
      "Ġinspired": 7484,
      "UN": 7485,
      "ĠPier": 7486,
      "Ġemotions": 7487,
      "don": 7488,
      "AND": 7489,
      "Ġsculpt": 7490,
      "wan": 7491,
      "Ġreminded": 7492,
      "sters": 7493,
      "Ġrational": 7494,
      "Ġdestruction": 7495,
      "Ġfulf": 7496,
      "Ġshaking": 7497,
      "Ġprofession": 7498,
      "Ġtechniques": 7499,
      "Ġlandscape": 7500,
      "Ġsteam": 7501,
      "erable": 7502,
      "Ġgrounds": 7503,
      "ĠTake": 7504,
      "Ġsole": 7505,
      "Ġopposed": 7506,
      "aka": 7507,
      "ĠAlf": 7508,
      "Ġanymore": 7509,
      "Ġsurre": 7510,
      "ĠPortug": 7511,
      "aints": 7512,
      "Ġprofessor": 7513,
      "ĠGil": 7514,
      "Ġsending": 7515,
      "Ġconfident": 7516,
      "Ġagents": 7517,
      "Ġfoods": 7518,
      "Pe": 7519,
      "Ġtrained": 7520,
      "Ġidentify": 7521,
      "igen": 7522,
      "Ġviolent": 7523,
      "Ġproviding": 7524,
      "Ġfaster": 7525,
      "Ġretired": 7526,
      "Ġelsewhere": 7527,
      "ĠSav": 7528,
      "ĠBal": 7529,
      "fortunately": 7530,
      "Ġattempted": 7531,
      "Ġfuel": 7532,
      "Ġjobs": 7533,
      "iley": 7534,
      "ĠSarah": 7535,
      "Ġultimately": 7536,
      "ĠâĤ¬": 7537,
      "Ġ_h": 7538,
      "Ġnarrative": 7539,
      "Ġcabin": 7540,
      "Ġaston": 7541,
      "Ġrend": 7542,
      "ĠArts": 7543,
      "Ġgrim": 7544,
      "ifting": 7545,
      "Ġincorpor": 7546,
      "Ġrecalled": 7547,
      "ugged": 7548,
      "olt": 7549,
      "ĠCharlie": 7550,
      "Ġhorror": 7551,
      "Ġrates": 7552,
      "mend": 7553,
      "Ġprayer": 7554,
      "Ġinvestigation": 7555,
      "avig": 7556,
      "ĠOrgan": 7557,
      "ĠPennsylvania": 7558,
      "ds": 7559,
      "Ġclimbed": 7560,
      "Ġdeeper": 7561,
      "Ġrecommend": 7562,
      "atched": 7563,
      "ĠAut": 7564,
      "Ġinher": 7565,
      "Ġspark": 7566,
      "Ġalbums": 7567,
      "Ġcharged": 7568,
      "ouses": 7569,
      "state": 7570,
      "Ġdefeated": 7571,
      "Ġsoftly": 7572,
      "inations": 7573,
      "ĠBoard": 7574,
      "Ġgrey": 7575,
      "ĠSix": 7576,
      "Ġapproximately": 7577,
      "Î¼": 7578,
      "Okay": 7579,
      "Ġnurs": 7580,
      "ĠFollow": 7581,
      "html": 7582,
      "ĠNews": 7583,
      "Ġwhenever": 7584,
      "ĠEth": 7585,
      "Ġmode": 7586,
      "ĠLine": 7587,
      "ĠWales": 7588,
      "Ġrefuge": 7589,
      "ĠHim": 7590,
      "Ġcollabor": 7591,
      "ĠGab": 7592,
      "Ġhelps": 7593,
      "adelphia": 7594,
      "Ġshadows": 7595,
      "Ġremote": 7596,
      "Ġtact": 7597,
      "Ġwondering": 7598,
      "Ġworn": 7599,
      "ĠBrother": 7600,
      "Ġnewly": 7601,
      "Ġvic": 7602,
      "ĠPlan": 7603,
      "ĠEarl": 7604,
      "wich": 7605,
      "Ġvaluable": 7606,
      "Ġlawyer": 7607,
      "atherine": 7608,
      "ez": 7609,
      "text": 7610,
      "Ġqueen": 7611,
      "case": 7612,
      "pelled": 7613,
      "Ġprecisely": 7614,
      "Ġshooting": 7615,
      "des": 7616,
      "ĠHotel": 7617,
      "iy": 7618,
      "Ġchamp": 7619,
      "ĠNick": 7620,
      "Ġconsequences": 7621,
      "Ġcontaining": 7622,
      "aron": 7623,
      "aren": 7624,
      "pended": 7625,
      "Ġconducted": 7626,
      "_The": 7627,
      "there": 7628,
      "ĠTaylor": 7629,
      "Ġshar": 7630,
      "Ġcombat": 7631,
      "Ġhast": 7632,
      "Ġguards": 7633,
      "ĠHind": 7634,
      "Ġintr": 7635,
      "Ġguilty": 7636,
      "ĠWithout": 7637,
      "onia": 7638,
      "rm": 7639,
      "Ġlap": 7640,
      "Ġprotest": 7641,
      "heim": 7642,
      "o_": 7643,
      "ugg": 7644,
      "Ġdrugs": 7645,
      "Ġecho": 7646,
      "Ġachieved": 7647,
      "Ġbillion": 7648,
      "Ġgenuine": 7649,
      "Ġinteract": 7650,
      "Ġcommonly": 7651,
      "Ġforehead": 7652,
      "Ġcriminal": 7653,
      "Ġassault": 7654,
      "Ġclouds": 7655,
      "iser": 7656,
      "cow": 7657,
      "acious": 7658,
      "illery": 7659,
      "Ġ_f": 7660,
      "Ġfundamental": 7661,
      "ĠFrancis": 7662,
      "irts": 7663,
      "imental": 7664,
      "ĠHitler": 7665,
      "Ġoverwhel": 7666,
      "Ġbeans": 7667,
      "Ġphrase": 7668,
      "Ġjump": 7669,
      "Ġpredict": 7670,
      "Ġcultiv": 7671,
      "Ġbold": 7672,
      "aux": 7673,
      "Ġvehicle": 7674,
      "unior": 7675,
      "ĠGreg": 7676,
      "Ġregarding": 7677,
      "Ġeval": 7678,
      "Ġacknowled": 7679,
      "Ġregret": 7680,
      "ĠAri": 7681,
      "ĠAvenue": 7682,
      "Ġformation": 7683,
      "Our": 7684,
      "thew": 7685,
      "Ġradical": 7686,
      "Ġauthors": 7687,
      "Ġassigned": 7688,
      "Ġoccurs": 7689,
      "Ġfactor": 7690,
      "tha": 7691,
      "Ġfrozen": 7692,
      "Ġexternal": 7693,
      "Ġfolk": 7694,
      "rive": 7695,
      "Ġles": 7696,
      "new": 7697,
      "Ġfortune": 7698,
      "itement": 7699,
      "Ġsacred": 7700,
      "Ġbroadcast": 7701,
      "Ġcustomers": 7702,
      "Ġbuck": 7703,
      "Ġconcluded": 7704,
      "Ġlots": 7705,
      "Ġseeking": 7706,
      "ĠPoint": 7707,
      "rum": 7708,
      "Ġbriefly": 7709,
      "Ġstandards": 7710,
      "Ġpecul": 7711,
      "Ġprivile": 7712,
      "Ġvisitors": 7713,
      "Ġhers": 7714,
      "wed": 7715,
      "Ġclassic": 7716,
      "ansas": 7717,
      "Ġcrown": 7718,
      "Ġinfl": 7719,
      "aire": 7720,
      "Ġclothing": 7721,
      "Ġoun": 7722,
      "iped": 7723,
      "Ġfiles": 7724,
      "ĠMid": 7725,
      "urches": 7726,
      "Ġprospect": 7727,
      "ĠCard": 7728,
      "ĠSpecial": 7729,
      "Ġcounty": 7730,
      "Ġnights": 7731,
      "Ġven": 7732,
      "Ġletting": 7733,
      "Ġspirits": 7734,
      "Ġinvestment": 7735,
      "Ġconfirmed": 7736,
      "Ġpoly": 7737,
      "ĠHell": 7738,
      "Ġguest": 7739,
      "Ġlanding": 7740,
      "Ġtip": 7741,
      "Ġappeal": 7742,
      "ĠSupp": 7743,
      "Ġfunny": 7744,
      "Ġtheme": 7745,
      "Ġclimate": 7746,
      "rane": 7747,
      "Ġyard": 7748,
      "Ġsoftware": 7749,
      "Ġflavor": 7750,
      "Ġgraph": 7751,
      "itter": 7752,
      "ĠAnna": 7753,
      "Ġconcerns": 7754,
      "Fig": 7755,
      "Ġbrings": 7756,
      "Ġanswers": 7757,
      "Ġalle": 7758,
      "obe": 7759,
      "ĠTit": 7760,
      "Ġnaked": 7761,
      "Ġobsc": 7762,
      "Ġservants": 7763,
      "Ġgrat": 7764,
      "Ġpossession": 7765,
      "ĠDie": 7766,
      "Ġlift": 7767,
      "Ġdebt": 7768,
      "Ġelder": 7769,
      "Ġsurvive": 7770,
      "ologists": 7771,
      "ĠKat": 7772,
      "Like": 7773,
      "tes": 7774,
      "Ġconcrete": 7775,
      "Ġhab": 7776,
      "Col": 7777,
      "bec": 7778,
      "Ġprominent": 7779,
      "Ġcousin": 7780,
      "acc": 7781,
      "Ġerror": 7782,
      "Ġdistract": 7783,
      "Ġprimarily": 7784,
      "Ġarchitecture": 7785,
      "peare": 7786,
      "Ġroads": 7787,
      "ĠWeb": 7788,
      "Ġstretched": 7789,
      "otte": 7790,
      "Ġboss": 7791,
      "ĠCall": 7792,
      "ĠLewis": 7793,
      "Ġinstructions": 7794,
      "ĠÃĹ": 7795,
      "Ġdishes": 7796,
      "ĠUN": 7797,
      "OUR": 7798,
      "čĊ": 7799,
      "wen": 7800,
      "ĠSecretary": 7801,
      "ĠModern": 7802,
      "Ġfifth": 7803,
      "Ġinvent": 7804,
      "child": 7805,
      "Ġimpr": 7806,
      "Ġextraordinary": 7807,
      "tion": 7808,
      "Ġnecessarily": 7809,
      "Fr": 7810,
      "Ġlanguages": 7811,
      "Ġanxious": 7812,
      "ĠMaria": 7813,
      "ĠNet": 7814,
      "Ġclock": 7815,
      "ĠJr": 7816,
      "Ġdrunk": 7817,
      "Ġkissed": 7818,
      "Ġdeveloping": 7819,
      "Ġcollected": 7820,
      "aver": 7821,
      "Ġteachers": 7822,
      "Ġwrites": 7823,
      "Sc": 7824,
      "ĠId": 7825,
      "ĠMain": 7826,
      "Ġroots": 7827,
      "ĠStudies": 7828,
      "har": 7829,
      "Ġillness": 7830,
      "umping": 7831,
      "ods": 7832,
      "Ġjew": 7833,
      "ĠSenate": 7834,
      "Ġfarther": 7835,
      "Ġretreat": 7836,
      "Ġregions": 7837,
      "mble": 7838,
      "Ġtoler": 7839,
      "CA": 7840,
      "Ġoperating": 7841,
      "Ġlanded": 7842,
      "usalem": 7843,
      "ĠNotes": 7844,
      "=#": 7845,
      "Ġprices": 7846,
      "Ġsweat": 7847,
      "ĠRen": 7848,
      "inton": 7849,
      "ji": 7850,
      "Ġhurried": 7851,
      "ints": 7852,
      "Ġrecording": 7853,
      "Ġpartly": 7854,
      "Ġexclaimed": 7855,
      "Ġfeatured": 7856,
      "Ġvolunte": 7857,
      "Ġactors": 7858,
      "ĠFree": 7859,
      "olas": 7860,
      "Ġexpans": 7861,
      "struction": 7862,
      "Ġtunn": 7863,
      "umps": 7864,
      "Ġbom": 7865,
      "Ġholid": 7866,
      "ti": 7867,
      "ĠSanta": 7868,
      "hent": 7869,
      "Ġequival": 7870,
      "ĠDer": 7871,
      "geant": 7872,
      "Ġtotally": 7873,
      "Ġbadly": 7874,
      "Ġaccommod": 7875,
      "Ġmotiv": 7876,
      "Ġbrilliant": 7877,
      "Ġdining": 7878,
      "ĠColumbia": 7879,
      "Ġmunicip": 7880,
      "ques": 7881,
      "uv": 7882,
      "ĠRight": 7883,
      "Ġbigger": 7884,
      "uset": 7885,
      "Ġcreative": 7886,
      "Ġprev": 7887,
      "ĠEmperor": 7888,
      "ĠTal": 7889,
      "ĠFire": 7890,
      "Ġadj": 7891,
      "ĠToday": 7892,
      "Ġmoves": 7893,
      "ĠAD": 7894,
      "Ġgle": 7895,
      "thm": 7896,
      "uscript": 7897,
      "ĠSup": 7898,
      "ĠTri": 7899,
      "ĠCoast": 7900,
      "istol": 7901,
      "Ġunexpected": 7902,
      "Ġinch": 7903,
      "his": 7904,
      "Ġrecognition": 7905,
      "Ġdefinition": 7906,
      "ffection": 7907,
      "ĠJustice": 7908,
      "Ġlaughter": 7909,
      "Ġadvoc": 7910,
      "Ġedges": 7911,
      "Ġprepare": 7912,
      "Ġhandsome": 7913,
      "Ġbetray": 7914,
      "Ġdiagn": 7915,
      "olis": 7916,
      "ĠKr": 7917,
      "Ġconfused": 7918,
      "Ġpotatoes": 7919,
      "Ġsecretary": 7920,
      "archy": 7921,
      "Ġconsists": 7922,
      "----": 7923,
      "Ġuniversal": 7924,
      "ded": 7925,
      "Ġcruel": 7926,
      "Ġbegg": 7927,
      "ĠBru": 7928,
      "gian": 7929,
      "ducing": 7930,
      "ĠRh": 7931,
      "addy": 7932,
      "Ġshield": 7933,
      "Ġseparated": 7934,
      "ĠCD": 7935,
      "Ġarrive": 7936,
      "Ġsurvey": 7937,
      "Ġ_See": 7938,
      "ĠChap": 7939,
      "Ġprotein": 7940,
      "wa": 7941,
      "Ġvary": 7942,
      "Ġvital": 7943,
      "Ġcolors": 7944,
      "Ġselling": 7945,
      "Ġexplore": 7946,
      "people": 7947,
      "olks": 7948,
      "Ġarts": 7949,
      "Ġtap": 7950,
      "inating": 7951,
      "Ġrandom": 7952,
      "ĠAtlantic": 7953,
      "Ġstrongly": 7954,
      "ĠCome": 7955,
      "Ġstores": 7956,
      ".),": 7957,
      "Ġstronger": 7958,
      "usions": 7959,
      "Ġaffection": 7960,
      "Ġassistant": 7961,
      "Ġservant": 7962,
      "itled": 7963,
      "Ġsinger": 7964,
      "ĠSa": 7965,
      "oogle": 7966,
      "Ġdecade": 7967,
      "inners": 7968,
      "Ġphoto": 7969,
      "Ġadapt": 7970,
      "Ġchin": 7971,
      "Ġfemin": 7972,
      "aya": 7973,
      "Ġlung": 7974,
      "vas": 7975,
      "about": 7976,
      "Ġrode": 7977,
      "cluding": 7978,
      "ĠOlympics": 7979,
      "Ġprince": 7980,
      "umed": 7981,
      "Ġaffair": 7982,
      "Ġchecked": 7983,
      "hesis": 7984,
      "ello": 7985,
      "Ġpermanent": 7986,
      "abs": 7987,
      "Ġblame": 7988,
      "ĠPak": 7989,
      "Ġjer": 7990,
      "called": 7991,
      "ieval": 7992,
      "Ġblocks": 7993,
      "burn": 7994,
      "Ġlux": 7995,
      "Ġconstructed": 7996,
      "Ġease": 7997,
      "ĠMargaret": 7998,
      "Ġdebate": 7999,
      "akespeare": 8000,
      "Ġswitch": 8001,
      "Ġshake": 8002,
      "ĠMatt": 8003,
      "stream": 8004,
      "Two": 8005,
      "Ġarrested": 8006,
      "ĠBeach": 8007,
      "Somet": 8008,
      "Ġteen": 8009,
      "Ġdocuments": 8010,
      "ournament": 8011,
      "Ġignor": 8012,
      "ĠNich": 8013,
      "Ġdiplom": 8014,
      "rec": 8015,
      "Ġtranslation": 8016,
      "Ġboots": 8017,
      "enh": 8018,
      "Ġgovernor": 8019,
      "orters": 8020,
      "Ġdiscovery": 8021,
      "ouch": 8022,
      "Ġsixty": 8023,
      "Ġexcitement": 8024,
      "Ġcrying": 8025,
      "Ġfilling": 8026,
      "Ġlucky": 8027,
      "ĠNote": 8028,
      "ĠAge": 8029,
      "ĠScottish": 8030,
      "Ġsettlement": 8031,
      "ĠHan": 8032,
      "Ġmild": 8033,
      "Ġate": 8034,
      "Ġslept": 8035,
      "uther": 8036,
      "Ġtechnical": 8037,
      "ĠGovernor": 8038,
      "ĠBul": 8039,
      "raph": 8040,
      "ĠTurk": 8041,
      "Ġcasual": 8042,
      "Ġbitter": 8043,
      "achuset": 8044,
      "achusetts": 8045,
      "Ġtwent": 8046,
      "Ġmarks": 8047,
      "Ġriding": 8048,
      "ĠIns": 8049,
      "ĠSteve": 8050,
      "Ġthreatened": 8051,
      "ĠDub": 8052,
      "atern": 8053,
      "Ġdece": 8054,
      "Ġboats": 8055,
      "ĠDevelopment": 8056,
      "ĠWrit": 8057,
      "lan": 8058,
      "Ġcheap": 8059,
      "Ġearned": 8060,
      "Ġain": 8061,
      "Ġceiling": 8062,
      "ĠWin": 8063,
      ")**": 8064,
      "Ġharder": 8065,
      "ĠBroad": 8066,
      "ulty": 8067,
      "net": 8068,
      "ĠAlice": 8069,
      "fit": 8070,
      "Ġreturns": 8071,
      "Ġbars": 8072,
      "math": 8073,
      "ĠRev": 8074,
      "Ãº": 8075,
      "olve": 8076,
      "Ġscenes": 8077,
      "Ġcheeks": 8078,
      "Any": 8079,
      "Ġgay": 8080,
      "Ġassistance": 8081,
      "ĠKennedy": 8082,
      "ĠSet": 8083,
      "OV": 8084,
      "Ġphase": 8085,
      "Ġanybody": 8086,
      "ige": 8087,
      "Ġdescribes": 8088,
      "ĠStone": 8089,
      "organ": 8090,
      "Ġseats": 8091,
      "ographic": 8092,
      "gery": 8093,
      "Once": 8094,
      "ĠLi": 8095,
      "ĠCorps": 8096,
      "Ġexecutive": 8097,
      "Ġprime": 8098,
      "awn": 8099,
      "Ġaltogether": 8100,
      "Ġneut": 8101,
      "ĠMake": 8102,
      "otted": 8103,
      "Ġdwell": 8104,
      "Ġconfusion": 8105,
      "ĠOhio": 8106,
      "ĠDemocratic": 8107,
      "ĠStation": 8108,
      "Ġjacket": 8109,
      "ailing": 8110,
      "Ġindicated": 8111,
      "ĠLieutenant": 8112,
      "Ã¡n": 8113,
      "ĠWhich": 8114,
      "Ġdedicated": 8115,
      "Ġfalls": 8116,
      "Ġdemands": 8117,
      "Ġgrin": 8118,
      "Ġsche": 8119,
      "Ġeleg": 8120,
      "Ġcrop": 8121,
      "Ġyesterday": 8122,
      "Ġpersonality": 8123,
      "Ġcommittee": 8124,
      "seless": 8125,
      "irect": 8126,
      "Ġsne": 8127,
      "ĠCreek": 8128,
      "Ġbiggest": 8129,
      "Å«": 8130,
      "Ġglasses": 8131,
      "Ġfabric": 8132,
      "ĠTam": 8133,
      "inces": 8134,
      "Ġfoundation": 8135,
      "eyed": 8136,
      "iac": 8137,
      "ĠHu": 8138,
      "ĠFamily": 8139,
      "OD": 8140,
      "engers": 8141,
      "center": 8142,
      "Ġpuzz": 8143,
      "hard": 8144,
      "Ġinitially": 8145,
      "Ġpalm": 8146,
      "Ġheading": 8147,
      "Ġouter": 8148,
      "Ġtough": 8149,
      "ubb": 8150,
      "ĠKim": 8151,
      "iday": 8152,
      "ugs": 8153,
      "Ġpaying": 8154,
      "ĠAwards": 8155,
      "ĠHung": 8156,
      "itched": 8157,
      "pled": 8158,
      "Ġmuscles": 8159,
      "Ġ()": 8160,
      "Ġreflected": 8161,
      "Ġbloody": 8162,
      "Ġcorrid": 8163,
      "Ġdirections": 8164,
      "Ġcorrupt": 8165,
      "Ġhunting": 8166,
      "Ġwaist": 8167,
      "Ġsubsequent": 8168,
      "iking": 8169,
      "Ġmanifest": 8170,
      "Ġcooper": 8171,
      "Ġworship": 8172,
      "ĠÐ": 8173,
      "Ġretire": 8174,
      "Ġdamn": 8175,
      "oard": 8176,
      "ĠON": 8177,
      "eries": 8178,
      "Ġinfin": 8179,
      "ĠMond": 8180,
      "Ġstranger": 8181,
      "resses": 8182,
      "Ġknee": 8183,
      "Ġslid": 8184,
      "Ġexisted": 8185,
      "sets": 8186,
      "Ġfond": 8187,
      "Ġholy": 8188,
      "Ġmaintained": 8189,
      "Ġrecru": 8190,
      "Ġcryst": 8191,
      "pense": 8192,
      "Ġsteep": 8193,
      "Ġrolling": 8194,
      "ags": 8195,
      "aned": 8196,
      "ĠVictoria": 8197,
      "Ġcleared": 8198,
      "Another": 8199,
      "Ġsymptoms": 8200,
      "aughters": 8201,
      "Ġneighb": 8202,
      "Ġdigital": 8203,
      "ĠChris": 8204,
      "Ġchannel": 8205,
      "Ġsurf": 8206,
      "Ġhated": 8207,
      "Have": 8208,
      "ĠSeries": 8209,
      "iences": 8210,
      "Ġshortly": 8211,
      "ĠMarx": 8212,
      "Ġbree": 8213,
      "Ġguarant": 8214,
      "Ġ_New": 8215,
      "ĠAnton": 8216,
      "Ġpilot": 8217,
      "ifications": 8218,
      "epend": 8219,
      "Ġenh": 8220,
      "Ġdign": 8221,
      "Ġresist": 8222,
      "ĠRepublican": 8223,
      "Ġlaunch": 8224,
      "Ġpublication": 8225,
      "ĠSports": 8226,
      "________________": 8227,
      "acement": 8228,
      "BS": 8229,
      "Ġparallel": 8230,
      "umbling": 8231,
      "Ġcontrovers": 8232,
      "Ġkeeps": 8233,
      "Ãł": 8234,
      "cend": 8235,
      "ĠSn": 8236,
      "ĠWould": 8237,
      "ĠCas": 8238,
      "ĠMaj": 8239,
      "ĠGeorgia": 8240,
      "ĠMassachusetts": 8241,
      "Ġsupplies": 8242,
      "Ġfirmly": 8243,
      "ĠMo": 8244,
      "Ġupset": 8245,
      "ellow": 8246,
      "ĠBon": 8247,
      "ĠCommon": 8248,
      "Ġconcerning": 8249,
      "Ġrush": 8250,
      "Ġintroduction": 8251,
      "ĠDown": 8252,
      "INE": 8253,
      "ockey": 8254,
      "pton": 8255,
      "Ġalcohol": 8256,
      "Ġpolitician": 8257,
      "word": 8258,
      "Ġtechnique": 8259,
      "Ġthrust": 8260,
      "Ġcreatures": 8261,
      "ifies": 8262,
      "Ġliberal": 8263,
      "Ġrural": 8264,
      "Ġoz": 8265,
      "Ġvalid": 8266,
      "ĠLiter": 8267,
      "Ġbrave": 8268,
      "Ġexists": 8269,
      "Ġeleven": 8270,
      "Ġparad": 8271,
      "Ġassociation": 8272,
      "herent": 8273,
      "Ġexceed": 8274,
      "onder": 8275,
      "ifer": 8276,
      "Ġfriendship": 8277,
      "Ġexplo": 8278,
      "white": 8279,
      "Ġfled": 8280,
      "inked": 8281,
      "Ġcontrary": 8282,
      "Ġtiss": 8283,
      "Ġassign": 8284,
      "Ġacademic": 8285,
      "ĠJerusalem": 8286,
      "Ġclassical": 8287,
      "Ġwhisper": 8288,
      "Ġsheep": 8289,
      "vy": 8290,
      "Ġdesperate": 8291,
      "Ġdisturb": 8292,
      "ĠPhiladelphia": 8293,
      "Des": 8294,
      "anz": 8295,
      "ustration": 8296,
      "Ġbutt": 8297,
      "Ġreign": 8298,
      "Ġdepth": 8299,
      "ĠKar": 8300,
      "Ġcraw": 8301,
      "Ġfunds": 8302,
      "Ġdirt": 8303,
      "sen": 8304,
      "Ġhearts": 8305,
      "Ġpointing": 8306,
      "ĠMexican": 8307,
      "Ġmud": 8308,
      "ilarly": 8309,
      "itage": 8310,
      "Ġspending": 8311,
      "FL": 8312,
      "ordon": 8313,
      "Ġlegend": 8314,
      "Ġnuclear": 8315,
      "Ġswift": 8316,
      "ĠFederal": 8317,
      "Ġassured": 8318,
      "Ġnineteenth": 8319,
      "ĠMorr": 8320,
      "Ġmarkets": 8321,
      "Ġstirring": 8322,
      "Ġprofound": 8323,
      "Ġsisters": 8324,
      "zing": 8325,
      "Ġtrig": 8326,
      "ĠBrad": 8327,
      "Ġinnov": 8328,
      "stra": 8329,
      "Ġreck": 8330,
      "Ġvictims": 8331,
      "ĠLow": 8332,
      "ĠTony": 8333,
      "Ġtremb": 8334,
      "()": 8335,
      "uz": 8336,
      "rett": 8337,
      "osa": 8338,
      "gor": 8339,
      "Ġwanting": 8340,
      "Ġsink": 8341,
      "Ġparam": 8342,
      "Ġcha": 8343,
      "Ġextensive": 8344,
      "heat": 8345,
      "Ġcapture": 8346,
      "ĠUr": 8347,
      "Ġduties": 8348,
      "Ġcompanion": 8349,
      "Ġpreferred": 8350,
      "Ġsynt": 8351,
      "Ġtorn": 8352,
      "ĠFreder": 8353,
      "Ġdevoted": 8354,
      "ĠPalest": 8355,
      "ashes": 8356,
      "Ġanch": 8357,
      "Ġsam": 8358,
      "Ġglory": 8359,
      "Ġislands": 8360,
      "ĠBilly": 8361,
      "Ġdispl": 8362,
      "abled": 8363,
      "ĠSpace": 8364,
      "anting": 8365,
      "Ġtank": 8366,
      "resents": 8367,
      "Ġ_V": 8368,
      "Ġmanufacture": 8369,
      "ĠNature": 8370,
      "Ġlimits": 8371,
      "Ġcondem": 8372,
      "Ġphilosoph": 8373,
      "Ġadmir": 8374,
      "Ġcontrolled": 8375,
      "Ġopportunities": 8376,
      "BI": 8377,
      "alion": 8378,
      "ĠOtt": 8379,
      "Ġsnapped": 8380,
      "ĠFord": 8381,
      "Ġpacked": 8382,
      "Ġawarded": 8383,
      "oric": 8384,
      "Ġpitch": 8385,
      "ĠOrig": 8386,
      "oming": 8387,
      "atures": 8388,
      "onto": 8389,
      "ĠOlympic": 8390,
      "Ġdecre": 8391,
      "ĠRout": 8392,
      "Ġescaped": 8393,
      "ĠAuthor": 8394,
      "Ġvillages": 8395,
      "Ġunconscious": 8396,
      "Ġsod": 8397,
      "Ġpurchase": 8398,
      "mail": 8399,
      "ĠFle": 8400,
      "Ġserves": 8401,
      "ĠCastle": 8402,
      "avity": 8403,
      "Ġhungry": 8404,
      "chief": 8405,
      "Ġwhereas": 8406,
      "ĠTemple": 8407,
      "Ġfootballers": 8408,
      "ĠBridge": 8409,
      "cies": 8410,
      "aki": 8411,
      "Ġindependence": 8412,
      "Ġmedal": 8413,
      "ĠTherefore": 8414,
      "Ġsale": 8415,
      "Ġkil": 8416,
      "ERS": 8417,
      "Ġresulting": 8418,
      "Ġemployees": 8419,
      "sembly": 8420,
      "velt": 8421,
      "amped": 8422,
      "Ġchart": 8423,
      "us_": 8424,
      "ĠCab": 8425,
      "Ġresponded": 8426,
      "ĠDavis": 8427,
      "Ġprinted": 8428,
      "Hey": 8429,
      "Ġsatisfied": 8430,
      "Ġhorn": 8431,
      "Ġsliced": 8432,
      "Ġbother": 8433,
      "ESS": 8434,
      "lock": 8435,
      "ĠMoscow": 8436,
      "Ġcovering": 8437,
      "Ġdancing": 8438,
      "ophy": 8439,
      "rient": 8440,
      "Ġtas": 8441,
      "ĠDoctor": 8442,
      "Ġinspir": 8443,
      "Ġregularly": 8444,
      "Ġsurvived": 8445,
      "Ġstriking": 8446,
      "Ed": 8447,
      "Ġtie": 8448,
      "ĠUsing": 8449,
      "Ġpoliticians": 8450,
      "Ġtale": 8451,
      "Ġdetailed": 8452,
      "Ġinjury": 8453,
      "ĠGrace": 8454,
      "ĠRon": 8455,
      "PS": 8456,
      "Ġrushed": 8457,
      "Ġneat": 8458,
      "Ġthoroughly": 8459,
      "Int": 8460,
      "Ġcurtain": 8461,
      "Ġmillions": 8462,
      "ĠSamuel": 8463,
      "Ġsup": 8464,
      "Ġsession": 8465,
      "MS": 8466,
      "Ġaddressed": 8467,
      "related": 8468,
      "gers": 8469,
      "Ġclimb": 8470,
      "oa": 8471,
      "Ġsequence": 8472,
      "Ġ_O": 8473,
      "Ġrenew": 8474,
      "Ġbathroom": 8475,
      "Ġempire": 8476,
      "Ġpeculiar": 8477,
      "ĠTen": 8478,
      "ĠBishop": 8479,
      "ĠAk": 8480,
      "Ġelabor": 8481,
      "Ġstaying": 8482,
      "hew": 8483,
      "Ġfishing": 8484,
      "Ġpipe": 8485,
      "ĠThird": 8486,
      "Ġending": 8487,
      "AV": 8488,
      "Ġindex": 8489,
      "Ġmathemat": 8490,
      "oria": 8491,
      "Ġwarned": 8492,
      "Ġdramatic": 8493,
      "Ġignored": 8494,
      "etime": 8495,
      "Ġregional": 8496,
      "ĠAnth": 8497,
      "ĠFestival": 8498,
      "Ġmystery": 8499,
      "pent": 8500,
      "Ġspecifically": 8501,
      "Ġ).": 8502,
      "ori": 8503,
      "ĠCop": 8504,
      "First": 8505,
      "Ġoffices": 8506,
      "kel": 8507,
      "Ġswept": 8508,
      "ĠPoland": 8509,
      "uma": 8510,
      "Ġpace": 8511,
      "Ġindicate": 8512,
      "Ġslip": 8513,
      "Ġgrateful": 8514,
      "ĠGuard": 8515,
      "uity": 8516,
      "Ġdull": 8517,
      "Ġdealing": 8518,
      "Ġinnocent": 8519,
      "dis": 8520,
      "Ġtheore": 8521,
      "ultane": 8522,
      "ĠLaur": 8523,
      "Ġvel": 8524,
      "Ġseasons": 8525,
      "Ġregist": 8526,
      "Ġcomparison": 8527,
      "world": 8528,
      "ownt": 8529,
      "Ġhopes": 8530,
      "Ġlabour": 8531,
      "vo": 8532,
      "ĠRoss": 8533,
      "Ġdefinitely": 8534,
      "Ġwars": 8535,
      "Ġscientists": 8536,
      "Ġgrief": 8537,
      "Ġrope": 8538,
      "Ġfancy": 8539,
      "Ġinhabitants": 8540,
      "Ġrefers": 8541,
      "abil": 8542,
      "Ġdict": 8543,
      "ĠGirl": 8544,
      "Ġpoured": 8545,
      "Dr": 8546,
      "Ġhiding": 8547,
      "Ġwash": 8548,
      "ÂŃ": 8549,
      "ĠCass": 8550,
      "Ġstead": 8551,
      "othy": 8552,
      "ĠVietnam": 8553,
      "iry": 8554,
      "ĠJersey": 8555,
      "Ġcher": 8556,
      "ĠSomething": 8557,
      "Ġirrit": 8558,
      "ĠGrant": 8559,
      "Ġtests": 8560,
      "Ġangle": 8561,
      "oosevelt": 8562,
      "ĠDu": 8563,
      "Ġrepresents": 8564,
      "obb": 8565,
      "inois": 8566,
      "Ġscarcely": 8567,
      "ogen": 8568,
      "idae": 8569,
      "Ġsuspected": 8570,
      "addle": 8571,
      "ĠBrig": 8572,
      "issance": 8573,
      "prise": 8574,
      "ingham": 8575,
      "onze": 8576,
      "ĠRoger": 8577,
      "ĠEric": 8578,
      "Ġmeetings": 8579,
      "ĠBeh": 8580,
      "ĠPap": 8581,
      "Ġstraw": 8582,
      "Ġalumni": 8583,
      "hu": 8584,
      "cup": 8585,
      "Ġsigh": 8586,
      "itudes": 8587,
      "ĠMatthew": 8588,
      "Ġprofit": 8589,
      "Ġpoll": 8590,
      "rant": 8591,
      "Ġbeef": 8592,
      "Ġrust": 8593,
      "Ġcoord": 8594,
      "Ġinstall": 8595,
      "Ġpushing": 8596,
      "ĠSecurity": 8597,
      "Ġabstract": 8598,
      "Ġrival": 8599,
      "tery": 8600,
      "ĠBesides": 8601,
      "Ġtelephone": 8602,
      "Ġrefrig": 8603,
      "inkle": 8604,
      "Ġcontrad": 8605,
      "making": 8606,
      "hedral": 8607,
      "Ġvague": 8608,
      "Ġclosing": 8609,
      "Ġreceiving": 8610,
      "Ġ_b": 8611,
      "Ġresidents": 8612,
      "Ġpolicies": 8613,
      "Ġcycle": 8614,
      "fulness": 8615,
      "Ġmuscle": 8616,
      "Ġneighbour": 8617,
      "Ġnurse": 8618,
      "Ġtexts": 8619,
      "Ġannoy": 8620,
      "Ġdirty": 8621,
      "Ġlone": 8622,
      "ito": 8623,
      "ĠBad": 8624,
      "non": 8625,
      "ĠAT": 8626,
      "Ġromantic": 8627,
      "Ġvit": 8628,
      "Ġcave": 8629,
      "Ġargue": 8630,
      "Ġroutine": 8631,
      "Ġreveal": 8632,
      "Ġfeared": 8633,
      "some": 8634,
      "Ġdistinction": 8635,
      "mo": 8636,
      "Ġreluct": 8637,
      "Ġparking": 8638,
      "Ġconsequence": 8639,
      "unes": 8640,
      "fire": 8641,
      "Ġbore": 8642,
      "RI": 8643,
      "eline": 8644,
      "God": 8645,
      "ibl": 8646,
      "ĠHarvard": 8647,
      "ĠRoy": 8648,
      "orse": 8649,
      "Ġbelonged": 8650,
      "Ġridic": 8651,
      "Ġpiano": 8652,
      "Ġalien": 8653,
      "annah": 8654,
      "orney": 8655,
      "ĠDirector": 8656,
      "Ġcausing": 8657,
      "ĠMountain": 8658,
      "ĠEngine": 8659,
      "Ġtum": 8660,
      "Ġcrossing": 8661,
      "Ġ_x_": 8662,
      "ĠVis": 8663,
      "ĠHoward": 8664,
      "Ġdistinguished": 8665,
      "Ġconsidering": 8666,
      "ĠMilitary": 8667,
      "Ġsatisfaction": 8668,
      "Ġnovels": 8669,
      "ĠShakespeare": 8670,
      "aza": 8671,
      "Ġpasses": 8672,
      "Ġstretch": 8673,
      "Ġblade": 8674,
      "Ġdivor": 8675,
      "Ġclubs": 8676,
      "ĠColor": 8677,
      "ĠNext": 8678,
      "Ġgrandfather": 8679,
      "page": 8680,
      "adium": 8681,
      "igrants": 8682,
      "Ġcogn": 8683,
      "Ġputs": 8684,
      "uddenly": 8685,
      "SP": 8686,
      "Ġagency": 8687,
      "ĠCorpor": 8688,
      "Ġprovince": 8689,
      "Ġinterpretation": 8690,
      "achment": 8691,
      "Ġflex": 8692,
      "kind": 8693,
      "Ġwaved": 8694,
      "Before": 8695,
      "Ġlover": 8696,
      "Ġproducer": 8697,
      "Ġpap": 8698,
      "dney": 8699,
      "ĠHand": 8700,
      "Ġcolleagues": 8701,
      "ĠSpirit": 8702,
      "ĠProject": 8703,
      "Ġretain": 8704,
      "Ġmanuscript": 8705,
      "ĠUncle": 8706,
      "pert": 8707,
      "Ġderived": 8708,
      "Ġmole": 8709,
      "yes": 8710,
      "Ġscared": 8711,
      "Ġbudget": 8712,
      "ĠVi": 8713,
      "ordan": 8714,
      "Ġlinked": 8715,
      "Ġprocl": 8716,
      "ĠMiller": 8717,
      "ĠAmb": 8718,
      "Ġic": 8719,
      "ĠLim": 8720,
      "Ġbearing": 8721,
      "ĠBurn": 8722,
      "Ġpossessed": 8723,
      "\";": 8724,
      "Ġille": 8725,
      "Ġcompass": 8726,
      "Ġhistoric": 8727,
      "ĠMess": 8728,
      "Ġgrain": 8729,
      "Ġsacrifice": 8730,
      "ĠGoogle": 8731,
      "Man": 8732,
      "istent": 8733,
      "ĠRub": 8734,
      "Ġtesting": 8735,
      "Ġcounsel": 8736,
      "Ġhumanity": 8737,
      "Ġ),": 8738,
      "ĠShort": 8739,
      "ĠPolish": 8740,
      "otal": 8741,
      "Ġrows": 8742,
      "Ġimperial": 8743,
      "Ġcm": 8744,
      "Ġdoorway": 8745,
      "Ġspell": 8746,
      "Ġsections": 8747,
      "Ġsignificance": 8748,
      "Ġcaf": 8749,
      "ART": 8750,
      "Ġsty": 8751,
      "Ġbrush": 8752,
      "Ġfucking": 8753,
      "Ġsplend": 8754,
      "Ġcharges": 8755,
      "ĠFa": 8756,
      "Ġdepos": 8757,
      "El": 8758,
      "Ġheadquarters": 8759,
      "rection": 8760,
      "Ġfurniture": 8761,
      "ĠCirc": 8762,
      "Ġnewspapers": 8763,
      "Ġcriticism": 8764,
      "ĠSteven": 8765,
      "aria": 8766,
      "cal": 8767,
      "ĠAssembly": 8768,
      "Ġreass": 8769,
      "Ġdare": 8770,
      "Ġseized": 8771,
      "Ġscored": 8772,
      "sky": 8773,
      "Ġscattered": 8774,
      "ĠÅ": 8775,
      "Ġtub": 8776,
      "ĠLast": 8777,
      "anta": 8778,
      "Ġwithdraw": 8779,
      "Ġcolonial": 8780,
      "Ġprecious": 8781,
      "Ġknocked": 8782,
      "Ġmarch": 8783,
      "Ġhired": 8784,
      "ĠHaving": 8785,
      "ĠIsa": 8786,
      "ennes": 8787,
      "Ġmail": 8788,
      "Ġfrequent": 8789,
      "ĠEverything": 8790,
      "ĠBC": 8791,
      "ĠBall": 8792,
      "ĠAR": 8793,
      "Ge": 8794,
      "ĠFox": 8795,
      "ĠBusiness": 8796,
      "Ġprotected": 8797,
      "Ġcomplicated": 8798,
      "ĠHart": 8799,
      "Ġlabel": 8800,
      "oky": 8801,
      "Ġmenu": 8802,
      "Ġpine": 8803,
      "Ġvulner": 8804,
      "ĠSP": 8805,
      "Ġenvironmental": 8806,
      "Ġsilk": 8807,
      "Ġmart": 8808,
      "Ġbesides": 8809,
      "Ġmatches": 8810,
      "Ġadults": 8811,
      "shap": 8812,
      "Ġhence": 8813,
      "Ġawful": 8814,
      "vation": 8815,
      "Ġdoctors": 8816,
      "rome": 8817,
      "ĠPhilipp": 8818,
      "sex": 8819,
      "ainted": 8820,
      "Ġfever": 8821,
      "Ġdelicate": 8822,
      "Ġtrace": 8823,
      "Ġshifted": 8824,
      "Ġequivalent": 8825,
      "Ġslee": 8826,
      "ILL": 8827,
      "Ġceremony": 8828,
      "Ġlogic": 8829,
      "Ġdiff": 8830,
      "brew": 8831,
      "IST": 8832,
      "ĠJam": 8833,
      "Ġtheatre": 8834,
      "Ġbaseball": 8835,
      "Ġupd": 8836,
      "Ġdrum": 8837,
      "ĠWel": 8838,
      "aders": 8839,
      "Ġarguments": 8840,
      "uced": 8841,
      "Ïħ": 8842,
      "Ġthrone": 8843,
      "amon": 8844,
      "Ġclar": 8845,
      "Ġpause": 8846,
      "Ġcandidate": 8847,
      "Ġlatest": 8848,
      "Ġliterally": 8849,
      "ĠTreat": 8850,
      "y_": 8851,
      "Ġpaintings": 8852,
      "verty": 8853,
      "oning": 8854,
      "Ġstair": 8855,
      ".;": 8856,
      "opher": 8857,
      "ĠClark": 8858,
      "Ġvirtue": 8859,
      "weight": 8860,
      "ĠChristians": 8861,
      "ĠFoundation": 8862,
      "acking": 8863,
      "pson": 8864,
      "Ġbelt": 8865,
      "Ġreserved": 8866,
      "ĠAN": 8867,
      "ĠCrit": 8868,
      "uction": 8869,
      "Although": 8870,
      "ĠStat": 8871,
      "Ġstable": 8872,
      "ĠRoll": 8873,
      "ĠIllinois": 8874,
      "ĠFriday": 8875,
      "alin": 8876,
      "ĠLt": 8877,
      "Ġtrop": 8878,
      "Ãª": 8879,
      "Ġpurchased": 8880,
      "pless": 8881,
      "oded": 8882,
      "ĠGreece": 8883,
      "three": 8884,
      "ĠGOO": 8885,
      "ĠFood": 8886,
      "_S": 8887,
      "Ġbot": 8888,
      "ĠSpring": 8889,
      "Ġabund": 8890,
      "fare": 8891,
      "Ġsalad": 8892,
      "Ġvice": 8893,
      "ethe": 8894,
      "Ġgrip": 8895,
      "Ġpoverty": 8896,
      "ĠFOR": 8897,
      "perial": 8898,
      "_Chapter": 8899,
      "Ġresearc": 8900,
      "Ġerect": 8901,
      "high": 8902,
      "Ġdressing": 8903,
      "cribed": 8904,
      "Ġcombine": 8905,
      "Ġcovers": 8906,
      "arded": 8907,
      ".âĢĻ": 8908,
      "Ġrifle": 8909,
      "gain": 8910,
      "ĠBush": 8911,
      "ĠSupreme": 8912,
      "Ġvessels": 8913,
      "Ġusers": 8914,
      "ĠFive": 8915,
      "Ġgodd": 8916,
      "EF": 8917,
      "itzer": 8918,
      "Ġperpet": 8919,
      "Ġdevices": 8920,
      "Ġsubsequently": 8921,
      "Ġtension": 8922,
      "ĠPa": 8923,
      "Ġweakness": 8924,
      "Ġscheme": 8925,
      "Ġcliff": 8926,
      "ĠHans": 8927,
      "ĠPope": 8928,
      "Ġelections": 8929,
      "âĪ": 8930,
      "Ġcert": 8931,
      "Ġrage": 8932,
      ";\"": 8933,
      "ibli": 8934,
      "EST": 8935,
      "ĠKer": 8936,
      "ifferent": 8937,
      "ĠHoll": 8938,
      "Ġpainful": 8939,
      "Perhaps": 8940,
      "ĠCre": 8941,
      "away": 8942,
      "Ġbench": 8943,
      "Ġnom": 8944,
      "itarian": 8945,
      "Ġstorage": 8946,
      "Ġworthy": 8947,
      "ĠUk": 8948,
      "fa": 8949,
      "Ġha": 8950,
      "Ġmessages": 8951,
      "Ġboo": 8952,
      "acts": 8953,
      "arette": 8954,
      "ĠWorks": 8955,
      "Ġtomatoes": 8956,
      "Ġinvasion": 8957,
      "Ġbasketball": 8958,
      "Ġconfirm": 8959,
      "Ġmerc": 8960,
      "Ġdaughters": 8961,
      "ĀĀ": 8962,
      "door": 8963,
      "ĠIslands": 8964,
      "Ġrecommended": 8965,
      "ĠSquare": 8966,
      "Ġfactory": 8967,
      "tic": 8968,
      "Har": 8969,
      "Ġroughly": 8970,
      "Ġroles": 8971,
      "ĠSeveral": 8972,
      "Ġmoist": 8973,
      "ĠMot": 8974,
      "rons": 8975,
      "ranean": 8976,
      "Ġswung": 8977,
      "issions": 8978,
      "Ġaccused": 8979,
      "ĠCommand": 8980,
      "Ġconsideration": 8981,
      "oven": 8982,
      "Ġchurches": 8983,
      "Ġestablishment": 8984,
      "Ġfigured": 8985,
      "ĠIce": 8986,
      "Ġadventure": 8987,
      "orus": 8988,
      "Ġprisoner": 8989,
      "nut": 8990,
      "Ġencounter": 8991,
      "ogs": 8992,
      "Ġdates": 8993,
      "Ġreasonable": 8994,
      "Ġhighlight": 8995,
      "gas": 8996,
      "Ġrepeat": 8997,
      "Ġdepends": 8998,
      "Ġgri": 8999,
      "ĠRa": 9000,
      "Ġmachines": 9001,
      "estion": 9002,
      "Ġtranslated": 9003,
      "ĠMichigan": 9004,
      "Ġraid": 9005,
      "Ġdisappear": 9006,
      "Ġshops": 9007,
      "ayer": 9008,
      "Ġdescend": 9009,
      "Ġstudying": 9010,
      "Ġqualities": 9011,
      "Ġcub": 9012,
      "Ġencouraged": 9013,
      "Ġentitled": 9014,
      "fish": 9015,
      "ĠCentre": 9016,
      "ĠDark": 9017,
      "oped": 9018,
      "Ġaccord": 9019,
      "Ġreception": 9020,
      "Christ": 9021,
      "ĠConstitution": 9022,
      "Ġnest": 9023,
      "Cont": 9024,
      "Ġefficient": 9025,
      "iders": 9026,
      "Ġreven": 9027,
      "Ġthir": 9028,
      "Ġmuttered": 9029,
      "Ġbirthday": 9030,
      "ĠAle": 9031,
      "ĠBeck": 9032,
      "Ġfrightened": 9033,
      "ĠConference": 9034,
      "Ġtick": 9035,
      "Ġsearching": 9036,
      "Ġintim": 9037,
      "avalry": 9038,
      "andal": 9039,
      "ĠTell": 9040,
      "...'": 9041,
      "Ġengage": 9042,
      "Ġpup": 9043,
      "ĠForest": 9044,
      "name": 9045,
      "icism": 9046,
      "ĠNY": 9047,
      "ĠBeat": 9048,
      "ĠEnter": 9049,
      "Ġnecessity": 9050,
      "ographical": 9051,
      "lie": 9052,
      "Ġemergency": 9053,
      "mers": 9054,
      "ĠFollowing": 9055,
      "Ġpunishment": 9056,
      "ĠMP": 9057,
      "eav": 9058,
      "alo": 9059,
      "ĠPolice": 9060,
      "Ġobservation": 9061,
      "ĠTheatre": 9062,
      "Sm": 9063,
      "ĠErn": 9064,
      "Ġsimultane": 9065,
      "Ġattractive": 9066,
      "Ġgathering": 9067,
      "esy": 9068,
      "Ġentering": 9069,
      "Ġjoke": 9070,
      "agh": 9071,
      "Ġfacilities": 9072,
      "HT": 9073,
      "Ġgrandmother": 9074,
      "ĠHollywood": 9075,
      "ĠRailway": 9076,
      "Ġgesture": 9077,
      "ancer": 9078,
      "power": 9079,
      "Nothing": 9080,
      "ĠKate": 9081,
      "Ġpile": 9082,
      "Ġpersonnel": 9083,
      "ĠHospital": 9084,
      "Ġtransferred": 9085,
      "aman": 9086,
      "ĠKorea": 9087,
      "Ġinstantly": 9088,
      "ĠSE": 9089,
      "Ġrestaurants": 9090,
      "Ġvegetable": 9091,
      "Ġoldest": 9092,
      "ĠAunt": 9093,
      "apse": 9094,
      "Ġmaximum": 9095,
      "Ġbrick": 9096,
      "Ġpier": 9097,
      "emed": 9098,
      "Ġpatri": 9099,
      "ĠGolden": 9100,
      "Ġpoems": 9101,
      "Ġfans": 9102,
      "Ġestablishments": 9103,
      "Ġdragged": 9104,
      "Ġcomposition": 9105,
      "Ġversions": 9106,
      "ĠNations": 9107,
      "Ġma": 9108,
      "ĠExp": 9109,
      "Ġric": 9110,
      "ĠBrian": 9111,
      "Ġforb": 9112,
      "Ġquarters": 9113,
      "Ġsituations": 9114,
      "ĠJos": 9115,
      "ika": 9116,
      "Car": 9117,
      "Ġawareness": 9118,
      "Ġairport": 9119,
      "Ġchoices": 9120,
      "aser": 9121,
      "Ġvisiting": 9122,
      "ixon": 9123,
      "Ġbass": 9124,
      "kward": 9125,
      "olph": 9126,
      "Ġpars": 9127,
      "ĠAth": 9128,
      "Ġbarrel": 9129,
      "Ġunto": 9130,
      "ĠAdm": 9131,
      "urely": 9132,
      "Ġlegit": 9133,
      "Ġho": 9134,
      "vet": 9135,
      "Ġimmense": 9136,
      "Ġinsect": 9137,
      "Ġ_K": 9138,
      "ĠAff": 9139,
      "wr": 9140,
      "Ã´": 9141,
      "ĠRoosevelt": 9142,
      "roduction": 9143,
      "Ġcarriage": 9144,
      "Ġassass": 9145,
      "Ġcharacteristics": 9146,
      "Ġgender": 9147,
      "onut": 9148,
      "Ġencl": 9149,
      "ĠHelen": 9150,
      "Te": 9151,
      "eton": 9152,
      "ERV": 9153,
      "Ġraising": 9154,
      "km": 9155,
      "ographer": 9156,
      "Ġhypot": 9157,
      "unct": 9158,
      "sed": 9159,
      "Ġmac": 9160,
      "Ġacted": 9161,
      "jud": 9162,
      "Ġestimated": 9163,
      "ĠShow": 9164,
      "ĠFlore": 9165,
      "ĠLuke": 9166,
      "Ġrang": 9167,
      "Ġzone": 9168,
      "Ġfolded": 9169,
      "front": 9170,
      "esc": 9171,
      "Ġovert": 9172,
      "ĠUSA": 9173,
      "Ġcourts": 9174,
      "Ġdescent": 9175,
      "Ġtwisted": 9176,
      "imens": 9177,
      "ĠSoph": 9178,
      "ĠBarn": 9179,
      "iller": 9180,
      "Ġimproved": 9181,
      "ĠDesign": 9182,
      "Ġholes": 9183,
      "walk": 9184,
      "ĠAllen": 9185,
      "Ġyog": 9186,
      "ĠProgram": 9187,
      "arks": 9188,
      "abilities": 9189,
      "ificial": 9190,
      "Ġapple": 9191,
      "Ġsuccessfully": 9192,
      "mad": 9193,
      "Ġclever": 9194,
      "gie": 9195,
      "olitan": 9196,
      "Ġsheets": 9197,
      "Ġseated": 9198,
      "ĠJoh": 9199,
      "Ġages": 9200,
      "Ġmargin": 9201,
      "Ġathlet": 9202,
      "ĠChildren": 9203,
      "Ġnormally": 9204,
      "Ġgal": 9205,
      "mouth": 9206,
      "Ġcotton": 9207,
      "irth": 9208,
      "ĠPhilos": 9209,
      "olen": 9210,
      "gly": 9211,
      "Ġcontents": 9212,
      "Ġguilt": 9213,
      "ĠLem": 9214,
      "ĠWy": 9215,
      "olds": 9216,
      "Ġsubstance": 9217,
      "Ġfarmers": 9218,
      "Ġkick": 9219,
      "Ġmush": 9220,
      "ĠTar": 9221,
      "cular": 9222,
      "ĠNov": 9223,
      "Ġinterrupted": 9224,
      "Ġhttp": 9225,
      "Ġprosec": 9226,
      "aga": 9227,
      "ĠRest": 9228,
      "Ġtempor": 9229,
      "Ġclo": 9230,
      "ĠAP": 9231,
      "Ġfed": 9232,
      "Ġdifficulties": 9233,
      "Ġeaten": 9234,
      "ghan": 9235,
      "Ġnavig": 9236,
      "Ġoccasions": 9237,
      "Ġvir": 9238,
      "Ġcritics": 9239,
      "ĠTable": 9240,
      "abase": 9241,
      "atching": 9242,
      "Ġjeal": 9243,
      "Ġinterpre": 9244,
      "ĠSci": 9245,
      "Ġeyebr": 9246,
      "ĠXX": 9247,
      "Ġrecover": 9248,
      "sl": 9249,
      "Most": 9250,
      "ĠPhys": 9251,
      "Ġproportion": 9252,
      "Ġlowered": 9253,
      "Ġreplace": 9254,
      "oper": 9255,
      "Ġspaces": 9256,
      "Ġpenet": 9257,
      "Ġdepending": 9258,
      "ĠMinn": 9259,
      "ĠWhit": 9260,
      "iosity": 9261,
      "level": 9262,
      "Ġharsh": 9263,
      "Ġquoted": 9264,
      "Ġexpedition": 9265,
      "Ġdeparture": 9266,
      "Ġtheater": 9267,
      "Ġpermitted": 9268,
      "abel": 9269,
      "Ġcategory": 9270,
      "Ġorganic": 9271,
      "ami": 9272,
      "Îº": 9273,
      "ims": 9274,
      "Ġskull": 9275,
      "Ġspare": 9276,
      "Ġcattle": 9277,
      "Ġcelebrated": 9278,
      "ĠCut": 9279,
      "Ġnowhere": 9280,
      "Ġcopies": 9281,
      "Ġeffectively": 9282,
      "ĠMun": 9283,
      "BA": 9284,
      "hop": 9285,
      "when": 9286,
      "Ġcontempl": 9287,
      "Ġsovere": 9288,
      "ĠPur": 9289,
      "Ġcord": 9290,
      "Äĩ": 9291,
      "ĠAL": 9292,
      "asures": 9293,
      "Ġdepression": 9294,
      "uin": 9295,
      "Ġexecution": 9296,
      "GLE": 9297,
      "Ġcomedy": 9298,
      "Ġtalent": 9299,
      "ĠGro": 9300,
      "ĠLog": 9301,
      "even": 9302,
      "Ġinfect": 9303,
      "Ġobst": 9304,
      "lines": 9305,
[...]
