{
  "version": "1.0",
  "truncation": null,
  "padding": null,
  "added_tokens": [
    {
      "id": 0,
      "content": "<unk>",
      "single_word": false,
      "lstrip": false,
      "rstrip": false,
      "normalized": false,
      "special": true
    },
    {
      "id": 1,
      "content": "<s>",
      "single_word": false,
      "lstrip": false,
      "rstrip": false,
      "normalized": false,
      "special": true
    },
    {
      "id": 2,
      "content": "</s>",
      "single_word": false,
      "lstrip": false,
      "rstrip": false,
      "normalized": false,
      "special": true
    }
  ],
  "normalizer": {
    "type": "Sequence",
    "normalizers": [
      {
        "type": "NFKC"
      },
      {
        "type": "Replace",
        "pattern": {
          "String": " "
        },
        "content": "▁"
      }
    ]
  },
  "pre_tokenizer": {
    "type": "Sequence",
    "pretokenizers": [
      {
        "type": "Split",
        "pattern": {
          "Regex": "▁"
        },
        "behavior": "MergedWithNext",
        "invert": false
      },
      {
        "type": "Split",
        "pattern": {
          "Regex": "\\d|[⺀-⿟぀-㆏ㆠ-ㆿㇰ-ㇿ㐀-䶵一-鿿ꥠ-꥿가-퟿]"
        },
        "behavior": "Isolated",
        "invert": false
      },
      {
        "type": "Split",
        "pattern": {
          "Regex": "▁*(\\w+|[^\\w\\s]+)"
        },
        "behavior": "Isolated",
        "invert": false
      }
    ]
  },
  "post_processor": null,
  "decoder": {
    "type": "Sequence",
    "decoders": [
      {
        "type": "Replace",
        "pattern": {
          "String": "▁"
        },
        "content": " "
      },
      {
        "type": "ByteFallback"
      }
    ]
  },
  "model": {
    "type": "BPE",
    "dropout": null,
    "unk_token": "<unk>",
    "continuing_subword_prefix": null,
    "end_of_word_suffix": null,
    "fuse_unk": false,
    "byte_fallback": true,
    "vocab": {
      "<unk>": 0,
      "<s>": 1,
      "</s>": 2,
      "<0x00>": 3,
      "<0x01>": 4,
      "<0x02>": 5,
      "<0x03>": 6,
      "<0x04>": 7,
      "<0x05>": 8,
      "<0x06>": 9,
      "<0x07>": 10,
      "<0x08>": 11,
      "<0x09>": 12,
      "<0x0A>": 13,
      "<0x0B>": 14,
      "<0x0C>": 15,
      "<0x0D>": 16,
      "<0x0E>": 17,
      "<0x0F>": 18,
      "<0x10>": 19,
      "<0x11>": 20,
      "<0x12>": 21,
      "<0x13>": 22,
      "<0x14>": 23,
      "<0x15>": 24,
      "<0x16>": 25,
      "<0x17>": 26,
      "<0x18>": 27,
      "<0x19>": 28,
      "<0x1A>": 29,
      "<0x1B>": 30,
      "<0x1C>": 31,
      "<0x1D>": 32,
      "<0x1E>": 33,
      "<0x1F>": 34,
      "<0x20>": 35,
      "<0x21>": 36,
      "<0x22>": 37,
      "<0x23>": 38,
      "<0x24>": 39,
      "<0x25>": 40,
      "<0x26>": 41,
      "<0x27>": 42,
      "<0x28>": 43,
      "<0x29>": 44,
      "<0x2A>": 45,
      "<0x2B>": 46,
      "<0x2C>": 47,
      "<0x2D>": 48,
      "<0x2E>": 49,
      "<0x2F>": 50,
      "<0x30>": 51,
      "<0x31>": 52,
      "<0x32>": 53,
      "<0x33>": 54,
      "<0x34>": 55,
      "<0x35>": 56,
      "<0x36>": 57,
      "<0x37>": 58,
      "<0x38>": 59,
      "<0x39>": 60,
      "<0x3A>": 61,
      "<0x3B>": 62,
      "<0x3C>": 63,
      "<0x3D>": 64,
      "<0x3E>": 65,
      "<0x3F>": 66,
      "<0x40>": 67,
      "<0x41>": 68,
      "<0x42>": 69,
      "<0x43>": 70,
      "<0x44>": 71,
      "<0x45>": 72,
      "<0x46>": 73,
      "<0x47>": 74,
      "<0x48>": 75,
      "<0x49>": 76,
      "<0x4A>": 77,
      "<0x4B>": 78,
      "<0x4C>": 79,
      "<0x4D>": 80,
      "<0x4E>": 81,
      "<0x4F>": 82,
      "<0x50>": 83,
      "<0x51>": 84,
      "<0x52>": 85,
      "<0x53>": 86,
      "<0x54>": 87,
      "<0x55>": 88,
      "<0x56>": 89,
      "<0x57>": 90,
      "<0x58>": 91,
      "<0x59>": 92,
      "<0x5A>": 93,
      "<0x5B>": 94,
      "<0x5C>": 95,
      "<0x5D>": 96,
      "<0x5E>": 97,
      "<0x5F>": 98,
      "<0x60>": 99,
      "<0x61>": 100,
      "<0x62>": 101,
      "<0x63>": 102,
      "<0x64>": 103,
      "<0x65>": 104,
      "<0x66>": 105,
      "<0x67>": 106,
      "<0x68>": 107,
      "<0x69>": 108,
      "<0x6A>": 109,
      "<0x6B>": 110,
      "<0x6C>": 111,
      "<0x6D>": 112,
      "<0x6E>": 113,
      "<0x6F>": 114,
      "<0x70>": 115,
      "<0x71>": 116,
      "<0x72>": 117,
      "<0x73>": 118,
      "<0x74>": 119,
      "<0x75>": 120,
      "<0x76>": 121,
      "<0x77>": 122,
      "<0x78>": 123,
      "<0x79>": 124,
      "<0x7A>": 125,
      "<0x7B>": 126,
      "<0x7C>": 127,
      "<0x7D>": 128,
      "<0x7E>": 129,
      "<0x7F>": 130,
      "<0x80>": 131,
      "<0x81>": 132,
      "<0x82>": 133,
      "<0x83>": 134,
      "<0x84>": 135,
      "<0x85>": 136,
      "<0x86>": 137,
      "<0x87>": 138,
      "<0x88>": 139,
      "<0x89>": 140,
      "<0x8A>": 141,
      "<0x8B>": 142,
      "<0x8C>": 143,
      "<0x8D>": 144,
      "<0x8E>": 145,
      "<0x8F>": 146,
      "<0x90>": 147,
      "<0x91>": 148,
      "<0x92>": 149,
      "<0x93>": 150,
      "<0x94>": 151,
      "<0x95>": 152,
      "<0x96>": 153,
      "<0x97>": 154,
      "<0x98>": 155,
      "<0x99>": 156,
      "<0x9A>": 157,
      "<0x9B>": 158,
      "<0x9C>": 159,
      "<0x9D>": 160,
      "<0x9E>": 161,
      "<0x9F>": 162,
      "<0xA0>": 163,
      "<0xA1>": 164,
      "<0xA2>": 165,
      "<0xA3>": 166,
      "<0xA4>": 167,
      "<0xA5>": 168,
      "<0xA6>": 169,
      "<0xA7>": 170,
      "<0xA8>": 171,
      "<0xA9>": 172,
      "<0xAA>": 173,
      "<0xAB>": 174,
      "<0xAC>": 175,
      "<0xAD>": 176,
      "<0xAE>": 177,
      "<0xAF>": 178,
      "<0xB0>": 179,
      "<0xB1>": 180,
      "<0xB2>": 181,
      "<0xB3>": 182,
      "<0xB4>": 183,
      "<0xB5>": 184,
      "<0xB6>": 185,
      "<0xB7>": 186,
      "<0xB8>": 187,
      "<0xB9>": 188,
      "<0xBA>": 189,
      "<0xBB>": 190,
      "<0xBC>": 191,
      "<0xBD>": 192,
      "<0xBE>": 193,
      "<0xBF>": 194,
      "<0xC0>": 195,
      "<0xC1>": 196,
      "<0xC2>": 197,
      "<0xC3>": 198,
      "<0xC4>": 199,
      "<0xC5>": 200,
      "<0xC6>": 201,
      "<0xC7>": 202,
      "<0xC8>": 203,
      "<0xC9>": 204,
      "<0xCA>": 205,
      "<0xCB>": 206,
      "<0xCC>": 207,
      "<0xCD>": 208,
      "<0xCE>": 209,
      "<0xCF>": 210,
      "<0xD0>": 211,
      "<0xD1>": 212,
      "<0xD2>": 213,
      "<0xD3>": 214,
      "<0xD4>": 215,
      "<0xD5>": 216,
      "<0xD6>": 217,
      "<0xD7>": 218,
      "<0xD8>": 219,
      "<0xD9>": 220,
      "<0xDA>": 221,
      "<0xDB>": 222,
      "<0xDC>": 223,
      "<0xDD>": 224,
      "<0xDE>": 225,
      "<0xDF>": 226,
      "<0xE0>": 227,
      "<0xE1>": 228,
      "<0xE2>": 229,
      "<0xE3>": 230,
      "<0xE4>": 231,
      "<0xE5>": 232,
      "<0xE6>": 233,
      "<0xE7>": 234,
      "<0xE8>": 235,
      "<0xE9>": 236,
      "<0xEA>": 237,
      "<0xEB>": 238,
      "<0xEC>": 239,
      "<0xED>": 240,
      "<0xEE>": 241,
      "<0xEF>": 242,
      "<0xF0>": 243,
      "<0xF1>": 244,
      "<0xF2>": 245,
      "<0xF3>": 246,
      "<0xF4>": 247,
      "<0xF5>": 248,
      "<0xF6>": 249,
      "<0xF7>": 250,
      "<0xF8>": 251,
      "<0xF9>": 252,
      "<0xFA>": 253,
      "<0xFB>": 254,
      "<0xFC>": 255,
      "<0xFD>": 256,
      "<0xFE>": 257,
      "<0xFF>": 258,
      "\u0000": 259,
      "\u0001": 260,
      "\u0002": 261,
      "\u0003": 262,
      "\u0005": 263,
      "\u0006": 264,
      "\u0007": 265,
      "\b": 266,
      "\t": 267,
      "\n": 268,
      "\r": 269,
      "\u0019": 270,
      "\u001b": 271,
      "!": 272,
      "\"": 273,
      "#": 274,
      "$": 275,
      "%": 276,
      "&": 277,
      "'": 278,
      "(": 279,
      ")": 280,
      "*": 281,
      "+": 282,
      ",": 283,
      "-": 284,
      ".": 285,
      "/": 286,
      "0": 287,
      "1": 288,
      "2": 289,
      "3": 290,
      "4": 291,
      "5": 292,
      "6": 293,
      "7": 294,
      "8": 295,
      "9": 296,
      ":": 297,
      ";": 298,
      "<": 299,
      "=": 300,
      ">": 301,
      "?": 302,
      "@": 303,
      "A": 304,
      "B": 305,
      "C": 306,
      "D": 307,
      "E": 308,
      "F": 309,
      "G": 310,
      "H": 311,
      "I": 312,
      "J": 313,
      "K": 314,
      "L": 315,
      "M": 316,
      "N": 317,
      "O": 318,
      "P": 319,
      "Q": 320,
      "R": 321,
      "S": 322,
      "T": 323,
      "U": 324,
      "V": 325,
      "W": 326,
      "X": 327,
      "Y": 328,
      "Z": 329,
      "[": 330,
      "\\": 331,
      "]": 332,
      "^": 333,
      "_": 334,
      "`": 335,
      "a": 336,
      "b": 337,
      "c": 338,
      "d": 339,
      "e": 340,
      "f": 341,
      "g": 342,
      "h": 343,
      "i": 344,
      "j": 345,
      "k": 346,
      "l": 347,
      "m": 348,
      "n": 349,
      "o": 350,
      "p": 351,
      "q": 352,
      "r": 353,
      "s": 354,
      "t": 355,
      "u": 356,
      "v": 357,
      "w": 358,
      "x": 359,
      "y": 360,
      "z": 361,
      "{": 362,
      "|": 363,
      "}": 364,
      "~": 365,
      "": 366,
      "": 367,
      "": 368,
      "": 369,
      "": 370,
      "": 371,
      "": 372,
      "": 373,
      "": 374,
      "": 375,
      "": 376,
      "": 377,
      "": 378,
      "": 379,
      "": 380,
      "": 381,
      "": 382,
      "¡": 383,
      "¢": 384,
      "£": 385,
      "¤": 386,
      "¥": 387,
      "¦": 388,
      "§": 389,
      "©": 390,
      "«": 391,
      "¬": 392,
      "­": 393,
      "®": 394,
      "°": 395,
      "±": 396,
      "¶": 397,
      "·": 398,
      "»": 399,
      "¿": 400,
      "À": 401,
      "Á": 402,
      "Â": 403,
      "Ã": 404,
      "Ä": 405,
      "Å": 406,
      "Æ": 407,
      "Ç": 408,
      "È": 409,
      "É": 410,
      "Ê": 411,
      "Ë": 412,
      "Ì": 413,
      "Í": 414,
      "Î": 415,
      "Ï": 416,
      "Ð": 417,
      "Ñ": 418,
      "Ò": 419,
      "Ó": 420,
      "Ô": 421,
      "Õ": 422,
      "Ö": 423,
      "×": 424,
      "Ø": 425,
      "Ù": 426,
      "Ú": 427,
      "Û": 428,
      "Ü": 429,
      "Ý": 430,
      "Þ": 431,
      "ß": 432,
      "à": 433,
      "á": 434,
      "â": 435,
      "ã": 436,
      "ä": 437,
      "å": 438,
      "æ": 439,
      "ç": 440,
      "è": 441,
      "é": 442,
      "ê": 443,
      "ë": 444,
      "ì": 445,
      "í": 446,
      "î": 447,
      "ï": 448,
      "ð": 449,
      "ñ": 450,
      "ò": 451,
      "ó": 452,
      "ô": 453,
      "õ": 454,
      "ö": 455,
      "÷": 456,
      "ø": 457,
      "ù": 458,
      "ú": 459,
      "û": 460,
      "ü": 461,
      "ý": 462,
      "þ": 463,
      "ÿ": 464,
      "Ā": 465,
      "ā": 466,
      "ă": 467,
      "ą": 468,
      "Ć": 469,
      "ć": 470,
      "Č": 471,
      "č": 472,
      "ď": 473,
      "Đ": 474,
      "đ": 475,
      "ē": 476,
      "ĕ": 477,
      "ė": 478,
      "ę": 479,
      "ě": 480,
      "ğ": 481,
      "ġ": 482,
      "ħ": 483,
      "ĩ": 484,
      "Ī": 485,
      "ī": 486,
      "ĭ": 487,
      "İ": 488,
      "ı": 489,
      "ľ": 490,
      "Ł": 491,
      "ł": 492,
      "ń": 493,
      "ņ": 494,
      "ň": 495,
      "ŋ": 496,
      "Ō": 497,
      "ō": 498,
      "ŏ": 499,
      "Ő": 500,
      "ő": 501,
      "Œ": 502,
      "œ": 503,
      "Ř": 504,
      "ř": 505,
      "Ś": 506,
      "ś": 507,
      "Ş": 508,
      "ş": 509,
      "Š": 510,
      "š": 511,
      "ţ": 512,
      "ť": 513,
      "ũ": 514,
      "ū": 515,
      "ŭ": 516,
      "ů": 517,
      "ű": 518,
      "ų": 519,
      "Ÿ": 520,
      "Ź": 521,
      "ź": 522,
      "Ż": 523,
      "ż": 524,
      "Ž": 525,
      "ž": 526,
      "ƒ": 527,
      "ơ": 528,
      "ư": 529,
      "ǁ": 530,
      "ǎ": 531,
      "ǐ": 532,
      "ǒ": 533,
      "ǔ": 534,
      "Ș": 535,
      "ș": 536,
      "Ț": 537,
      "ț": 538,
      "ɑ": 539,
      "ɔ": 540,
      "ə": 541,
      "ɛ": 542,
      "ɡ": 543,
      "ɪ": 544,
      "ʃ": 545,
      "ʊ": 546,
      "ʹ": 547,
      "ʻ": 548,
      "ʼ": 549,
      "ʾ": 550,
      "ʿ": 551,
      "ˆ": 552,
      "ˈ": 553,
      "ˌ": 554,
      "ː": 555,
      "̀": 556,
      "́": 557,
      "̃": 558,
      "̄": 559,
      "̇": 560,
      "̈": 561,
      "̊": 562,
      "̋": 563,
      "̓": 564,
      "̧": 565,
      "̶": 566,
      "Α": 567,
      "Β": 568,
      "Γ": 569,
      "Δ": 570,
      "Ε": 571,
      "Η": 572,
      "Θ": 573,
      "Ι": 574,
      "Κ": 575,
      "Λ": 576,
      "Μ": 577,
      "Ν": 578,
      "Ο": 579,
      "Π": 580,
      "Ρ": 581,
      "Σ": 582,
      "Τ": 583,
      "Υ": 584,
      "Φ": 585,
      "Χ": 586,
      "Ω": 587,
      "ά": 588,
      "έ": 589,
      "ή": 590,
      "ί": 591,
      "α": 592,
      "β": 593,
      "γ": 594,
      "δ": 595,
      "ε": 596,
      "ζ": 597,
      "η": 598,
      "θ": 599,
      "ι": 600,
      "κ": 601,
      "λ": 602,
      "μ": 603,
      "ν": 604,
      "ξ": 605,
      "ο": 606,
      "π": 607,
      "ρ": 608,
      "ς": 609,
      "σ": 610,
      "τ": 611,
      "υ": 612,
      "φ": 613,
      "χ": 614,
      "ψ": 615,
      "ω": 616,
      "ό": 617,
      "ύ": 618,
      "ώ": 619,
      "Ё": 620,
      "Ђ": 621,
      "Ѓ": 622,
      "Є": 623,
      "Ѕ": 624,
      "І": 625,
      "Ї": 626,
      "Ј": 627,
      "Љ": 628,
      "Њ": 629,
      "Ћ": 630,
      "Џ": 631,
      "А": 632,
      "Б": 633,
      "В": 634,
      "Г": 635,
      "Д": 636,
      "Е": 637,
      "Ж": 638,
      "З": 639,
      "И": 640,
      "Й": 641,
      "К": 642,
      "Л": 643,
      "М": 644,
      "Н": 645,
      "О": 646,
      "П": 647,
      "Р": 648,
      "С": 649,
      "Т": 650,
      "У": 651,
      "Ф": 652,
      "Х": 653,
      "Ц": 654,
      "Ч": 655,
      "Ш": 656,
      "Щ": 657,
      "Ы": 658,
      "Ь": 659,
      "Э": 660,
      "Ю": 661,
      "Я": 662,
      "а": 663,
      "б": 664,
      "в": 665,
      "г": 666,
      "д": 667,
      "е": 668,
      "ж": 669,
      "з": 670,
      "и": 671,
      "й": 672,
      "к": 673,
      "л": 674,
      "м": 675,
      "н": 676,
      "о": 677,
      "п": 678,
      "р": 679,
      "с": 680,
      "т": 681,
      "у": 682,
      "ф": 683,
      "х": 684,
      "ц": 685,
      "ч": 686,
      "ш": 687,
      "щ": 688,
      "ъ": 689,
      "ы": 690,
      "ь": 691,
      "э": 692,
      "ю": 693,
      "я": 694,
      "ё": 695,
      "ђ": 696,
      "є": 697,
      "ѕ": 698,
      "і": 699,
      "ї": 700,
      "ј": 701,
      "љ": 702,
      "њ": 703,
      "ћ": 704,
      "ѝ": 705,
      "ў": 706,
      "џ": 707,
      "Ґ": 708,
      "ґ": 709,
      "ү": 710,
      "һ": 711,
      "ә": 712,
      "ԁ": 713,
      "ԛ": 714,
      "ա": 715,
      "ե": 716,
      "ի": 717,
      "մ": 718,
      "յ": 719,
      "ն": 720,
      "ո": 721,
      "ս": 722,
      "ր": 723,
      "ւ": 724,
      "ְ": 725,
      "ִ": 726,
      "ֵ": 727,
      "ֶ": 728,
      "ַ": 729,
      "ָ": 730,
      "ֹ": 731,
      "ּ": 732,
      "ׁ": 733,
      "א": 734,
      "ב": 735,
      "ג": 736,
      "ד": 737,
      "ה": 738,
      "ו": 739,
      "ז": 740,
      "ח": 741,
      "ט": 742,
      "י": 743,
      "ך": 744,
      "כ": 745,
      "ל": 746,
      "ם": 747,
      "מ": 748,
      "ן": 749,
      "נ": 750,
      "ס": 751,
      "ע": 752,
      "פ": 753,
      "צ": 754,
      "ק": 755,
      "ר": 756,
      "ש": 757,
      "ת": 758,
      "،": 759,
      "ء": 760,
      "آ": 761,
      "أ": 762,
      "إ": 763,
      "ئ": 764,
      "ا": 765,
      "ب": 766,
      "ة": 767,
      "ت": 768,
      "ث": 769,
      "ج": 770,
      "ح": 771,
      "خ": 772,
      "د": 773,
      "ذ": 774,
      "ر": 775,
      "ز": 776,
      "س": 777,
      "ش": 778,
      "ص": 779,
      "ض": 780,
      "ط": 781,
      "ظ": 782,
      "ع": 783,
      "غ": 784,
      "ـ": 785,
      "ف": 786,
      "ق": 787,
      "ك": 788,
      "ل": 789,
      "م": 790,
      "ن": 791,
      "ه": 792,
      "و": 793,
      "ى": 794,
      "ي": 795,
      "ً": 796,
      "َ": 797,
      "ُ": 798,
      "ِ": 799,
      "ّ": 800,
      "ْ": 801,
      "پ": 802,
      "چ": 803,
      "ژ": 804,
      "ک": 805,
      "گ": 806,
      "ں": 807,
      "ہ": 808,
      "ی": 809,
      "ے": 810,
      "ँ": 811,
      "ं": 812,
      "अ": 813,
      "आ": 814,
      "इ": 815,
      "ई": 816,
      "उ": 817,
      "ए": 818,
      "औ": 819,
      "क": 820,
      "ख": 821,
      "ग": 822,
      "च": 823,
      "छ": 824,
      "ज": 825,
      "ट": 826,
      "ठ": 827,
      "ड": 828,
      "ण": 829,
      "त": 830,
      "थ": 831,
      "द": 832,
      "ध": 833,
      "न": 834,
      "प": 835,
      "फ": 836,
      "ब": 837,
      "भ": 838,
      "म": 839,
      "य": 840,
      "र": 841,
      "ल": 842,
      "व": 843,
      "श": 844,
      "ष": 845,
      "स": 846,
      "ह": 847,
      "़": 848,
      "ा": 849,
      "ि": 850,
      "ी": 851,
      "ु": 852,
      "ू": 853,
      "ृ": 854,
      "े": 855,
      "ै": 856,
      "ॉ": 857,
      "ो": 858,
      "ौ": 859,
      "्": 860,
      "।": 861,
      "আ": 862,
      "ক": 863,
      "ট": 864,
      "ত": 865,
      "দ": 866,
      "ন": 867,
      "প": 868,
      "ব": 869,
      "ম": 870,
      "য": 871,
      "র": 872,
      "ল": 873,
      "স": 874,
      "হ": 875,
      "়": 876,
      "া": 877,
      "ি": 878,
      "ু": 879,
      "ে": 880,
      "ো": 881,
      "্": 882,
      "ਾ": 883,
      "ન": 884,
      "ર": 885,
      "ા": 886,
      "ી": 887,
      "ે": 888,
      "્": 889,
      "க": 890,
      "ச": 891,
      "ட": 892,
      "த": 893,
      "ந": 894,
      "ன": 895,
      "ப": 896,
      "ம": 897,
      "ய": 898,
      "ர": 899,
      "ற": 900,
      "ல": 901,
      "ள": 902,
      "வ": 903,
      "ா": 904,
      "ி": 905,
      "ு": 906,
      "ை": 907,
      "்": 908,
      "ం": 909,
      "క": 910,
      "న": 911,
      "ర": 912,
      "ల": 913,
      "ా": 914,
      "ి": 915,
      "ు": 916,
      "్": 917,
      "ದ": 918,
      "ನ": 919,
      "ರ": 920,
      "ಾ": 921,
      "ಿ": 922,
      "ು": 923,
      "್": 924,
      "ക": 925,
      "ത": 926,
      "ന": 927,
      "ി": 928,
      "ു": 929,
      "്": 930,
      "අ": 931,
      "ක": 932,
      "ග": 933,
      "ට": 934,
      "ත": 935,
      "ද": 936,
      "න": 937,
      "ප": 938,
      "බ": 939,
      "ම": 940,
      "ය": 941,
      "ර": 942,
      "ල": 943,
      "ව": 944,
      "ස": 945,
      "හ": 946,
      "්": 947,
      "ා": 948,
      "ැ": 949,
      "ි": 950,
      "ී": 951,
      "ු": 952,
      "ෙ": 953,
      "ේ": 954,
      "ก": 955,
      "ข": 956,
      "ค": 957,
      "ง": 958,
      "จ": 959,
      "ช": 960,
      "ด": 961,
      "ต": 962,
      "ท": 963,
      "น": 964,
      "บ": 965,
      "ป": 966,
      "พ": 967,
      "ม": 968,
      "ย": 969,
      "ร": 970,
      "ล": 971,
      "ว": 972,
      "ส": 973,
      "ห": 974,
      "อ": 975,
      "ะ": 976,
      "ั": 977,
      "า": 978,
      "ิ": 979,
      "ี": 980,
      "ื": 981,
      "ุ": 982,
      "ู": 983,
      "฿": 984,
      "เ": 985,
      "แ": 986,
      "โ": 987,
      "ใ": 988,
      "ไ": 989,
      "็": 990,
      "่": 991,
      "้": 992,
      "์": 993,
      "ํ": 994,
      "ນ": 995,
      "າ": 996,
      "་": 997,
      "ာ": 998,
      "း": 999,
      "္": 1000,
      "်": 1001,
      "ა": 1002,
      "ბ": 1003,
      "გ": 1004,
      "დ": 1005,
      "ე": 1006,
      "ვ": 1007,
      "თ": 1008,
      "ი": 1009,
      "კ": 1010,
      "ლ": 1011,
      "მ": 1012,
      "ნ": 1013,
      "ო": 1014,
      "რ": 1015,
      "ს": 1016,
      "ტ": 1017,
      "უ": 1018,
      "ქ": 1019,
      "შ": 1020,
      "ც": 1021,
      "წ": 1022,
      "ხ": 1023,
      "ት": 1024,
      "ን": 1025,
      "្": 1026,
      "ḍ": 1027,
      "Ḥ": 1028,
      "ḥ": 1029,
      "ṁ": 1030,
      "ṃ": 1031,
      "ṅ": 1032,
      "ṇ": 1033,
      "ṛ": 1034,
      "Ṣ": 1035,
      "ṣ": 1036,
      "Ṭ": 1037,
      "ṭ": 1038,
      "ạ": 1039,
      "ả": 1040,
      "ấ": 1041,
      "ầ": 1042,
      "ậ": 1043,
      "ắ": 1044,
      "ế": 1045,
      "ề": 1046,
      "ể": 1047,
      "ễ": 1048,
      "ệ": 1049,
      "ị": 1050,
      "ọ": 1051,
      "ố": 1052,
      "ồ": 1053,
      "ộ": 1054,
      "ớ": 1055,
      "ờ": 1056,
      "ở": 1057,
      "ợ": 1058,
      "ụ": 1059,
      "ủ": 1060,
      "ứ": 1061,
      "ự": 1062,
      "ἀ": 1063,
      "ἄ": 1064,
      "Ἀ": 1065,
      "ἐ": 1066,
      "ἑ": 1067,
      "ἔ": 1068,
      "ἡ": 1069,
      "ἰ": 1070,
      "ἱ": 1071,
      "ἴ": 1072,
      "ἶ": 1073,
      "ὀ": 1074,
      "ὁ": 1075,
      "ὅ": 1076,
      "ὐ": 1077,
      "ὑ": 1078,
      "ὰ": 1079,
      "ὲ": 1080,
      "ὴ": 1081,
      "ὶ": 1082,
      "ὸ": 1083,
      "ὺ": 1084,
      "ᾶ": 1085,
      "ῃ": 1086,
      "ῆ": 1087,
      "ῇ": 1088,
      "ῖ": 1089,
      "ῦ": 1090,
      "ῳ": 1091,
      "ῶ": 1092,
      "ῷ": 1093,
      "​": 1094,
      "‌": 1095,
      "‍": 1096,
      "‎": 1097,
      "‏": 1098,
      "‐": 1099,
      "‒": 1100,
      "–": 1101,
      "—": 1102,
      "―": 1103,
      "‘": 1104,
      "’": 1105,
      "‚": 1106,
      "“": 1107,
      "”": 1108,
      "„": 1109,
      "‟": 1110,
      "†": 1111,
      "‡": 1112,
      "•": 1113,
      "‪": 1114,
      "‬": 1115,
      "‭": 1116,
      "‰": 1117,
      "′": 1118,
      "‹": 1119,
      "›": 1120,
      "※": 1121,
      "⁄": 1122,
      "€": 1123,
      "₱": 1124,
      "₹": 1125,
      "←": 1126,
      "↑": 1127,
      "→": 1128,
      "↓": 1129,
      "↵": 1130,
      "⇒": 1131,
      "∀": 1132,
      "∂": 1133,
      "∆": 1134,
      "∈": 1135,
      "∑": 1136,
      "−": 1137,
      "∗": 1138,
      "∘": 1139,
      "∙": 1140,
      "√": 1141,
      "∞": 1142,
      "∧": 1143,
      "∩": 1144,
      "∫": 1145,
      "∼": 1146,
      "≈": 1147,
      "≠": 1148,
      "≡": 1149,
      "≤": 1150,
      "≥": 1151,
      "⋅": 1152,
      "⌘": 1153,
      "─": 1154,
      "━": 1155,
      "│": 1156,
      "└": 1157,
      "├": 1158,
      "┬": 1159,
      "┼": 1160,
      "╌": 1161,
      "═": 1162,
      "║": 1163,
      "▁": 1164,
      "█": 1165,
      "░": 1166,
      "▒": 1167,
      "■": 1168,
      "□": 1169,
      "▪": 1170,
      "▬": 1171,
      "▲": 1172,
      "▶": 1173,
      "▷": 1174,
      "▸": 1175,
      "►": 1176,
      "▼": 1177,
      "◆": 1178,
      "○": 1179,
      "●": 1180,
      "◦": 1181,
      "★": 1182,
      "☆": 1183,
      "☺": 1184,
      "♀": 1185,
      "♂": 1186,
      "♕": 1187,
      "♖": 1188,
      "♗": 1189,
      "♘": 1190,
      "♠": 1191,
      "♡": 1192,
      "♣": 1193,
      "♥": 1194,
      "♦": 1195,
      "⚭": 1196,
      "✅": 1197,
      "✓": 1198,
      "✔": 1199,
      "❤": 1200,
      "❶": 1201,
      "➤": 1202,
      "⟨": 1203,
      "⟩": 1204,
      "⠀": 1205,
      "⭐": 1206,
      "、": 1207,
      "。": 1208,
      "〈": 1209,
      "〉": 1210,
      "《": 1211,
      "》": 1212,
      "「": 1213,
      "」": 1214,
      "『": 1215,
      "』": 1216,
      "【": 1217,
      "】": 1218,
      "〜": 1219,
      "あ": 1220,
      "い": 1221,
      "う": 1222,
      "え": 1223,
      "お": 1224,
      "か": 1225,
      "が": 1226,
      "き": 1227,
      "く": 1228,
      "け": 1229,
      "げ": 1230,
      "こ": 1231,
      "ご": 1232,
      "さ": 1233,
      "し": 1234,
      "じ": 1235,
      "す": 1236,
      "ず": 1237,
      "せ": 1238,
      "そ": 1239,
      "た": 1240,
      "だ": 1241,
      "ち": 1242,
      "っ": 1243,
      "つ": 1244,
      "て": 1245,
      "で": 1246,
      "と": 1247,
      "ど": 1248,
      "な": 1249,
      "に": 1250,
      "の": 1251,
      "は": 1252,
      "ば": 1253,
      "び": 1254,
      "へ": 1255,
      "べ": 1256,
      "ほ": 1257,
      "ま": 1258,
      "み": 1259,
      "む": 1260,
      "め": 1261,
      "も": 1262,
      "や": 1263,
      "よ": 1264,
      "ら": 1265,
      "り": 1266,
      "る": 1267,
      "れ": 1268,
      "ろ": 1269,
      "わ": 1270,
      "を": 1271,
      "ん": 1272,
      "ァ": 1273,
      "ア": 1274,
      "ィ": 1275,
      "イ": 1276,
      "ウ": 1277,
      "ェ": 1278,
      "エ": 1279,
      "ォ": 1280,
      "オ": 1281,
      "カ": 1282,
      "ガ": 1283,
      "キ": 1284,
      "ク": 1285,
      "グ": 1286,
      "ケ": 1287,
      "ゲ": 1288,
      "コ": 1289,
      "サ": 1290,
      "ザ": 1291,
      "シ": 1292,
      "ジ": 1293,
      "ス": 1294,
      "ズ": 1295,
      "セ": 1296,
      "ソ": 1297,
      "タ": 1298,
      "ダ": 1299,
      "チ": 1300,
      "ッ": 1301,
      "ツ": 1302,
      "テ": 1303,
      "デ": 1304,
      "ト": 1305,
      "ド": 1306,
      "ナ": 1307,
      "ニ": 1308,
      "ネ": 1309,
      "ノ": 1310,
      "ハ": 1311,
      "バ": 1312,
      "パ": 1313,
      "ビ": 1314,
      "ピ": 1315,
      "フ": 1316,
      "ブ": 1317,
      "プ": 1318,
      "ベ": 1319,
      "ペ": 1320,
      "ホ": 1321,
      "ボ": 1322,
      "ポ": 1323,
      "マ": 1324,
      "ミ": 1325,
      "ム": 1326,
      "メ": 1327,
      "モ": 1328,
      "ャ": 1329,
      "ヤ": 1330,
      "ュ": 1331,
      "ユ": 1332,
      "ョ": 1333,
      "ラ": 1334,
      "リ": 1335,
      "ル": 1336,
      "レ": 1337,
      "ロ": 1338,
      "ワ": 1339,
      "ン": 1340,
      "・": 1341,
      "ー": 1342,
      "一": 1343,
      "三": 1344,
      "上": 1345,
      "下": 1346,
      "不": 1347,
      "与": 1348,
      "专": 1349,
      "且": 1350,
      "世": 1351,
      "业": 1352,
      "东": 1353,
      "两": 1354,
      "个": 1355,
      "中": 1356,
      "为": 1357,
      "主": 1358,
      "么": 1359,
      "之": 1360,
      "乐": 1361,
      "也": 1362,
      "书": 1363,
      "了": 1364,
      "事": 1365,
      "二": 1366,
      "于": 1367,
      "互": 1368,
      "五": 1369,
      "些": 1370,
      "交": 1371,
      "产": 1372,
      "京": 1373,
      "人": 1374,
      "什": 1375,
      "今": 1376,
      "介": 1377,
      "从": 1378,
      "他": 1379,
      "付": 1380,
      "代": 1381,
      "令": 1382,
      "以": 1383,
      "们": 1384,
      "件": 1385,
      "任": 1386,
      "优": 1387,
      "会": 1388,
      "传": 1389,
      "但": 1390,
      "位": 1391,
      "低": 1392,
      "体": 1393,
      "何": 1394,
      "作": 1395,
      "你": 1396,
      "使": 1397,
      "來": 1398,
      "例": 1399,
      "供": 1400,
      "便": 1401,
      "係": 1402,
      "保": 1403,
      "信": 1404,
      "修": 1405,
      "個": 1406,
      "値": 1407,
      "值": 1408,
      "做": 1409,
      "側": 1410,
      "備": 1411,
      "储": 1412,
      "像": 1413,
      "儿": 1414,
      "元": 1415,
      "先": 1416,
      "光": 1417,
      "克": 1418,
      "入": 1419,
      "全": 1420,
      "公": 1421,
      "共": 1422,
      "关": 1423,
      "其": 1424,
      "具": 1425,
      "内": 1426,
      "再": 1427,
      "写": 1428,
      "処": 1429,
      "出": 1430,
      "分": 1431,
      "切": 1432,
      "列": 1433,
      "初": 1434,
      "判": 1435,
      "別": 1436,
      "利": 1437,
      "别": 1438,
      "到": 1439,
      "制": 1440,
      "前": 1441,
      "力": 1442,
      "功": 1443,
      "加": 1444,
      "务": 1445,
      "动": 1446,
      "助": 1447,
      "動": 1448,
      "包": 1449,
      "化": 1450,
      "北": 1451,
      "区": 1452,
      "医": 1453,
      "十": 1454,
      "半": 1455,
      "华": 1456,
      "单": 1457,
      "南": 1458,
      "印": 1459,
      "即": 1460,
      "压": 1461,
      "原": 1462,
      "去": 1463,
      "参": 1464,
      "又": 1465,
      "及": 1466,
      "友": 1467,
      "反": 1468,
      "发": 1469,
      "取": 1470,
      "受": 1471,
      "变": 1472,
      "口": 1473,
      "古": 1474,
      "句": 1475,
      "另": 1476,
      "只": 1477,
      "可": 1478,
      "台": 1479,
      "史": 1480,
      "号": 1481,
      "司": 1482,
      "各": 1483,
      "合": 1484,
      "同": 1485,
      "名": 1486,
      "后": 1487,
      "向": 1488,
      "含": 1489,
      "吸": 1490,
      "告": 1491,
      "周": 1492,
      "味": 1493,
      "命": 1494,
      "和": 1495,
      "品": 1496,
      "商": 1497,
      "問": 1498,
      "器": 1499,
      "四": 1500,
      "回": 1501,
      "因": 1502,
      "図": 1503,
      "固": 1504,
      "国": 1505,
      "图": 1506,
      "國": 1507,
      "土": 1508,
      "圧": 1509,
      "在": 1510,
      "地": 1511,
      "场": 1512,
      "块": 1513,
      "坛": 1514,
      "型": 1515,
      "城": 1516,
      "域": 1517,
      "基": 1518,
      "報": 1519,
      "場": 1520,
      "境": 1521,
      "士": 1522,
      "声": 1523,
      "处": 1524,
      "备": 1525,
      "変": 1526,
      "复": 1527,
      "外": 1528,
      "多": 1529,
      "大": 1530,
      "天": 1531,
      "太": 1532,
      "头": 1533,
      "女": 1534,
      "她": 1535,
      "好": 1536,
      "如": 1537,
      "始": 1538,
      "媒": 1539,
      "子": 1540,
      "孔": 1541,
      "字": 1542,
      "存": 1543,
      "学": 1544,
      "學": 1545,
      "它": 1546,
      "安": 1547,
      "完": 1548,
      "定": 1549,
      "宝": 1550,
      "实": 1551,
      "実": 1552,
      "客": 1553,
      "室": 1554,
      "家": 1555,
      "容": 1556,
      "密": 1557,
      "对": 1558,
      "导": 1559,
      "対": 1560,
      "射": 1561,
      "将": 1562,
      "導": 1563,
      "小": 1564,
      "少": 1565,
      "就": 1566,
      "层": 1567,
      "展": 1568,
      "属": 1569,
      "層": 1570,
      "山": 1571,
      "川": 1572,
      "州": 1573,
      "工": 1574,
      "差": 1575,
      "己": 1576,
      "已": 1577,
      "市": 1578,
      "布": 1579,
      "带": 1580,
      "常": 1581,
      "干": 1582,
      "平": 1583,
      "年": 1584,
      "并": 1585,
      "序": 1586,
      "应": 1587,
      "底": 1588,
      "店": 1589,
      "度": 1590,
      "座": 1591,
      "建": 1592,
      "开": 1593,
      "式": 1594,
      "引": 1595,
      "张": 1596,
      "張": 1597,
      "当": 1598,
      "形": 1599,
      "影": 1600,
      "很": 1601,
      "後": 1602,
      "得": 1603,
      "御": 1604,
      "微": 1605,
      "徴": 1606,
      "德": 1607,
      "心": 1608,
      "必": 1609,
      "志": 1610,
      "応": 1611,
      "快": 1612,
      "态": 1613,
      "思": 1614,
      "性": 1615,
      "息": 1616,
      "情": 1617,
      "想": 1618,
      "意": 1619,
      "感": 1620,
      "態": 1621,
      "憶": 1622,
      "成": 1623,
      "我": 1624,
      "或": 1625,
      "户": 1626,
      "房": 1627,
      "所": 1628,
      "手": 1629,
      "打": 1630,
      "技": 1631,
      "把": 1632,
      "投": 1633,
      "报": 1634,
      "拉": 1635,
      "括": 1636,
      "持": 1637,
      "指": 1638,
      "换": 1639,
      "据": 1640,
      "接": 1641,
      "控": 1642,
      "推": 1643,
      "提": 1644,
      "換": 1645,
      "操": 1646,
      "支": 1647,
      "收": 1648,
      "改": 1649,
      "放": 1650,
      "政": 1651,
      "效": 1652,
      "教": 1653,
      "散": 1654,
      "数": 1655,
      "整": 1656,
      "文": 1657,
      "料": 1658,
      "断": 1659,
      "斯": 1660,
      "新": 1661,
      "方": 1662,
      "於": 1663,
      "施": 1664,
      "族": 1665,
      "无": 1666,
      "日": 1667,
      "时": 1668,
      "明": 1669,
      "易": 1670,
      "星": 1671,
      "是": 1672,
      "显": 1673,
      "時": 1674,
      "晶": 1675,
      "曲": 1676,
      "更": 1677,
      "書": 1678,
      "最": 1679,
      "會": 1680,
      "月": 1681,
      "有": 1682,
      "服": 1683,
      "望": 1684,
      "期": 1685,
      "木": 1686,
      "未": 1687,
      "末": 1688,
      "本": 1689,
      "术": 1690,
      "机": 1691,
      "权": 1692,
      "李": 1693,
      "材": 1694,
      "村": 1695,
      "条": 1696,
      "来": 1697,
      "東": 1698,
      "板": 1699,
      "极": 1700,
      "构": 1701,
      "析": 1702,
      "林": 1703,
      "果": 1704,
      "标": 1705,
      "校": 1706,
      "样": 1707,
      "根": 1708,
      "格": 1709,
      "案": 1710,
      "档": 1711,
      "検": 1712,
      "業": 1713,
      "極": 1714,
      "構": 1715,
      "様": 1716,
      "模": 1717,
      "機": 1718,
      "次": 1719,
      "歌": 1720,
      "止": 1721,
      "正": 1722,
      "此": 1723,
      "步": 1724,
      "段": 1725,
      "每": 1726,
      "比": 1727,
      "民": 1728,
      "气": 1729,
      "気": 1730,
      "水": 1731,
      "求": 1732,
      "江": 1733,
      "決": 1734,
      "没": 1735,
      "油": 1736,
      "治": 1737,
      "法": 1738,
      "波": 1739,
      "注": 1740,
      "活": 1741,
      "流": 1742,
      "测": 1743,
      "海": 1744,
      "消": 1745,
      "液": 1746,
      "清": 1747,
      "温": 1748,
      "測": 1749,
      "源": 1750,
      "演": 1751,
      "火": 1752,
      "点": 1753,
      "為": 1754,
      "热": 1755,
      "無": 1756,
      "然": 1757,
      "照": 1758,
      "爱": 1759,
      "片": 1760,
      "版": 1761,
      "物": 1762,
      "特": 1763,
      "状": 1764,
      "率": 1765,
      "王": 1766,
      "环": 1767,
      "现": 1768,
      "現": 1769,
      "球": 1770,
      "理": 1771,
      "生": 1772,
      "用": 1773,
      "田": 1774,
      "由": 1775,
      "电": 1776,
      "画": 1777,
      "界": 1778,
      "発": 1779,
      "白": 1780,
      "的": 1781,
      "目": 1782,
      "直": 1783,
      "相": 1784,
      "看": 1785,
      "真": 1786,
      "眼": 1787,
      "着": 1788,
      "知": 1789,
      "石": 1790,
      "码": 1791,
      "研": 1792,
      "确": 1793,
      "磁": 1794,
      "示": 1795,
      "社": 1796,
      "神": 1797,
      "福": 1798,
      "离": 1799,
      "种": 1800,
      "科": 1801,
      "移": 1802,
      "程": 1803,
      "種": 1804,
      "究": 1805,
      "空": 1806,
      "立": 1807,
      "站": 1808,
      "端": 1809,
      "第": 1810,
      "等": 1811,
      "算": 1812,
      "管": 1813,
      "米": 1814,
      "类": 1815,
      "精": 1816,
      "系": 1817,
      "素": 1818,
      "索": 1819,
      "細": 1820,
      "組": 1821,
      "結": 1822,
      "続": 1823,
      "線": 1824,
      "繷": 1825,
      "线": 1826,
      "组": 1827,
      "经": 1828,
      "结": 1829,
      "给": 1830,
      "络": 1831,
      "统": 1832,
      "网": 1833,
      "置": 1834,
      "美": 1835,
      "老": 1836,
      "考": 1837,
      "者": 1838,
      "而": 1839,
      "联": 1840,
      "聚": 1841,
      "能": 1842,
      "膜": 1843,
      "自": 1844,
      "至": 1845,
      "致": 1846,
      "與": 1847,
      "良": 1848,
      "色": 1849,
      "节": 1850,
      "花": 1851,
      "英": 1852,
      "著": 1853,
      "血": 1854,
      "行": 1855,
      "術": 1856,
      "表": 1857,
      "被": 1858,
      "装": 1859,
      "製": 1860,
      "複": 1861,
      "西": 1862,
      "要": 1863,
      "見": 1864,
      "視": 1865,
      "见": 1866,
      "视": 1867,
      "角": 1868,
      "解": 1869,
      "触": 1870,
      "言": 1871,
      "計": 1872,
      "記": 1873,
      "設": 1874,
      "話": 1875,
      "該": 1876,
      "認": 1877,
      "語": 1878,
      "説": 1879,
      "調": 1880,
      "請": 1881,
      "論": 1882,
      "计": 1883,
      "记": 1884,
      "论": 1885,
      "设": 1886,
      "词": 1887,
      "话": 1888,
      "该": 1889,
      "语": 1890,
      "说": 1891,
      "请": 1892,
      "调": 1893,
      "象": 1894,
      "質": 1895,
      "质": 1896,
      "资": 1897,
      "走": 1898,
      "起": 1899,
      "超": 1900,
      "路": 1901,
      "身": 1902,
      "車": 1903,
      "転": 1904,
      "載": 1905,
      "车": 1906,
      "转": 1907,
      "载": 1908,
      "输": 1909,
      "込": 1910,
      "过": 1911,
      "运": 1912,
      "近": 1913,
      "还": 1914,
      "这": 1915,
      "进": 1916,
      "连": 1917,
      "述": 1918,
      "送": 1919,
      "选": 1920,
      "透": 1921,
      "這": 1922,
      "通": 1923,
      "速": 1924,
      "造": 1925,
      "連": 1926,
      "進": 1927,
      "過": 1928,
      "道": 1929,
      "適": 1930,
      "選": 1931,
      "那": 1932,
      "部": 1933,
      "都": 1934,
      "配": 1935,
      "酒": 1936,
      "酸": 1937,
      "里": 1938,
      "重": 1939,
      "野": 1940,
      "量": 1941,
      "金": 1942,
      "録": 1943,
      "镇": 1944,
      "長": 1945,
      "长": 1946,
      "開": 1947,
      "間": 1948,
      "関": 1949,
      "门": 1950,
      "问": 1951,
      "间": 1952,
      "防": 1953,
      "限": 1954,
      "院": 1955,
      "除": 1956,
      "集": 1957,
      "電": 1958,
      "需": 1959,
      "青": 1960,
      "非": 1961,
      "面": 1962,
      "音": 1963,
      "項": 1964,
      "領": 1965,
      "題": 1966,
      "類": 1967,
      "频": 1968,
      "题": 1969,
      "食": 1970,
      "香": 1971,
      "马": 1972,
      "高": 1973,
      "가": 1974,
      "각": 1975,
      "간": 1976,
      "감": 1977,
      "강": 1978,
      "같": 1979,
      "개": 1980,
      "거": 1981,
      "건": 1982,
      "검": 1983,
      "것": 1984,
      "게": 1985,
      "격": 1986,
      "결": 1987,
      "경": 1988,
      "계": 1989,
      "고": 1990,
      "공": 1991,
      "과": 1992,
      "관": 1993,
      "광": 1994,
      "교": 1995,
      "구": 1996,
      "국": 1997,
      "그": 1998,
      "근": 1999,
      "금": 2000,
      "급": 2001,
      "기": 2002,
      "까": 2003,
      "나": 2004,
      "남": 2005,
      "내": 2006,
      "너": 2007,
      "네": 2008,
      "년": 2009,
      "노": 2010,
      "는": 2011,
      "능": 2012,
      "니": 2013,
      "다": 2014,
      "단": 2015,
      "달": 2016,
      "당": 2017,
      "대": 2018,
      "더": 2019,
      "데": 2020,
      "도": 2021,
      "동": 2022,
      "되": 2023,
      "된": 2024,
      "될": 2025,
      "두": 2026,
      "드": 2027,
      "든": 2028,
      "들": 2029,
      "등": 2030,
      "디": 2031,
      "따": 2032,
      "때": 2033,
      "또": 2034,
      "라": 2035,
      "람": 2036,
      "래": 2037,
      "랜": 2038,
      "러": 2039,
      "레": 2040,
      "려": 2041,
      "력": 2042,
      "렴": 2043,
      "로": 2044,
      "록": 2045,
      "료": 2046,
      "루": 2047,
      "류": 2048,
      "르": 2049,
      "른": 2050,
      "를": 2051,
      "리": 2052,
      "마": 2053,
      "막": 2054,
      "만": 2055,
      "많": 2056,
      "말": 2057,
      "매": 2058,
      "메": 2059,
      "며": 2060,
      "면": 2061,
      "명": 2062,
      "모": 2063,
      "목": 2064,
      "무": 2065,
      "문": 2066,
      "물": 2067,
      "미": 2068,
      "민": 2069,
      "및": 2070,
      "바": 2071,
      "반": 2072,
      "발": 2073,
      "방": 2074,
      "배": 2075,
      "버": 2076,
      "번": 2077,
      "법": 2078,
      "변": 2079,
      "별": 2080,
      "보": 2081,
      "복": 2082,
      "본": 2083,
      "부": 2084,
      "분": 2085,
      "불": 2086,
      "브": 2087,
      "블": 2088,
      "비": 2089,
      "사": 2090,
      "산": 2091,
      "상": 2092,
      "색": 2093,
      "생": 2094,
      "서": 2095,
      "석": 2096,
      "선": 2097,
      "설": 2098,
      "성": 2099,
      "세": 2100,
      "션": 2101,
      "소": 2102,
      "속": 2103,
      "송": 2104,
      "수": 2105,
      "술": 2106,
      "스": 2107,
      "습": 2108,
      "시": 2109,
      "식": 2110,
      "신": 2111,
      "실": 2112,
      "심": 2113,
      "아": 2114,
      "안": 2115,
      "않": 2116,
      "알": 2117,
      "야": 2118,
      "약": 2119,
      "양": 2120,
      "어": 2121,
      "업": 2122,
      "없": 2123,
      "었": 2124,
      "에": 2125,
      "여": 2126,
      "역": 2127,
      "연": 2128,
      "열": 2129,
      "였": 2130,
      "영": 2131,
      "예": 2132,
      "오": 2133,
      "온": 2134,
      "와": 2135,
      "외": 2136,
      "요": 2137,
      "용": 2138,
      "우": 2139,
      "운": 2140,
      "워": 2141,
      "원": 2142,
      "월": 2143,
      "위": 2144,
      "유": 2145,
      "으": 2146,
      "은": 2147,
      "을": 2148,
      "음": 2149,
      "응": 2150,
      "의": 2151,
      "이": 2152,
      "인": 2153,
      "일": 2154,
      "임": 2155,
      "입": 2156,
      "있": 2157,
      "자": 2158,
      "작": 2159,
      "장": 2160,
      "재": 2161,
      "저": 2162,
      "적": 2163,
      "전": 2164,
      "절": 2165,
      "점": 2166,
      "접": 2167,
      "정": 2168,
      "제": 2169,
      "조": 2170,
      "종": 2171,
      "주": 2172,
      "준": 2173,
      "중": 2174,
      "증": 2175,
      "지": 2176,
      "직": 2177,
      "진": 2178,
      "질": 2179,
      "집": 2180,
      "차": 2181,
      "참": 2182,
      "처": 2183,
      "천": 2184,
      "청": 2185,
      "체": 2186,
      "초": 2187,
      "최": 2188,
      "추": 2189,
      "출": 2190,
      "측": 2191,
      "층": 2192,
      "치": 2193,
      "카": 2194,
      "코": 2195,
      "크": 2196,
      "키": 2197,
      "타": 2198,
      "태": 2199,
      "택": 2200,
      "터": 2201,
      "테": 2202,
      "템": 2203,
      "토": 2204,
      "통": 2205,
      "트": 2206,
      "특": 2207,
      "티": 2208,
      "파": 2209,
      "판": 2210,
      "패": 2211,
      "페": 2212,
      "편": 2213,
      "평": 2214,
      "포": 2215,
      "표": 2216,
      "품": 2217,
      "프": 2218,
      "플": 2219,
      "피": 2220,
      "필": 2221,
      "하": 2222,
      "학": 2223,
      "한": 2224,
      "할": 2225,
      "함": 2226,
      "합": 2227,
      "항": 2228,
      "해": 2229,
      "했": 2230,
      "행": 2231,
      "향": 2232,
      "현": 2233,
      "형": 2234,
      "호": 2235,
      "화": 2236,
      "확": 2237,
      "환": 2238,
      "활": 2239,
      "회": 2240,
      "후": 2241,
      "히": 2242,
      "": 2243,
      "": 2244,
      "": 2245,
      "️": 2246,
      "﻿": 2247,
      "￼": 2248,
      "�": 2249,
      "🔥": 2250,
      "😀": 2251,
      "😂": 2252,
      "😉": 2253,
      "😊": 2254,
      "😍": 2255,
      "😛": 2256,
      "🙁": 2257,
      "🙂": 2258,
      "▁t": 2259,
      "▁a": 2260,
      "in": 2261,
      "he": 2262,
      "re": 2263,
      "on": 2264,
      "er": 2265,
      "▁the": 2266,
      "▁s": 2267,
      "at": 2268,
      "▁w": 2269,
      "▁o": 2270,
      "en": 2271,
      "▁c": 2272,
      "it": 2273,
      "or": 2274,
      "es": 2275,
      "nd": 2276,
      "is": 2277,
      "ou": 2278,
      "▁f": 2279,
      "▁p": 2280,
      "▁b": 2281,
      "ing": 2282,
      "al": 2283,
      "an": 2284,
      "ed": 2285,
      "▁m": 2286,
      "ar": 2287,
      "▁d": 2288,
      "▁to": 2289,
      "▁in": 2290,
      "▁and": 2291,
      "▁of": 2292,
      "le": 2293,
      "ic": 2294,
      "ion": 2295,
      "as": 2296,
      "om": 2297,
      "▁h": 2298,
      "▁th": 2299,
      "▁l": 2300,
      "il": 2301,
      "ent": 2302,
      "ro": 2303,
      "el": 2304,
      "st": 2305,
      "▁n": 2306,
      "et": 2307,
      "▁re": 2308,
      "ct": 2309,
      "▁e": 2310,
      "▁y": 2311,
      "▁g": 2312,
      "▁I": 2313,
      "ve": 2314,
      "▁is": 2315,
      "▁you": 2316,
      "ut": 2317,
      "ot": 2318,
      "id": 2319,
      "▁T": 2320,
      "ra": 2321,
      "▁for": 2322,
      "ig": 2323,
      "im": 2324,
      "▁S": 2325,
      "ly": 2326,
      "ow": 2327,
      "▁on": 2328,
      "ur": 2329,
      "▁be": 2330,
      "us": 2331,
      "ol": 2332,
      "ch": 2333,
      "ce": 2334,
      "▁A": 2335,
      "ation": 2336,
      "ver": 2337,
      "▁C": 2338,
      "ay": 2339,
      "am": 2340,
      "ad": 2341,
      "ith": 2342,
      "▁that": 2343,
      "▁st": 2344,
      "▁with": 2345,
      "ir": 2346,
      "▁it": 2347,
      "ul": 2348,
      "un": 2349,
      "▁M": 2350,
      "▁al": 2351,
      "\r\n": 2352,
      "se": 2353,
      "▁he": 2354,
      "▁an": 2355,
      "▁as": 2356,
      "if": 2357,
      "ter": 2358,
      "▁pro": 2359,
      "▁P": 2360,
      "▁con": 2361,
      "▁B": 2362,
      "ill": 2363,
      "▁wh": 2364,
      "▁de": 2365,
      "od": 2366,
      "ge": 2367,
      "ab": 2368,
      "▁are": 2369,
      "qu": 2370,
      "▁we": 2371,
      "▁(": 2372,
      "▁ha": 2373,
      "ers": 2374,
      "pp": 2375,
      "ri": 2376,
      "ke": 2377,
      "▁com": 2378,
      "▁v": 2379,
      "ess": 2380,
      "▁or": 2381,
      "est": 2382,
      "▁W": 2383,
      "her": 2384,
      "um": 2385,
      "ac": 2386,
      "ate": 2387,
      "▁H": 2388,
      "em": 2389,
      "▁The": 2390,
      "▁at": 2391,
      "ore": 2392,
      "▁D": 2393,
      "ist": 2394,
      "▁ex": 2395,
      "igh": 2396,
      "▁F": 2397,
      "rom": 2398,
      "ld": 2399,
      "os": 2400,
      "ure": 2401,
      "▁se": 2402,
      "th": 2403,
      "▁ne": 2404,
      "op": 2405,
      "ant": 2406,
      "ment": 2407,
      "▁R": 2408,
      "▁was": 2409,
      "▁your": 2410,
      "▁L": 2411,
      "ity": 2412,
      "ect": 2413,
      "end": 2414,
      "ain": 2415,
      "▁\\": 2416,
      "▁$": 2417,
      "art": 2418,
      "oc": 2419,
      "▁r": 2420,
      "and": 2421,
      "▁us": 2422,
      "ort": 2423,
      "▁have": 2424,
      "▁G": 2425,
      "▁this": 2426,
      "▁from": 2427,
      "▁E": 2428,
      "▁can": 2429,
      "▁su": 2430,
      "iv": 2431,
      "▁by": 2432,
      "▁sh": 2433,
      "ight": 2434,
      "ust": 2435,
      "nt": 2436,
      "▁not": 2437,
      "ive": 2438,
      "▁u": 2439,
      "▁N": 2440,
      "res": 2441,
      "ies": 2442,
      "▁ch": 2443,
      "all": 2444,
      "ie": 2445,
      "▁le": 2446,
      "ome": 2447,
      "ard": 2448,
      "ud": 2449,
      "ell": 2450,
      "▁will": 2451,
      "ould": 2452,
      "ial": 2453,
      "ine": 2454,
      "out": 2455,
      "▁sp": 2456,
      "▁O": 2457,
      "our": 2458,
      "ost": 2459,
      "ag": 2460,
      "ap": 2461,
      "▁wor": 2462,
      "▁k": 2463,
      "▁all": 2464,
      "▁ab": 2465,
      "te": 2466,
      "red": 2467,
      "oo": 2468,
      "rou": 2469,
      "ide": 2470,
      "▁j": 2471,
      "▁pl": 2472,
      "gh": 2473,
      "▁do": 2474,
      "pl": 2475,
      "▁en": 2476,
      "age": 2477,
      "ak": 2478,
      "ich": 2479,
      "ction": 2480,
      "per": 2481,
      "pt": 2482,
      "The": 2483,
      "ast": 2484,
      "▁J": 2485,
      "▁whe": 2486,
      "ind": 2487,
      "og": 2488,
      "ice": 2489,
      "▁comp": 2490,
      "▁me": 2491,
      "ally": 2492,
      "able": 2493,
      "ff": 2494,
      "▁ad": 2495,
      "ack": 2496,
      "iz": 2497,
      "ite": 2498,
      "▁but": 2499,
      "ip": 2500,
      "are": 2501,
      "▁cl": 2502,
      "ear": 2503,
      "▁go": 2504,
      "ther": 2505,
      "▁has": 2506,
      "▁un": 2507,
      "▁so": 2508,
      "ated": 2509,
      "ry": 2510,
      "▁out": 2511,
      "ook": 2512,
      "▁im": 2513,
      "cc": 2514,
      "ake": 2515,
      "orm": 2516,
      "ime": 2517,
      "one": 2518,
      "▁\"": 2519,
      "▁qu": 2520,
      "ec": 2521,
      "ong": 2522,
      "ans": 2523,
      "▁U": 2524,
      "▁up": 2525,
      "ib": 2526,
      "ue": 2527,
      "ass": 2528,
      "very": 2529,
      "ous": 2530,
      "du": 2531,
      "ult": 2532,
      "▁my": 2533,
      "so": 2534,
      "ions": 2535,
      "▁one": 2536,
      "▁cont": 2537,
      "ia": 2538,
      "ign": 2539,
      "ame": 2540,
      "▁their": 2541,
      "▁more": 2542,
      "cl": 2543,
      "▁Th": 2544,
      "▁our": 2545,
      "ach": 2546,
      "▁they": 2547,
      "▁res": 2548,
      "▁In": 2549,
      "▁which": 2550,
      "to": 2551,
      "act": 2552,
      "ance": 2553,
      "{\\": 2554,
      "ub": 2555,
      "▁app": 2556,
      "ire": 2557,
      "ath": 2558,
      "ep": 2559,
      "ace": 2560,
      "av": 2561,
      "▁K": 2562,
      "ail": 2563,
      "ase": 2564,
      "..": 2565,
      "ks": 2566,
      "ber": 2567,
      "▁man": 2568,
      "ations": 2569,
      "ile": 2570,
      "▁per": 2571,
      "ru": 2572,
      "▁his": 2573,
      "▁li": 2574,
      "▁about": 2575,
      "▁te": 2576,
      "▁V": 2577,
      "▁Y": 2578,
      "ary": 2579,
      "erv": 2580,
      "▁fe": 2581,
      "ical": 2582,
      "ere": 2583,
      "ll": 2584,
      "form": 2585,
      "ely": 2586,
      "▁any": 2587,
      "int": 2588,
      "ph": 2589,
      "ens": 2590,
      "▁also": 2591,
      "▁other": 2592,
      "▁off": 2593,
      "▁dis": 2594,
      "ond": 2595,
      "▁time": 2596,
      "ition": 2597,
      "▁who": 2598,
      "ord": 2599,
      "ence": 2600,
      "ents": 2601,
      "reat": 2602,
      "▁if": 2603,
      "▁part": 2604,
      "▁ev": 2605,
      "▁work": 2606,
      "▁ar": 2607,
      "own": 2608,
      "ne": 2609,
      "▁get": 2610,
      "ick": 2611,
      "▁some": 2612,
      "ree": 2613,
      "▁St": 2614,
      "▁-": 2615,
      "ount": 2616,
      "vel": 2617,
      "xt": 2618,
      "▁It": 2619,
      "▁had": 2620,
      "ress": 2621,
      "ft": 2622,
      "▁ro": 2623,
      ").": 2624,
      "▁sc": 2625,
      "ang": 2626,
      "▁new": 2627,
      "ild": 2628,
      "▁there": 2629,
      "▁des": 2630,
      "ove": 2631,
      "ays": 2632,
      "▁them": 2633,
      "▁tra": 2634,
      "ark": 2635,
      "ors": 2636,
      "ck": 2637,
      "▁sa": 2638,
      "ings": 2639,
      "▁when": 2640,
      "ov": 2641,
      "▁over": 2642,
      "▁=": 2643,
      "▁Ch": 2644,
      "▁would": 2645,
      "▁were": 2646,
      "ound": 2647,
      "▁year": 2648,
      "▁&": 2649,
      "▁like": 2650,
      "ose": 2651,
      "▁need": 2652,
      "▁been": 2653,
      "▁imp": 2654,
      "▁her": 2655,
      "▁ag": 2656,
      "▁pre": 2657,
      "▁kn": 2658,
      "ough": 2659,
      "▁rec": 2660,
      "eg": 2661,
      "▁tr": 2662,
      "▁am": 2663,
      "ob": 2664,
      "▁what": 2665,
      "ish": 2666,
      "▁than": 2667,
      "▁acc": 2668,
      "old": 2669,
      "▁pe": 2670,
      "vers": 2671,
      "▁its": 2672,
      "▁into": 2673,
      "wn": 2674,
      "▁und": 2675,
      "ood": 2676,
      "irst": 2677,
      "ory": 2678,
      "▁We": 2679,
      "ater": 2680,
      "aus": 2681,
      "oll": 2682,
      "▁no": 2683,
      "▁how": 2684,
      "▁just": 2685,
      "ink": 2686,
      "▁comm": 2687,
      "ces": 2688,
      "lic": 2689,
      "▁bec": 2690,
      "fere": 2691,
      "▁tw": 2692,
      "rough": 2693,
      "ram": 2694,
      "che": 2695,
      "oy": 2696,
      "),": 2697,
      "▁la": 2698,
      "▁$\\": 2699,
      "clud": 2700,
      "▁use": 2701,
      "ject": 2702,
      "▁bl": 2703,
      "▁pr": 2704,
      "ning": 2705,
      "fter": 2706,
      "▁prov": 2707,
      "ian": 2708,
      "▁em": 2709,
      "itt": 2710,
      "▁This": 2711,
      "▁fl": 2712,
      "we": 2713,
      "▁add": 2714,
      "▁only": 2715,
      "ual": 2716,
      "ons": 2717,
      "▁ind": 2718,
      "▁may": 2719,
      "ont": 2720,
      "tern": 2721,
      "▁co": 2722,
      "lp": 2723,
      "ates": 2724,
      "▁she": 2725,
      "ert": 2726,
      "amp": 2727,
      "ople": 2728,
      "▁bet": 2729,
      "▁first": 2730,
      "ful": 2731,
      "ious": 2732,
      "▁make": 2733,
      "eth": 2734,
      "▁know": 2735,
      "▁po": 2736,
      "▁help": 2737,
      "▁look": 2738,
      "▁rep": 2739,
      "▁cons": 2740,
      "round": 2741,
      "▁bu": 2742,
      "▁“": 2743,
      "urn": 2744,
      "math": 2745,
      "▁serv": 2746,
      "▁dif": 2747,
      "iew": 2748,
      "▁ra": 2749,
      "▁–": 2750,
      "▁most": 2751,
      "lect": 2752,
      "▁sy": 2753,
      "▁He": 2754,
      "▁produ": 2755,
      "▁through": 2756,
      "ific": 2757,
      "ric": 2758,
      "row": 2759,
      "ise": 2760,
      "ade": 2761,
      "les": 2762,
      "▁well": 2763,
      "▁back": 2764,
      "▁want": 2765,
      "▁two": 2766,
      "▁people": 2767,
      "ause": 2768,
      "▁ph": 2769,
      "Th": 2770,
      "▁col": 2771,
      "▁these": 2772,
      "▁see": 2773,
      "▁every": 2774,
      "▁then": 2775,
      "ating": 2776,
      "▁set": 2777,
      "oth": 2778,
      "▁includ": 2779,
      "get": 2780,
      "pe": 2781,
      "erm": 2782,
      "ata": 2783,
      "mer": 2784,
      "▁exp": 2785,
      "iss": 2786,
      "▁reg": 2787,
      "▁under": 2788,
      "▁rel": 2789,
      "ble": 2790,
      "ices": 2791,
      "▁act": 2792,
      "ange": 2793,
      "ments": 2794,
      "fore": 2795,
      "cess": 2796,
      "uch": 2797,
      "ced": 2798,
      "▁pos": 2799,
      "ities": 2800,
      "▁where": 2801,
      "ng": 2802,
      "bs": 2803,
      "▁could": 2804,
      "elf": 2805,
      "ular": 2806,
      "▁mod": 2807,
      "ew": 2808,
      "▁att": 2809,
      "ss": 2810,
      "▁supp": 2811,
      "ible": 2812,
      "ener": 2813,
      "▁sm": 2814,
      "▁very": 2815,
      "ied": 2816,
      "▁You": 2817,
      "com": 2818,
      "▁ass": 2819,
      "In": 2820,
      "▁way": 2821,
      "ock": 2822,
      "}\\": 2823,
      "stem": 2824,
      "rit": 2825,
      "▁ke": 2826,
      "io": 2827,
      "▁ent": 2828,
      "▁rem": 2829,
      "ys": 2830,
      "ting": 2831,
      "--": 2832,
      "▁exper": 2833,
      "ily": 2834,
      "▁should": 2835,
      "hed": 2836,
      "▁inst": 2837,
      "▁inv": 2838,
      "ma": 2839,
      "hen": 2840,
      "als": 2841,
      "ty": 2842,
      "▁'": 2843,
      "ures": 2844,
      "}$": 2845,
      "ient": 2846,
      "▁such": 2847,
      "▁many": 2848,
      "▁after": 2849,
      "ility": 2850,
      "up": 2851,
      "▁stud": 2852,
      "▁fin": 2853,
      "▁said": 2854,
      "^{": 2855,
      "ife": 2856,
      "rib": 2857,
      "und": 2858,
      "ower": 2859,
      "olog": 2860,
      "any": 2861,
      "ts": 2862,
      "▁even": 2863,
      "line": 2864,
      "▁good": 2865,
      "ased": 2866,
      "iness": 2867,
      "▁loc": 2868,
      "▁i": 2869,
      "▁spec": 2870,
      "ational": 2871,
      "ring": 2872,
      "▁sec": 2873,
      "▁sim": 2874,
      "ract": 2875,
      "▁differe": 2876,
      "de": 2877,
      "▁now": 2878,
      "erson": 2879,
      "ward": 2880,
      "▁find": 2881,
      "▁great": 2882,
      "its": 2883,
      "ics": 2884,
      "ix": 2885,
      "▁inc": 2886,
      "aking": 2887,
      ");": 2888,
      "ren": 2889,
      "▁bus": 2890,
      "au": 2891,
      "ool": 2892,
      "▁down": 2893,
      "▁ins": 2894,
      "▁eff": 2895,
      "day": 2896,
      "hat": 2897,
      "▁own": 2898,
      "▁years": 2899,
      "▁ac": 2900,
      ".\"": 2901,
      "ork": 2902,
      "▁Un": 2903,
      "air": 2904,
      "▁him": 2905,
      "▁fun": 2906,
      "ull": 2907,
      "▁requ": 2908,
      "▁car": 2909,
      "▁right": 2910,
      "▁che": 2911,
      "▁dec": 2912,
      "ax": 2913,
      "▁start": 2914,
      "▁form": 2915,
      "▁high": 2916,
      "▁best": 2917,
      "▁num": 2918,
      "▁av": 2919,
      "▁val": 2920,
      "▁inform": 2921,
      "cy": 2922,
      "ps": 2923,
      "ier": 2924,
      "ows": 2925,
      "uring": 2926,
      "▁trans": 2927,
      "ative": 2928,
      "ident": 2929,
      "▁much": 2930,
      "the": 2931,
      "velop": 2932,
      "ience": 2933,
      "ict": 2934,
      "▁.": 2935,
      "▁If": 2936,
      "▁don": 2937,
      "▁min": 2938,
      "▁did": 2939,
      "ize": 2940,
      "▁long": 2941,
      "▁gu": 2942,
      "iel": 2943,
      "▁too": 2944,
      "other": 2945,
      "arch": 2946,
      "▁used": 2947,
      "▁ret": 2948,
      "▁pres": 2949,
      "der": 2950,
      "▁because": 2951,
      "▁call": 2952,
      "▁play": 2953,
      "▁sur": 2954,
      "imes": 2955,
      "▁each": 2956,
      "ution": 2957,
      "ven": 2958,
      "▁inter": 2959,
      "▁def": 2960,
      "▁bel": 2961,
      "▁system": 2962,
      "▁here": 2963,
      "▁det": 2964,
      "ner": 2965,
      "let": 2966,
      "▁read": 2967,
      "gan": 2968,
      "▁int": 2969,
      "▁does": 2970,
      "▁cre": 2971,
      "▁del": 2972,
      "ale": 2973,
      "▁day": 2974,
      "▁sub": 2975,
      "▁ob": 2976,
      "ex": 2977,
      "ank": 2978,
      "▁el": 2979,
      "▁var": 2980,
      "ited": 2981,
      "▁hand": 2982,
      "▁take": 2983,
      "ues": 2984,
      "▁home": 2985,
      "▁design": 2986,
      "▁end": 2987,
      "hip": 2988,
      "▁ext": 2989,
      "▁Com": 2990,
      "▁fam": 2991,
      "▁before": 2992,
      "▁gra": 2993,
      "ash": 2994,
      "}}": 2995,
      "▁z": 2996,
      "▁made": 2997,
      "▁Pro": 2998,
      "We": 2999,
      "way": 3000,
      "▁using": 3001,
      "▁op": 3002,
      "cept": 3003,
      "▁disc": 3004,
      "▁foll": 3005,
      "▁di": 3006,
      "▁mon": 3007,
      "▁And": 3008,
      "ug": 3009,
      "▁again": 3010,
      "ef": 3011,
      "...": 3012,
      "ince": 3013,
      "ek": 3014,
      "riv": 3015,
      "▁{": 3016,
      "▁cur": 3017,
      "▁different": 3018,
      "(\\": 3019,
      "ality": 3020,
      "▁business": 3021,
      "▁resp": 3022,
      "▁inte": 3023,
      "▁think": 3024,
      "led": 3025,
      "▁person": 3026,
      "▁information": 3027,
      "ages": 3028,
      "▁being": 3029,
      "ins": 3030,
      "▁cor": 3031,
      "▁those": 3032,
      "▁Al": 3033,
      "ween": 3034,
      "▁sol": 3035,
      "ref": 3036,
      "chn": 3037,
      "▁vis": 3038,
      "ave": 3039,
      "oad": 3040,
      "▁prog": 3041,
      "▁class": 3042,
      "▁same": 3043,
      "rac": 3044,
      "ually": 3045,
      "ines": 3046,
      "ta": 3047,
      "▁data": 3048,
      "ode": 3049,
      "ets": 3050,
      "▁develop": 3051,
      "ever": 3052,
      "read": 3053,
      "nce": 3054,
      "▁ser": 3055,
      "pr": 3056,
      "alth": 3057,
      "▁gener": 3058,
      "▁med": 3059,
      "ather": 3060,
      "land": 3061,
      "ple": 3062,
      "az": 3063,
      "els": 3064,
      "▁result": 3065,
      "▁som": 3066,
      "ustom": 3067,
      "egin": 3068,
      "▁product": 3069,
      "atch": 3070,
      "right": 3071,
      "▁bo": 3072,
      "This": 3073,
      "▁between": 3074,
      "▁provid": 3075,
      "▁est": 3076,
      "▁mark": 3077,
      "▁п": 3078,
      "ern": 3079,
      "▁<": 3080,
      "▁pub": 3081,
      "▁while": 3082,
      "▁ty": 3083,
      "▁mem": 3084,
      "▁aut": 3085,
      "ouse": 3086,
      "ст": 3087,
      "▁sl": 3088,
      "▁ed": 3089,
      "ee": 3090,
      "▁For": 3091,
      "alk": 3092,
      "chool": 3093,
      "arn": 3094,
      "▁world": 3095,
      "irect": 3096,
      "▁char": 3097,
      "▁gl": 3098,
      "begin": 3099,
      "▁life": 3100,
      "ives": 3101,
      "ield": 3102,
      "▁sk": 3103,
      "rest": 3104,
      "▁art": 3105,
      "▁_": 3106,
      "▁eas": 3107,
      "▁process": 3108,
      "▁point": 3109,
      "ional": 3110,
      "▁list": 3111,
      "▁lar": 3112,
      "ten": 3113,
      "text": 3114,
      "ars": 3115,
      "ature": 3116,
      "▁As": 3117,
      "▁sign": 3118,
      "▁around": 3119,
      "ah": 3120,
      "▁both": 3121,
      "▁follow": 3122,
      "ctions": 3123,
      "akes": 3124,
      "▁cle": 3125,
      "▁though": 3126,
      "ason": 3127,
      "anc": 3128,
      "▁found": 3129,
      "ized": 3130,
      "ien": 3131,
      ")$": 3132,
      "ined": 3133,
      "▁pol": 3134,
      "▁An": 3135,
      "▁dist": 3136,
      "rent": 3137,
      "▁str": 3138,
      "ms": 3139,
      "▁Ar": 3140,
      "на": 3141,
      "ik": 3142,
      "iqu": 3143,
      "▁last": 3144,
      "▁run": 3145,
      "**": 3146,
      "▁support": 3147,
      "▁par": 3148,
      "con": 3149,
      "▁adv": 3150,
      "▁show": 3151,
      "▁post": 3152,
      "▁dep": 3153,
      "ness": 3154,
      "▁import": 3155,
      "ways": 3156,
      "▁lead": 3157,
      "▁still": 3158,
      "▁appro": 3159,
      "ton": 3160,
      "ute": 3161,
      "▁в": 3162,
      "▁place": 3163,
      "▁Sp": 3164,
      "}{": 3165,
      "▁child": 3166,
      "▁et": 3167,
      "▁Re": 3168,
      "ann": 3169,
      "iet": 3170,
      "▁But": 3171,
      "▁prof": 3172,
      "over": 3173,
      "=\"": 3174,
      "ering": 3175,
      "sp": 3176,
      "▁care": 3177,
      "▁opt": 3178,
      "▁count": 3179,
      "▁book": 3180,
      "▁poss": 3181,
      "▁Sh": 3182,
      "▁fil": 3183,
      "▁cour": 3184,
      "▁commun": 3185,
      "▁number": 3186,
      "erg": 3187,
      "▁partic": 3188,
      "▁really": 3189,
      "of": 3190,
      "uc": 3191,
      "lease": 3192,
      "▁custom": 3193,
      "ired": 3194,
      "tt": 3195,
      "arm": 3196,
      "▁small": 3197,
      "▁program": 3198,
      "ots": 3199,
      "ining": 3200,
      "ivers": 3201,
      "app": 3202,
      "▁top": 3203,
      "view": 3204,
      "▁Cl": 3205,
      "ра": 3206,
      "It": 3207,
      "▁}": 3208,
      "ters": 3209,
      "▁New": 3210,
      "ray": 3211,
      "▁ref": 3212,
      "self": 3213,
      "ger": 3214,
      "▁pur": 3215,
      "cal": 3216,
      "▁main": 3217,
      "▁avail": 3218,
      "▁cent": 3219,
      "ittle": 3220,
      "▁real": 3221,
      "ered": 3222,
      "less": 3223,
      "riend": 3224,
      "▁techn": 3225,
      "ни": 3226,
      "ross": 3227,
      "equ": 3228,
      "frac": 3229,
      "▁ide": 3230,
      "▁going": 3231,
      "▁equ": 3232,
      "▁They": 3233,
      "▁proble": 3234,
      "ants": 3235,
      "▁free": 3236,
      "uss": 3237,
      "ving": 3238,
      "ically": 3239,
      "▁inf": 3240,
      "▁conf": 3241,
      "ruct": 3242,
      "ody": 3243,
      "▁few": 3244,
      "hes": 3245,
      ",\"": 3246,
      "pro": 3247,
      "cent": 3248,
      "▁project": 3249,
      "▁open": 3250,
      "roup": 3251,
      "▁fact": 3252,
      "▁team": 3253,
      "gg": 3254,
      "▁const": 3255,
      "▁De": 3256,
      "▁|": 3257,
      "▁state": 3258,
      "aw": 3259,
      "sc": 3260,
      "//": 3261,
      "abel": 3262,
      "aj": 3263,
      "▁try": 3264,
      "oun": 3265,
      "▁There": 3266,
      "▁,": 3267,
      "▁happ": 3268,
      "▁rest": 3269,
      "▁cap": 3270,
      "▁three": 3271,
      "ists": 3272,
      "▁pass": 3273,
      "▁Z": 3274,
      "ved": 3275,
      "ator": 3276,
      "bo": 3277,
      "▁How": 3278,
      "▁pat": 3279,
      "ething": 3280,
      "ко": 3281,
      "ral": 3282,
      "arly": 3283,
      "▁must": 3284,
      "▁[": 3285,
      "ology": 3286,
      "▁build": 3287,
      "ample": 3288,
      "nect": 3289,
      "ared": 3290,
      "iving": 3291,
      "▁available": 3292,
      "thing": 3293,
      "▁without": 3294,
      "be": 3295,
      "ural": 3296,
      "▁keep": 3297,
      "stand": 3298,
      "aut": 3299,
      "amb": 3300,
      "▁let": 3301,
      "▁service": 3302,
      "▁effect": 3303,
      "▁proper": 3304,
      "▁say": 3305,
      "here": 3306,
      "но": 3307,
      "▁quest": 3308,
      "▁always": 3309,
      "▁с": 3310,
      "▁mat": 3311,
      "▁plan": 3312,
      "},": 3313,
      "▁water": 3314,
      "▁stand": 3315,
      "▁come": 3316,
      "man": 3317,
      "ote": 3318,
      "▁little": 3319,
      "▁+": 3320,
      "▁love": 3321,
      "▁feel": 3322,
      "ital": 3323,
      "▁wr": 3324,
      "rid": 3325,
      "▁Ad": 3326,
      "▁er": 3327,
      "St": 3328,
      "▁perform": 3329,
      "▁second": 3330,
      "port": 3331,
      "▁Q": 3332,
      "tain": 3333,
      "▁es": 3334,
      "▁Wh": 3335,
      "ро": 3336,
      "oh": 3337,
      "▁sure": 3338,
      "▁order": 3339,
      "▁tri": 3340,
      "bers": 3341,
      "ery": 3342,
      "ished": 3343,
      "▁company": 3344,
      "ially": 3345,
      "▁She": 3346,
      "vent": 3347,
      "▁contin": 3348,
      "▁something": 3349,
      "▁interest": 3350,
      "rm": 3351,
      "▁organ": 3352,
      "▁during": 3353,
      "orn": 3354,
      "rol": 3355,
      "▁case": 3356,
      "▁things": 3357,
      "▁bre": 3358,
      "ER": 3359,
      "▁market": 3360,
      "eng": 3361,
      "put": 3362,
      "li": 3363,
      "ism": 3364,
      "reen": 3365,
      "meric": 3366,
      "lement": 3367,
      "If": 3368,
      "▁iss": 3369,
      "▁might": 3370,
      "▁better": 3371,
      "▁another": 3372,
      "▁oper": 3373,
      "▁mus": 3374,
      "▁head": 3375,
      "▁expl": 3376,
      "ware": 3377,
      "raph": 3378,
      "▁direct": 3379,
      "▁experience": 3380,
      "ron": 3381,
      "▁month": 3382,
      "ames": 3383,
      "▁important": 3384,
      "ertain": 3385,
      "▁family": 3386,
      "▁put": 3387,
      "ves": 3388,
      "dition": 3389,
      "oot": 3390,
      "▁including": 3391,
      "oss": 3392,
      "▁week": 3393,
      "ript": 3394,
      "cite": 3395,
      "▁since": 3396,
      "▁health": 3397,
      "▁test": 3398,
      "▁next": 3399,
      "ccess": 3400,
      "ior": 3401,
      "ately": 3402,
      "▁provide": 3403,
      "eq": 3404,
      "▁met": 3405,
      "▁rece": 3406,
      "▁incre": 3407,
      "▁public": 3408,
      "▁cost": 3409,
      "ense": 3410,
      "▁Pl": 3411,
      "▁level": 3412,
      "ran": 3413,
      "▁light": 3414,
      "▁able": 3415,
      "ider": 3416,
      "▁friend": 3417,
      "iven": 3418,
      "ung": 3419,
      "ploy": 3420,
      "▁school": 3421,
      "me": 3422,
      "pos": 3423,
      "▁pay": 3424,
      "ok": 3425,
      "mathb": 3426,
      "ead": 3427,
      "▁line": 3428,
      "▁—": 3429,
      "▁within": 3430,
      "ases": 3431,
      "▁give": 3432,
      "ott": 3433,
      "par": 3434,
      "▁soc": 3435,
      "ling": 3436,
      "ethod": 3437,
      "▁services": 3438,
      "inal": 3439,
      "▁function": 3440,
      "ision": 3441,
      "▁hard": 3442,
      "▁old": 3443,
      "omm": 3444,
      "ients": 3445,
      ".,": 3446,
      "▁term": 3447,
      "▁bro": 3448,
      "▁never": 3449,
      "▁power": 3450,
      "▁current": 3451,
      "▁return": 3452,
      "▁Se": 3453,
      "▁full": 3454,
      "▁bra": 3455,
      "▁So": 3456,
      "ret": 3457,
      "ateg": 3458,
      "min": 3459,
      "oint": 3460,
      "▁Ind": 3461,
      "rist": 3462,
      "▁Americ": 3463,
      "▁view": 3464,
      "ization": 3465,
      "▁present": 3466,
      "ium": 3467,
      "ivid": 3468,
      "▁ve": 3469,
      "▁access": 3470,
      "You": 3471,
      "ope": 3472,
      "▁name": 3473,
      "▁area": 3474,
      "ration": 3475,
      "▁dem": 3476,
      "▁opp": 3477,
      "▁Bl": 3478,
      "ems": 3479,
      "▁comple": 3480,
      "▁Ex": 3481,
      "▁ask": 3482,
      "▁lot": 3483,
      "a_": 3484,
      "▁Be": 3485,
      "▁sit": 3486,
      "label": 3487,
      "oney": 3488,
      "ique": 3489,
      "ours": 3490,
      "work": 3491,
      "▁report": 3492,
      "$,": 3493,
      "▁got": 3494,
      "$.": 3495,
      "▁room": 3496,
      "▁local": 3497,
      "ively": 3498,
      "▁less": 3499,
      "▁:": 3500,
      "ina": 3501,
      "▁der": 3502,
      "oor": 3503,
      "ified": 3504,
      "▁big": 3505,
      "att": 3506,
      "ats": 3507,
      "▁applic": 3508,
      "▁cr": 3509,
      "▁eng": 3510,
      "▁bas": 3511,
      "▁Con": 3512,
      "▁prot": 3513,
      "го": 3514,
      "ards": 3515,
      "▁Is": 3516,
      "▁online": 3517,
      "▁mov": 3518,
      "▁pop": 3519,
      "▁addition": 3520,
      "▁value": 3521,
      "▁All": 3522,
      "ird": 3523,
      "ify": 3524,
      "▁special": 3525,
      "▁non": 3526,
      "▁grow": 3527,
      "▁sing": 3528,
      "itions": 3529,
      "ains": 3530,
      "▁turn": 3531,
      "▁Sc": 3532,
      "lection": 3533,
      "▁webs": 3534,
      "▁working": 3535,
      "sh": 3536,
      "til": 3537,
      "▁phot": 3538,
      "ently": 3539,
      "▁Le": 3540,
      ",\\": 3541,
      "▁tem": 3542,
      "ability": 3543,
      "▁change": 3544,
      "▁invest": 3545,
      "▁large": 3546,
      "ре": 3547,
      "med": 3548,
      "▁X": 3549,
      "por": 3550,
      "▁days": 3551,
      "ised": 3552,
      "ortun": 3553,
      "▁aff": 3554,
      "iron": 3555,
      "▁connect": 3556,
      "mb": 3557,
      "▁exc": 3558,
      "▁beh": 3559,
      "igure": 3560,
      "▁chang": 3561,
      "ential": 3562,
      "ission": 3563,
      "▁rese": 3564,
      "▁ben": 3565,
      "for": 3566,
      "pect": 3567,
      "▁understand": 3568,
      "outh": 3569,
      "▁prom": 3570,
      "ream": 3571,
      "▁x": 3572,
      "IN": 3573,
      "left": 3574,
      "ention": 3575,
      "yle": 3576,
      "joy": 3577,
      "fect": 3578,
      "▁possible": 3579,
      "▁dev": 3580,
      "ably": 3581,
      "rop": 3582,
      "▁leg": 3583,
      "ieve": 3584,
      "▁quality": 3585,
      "gin": 3586,
      "▁intern": 3587,
      "mathcal": 3588,
      "▁fac": 3589,
      "▁method": 3590,
      "▁pract": 3591,
      "ump": 3592,
      "ror": 3593,
      "part": 3594,
      "▁profess": 3595,
      "▁away": 3596,
      "▁mar": 3597,
      "▁looking": 3598,
      "▁word": 3599,
      "▁sal": 3600,
      "ument": 3601,
      "▁event": 3602,
      "▁spe": 3603,
      "▁dri": 3604,
      "equation": 3605,
      "▁check": 3606,
      "▁Ph": 3607,
      "▁Col": 3608,
      "▁mult": 3609,
      "▁until": 3610,
      "ury": 3611,
      "▁visit": 3612,
      "▁meet": 3613,
      "▁site": 3614,
      "▁making": 3615,
      "oci": 3616,
      "▁ann": 3617,
      "iversity": 3618,
      "ush": 3619,
      "})": 3620,
      "irc": 3621,
      "▁along": 3622,
      "▁Te": 3623,
      "co": 3624,
      "▁allow": 3625,
      "arent": 3626,
      "▁game": 3627,
      "▁success": 3628,
      "▁food": 3629,
      "▁group": 3630,
      "▁и": 3631,
      "▁hist": 3632,
      "▁sw": 3633,
      "raw": 3634,
      "▁о": 3635,
      "▁To": 3636,
      "▁example": 3637,
      "load": 3638,
      "by": 3639,
      "ember": 3640,
      "aster": 3641,
      "▁On": 3642,
      "}.": 3643,
      "pped": 3644,
      "▁Or": 3645,
      "▁field": 3646,
      "▁offer": 3647,
      "▁/": 3648,
      "▁course": 3649,
      "▁Mar": 3650,
      "▁left": 3651,
      "▁problem": 3652,
      "lish": 3653,
      "▁gr": 3654,
      "ci": 3655,
      "▁job": 3656,
      "▁following": 3657,
      "▁hum": 3658,
      "▁expect": 3659,
      "ending": 3660,
      "yn": 3661,
      "atic": 3662,
      "▁side": 3663,
      "room": 3664,
      "▁vers": 3665,
      "▁based": 3666,
      "ift": 3667,
      "▁children": 3668,
      "\",": 3669,
      "▁impro": 3670,
      "▁house": 3671,
      "▁activ": 3672,
      "▁lim": 3673,
      "▁today": 3674,
      "vert": 3675,
      "As": 3676,
      "▁create": 3677,
      "▁against": 3678,
      "aper": 3679,
      "vious": 3680,
      "ries": 3681,
      "▁win": 3682,
      "utes": 3683,
      "▁needs": 3684,
      "ches": 3685,
      "ories": 3686,
      "ived": 3687,
      "orth": 3688,
      "aterial": 3689,
      "ait": 3690,
      "iety": 3691,
      "▁products": 3692,
      "▁creat": 3693,
      "gether": 3694,
      "▁together": 3695,
      "▁When": 3696,
      "▁four": 3697,
      "▁wom": 3698,
      "▁often": 3699,
      "}(": 3700,
      "▁law": 3701,
      "▁fr": 3702,
      "not": 3703,
      "urs": 3704,
      "itive": 3705,
      "▁times": 3706,
      "▁detail": 3707,
      "▁why": 3708,
      "agement": 3709,
      "▁occ": 3710,
      "▁learn": 3711,
      "ON": 3712,
      "▁pot": 3713,
      "▁given": 3714,
      "ley": 3715,
      "For": 3716,
      "ency": 3717,
      "hor": 3718,
      "▁space": 3719,
      "▁type": 3720,
      "▁students": 3721,
      "▁model": 3722,
      "▁conc": 3723,
      "()": 3724,
      "▁works": 3725,
      "▁indust": 3726,
      "af": 3727,
      "ocus": 3728,
      "vern": 3729,
      "▁money": 3730,
      "side": 3731,
      "▁easy": 3732,
      "ри": 3733,
      "▁enjoy": 3734,
      "▁anal": 3735,
      "ination": 3736,
      "oice": 3737,
      "}^": 3738,
      "erc": 3739,
      "ready": 3740,
      "▁having": 3741,
      "▁elect": 3742,
      "▁US": 3743,
      "▁With": 3744,
      "▁pain": 3745,
      "illion": 3746,
      "▁website": 3747,
      "▁kind": 3748,
      "ource": 3749,
      "▁desc": 3750,
      "ва": 3751,
      "!!": 3752,
      "set": 3753,
      "ids": 3754,
      "▁‘": 3755,
      "▁Man": 3756,
      "iver": 3757,
      "AT": 3758,
      "▁buy": 3759,
      "▁net": 3760,
      "▁employ": 3761,
      "▁account": 3762,
      "resent": 3763,
      "ding": 3764,
      "pping": 3765,
      "ged": 3766,
      "▁That": 3767,
      "▁saf": 3768,
      "▁cou": 3769,
      "ills": 3770,
      "icle": 3771,
      "val": 3772,
      "ho": 3773,
      "uro": 3774,
      "▁done": 3775,
      "▁que": 3776,
      "uf": 3777,
      "ither": 3778,
      "▁individ": 3779,
      "ising": 3780,
      "▁air": 3781,
      "ording": 3782,
      "ended": 3783,
      "▁control": 3784,
      "▁thing": 3785,
      "▁Christ": 3786,
      "▁Tr": 3787,
      "rap": 3788,
      "ze": 3789,
      "----": 3790,
      "▁results": 3791,
      "▁sever": 3792,
      "▁short": 3793,
      "▁Res": 3794,
      "eter": 3795,
      "▁writ": 3796,
      "▁tre": 3797,
      "ES": 3798,
      "то": 3799,
      "▁move": 3800,
      "▁low": 3801,
      "▁mean": 3802,
      "▁called": 3803,
      "atures": 3804,
      "ли": 3805,
      "▁past": 3806,
      "~\\": 3807,
      "▁far": 3808,
      "▁enough": 3809,
      "▁means": 3810,
      "▁orig": 3811,
      "viron": 3812,
      "alph": 3813,
      "ai": 3814,
      "▁certain": 3815,
      "▁specific": 3816,
      "▁above": 3817,
      "▁treat": 3818,
      "▁What": 3819,
      "▁night": 3820,
      "▁At": 3821,
      "ane": 3822,
      "▁men": 3823,
      "utions": 3824,
      "▁already": 3825,
      "▁perfect": 3826,
      "uck": 3827,
      "▁page": 3828,
      "▁particular": 3829,
      "▁cal": 3830,
      "ка": 3831,
      "roll": 3832,
      "▁hold": 3833,
      "▁typ": 3834,
      "▁Eng": 3835,
      "▁include": 3836,
      "urther": 3837,
      "new": 3838,
      "▁land": 3839,
      "aps": 3840,
      "▁material": 3841,
      "aff": 3842,
      "fer": 3843,
      "▁beaut": 3844,
      "▁several": 3845,
      "▁become": 3846,
      "▁body": 3847,
      "▁Comm": 3848,
      "ww": 3849,
      "▁govern": 3850,
      "▁key": 3851,
      "▁Cent": 3852,
      "orts": 3853,
      "AR": 3854,
      "osed": 3855,
      "▁vide": 3856,
      "enn": 3857,
      "▁code": 3858,
      "▁ident": 3859,
      "aring": 3860,
      "▁wind": 3861,
      "den": 3862,
      "▁Fl": 3863,
      "▁lo": 3864,
      "▁soft": 3865,
      "▁require": 3866,
      "▁God": 3867,
      "oid": 3868,
      "▁individual": 3869,
      "rodu": 3870,
      "▁redu": 3871,
      "sw": 3872,
      "▁No": 3873,
      "ulation": 3874,
      "▁below": 3875,
      "▁My": 3876,
      "ored": 3877,
      "inc": 3878,
      "▁didn": 3879,
      "ux": 3880,
      "alf": 3881,
      "eb": 3882,
      "▁lik": 3883,
      "▁д": 3884,
      "▁focus": 3885,
      "▁contact": 3886,
      "ен": 3887,
      "▁tell": 3888,
      "ajor": 3889,
      "▁makes": 3890,
      "What": 3891,
      "▁personal": 3892,
      "ffic": 3893,
      "▁mom": 3894,
      "ched": 3895,
      "▁research": 3896,
      "chen": 3897,
      "▁sum": 3898,
      "play": 3899,
      "▁fore": 3900,
      ")\\": 3901,
      "aim": 3902,
      "▁vol": 3903,
      "▁step": 3904,
      "▁across": 3905,
      "ograph": 3906,
      "oose": 3907,
      "▁bit": 3908,
      "aces": 3909,
      "ured": 3910,
      "son": 3911,
      "▁mind": 3912,
      "ney": 3913,
      "▁comb": 3914,
      "▁на": 3915,
      "▁others": 3916,
      "▁community": 3917,
      "ges": 3918,
      "▁Can": 3919,
      "▁Co": 3920,
      "ference": 3921,
      "▁University": 3922,
      "▁hig": 3923,
      "▁benef": 3924,
      "ape": 3925,
      "▁charact": 3926,
      "lev": 3927,
      "▁ey": 3928,
      "▁energ": 3929,
      "da": 3930,
      "▁protect": 3931,
      "agn": 3932,
      "ctor": 3933,
      "▁priv": 3934,
      "▁ever": 3935,
      "▁fut": 3936,
      "▁Car": 3937,
      "eta": 3938,
      "▁least": 3939,
      "ino": 3940,
      "▁file": 3941,
      "An": 3942,
      "where": 3943,
      "ij": 3944,
      "та": 3945,
      "▁quick": 3946,
      "ances": 3947,
      "sy": 3948,
      "▁mil": 3949,
      "▁tot": 3950,
      "▁once": 3951,
      "▁pack": 3952,
      "ume": 3953,
      "▁These": 3954,
      "▁complet": 3955,
      "▁object": 3956,
      "most": 3957,
      "▁enc": 3958,
      "▁super": 3959,
      "▁record": 3960,
      "▁thought": 3961,
      "▁getting": 3962,
      "▁members": 3963,
      "iod": 3964,
      "▁install": 3965,
      "ike": 3966,
      "▁social": 3967,
      "ides": 3968,
      "ohn": 3969,
      "▁prob": 3970,
      "▁range": 3971,
      "anks": 3972,
      "',": 3973,
      "▁doing": 3974,
      "ла": 3975,
      "▁comes": 3976,
      "isk": 3977,
      "fl": 3978,
      "▁br": 3979,
      "sel": 3980,
      "▁development": 3981,
      "Ch": 3982,
      "▁consider": 3983,
      "wards": 3984,
      "vironment": 3985,
      "▁ens": 3986,
      "une": 3987,
      "ement": 3988,
      "▁hot": 3989,
      "▁du": 3990,
      "▁meas": 3991,
      "ль": 3992,
      "▁However": 3993,
      "ister": 3994,
      "ilt": 3995,
      "ask": 3996,
      "There": 3997,
      "▁Fr": 3998,
      "▁fund": 3999,
      "▁table": 4000,
      "elta": 4001,
      "$\\": 4002,
      "▁war": 4003,
      "▁text": 4004,
      "sub": 4005,
      "AN": 4006,
      "conom": 4007,
      "▁came": 4008,
      "▁opportun": 4009,
      "▁single": 4010,
      "▁reason": 4011,
      "▁port": 4012,
      "▁fav": 4013,
      "▁country": 4014,
      "ster": 4015,
      "iful": 4016,
      "▁fre": 4017,
      "ables": 4018,
      "▁study": 4019,
      "uff": 4020,
      "▁review": 4021,
      "▁talk": 4022,
      "▁music": 4023,
      "urity": 4024,
      "osp": 4025,
      "▁Our": 4026,
      "ones": 4027,
      "▁price": 4028,
      "▁major": 4029,
      "rem": 4030,
      "apt": 4031,
      "▁known": 4032,
      "▁clean": 4033,
      "▁educ": 4034,
      "▁strong": 4035,
      "▁App": 4036,
      "▁discuss": 4037,
      "▁camp": 4038,
      "ament": 4039,
      ",”": 4040,
      "▁stre": 4041,
      "▁invol": 4042,
      "▁tool": 4043,
      "▁size": 4044,
      "ene": 4045,
      "\t\t": 4046,
      "aken": 4047,
      "▁nat": 4048,
      "▁deal": 4049,
      "▁city": 4050,
      "pec": 4051,
      "▁energy": 4052,
      "▁En": 4053,
      "▁Sy": 4054,
      "bar": 4055,
      "mm": 4056,
      "▁later": 4057,
      "▁doc": 4058,
      "▁по": 4059,
      "▁doesn": 4060,
      "▁den": 4061,
      "▁cover": 4062,
      "OR": 4063,
      "▁dr": 4064,
      "rict": 4065,
      "▁sat": 4066,
      "▁mot": 4067,
      "▁simple": 4068,
      "▁appear": 4069,
      "▁Su": 4070,
      "▁log": 4071,
      "ки": 4072,
      "▁comput": 4073,
      "▁live": 4074,
      "To": 4075,
      "▁compan": 4076,
      "ply": 4077,
      "▁took": 4078,
      "▁due": 4079,
      "idth": 4080,
      "://": 4081,
      "▁actually": 4082,
      "▁diff": 4083,
      "▁future": 4084,
      "▁*": 4085,
      "ilar": 4086,
      "go": 4087,
      "_i": 4088,
      "▁cut": 4089,
      "amma": 4090,
      "▁bed": 4091,
      "ources": 4092,
      "my": 4093,
      "How": 4094,
      "▁walk": 4095,
      "▁repl": 4096,
      "▁ant": 4097,
      "ada": 4098,
      "▁bar": 4099,
      "▁select": 4100,
      "▁represent": 4101,
      "▁started": 4102,
      "▁May": 4103,
      "=\\": 4104,
      "</": 4105,
      "ians": 4106,
      "ST": 4107,
      "cing": 4108,
      "mber": 4109,
      "▁die": 4110,
      "▁question": 4111,
      "He": 4112,
      "▁compet": 4113,
      "▁address": 4114,
      "▁offic": 4115,
      "ony": 4116,
      "▁begin": 4117,
      "▁hours": 4118,
      "▁bring": 4119,
      "▁young": 4120,
      "▁story": 4121,
      "▁ear": 4122,
      "▁self": 4123,
      "▁\\\\": 4124,
      "▁minutes": 4125,
      "▁mess": 4126,
      "lished": 4127,
      "mathbb": 4128,
      "▁share": 4129,
      "▁pie": 4130,
      "mu": 4131,
      "▁ess": 4132,
      "▁corre": 4133,
      "▁init": 4134,
      "rad": 4135,
      "augh": 4136,
      "urch": 4137,
      "use": 4138,
      "те": 4139,
      "▁content": 4140,
      "▁features": 4141,
      "ler": 4142,
      "▁exist": 4143,
      "ips": 4144,
      "▁search": 4145,
      "▁purch": 4146,
      "▁season": 4147,
      "elt": 4148,
      "ilities": 4149,
      "ox": 4150,
      "back": 4151,
      "▁Pr": 4152,
      "gle": 4153,
      "EN": 4154,
      "▁struct": 4155,
      "▁yet": 4156,
      "▁Gu": 4157,
      "ledge": 4158,
      "leg": 4159,
      "▁won": 4160,
      "▁sound": 4161,
      "i_": 4162,
      "▁property": 4163,
      "▁American": 4164,
      "▁early": 4165,
      "ples": 4166,
      "▁went": 4167,
      "▁pri": 4168,
      "▁amount": 4169,
      "ison": 4170,
      "▁ver": 4171,
      "resh": 4172,
      "oring": 4173,
      "▁upd": 4174,
      "▁everything": 4175,
      "▁period": 4176,
      "▁seen": 4177,
      "raft": 4178,
      "▁press": 4179,
      "▁pict": 4180,
      "?\"": 4181,
      "face": 4182,
      "▁lov": 4183,
      "▁obs": 4184,
      "When": 4185,
      "igma": 4186,
      "though": 4187,
      "▁happen": 4188,
      "▁friends": 4189,
      "▁either": 4190,
      "illed": 4191,
      "bl": 4192,
      "▁break": 4193,
      "▁ce": 4194,
      "alpha": 4195,
      "▁heart": 4196,
      "▁Do": 4197,
      "book": 4198,
      "▁Inst": 4199,
      "▁One": 4200,
      "ued": 4201,
      "▁whole": 4202,
      "iter": 4203,
      "▁ste": 4204,
      "▁cond": 4205,
      "▁respect": 4206,
      "ification": 4207,
      "▁user": 4208,
      "▁recomm": 4209,
      "▁Intern": 4210,
      "ibility": 4211,
      "ari": 4212,
      "icy": 4213,
      "imate": 4214,
      "▁store": 4215,
      "ained": 4216,
      "▁red": 4217,
      "▁industry": 4218,
      "▁idea": 4219,
      "hy": 4220,
      "▁general": 4221,
      "▁respons": 4222,
      "▁face": 4223,
      "▁offers": 4224,
      "umn": 4225,
      "▁building": 4226,
      "ло": 4227,
      "fully": 4228,
      "And": 4229,
      "oon": 4230,
      "Al": 4231,
      "duct": 4232,
      "▁web": 4233,
      "▁wond": 4234,
      "▁training": 4235,
      "▁environment": 4236,
      "▁else": 4237,
      "ogn": 4238,
      "▁phys": 4239,
      "(\"": 4240,
      "▁common": 4241,
      "▁sn": 4242,
      "ле": 4243,
      "▁says": 4244,
      "▁further": 4245,
      "asing": 4246,
      "▁whether": 4247,
      "Ex": 4248,
      "▁jo": 4249,
      "▁print": 4250,
      "lex": 4251,
      "▁sugg": 4252,
      "▁м": 4253,
      "▁seem": 4254,
      "▁stay": 4255,
      "olution": 4256,
      "▁companies": 4257,
      "▁suggest": 4258,
      "}^{": 4259,
      "unch": 4260,
      "irm": 4261,
      "▁front": 4262,
      "▁lat": 4263,
      "▁near": 4264,
      "▁з": 4265,
      "▁cult": 4266,
      "irt": 4267,
      "br": 4268,
      "na": 4269,
      "ners": 4270,
      "▁determ": 4271,
      "ili": 4272,
      "▁true": 4273,
      "ruction": 4274,
      "▁various": 4275,
      "ators": 4276,
      "▁complete": 4277,
      "▁John": 4278,
      "irl": 4279,
      "-\\": 4280,
      "▁chall": 4281,
      "idence": 4282,
      "ule": 4283,
      "▁required": 4284,
      "▁beautiful": 4285,
      "▁Med": 4286,
      "fort": 4287,
      "▁relations": 4288,
      "▁performance": 4289,
      "rew": 4290,
      "But": 4291,
      "▁human": 4292,
      "▁email": 4293,
      "▁video": 4294,
      "▁hy": 4295,
      "▁Tra": 4296,
      "▁Wor": 4297,
      "ried": 4298,
      "pper": 4299,
      "▁Euro": 4300,
      "▁among": 4301,
      "▁Ste": 4302,
      "▁questions": 4303,
      "▁answ": 4304,
      "▁image": 4305,
      "▁months": 4306,
      "▁vari": 4307,
      "▁government": 4308,
      "▁exam": 4309,
      "ication": 4310,
      "AL": 4311,
      "▁provides": 4312,
      "ball": 4313,
      "▁please": 4314,
      "abor": 4315,
      "▁necess": 4316,
      "▁Cont": 4317,
      "▁black": 4318,
      "ights": 4319,
      "▁mor": 4320,
      "▁mid": 4321,
      "aving": 4322,
      "time": 4323,
      "ED": 4324,
      "▁ach": 4325,
      "ibr": 4326,
      "▁trying": 4327,
      "▁dou": 4328,
      "▁#": 4329,
      "gr": 4330,
      "IT": 4331,
      "▁position": 4332,
      "col": 4333,
      "▁Serv": 4334,
      "omes": 4335,
      "▁Ass": 4336,
      "eral": 4337,
      "▁Che": 4338,
      "▁cell": 4339,
      "ole": 4340,
      "▁rad": 4341,
      "ops": 4342,
      "▁brand": 4343,
      "urance": 4344,
      "▁taking": 4345,
      "▁lay": 4346,
      "▁signific": 4347,
      "▁close": 4348,
      "▁econom": 4349,
      "angu": 4350,
      "ival": 4351,
      "fig": 4352,
      "hers": 4353,
      "не": 4354,
      "reg": 4355,
      "▁customers": 4356,
      "▁abs": 4357,
      "во": 4358,
      "▁women": 4359,
      "▁author": 4360,
      "icult": 4361,
      "▁request": 4362,
      "▁improve": 4363,
      "▁paper": 4364,
      "▁tax": 4365,
      "▁someone": 4366,
      "ression": 4367,
      "Cl": 4368,
      "uation": 4369,
      "ires": 4370,
      "▁similar": 4371,
      "ublic": 4372,
      "▁mass": 4373,
      "iple": 4374,
      "▁application": 4375,
      "▁anything": 4376,
      "wh": 4377,
      "▁almost": 4378,
      "▁half": 4379,
      "▁technology": 4380,
      "cle": 4381,
      "iment": 4382,
      "▁entire": 4383,
      "▁million": 4384,
      "▁wall": 4385,
      "▁quite": 4386,
      "astic": 4387,
      "▁dom": 4388,
      "sec": 4389,
      "▁simply": 4390,
      "ites": 4391,
      "ief": 4392,
      "▁professional": 4393,
      "▁card": 4394,
      "hing": 4395,
      "▁needed": 4396,
      "▁however": 4397,
      "▁hope": 4398,
      "▁issues": 4399,
      "▁crit": 4400,
      "elling": 4401,
      "▁manag": 4402,
      "▁travel": 4403,
      "▁United": 4404,
      "▁cred": 4405,
      "mp": 4406,
      "▁stat": 4407,
      "AS": 4408,
      "istic": 4409,
      "action": 4410,
      "ourn": 4411,
      "So": 4412,
      "▁circ": 4413,
      "ground": 4414,
      "▁ut": 4415,
      "^{\\": 4416,
      "head": 4417,
      "▁five": 4418,
      "ands": 4419,
      "arget": 4420,
      "ober": 4421,
      "roid": 4422,
      "pecially": 4423,
      "▁series": 4424,
      "selves": 4425,
      "itted": 4426,
      "ends": 4427,
      "cer": 4428,
      "imal": 4429,
      "eed": 4430,
      "rand": 4431,
      "▁defin": 4432,
      "▁claim": 4433,
      "▁strateg": 4434,
      "▁fail": 4435,
      "▁Des": 4436,
      "rs": 4437,
      "obal": 4438,
      "▁polit": 4439,
      "arning": 4440,
      "▁blog": 4441,
      "ises": 4442,
      "▁living": 4443,
      "isc": 4444,
      "▁clear": 4445,
      "lamb": 4446,
      "▁style": 4447,
      "▁ter": 4448,
      "▁download": 4449,
      "▁color": 4450,
      "ica": 4451,
      "▁areas": 4452,
      "▁white": 4453,
      "▁miss": 4454,
      "▁history": 4455,
      "▁mach": 4456,
      "ules": 4457,
      "▁pick": 4458,
      "▁sent": 4459,
      "▁link": 4460,
      "zy": 4461,
      "▁believe": 4462,
      "icro": 4463,
      "▁associ": 4464,
      "▁dig": 4465,
      "▁financ": 4466,
      "▁host": 4467,
      "▁version": 4468,
      "▁character": 4469,
      "▁systems": 4470,
      "ault": 4471,
      "ер": 4472,
      "▁deg": 4473,
      "▁previous": 4474,
      "Pro": 4475,
      "▁norm": 4476,
      "▁points": 4477,
      "▁Comp": 4478,
      "▁unique": 4479,
      "sk": 4480,
      "▁particip": 4481,
      "▁aud": 4482,
      "inks": 4483,
      "▁network": 4484,
      "▁fall": 4485,
      "▁management": 4486,
      "cript": 4487,
      "▁parent": 4488,
      "▁solution": 4489,
      "umb": 4490,
      "##": 4491,
      "rag": 4492,
      "▁Rep": 4493,
      "mit": 4494,
      "és": 4495,
      "▁final": 4496,
      "▁taken": 4497,
      "▁Cal": 4498,
      "да": 4499,
      "yl": 4500,
      "▁compl": 4501,
      "ти": 4502,
      "pm": 4503,
      "rown": 4504,
      "▁Europe": 4505,
      "ana": 4506,
      "▁provided": 4507,
      "On": 4508,
      "clus": 4509,
      "▁obtain": 4510,
      "▁rather": 4511,
      "gest": 4512,
      "▁clos": 4513,
      "itch": 4514,
      "\">": 4515,
      "▁natural": 4516,
      "ided": 4517,
      "dle": 4518,
      "▁describ": 4519,
      "▁experien": 4520,
      "epend": 4521,
      "opy": 4522,
      "▁Par": 4523,
      "▁After": 4524,
      "▁percent": 4525,
      "bf": 4526,
      "▁approach": 4527,
      "empt": 4528,
      "ttp": 4529,
      "ength": 4530,
      "▁choose": 4531,
      "▁difficult": 4532,
      "lege": 4533,
      "▁coll": 4534,
      "▁dam": 4535,
      "▁deb": 4536,
      "▁foot": 4537,
      "section": 4538,
      "RE": 4539,
      "▁moment": 4540,
      "_n": 4541,
      "▁York": 4542,
      "▁total": 4543,
      "▁El": 4544,
      "▁added": 4545,
      "▁issue": 4546,
      "▁{\\": 4547,
      "▁estab": 4548,
      "▁Qu": 4549,
      "▁cook": 4550,
      "ensive": 4551,
      "▁especially": 4552,
      "▁prim": 4553,
      "IC": 4554,
      "iting": 4555,
      "▁shows": 4556,
      "▁office": 4557,
      "▁problems": 4558,
      "▁created": 4559,
      "▁action": 4560,
      "align": 4561,
      "▁inside": 4562,
      "▁à": 4563,
      "▁cannot": 4564,
      "▁events": 4565,
      "aur": 4566,
      "▁Min": 4567,
      "imum": 4568,
      "dd": 4569,
      "str": 4570,
      "tr": 4571,
      "▁media": 4572,
      "obile": 4573,
      "box": 4574,
      "ato": 4575,
      "ser": 4576,
      "▁assist": 4577,
      "▁Count": 4578,
      "AC": 4579,
      "ille": 4580,
      "▁soon": 4581,
      "pi": 4582,
      "▁Then": 4583,
      "▁Me": 4584,
      "▁wait": 4585,
      "come": 4586,
      "▁extra": 4587,
      "):": 4588,
      "ext": 4589,
      "▁--": 4590,
      "▁etc": 4591,
      "gs": 4592,
      "▁exact": 4593,
      "▁matter": 4594,
      "angle": 4595,
      "itten": 4596,
      "▁box": 4597,
      "▁told": 4598,
      "▁Not": 4599,
      "▁distrib": 4600,
      "▁б": 4601,
      "ufact": 4602,
      "▁significant": 4603,
      "▁Aust": 4604,
      "▁Your": 4605,
      "▁options": 4606,
      "oud": 4607,
      "▁His": 4608,
      "▁engine": 4609,
      "▁knowledge": 4610,
      "▁staff": 4611,
      "medi": 4612,
      "mathbf": 4613,
      "▁oil": 4614,
      "▁designed": 4615,
      "Re": 4616,
      "ude": 4617,
      "▁third": 4618,
      "ension": 4619,
      "▁у": 4620,
      "▁City": 4621,
      "▁pan": 4622,
      "▁rate": 4623,
      "▁changes": 4624,
      "▁ways": 4625,
      "▁wanted": 4626,
      "org": 4627,
      "▁terms": 4628,
      "▁writing": 4629,
      "▁private": 4630,
      "itting": 4631,
      "▁neg": 4632,
      "▁Ge": 4633,
      "▁likely": 4634,
      "▁fram": 4635,
      "▁words": 4636,
      "ado": 4637,
      "▁infl": 4638,
      "▁pret": 4639,
      "itor": 4640,
      "etimes": 4641,
      "verage": 4642,
      "anced": 4643,
      ")}": 4644,
      "IS": 4645,
      "▁ground": 4646,
      "▁ensure": 4647,
      "ió": 4648,
      "▁accept": 4649,
      "▁age": 4650,
      "▁autom": 4651,
      "▁original": 4652,
      "▁higher": 4653,
      "acy": 4654,
      "▁includes": 4655,
      "▁regard": 4656,
      "▁door": 4657,
      "▁feature": 4658,
      "ilon": 4659,
      "▁via": 4660,
      "▁ful": 4661,
      "ection": 4662,
      "▁South": 4663,
      "▁learning": 4664,
      "▁yourself": 4665,
      "rt": 4666,
      "▁introdu": 4667,
      "▁details": 4668,
      "▁subject": 4669,
      "▁running": 4670,
      "nov": 4671,
      "▁bad": 4672,
      "▁probably": 4673,
      "ava": 4674,
      "enc": 4675,
      "Con": 4676,
      "iam": 4677,
      "▁potential": 4678,
      "▁Gl": 4679,
      "▁fix": 4680,
      "▁popular": 4681,
      "▁date": 4682,
      "▁By": 4683,
      "ysis": 4684,
      "▁asked": 4685,
      "era": 4686,
      "▁National": 4687,
      "ivity": 4688,
      "▁favor": 4689,
      "▁everyone": 4690,
      "▁standard": 4691,
      "▁upon": 4692,
      "▁caus": 4693,
      "▁click": 4694,
      "▁fire": 4695,
      "ura": 4696,
      "▁nothing": 4697,
      "▁van": 4698,
      "....": 4699,
      "▁regular": 4700,
      "▁Per": 4701,
      "▁watch": 4702,
      "▁fit": 4703,
      "airs": 4704,
      "▁software": 4705,
      "▁ideas": 4706,
      "ming": 4707,
      "▁relationship": 4708,
      "\\\\": 4709,
      "aid": 4710,
      "icated": 4711,
      "▁forward": 4712,
      "▁road": 4713,
      "▁Sec": 4714,
      "overed": 4715,
      "▁tou": 4716,
      "▁contrib": 4717,
      "▁sens": 4718,
      "▁ele": 4719,
      "aining": 4720,
      "aced": 4721,
      "▁outside": 4722,
      "▁Bar": 4723,
      "▁takes": 4724,
      "ese": 4725,
      "▁customer": 4726,
      "▁dat": 4727,
      "onse": 4728,
      "▁behind": 4729,
      "▁comfort": 4730,
      "▁section": 4731,
      "▁ill": 4732,
      "▁phone": 4733,
      "LE": 4734,
      "ны": 4735,
      "▁bott": 4736,
      "▁path": 4737,
      "▁fast": 4738,
      "ID": 4739,
      "▁State": 4740,
      "izing": 4741,
      "▁School": 4742,
      "▁North": 4743,
      "▁Ag": 4744,
      "▁//": 4745,
      "urg": 4746,
      "▁squ": 4747,
      "▁Part": 4748,
      "artment": 4749,
      "▁condition": 4750,
      "▁kit": 4751,
      "▁separ": 4752,
      "arrow": 4753,
      "isf": 4754,
      "▁games": 4755,
      "oogle": 4756,
      "▁coun": 4757,
      "▁gen": 4758,
      "▁usually": 4759,
      "aching": 4760,
      "▁coming": 4761,
      "▁increase": 4762,
      "▁World": 4763,
      "▁display": 4764,
      "sum": 4765,
      "▁Reg": 4766,
      "▁dest": 4767,
      "ny": 4768,
      "▁tru": 4769,
      "▁values": 4770,
      "▁instead": 4771,
      "cd": 4772,
      "With": 4773,
      "▁users": 4774,
      "▁impact": 4775,
      "My": 4776,
      "sigma": 4777,
      "▁Ab": 4778,
      "▁track": 4779,
      "▁Jan": 4780,
      "▁loss": 4781,
      "▁recogn": 4782,
      "▁film": 4783,
      "▁lower": 4784,
      "atter": 4785,
      "ero": 4786,
      "▁held": 4787,
      "▁son": 4788,
      "iff": 4789,
      "▁ready": 4790,
      "▁apply": 4791,
      "^{-": 4792,
      "▁longer": 4793,
      "ception": 4794,
      "▁ago": 4795,
      "▁additional": 4796,
      "▁news": 4797,
      "olid": 4798,
      "▁role": 4799,
      "width": 4800,
      "▁six": 4801,
      "▁sle": 4802,
      "▁tradition": 4803,
      "▁seems": 4804,
      "ties": 4805,
      "inary": 4806,
      "ety": 4807,
      "▁security": 4808,
      "la": 4809,
      "\".": 4810,
      "▁langu": 4811,
      "resp": 4812,
      "▁risk": 4813,
      "Ph": 4814,
      "▁il": 4815,
      "('": 4816,
      "▁according": 4817,
      "uge": 4818,
      "ilde": 4819,
      "▁throughout": 4820,
      "ees": 4821,
      "var": 4822,
      "▁consum": 4823,
      "▁conditions": 4824,
      "▁tit": 4825,
      "▁party": 4826,
      "ached": 4827,
      "▁sil": 4828,
      "▁Sch": 4829,
      "▁veh": 4830,
      "▁isn": 4831,
      "mon": 4832,
      "que": 4833,
      "▁easily": 4834,
      "▁La": 4835,
      "▁built": 4836,
      "▁financial": 4837,
      "▁max": 4838,
      "hib": 4839,
      "▁wonder": 4840,
      "▁receive": 4841,
      "▁wood": 4842,
      "▁(\\": 4843,
      "▁collect": 4844,
      "▁located": 4845,
      "▁pred": 4846,
      "▁choice": 4847,
      "▁States": 4848,
      "▁effic": 4849,
      "__": 4850,
      "▁hon": 4851,
      "nces": 4852,
      "▁target": 4853,
      "▁param": 4854,
      "minist": 4855,
      "▁clients": 4856,
      "pose": 4857,
      "▁vi": 4858,
      "▁town": 4859,
      "ceed": 4860,
      "ml": 4861,
      "))": 4862,
      "▁é": 4863,
      "ging": 4864,
      "ev": 4865,
      "▁document": 4866,
      "▁sho": 4867,
      "▁correct": 4868,
      "▁implement": 4869,
      "▁leave": 4870,
      "▁error": 4871,
      "▁source": 4872,
      "▁received": 4873,
      "▁Pol": 4874,
      "▁related": 4875,
      "ga": 4876,
      "eks": 4877,
      "▁contract": 4878,
      "erve": 4879,
      "▁sense": 4880,
      "gy": 4881,
      "▁write": 4882,
      "▁Will": 4883,
      "▁member": 4884,
      "▁Apr": 4885,
      "▁TH": 4886,
      "aves": 4887,
      "▁items": 4888,
      "ological": 4889,
      "AM": 4890,
      "▁mix": 4891,
      "ession": 4892,
      "▁shall": 4893,
      "▁stra": 4894,
      "▁Cor": 4895,
      "▁Some": 4896,
      "Our": 4897,
      "▁Har": 4898,
      "▁practice": 4899,
      "();": 4900,
      "▁continue": 4901,
      "▁treatment": 4902,
      "+\\": 4903,
      "▁manufact": 4904,
      "▁itself": 4905,
      "▁draw": 4906,
      "▁Am": 4907,
      "▁saw": 4908,
      "▁stop": 4909,
      "ha": 4910,
      "▁amaz": 4911,
      "▁flow": 4912,
      "▁sche": 4913,
      "su": 4914,
      "▁pretty": 4915,
      "lim": 4916,
      "▁deep": 4917,
      "▁option": 4918,
      "mathrm": 4919,
      "▁sun": 4920,
      "▁Af": 4921,
      "▁complex": 4922,
      "▁prep": 4923,
      "▁Bo": 4924,
      "▁Park": 4925,
      "OM": 4926,
      "▁skin": 4927,
      "▁opportunity": 4928,
      "▁bal": 4929,
      "▁arg": 4930,
      "atform": 4931,
      "▁match": 4932,
      "▁Sm": 4933,
      "array": 4934,
      "▁concern": 4935,
      "▁base": 4936,
      "pre": 4937,
      "ted": 4938,
      "phi": 4939,
      "▁cases": 4940,
      "▁Dep": 4941,
      "urb": 4942,
      "no": 4943,
      "▁Stud": 4944,
      "▁pers": 4945,
      "▁modern": 4946,
      "▁sett": 4947,
      "▁allows": 4948,
      "ender": 4949,
      "▁prior": 4950,
      "▁happy": 4951,
      "cul": 4952,
      ".”": 4953,
      "ipment": 4954,
      "pri": 4955,
      "▁heav": 4956,
      "▁speak": 4957,
      "now": 4958,
      "*}": 4959,
      "ales": 4960,
      "▁anyone": 4961,
      "based": 4962,
      "▁production": 4963,
      "cont": 4964,
      "item": 4965,
      "eps": 4966,
      "▁maintain": 4967,
      "▁necessary": 4968,
      "▁save": 4969,
      "▁education": 4970,
      "▁currently": 4971,
      "roups": 4972,
      "▁Im": 4973,
      "▁location": 4974,
      "▁included": 4975,
      "ental": 4976,
      "▁exec": 4977,
      "▁swe": 4978,
      "▁les": 4979,
      "▁arch": 4980,
      "▁insp": 4981,
      "Com": 4982,
      "▁Ed": 4983,
      "▁compon": 4984,
      "▁answer": 4985,
      "▁wide": 4986,
      "▁Just": 4987,
      "All": 4988,
      "▁looks": 4989,
      "▁Now": 4990,
      "ida": 4991,
      "▁weight": 4992,
      "▁shown": 4993,
      "▁emb": 4994,
      "oke": 4995,
      "ores": 4996,
      "ви": 4997,
      "▁drive": 4998,
      "▁floor": 4999,
      "▁Tw": 5000,
      "▁worked": 5001,
      "▁||": 5002,
      "▁...": 5003,
      "▁gives": 5004,
      "▁observ": 5005,
      "▁quickly": 5006,
      "▁death": 5007,
      "iles": 5008,
      "▁recent": 5009,
      "OT": 5010,
      "rel": 5011,
      "gamma": 5012,
      "just": 5013,
      "wise": 5014,
      "▁Dr": 5015,
      "}{\\": 5016,
      "▁multiple": 5017,
      "▁worth": 5018,
      "ham": 5019,
      "At": 5020,
      "▁cross": 5021,
      "aily": 5022,
      "▁insurance": 5023,
      "▁tour": 5024,
      "▁types": 5025,
      "▁ge": 5026,
      "▁effective": 5027,
      "▁bound": 5028,
      "▁growth": 5029,
      "▁activities": 5030,
      "▁recommend": 5031,
      "ET": 5032,
      "▁sales": 5033,
      "ption": 5034,
      "leased": 5035,
      "▁cas": 5036,
      "div": 5037,
      "hel": 5038,
      "off": 5039,
      "▁Val": 5040,
      "ett": 5041,
      "▁reading": 5042,
      "]{": 5043,
      "icles": 5044,
      "ades": 5045,
      "▁Mark": 5046,
      "▁cy": 5047,
      "▁screen": 5048,
      "aging": 5049,
      "bor": 5050,
      "▁cool": 5051,
      "▁remov": 5052,
      "▁dire": 5053,
      "iction": 5054,
      "▁skills": 5055,
      "adem": 5056,
      "▁kids": 5057,
      "▁round": 5058,
      "▁los": 5059,
      "▁«": 5060,
      "▁Pe": 5061,
      "▁cause": 5062,
      "aul": 5063,
      "ди": 5064,
      "▁parts": 5065,
      "uk": 5066,
      "▁agre": 5067,
      "aches": 5068,
      "▁variety": 5069,
      "OU": 5070,
      "key": 5071,
      "▁West": 5072,
      "▁written": 5073,
      "big": 5074,
      "▁hands": 5075,
      "▁eyes": 5076,
      "▁excell": 5077,
      "▁Int": 5078,
      "▁affect": 5079,
      "uth": 5080,
      "▁projects": 5081,
      "▁satisf": 5082,
      "▁computer": 5083,
      "word": 5084,
      "def": 5085,
      "irth": 5086,
      "▁tried": 5087,
      "log": 5088,
      "▁girl": 5089,
      "atory": 5090,
      "▁Mc": 5091,
      "uments": 5092,
      "▁propos": 5093,
      "ridge": 5094,
      "theta": 5095,
      "za": 5096,
      "▁directly": 5097,
      "▁images": 5098,
      "▁ones": 5099,
      "idered": 5100,
      "Wh": 5101,
      "▁div": 5102,
      "▁Let": 5103,
      "▁Her": 5104,
      "▁song": 5105,
      "▁couple": 5106,
      "ening": 5107,
      "▁weeks": 5108,
      "▁Ju": 5109,
      "\":": 5110,
      "▁Pres": 5111,
      "light": 5112,
      "^\\": 5113,
      "II": 5114,
      "ressed": 5115,
      "▁immedi": 5116,
      "uel": 5117,
      "▁solutions": 5118,
      "▁books": 5119,
      "ris": 5120,
      "▁feed": 5121,
      "▁began": 5122,
      "haps": 5123,
      "irit": 5124,
      "rho": 5125,
      "▁article": 5126,
      "▁mag": 5127,
      "lambda": 5128,
      "ondon": 5129,
      "▁Don": 5130,
      "▁load": 5131,
      "▁Fin": 5132,
      "iring": 5133,
      "▁national": 5134,
      "ico": 5135,
      "▁average": 5136,
      "▁Rec": 5137,
      "hood": 5138,
      "umber": 5139,
      "aste": 5140,
      "▁April": 5141,
      "▁bi": 5142,
      "▁credit": 5143,
      "OS": 5144,
      "▁late": 5145,
      "▁cam": 5146,
      "figure": 5147,
      "AP": 5148,
      "▁cho": 5149,
      "▁Act": 5150,
      "▁policy": 5151,
      "▁stri": 5152,
      "mbol": 5153,
      "▁rout": 5154,
      "▁hor": 5155,
      "▁international": 5156,
      "uild": 5157,
      "▁mention": 5158,
      "ey": 5159,
      "??": 5160,
      "▁became": 5161,
      "▁analysis": 5162,
      "▁consist": 5163,
      "▁Soc": 5164,
      "▁hair": 5165,
      "▁prevent": 5166,
      "==": 5167,
      "▁County": 5168,
      "▁models": 5169,
      "hern": 5170,
      "add": 5171,
      "▁cand": 5172,
      "orage": 5173,
      "mas": 5174,
      "▁collection": 5175,
      "▁speed": 5176,
      "▁themselves": 5177,
      "▁Wind": 5178,
      "lier": 5179,
      "lin": 5180,
      "▁qual": 5181,
      "▁Austral": 5182,
      "▁cele": 5183,
      "leq": 5184,
      "amed": 5185,
      "earch": 5186,
      "delta": 5187,
      "▁High": 5188,
      "▁center": 5189,
      "ми": 5190,
      "▁leading": 5191,
      "reet": 5192,
      "▁lives": 5193,
      "▁board": 5194,
      "sequ": 5195,
      "▁War": 5196,
      "▁attack": 5197,
      "unk": 5198,
      "▁Germ": 5199,
      "▁ability": 5200,
      "▁fine": 5201,
      "▁а": 5202,
      "▁goal": 5203,
      "▁Brit": 5204,
      "▁ten": 5205,
      "▁park": 5206,
      "unt": 5207,
      "▁region": 5208,
      "▁structure": 5209,
      "▁Mon": 5210,
      "order": 5211,
      "oper": 5212,
      "rix": 5213,
      "▁aw": 5214,
      "▁block": 5215,
      "▁С": 5216,
      "▁morning": 5217,
      "bre": 5218,
      "▁mother": 5219,
      "▁send": 5220,
      "▁expected": 5221,
      "see": 5222,
      "▁subs": 5223,
      "▁dark": 5224,
      "▁nice": 5225,
      "▁plant": 5226,
      "etic": 5227,
      "inter": 5228,
      "▁recently": 5229,
      "icate": 5230,
      "▁measure": 5231,
      "▁ball": 5232,
      "▁Art": 5233,
      "uary": 5234,
      "▁Aug": 5235,
      "▁appl": 5236,
      "▁materials": 5237,
      "▁fresh": 5238,
      "hold": 5239,
      "▁device": 5240,
      "ма": 5241,
      "like": 5242,
      "▁providing": 5243,
      "▁global": 5244,
      "▁prec": 5245,
      "▁Sw": 5246,
      "board": 5247,
      "▁mount": 5248,
      "View": 5249,
      "$-": 5250,
      "▁da": 5251,
      "▁medical": 5252,
      "▁avoid": 5253,
      "▁temper": 5254,
      "ests": 5255,
      "▁platform": 5256,
      "▁latest": 5257,
      "▁levels": 5258,
      "▁amazing": 5259,
      "▁patients": 5260,
      "▁considered": 5261,
      "tau": 5262,
      "▁wrong": 5263,
      "Sh": 5264,
      "▁groups": 5265,
      "arter": 5266,
      "ipe": 5267,
      "▁Oct": 5268,
      "▁felt": 5269,
      "▁leaders": 5270,
      "year": 5271,
      "▁Here": 5272,
      "▁lost": 5273,
      "enty": 5274,
      "▁attention": 5275,
      "▁sus": 5276,
      "▁behav": 5277,
      "illing": 5278,
      "oura": 5279,
      "▁marketing": 5280,
      "▁ep": 5281,
      "uted": 5282,
      "▁March": 5283,
      "▁Center": 5284,
      "ishing": 5285,
      "▁ri": 5286,
      "▁costs": 5287,
      "▁rev": 5288,
      "▁bud": 5289,
      "fty": 5290,
      "▁sell": 5291,
      "}$.": 5292,
      "▁trust": 5293,
      "▁ко": 5294,
      "▁kitchen": 5295,
      "▁positive": 5296,
      "▁highly": 5297,
      "ama": 5298,
      "▁While": 5299,
      "}$,": 5300,
      "▁meeting": 5301,
      "x_": 5302,
      "atur": 5303,
      "▁programs": 5304,
      "▁More": 5305,
      "▁bath": 5306,
      "eal": 5307,
      "aby": 5308,
      "▁frequ": 5309,
      "▁players": 5310,
      "$$": 5311,
      "odes": 5312,
      "▁summer": 5313,
      "dom": 5314,
      "includ": 5315,
      "▁myself": 5316,
      "ares": 5317,
      "cks": 5318,
      "▁Ser": 5319,
      "▁English": 5320,
      "▁involved": 5321,
      "▁student": 5322,
      "itation": 5323,
      "▁looked": 5324,
      "▁cat": 5325,
      "chan": 5326,
      "respond": 5327,
      "ella": 5328,
      "mission": 5329,
      "unction": 5330,
      "▁>": 5331,
      "▁Aut": 5332,
      "gra": 5333,
      "▁From": 5334,
      "▁decision": 5335,
      "▁message": 5336,
      "Cont": 5337,
      "▁imm": 5338,
      "▁language": 5339,
      "▁prem": 5340,
      "name": 5341,
      "▁remember": 5342,
      "▁sem": 5343,
      "▁client": 5344,
      "aged": 5345,
      "beta": 5346,
      "nu": 5347,
      "ager": 5348,
      "bit": 5349,
      "One": 5350,
      "▁challeng": 5351,
      "▁enter": 5352,
      "rig": 5353,
      "▁nature": 5354,
      "oph": 5355,
      "LL": 5356,
      "▁Off": 5357,
      "ken": 5358,
      "▁attempt": 5359,
      "▁tools": 5360,
      "ils": 5361,
      "▁giving": 5362,
      "▁green": 5363,
      "▁response": 5364,
      "▁ded": 5365,
      "▁за": 5366,
      "▁equipment": 5367,
      "atives": 5368,
      "izes": 5369,
      "mat": 5370,
      "▁purchase": 5371,
      "times": 5372,
      "▁Sept": 5373,
      "▁roll": 5374,
      "▁lines": 5375,
      "CT": 5376,
      "▁streng": 5377,
      "iding": 5378,
      "▁surpr": 5379,
      "▁San": 5380,
      "▁completely": 5381,
      "place": 5382,
      "ype": 5383,
      "▁chance": 5384,
      "ka": 5385,
      "Be": 5386,
      "ooth": 5387,
      "▁resources": 5388,
      "odel": 5389,
      "wood": 5390,
      "▁piece": 5391,
      "▁files": 5392,
      "▁Char": 5393,
      "ibrary": 5394,
      "▁difference": 5395,
      "▁Dav": 5396,
      "▁London": 5397,
      "mark": 5398,
      "▁fully": 5399,
      "aly": 5400,
      "▁wel": 5401,
      "cast": 5402,
      "alt": 5403,
      "▁safe": 5404,
      "sq": 5405,
      "ynam": 5406,
      "▁knew": 5407,
      "erous": 5408,
      "ournal": 5409,
      "▁@": 5410,
      "▁sold": 5411,
      "▁America": 5412,
      "▁interesting": 5413,
      "arden": 5414,
      "ellow": 5415,
      "▁career": 5416,
      "▁touch": 5417,
      "▁regist": 5418,
      "▁House": 5419,
      "ara": 5420,
      "▁achieve": 5421,
      "▁pattern": 5422,
      "▁official": 5423,
      "xim": 5424,
      "with": 5425,
      "asons": 5426,
      "eters": 5427,
      "▁von": 5428,
      "▁suit": 5429,
      "}(\\": 5430,
      "vey": 5431,
      "▁Please": 5432,
      "▁Sim": 5433,
      "ста": 5434,
      "▁independ": 5435,
      "sum_": 5436,
      "▁slow": 5437,
      "▁por": 5438,
      "rought": 5439,
      "▁machine": 5440,
      "▁bank": 5441,
      "▁System": 5442,
      "▁UK": 5443,
      "verse": 5444,
      "▁contain": 5445,
      "Do": 5446,
      "▁hear": 5447,
      "▁map": 5448,
      "▁goes": 5449,
      "▁note": 5450,
      "No": 5451,
      "▁exactly": 5452,
      "че": 5453,
      "▁pull": 5454,
      "infty": 5455,
      "▁states": 5456,
      "▁inj": 5457,
      "▁wasn": 5458,
      "aries": 5459,
      "Is": 5460,
      "▁constant": 5461,
      "▁graph": 5462,
      "itect": 5463,
      "▁decided": 5464,
      "oul": 5465,
      "▁mobile": 5466,
      "▁categ": 5467,
      "aint": 5468,
      "▁excellent": 5469,
      "ought": 5470,
      "ios": 5471,
      "gar": 5472,
      "itely": 5473,
      "--------": 5474,
      "gen": 5475,
      "▁normal": 5476,
      "▁expert": 5477,
      "Un": 5478,
      "▁length": 5479,
      "▁himself": 5480,
      "nes": 5481,
      "▁helps": 5482,
      "▁Afric": 5483,
      "▁Mus": 5484,
      "▁Mr": 5485,
      "▁influ": 5486,
      "partial": 5487,
      "apter": 5488,
      "▁id": 5489,
      "oom": 5490,
      "aign": 5491,
      "eqref": 5492,
      "ско": 5493,
      "▁concept": 5494,
      "▁methods": 5495,
      "▁Inc": 5496,
      "ii": 5497,
      "▁reach": 5498,
      "▁famil": 5499,
      "iques": 5500,
      "▁Bro": 5501,
      "▁parents": 5502,
      "▁physical": 5503,
      "▁blood": 5504,
      "▁countries": 5505,
      "▁investig": 5506,
      "▁teac": 5507,
      "▁gave": 5508,
      "▁turned": 5509,
      "wide": 5510,
      "kt": 5511,
      "wor": 5512,
      "▁surface": 5513,
      "▁plus": 5514,
      "rast": 5515,
      "▁го": 5516,
      "▁benefits": 5517,
      "▁June": 5518,
      "apan": 5519,
      "▁plans": 5520,
      "ру": 5521,
      "ste": 5522,
      "▁sort": 5523,
      "By": 5524,
      "▁thinking": 5525,
      "ве": 5526,
      "▁former": 5527,
      "orge": 5528,
      "formation": 5529,
      "band": 5530,
      "field": 5531,
      "▁rent": 5532,
      "edding": 5533,
      "▁Acc": 5534,
      "▁glass": 5535,
      "itude": 5536,
      "▁favorite": 5537,
      "▁developed": 5538,
      "▁picture": 5539,
      "▁background": 5540,
      "men": 5541,
      "▁towards": 5542,
      "▁sometimes": 5543,
      "▁subst": 5544,
      "▁daily": 5545,
      "pen": 5546,
      "_t": 5547,
      "ión": 5548,
      "▁bur": 5549,
      "▁gold": 5550,
      "▁commit": 5551,
      "▁sale": 5552,
      "▁analy": 5553,
      "▁Em": 5554,
      "▁histor": 5555,
      "▁dise": 5556,
      "riving": 5557,
      "▁quant": 5558,
      "▁band": 5559,
      "▁neigh": 5560,
      "▁cert": 5561,
      "▁lif": 5562,
      "▁</": 5563,
      "▁na": 5564,
      "▁hit": 5565,
      "ocal": 5566,
      "▁led": 5567,
      "▁digital": 5568,
      "▁heat": 5569,
      "▁continu": 5570,
      "That": 5571,
      "▁Us": 5572,
      "yond": 5573,
      "▁creating": 5574,
      "isions": 5575,
      "▁spect": 5576,
      "▁correspond": 5577,
      "zz": 5578,
      "▁International": 5579,
      "▁copy": 5580,
      "▁refer": 5581,
      "After": 5582,
      "▁safety": 5583,
      "rench": 5584,
      "bum": 5585,
      "▁restaur": 5586,
      "▁Air": 5587,
      "arc": 5588,
      "nder": 5589,
      "▁IN": 5590,
      "En": 5591,
      "▁warm": 5592,
      "ague": 5593,
      "ams": 5594,
      "▁altern": 5595,
      "▁fair": 5596,
      "ING": 5597,
      "ecause": 5598,
      "rant": 5599,
      "ashing": 5600,
      "rie": 5601,
      "▁uses": 5602,
      "cil": 5603,
      "rain": 5604,
      "▁lic": 5605,
      "▁situation": 5606,
      "▁legal": 5607,
      "het": 5608,
      "ications": 5609,
      "▁Google": 5610,
      "mar": 5611,
      "gl": 5612,
      "▁serious": 5613,
      "▁construction": 5614,
      "▁Day": 5615,
      "ags": 5616,
      "but": 5617,
      "▁Ang": 5618,
      "▁playing": 5619,
      "ford": 5620,
      "▁associated": 5621,
      "▁Of": 5622,
      "▁traditional": 5623,
      "arant": 5624,
      "▁unit": 5625,
      "▁dru": 5626,
      "▁huge": 5627,
      "▁Ac": 5628,
      "opt": 5629,
      "▁applications": 5630,
      "▁limited": 5631,
      "▁ing": 5632,
      "▁heard": 5633,
      "▁suff": 5634,
      "ula": 5635,
      "urt": 5636,
      "▁aware": 5637,
      "▁ein": 5638,
      "▁magn": 5639,
      "▁Feb": 5640,
      "▁gradu": 5641,
      "▁AN": 5642,
      "ци": 5643,
      "▁starting": 5644,
      "▁Gener": 5645,
      "▁requirements": 5646,
      "▁tal": 5647,
      "▁King": 5648,
      "body": 5649,
      "▁stock": 5650,
      "▁fa": 5651,
      "oles": 5652,
      "do": 5653,
      "▁viol": 5654,
      "▁commerc": 5655,
      "lying": 5656,
      "▁В": 5657,
      "▁Red": 5658,
      "▁imag": 5659,
      "ovember": 5660,
      "▁server": 5661,
      "ibly": 5662,
      "more": 5663,
      "▁father": 5664,
      "hest": 5665,
      "▁planning": 5666,
      "lo": 5667,
      "▁setting": 5668,
      "▁convers": 5669,
      "▁places": 5670,
      "▁organization": 5671,
      "▁Pat": 5672,
      "reci": 5673,
      "SE": 5674,
      "▁initial": 5675,
      "▁hour": 5676,
      "▁decl": 5677,
      "▁carry": 5678,
      "▁trip": 5679,
      "ography": 5680,
      "▁figure": 5681,
      "ferences": 5682,
      "▁August": 5683,
      "▁sites": 5684,
      "▁moving": 5685,
      "ences": 5686,
      "▁interested": 5687,
      "▁window": 5688,
      "▁advant": 5689,
      "▁capt": 5690,
      ".)": 5691,
      "ulations": 5692,
      "▁broad": 5693,
      "▁input": 5694,
      "▁Russ": 5695,
      "▁birth": 5696,
      "enge": 5697,
      "|\\": 5698,
      "▁boy": 5699,
      "▁dim": 5700,
      "AD": 5701,
      "▁India": 5702,
      "quad": 5703,
      "▁prices": 5704,
      "▁wish": 5705,
      "▁Black": 5706,
      "iant": 5707,
      "▁release": 5708,
      "▁liter": 5709,
      "▁dro": 5710,
      "ocol": 5711,
      "▁grand": 5712,
      "PS": 5713,
      "▁gar": 5714,
      "attle": 5715,
      "uration": 5716,
      "▁conduct": 5717,
      "▁successful": 5718,
      "▁integr": 5719,
      "▁blue": 5720,
      "▁TV": 5721,
      "”.": 5722,
      "gram": 5723,
      "▁tim": 5724,
      "▁elements": 5725,
      "▁numbers": 5726,
      "▁Br": 5727,
      "▁understanding": 5728,
      "arily": 5729,
      "tilde": 5730,
      "▁occur": 5731,
      "▁gets": 5732,
      "inner": 5733,
      "▁September": 5734,
      "ius": 5735,
      "▁furn": 5736,
      "▁appropri": 5737,
      "She": 5738,
      "▁political": 5739,
      "▁eval": 5740,
      "▁firm": 5741,
      "cember": 5742,
      "▁$(": 5743,
      "▁effects": 5744,
      "▁activity": 5745,
      "▁basis": 5746,
      "▁gas": 5747,
      "iture": 5748,
      "rab": 5749,
      "▁dry": 5750,
      "vis": 5751,
      "▁limit": 5752,
      "▁feet": 5753,
      "oly": 5754,
      "ht": 5755,
      "▁administ": 5756,
      "▁proced": 5757,
      "▁innov": 5758,
      "▁Sk": 5759,
      "▁arr": 5760,
      "otes": 5761,
      "▁Cons": 5762,
      "▁jud": 5763,
      "▁emerg": 5764,
      "▁Associ": 5765,
      "▁China": 5766,
      "▁club": 5767,
      "ano": 5768,
      "▁element": 5769,
      "▁court": 5770,
      "▁aim": 5771,
      "king": 5772,
      "ker": 5773,
      "itute": 5774,
      "▁)": 5775,
      "TM": 5776,
      "ym": 5777,
      "▁Health": 5778,
      "▁vac": 5779,
      "▁double": 5780,
      "change": 5781,
      "▁woman": 5782,
      "▁published": 5783,
      "ville": 5784,
      "▁rights": 5785,
      "▁photos": 5786,
      "Now": 5787,
      "▁**": 5788,
      "▁except": 5789,
      "▁degree": 5790,
      "iforn": 5791,
      "itary": 5792,
      "▁purpose": 5793,
      "▁hous": 5794,
      "▁January": 5795,
      "▁acqu": 5796,
      "▁anim": 5797,
      "aker": 5798,
      "▁July": 5799,
      "▁consult": 5800,
      "▁dream": 5801,
      "▁una": 5802,
      "lem": 5803,
      "▁First": 5804,
      "▁depend": 5805,
      "omen": 5806,
      "olf": 5807,
      "▁demon": 5808,
      "▁stru": 5809,
      "uy": 5810,
      "▁brought": 5811,
      "ION": 5812,
      "▁replace": 5813,
      "▁sleep": 5814,
      "▁deliver": 5815,
      "inate": 5816,
      "▁accom": 5817,
      "ened": 5818,
      "ruit": 5819,
      "df": 5820,
      "▁commercial": 5821,
      "▁organiz": 5822,
      "used": 5823,
      "▁ple": 5824,
      "ocks": 5825,
      "▁apart": 5826,
      "▁Net": 5827,
      "▁impl": 5828,
      "iny": 5829,
      "▁storage": 5830,
      "▁П": 5831,
      "ся": 5832,
      "▁star": 5833,
      "▁dead": 5834,
      "▁campaign": 5835,
      "ously": 5836,
      "ча": 5837,
      "idents": 5838,
      "▁celebr": 5839,
      "▁ult": 5840,
      "▁Also": 5841,
      "▁functions": 5842,
      "Res": 5843,
      "▁stage": 5844,
      "▁к": 5845,
      "ald": 5846,
      "▁К": 5847,
      "▁item": 5848,
      "▁October": 5849,
      "▁President": 5850,
      "Delta": 5851,
      "www": 5852,
      "▁charge": 5853,
      "▁useful": 5854,
      "сь": 5855,
      "▁Japan": 5856,
      "fra": 5857,
      "Id": 5858,
      "▁tick": 5859,
      "▁earn": 5860,
      "▁individuals": 5861,
      "abase": 5862,
      "gor": 5863,
      "orem": 5864,
      "▁Mich": 5865,
      "▁Coun": 5866,
      "де": 5867,
      "aught": 5868,
      "▁larger": 5869,
      "Let": 5870,
      "▁sav": 5871,
      ".'": 5872,
      "▁transfer": 5873,
      "down": 5874,
      "▁Dis": 5875,
      "Pl": 5876,
      "▁multi": 5877,
      "▁Direct": 5878,
      "▁absol": 5879,
      "sych": 5880,
      "▁active": 5881,
      "▁string": 5882,
      "▁beyond": 5883,
      "▁increasing": 5884,
      "ros": 5885,
      "▁pressure": 5886,
      "▁growing": 5887,
      "class": 5888,
      "ancy": 5889,
      "ifornia": 5890,
      "▁entry": 5891,
      "по": 5892,
      "▁comment": 5893,
      "usiness": 5894,
      "▁fab": 5895,
      "asc": 5896,
      "▁button": 5897,
      "ffee": 5898,
      "▁encoura": 5899,
      "▁defined": 5900,
      "▁profession": 5901,
      "▁decor": 5902,
      "eqn": 5903,
      "Here": 5904,
      "▁estim": 5905,
      "undred": 5906,
      "▁whose": 5907,
      "▁spend": 5908,
      "▁properties": 5909,
      "comp": 5910,
      "▁hom": 5911,
      "ipped": 5912,
      "ube": 5913,
      "▁Trans": 5914,
      "▁bottom": 5915,
      "oe": 5916,
      "▁basic": 5917,
      "▁exerc": 5918,
      "cdot": 5919,
      "▁IS": 5920,
      "▁partners": 5921,
      "meg": 5922,
      "▁November": 5923,
      "▁Service": 5924,
      "▁pow": 5925,
      "▁stuff": 5926,
      "▁straight": 5927,
      "▁feeling": 5928,
      "▁aspect": 5929,
      "▁ord": 5930,
      "▁effort": 5931,
      "td": 5932,
      "▁meaning": 5933,
      "▁played": 5934,
      "pite": 5935,
      "inn": 5936,
      "▁beginning": 5937,
      "▁transport": 5938,
      "ля": 5939,
      "ternal": 5940,
      "▁appreci": 5941,
      "▁vehicle": 5942,
      "▁demand": 5943,
      "▁?": 5944,
      "▁eat": 5945,
      "▁Every": 5946,
      "▁row": 5947,
      "▁calcul": 5948,
      "▁`": 5949,
      "atively": 5950,
      "▁assess": 5951,
      "▁arriv": 5952,
      "▁reported": 5953,
      "▁Home": 5954,
      "iling": 5955,
      "▁reve": 5956,
      "▁budget": 5957,
      "ederal": 5958,
      "▁therefore": 5959,
      "vec": 5960,
      "▁Ne": 5961,
      "▁finally": 5962,
      "▁contains": 5963,
      "▁changed": 5964,
      "▁mechan": 5965,
      "icip": 5966,
      "Ad": 5967,
      "cel": 5968,
      "▁extrem": 5969,
      "ette": 5970,
      "▁vill": 5971,
      "ivery": 5972,
      "Ar": 5973,
      "ais": 5974,
      "itter": 5975,
      "▁pages": 5976,
      "▁command": 5977,
      "itution": 5978,
      "▁Cour": 5979,
      "▁wonderful": 5980,
      "▁Design": 5981,
      "▁serve": 5982,
      "nown": 5983,
      "▁cab": 5984,
      "space": 5985,
      "▁Face": 5986,
      "▁surround": 5987,
      "List": 5988,
      "▁lack": 5989,
      "▁Since": 5990,
      "▁util": 5991,
      "lig": 5992,
      "alse": 5993,
      "▁released": 5994,
      "▁employees": 5995,
      "▁enh": 5996,
      "▁Jes": 5997,
      "▁cra": 5998,
      "▁thus": 5999,
      "▁businesses": 6000,
      "Name": 6001,
      "▁output": 6002,
      "▁prefer": 6003,
      "▁task": 6004,
      "▁fight": 6005,
      "uts": 6006,
      "▁hab": 6007,
      "▁December": 6008,
      "mitted": 6009,
      "],": 6010,
      "▁connection": 6011,
      "zon": 6012,
      "rial": 6013,
      "▁las": 6014,
      "▁Most": 6015,
      "▁guide": 6016,
      "▁rates": 6017,
      "▁eye": 6018,
      "▁Ant": 6019,
      "▁Even": 6020,
      "▁spent": 6021,
      "▁existing": 6022,
      "App": 6023,
      "iced": 6024,
      "▁certainly": 6025,
      "▁immediately": 6026,
      "ospital": 6027,
      "etry": 6028,
      "▁reduce": 6029,
      "▁Port": 6030,
      "▁steps": 6031,
      "istics": 6032,
      "▁cold": 6033,
      "zen": 6034,
      "▁thous": 6035,
      "▁easier": 6036,
      "\\,": 6037,
      "▁Are": 6038,
      "aling": 6039,
      "▁Pal": 6040,
      "▁voice": 6041,
      "cm": 6042,
      "▁Book": 6043,
      "▁culture": 6044,
      "▁Great": 6045,
      "▁Group": 6046,
      "US": 6047,
      "ronic": 6048,
      "▁memory": 6049,
      "ounced": 6050,
      "▁Christmas": 6051,
      "▁families": 6052,
      "ivil": 6053,
      "ipping": 6054,
      "▁г": 6055,
      "atever": 6056,
      "▁healthy": 6057,
      "▁definitely": 6058,
      "▁Sund": 6059,
      "▁produce": 6060,
      "▁spirit": 6061,
      "inated": 6062,
      "▁although": 6063,
      "▁column": 6064,
      "▁chann": 6065,
      "▁opportunities": 6066,
      "▁Er": 6067,
      "▁goals": 6068,
      "▁California": 6069,
      "▁compared": 6070,
      "}[": 6071,
      ")$.": 6072,
      "▁mis": 6073,
      "▁title": 6074,
      "ults": 6075,
      "ня": 6076,
      "ustr": 6077,
      "tee": 6078,
      "▁benefit": 6079,
      "▁photo": 6080,
      "Col": 6081,
      "▁Windows": 6082,
      "des": 6083,
      "▁sequ": 6084,
      "▁mit": 6085,
      "ione": 6086,
      "▁progress": 6087,
      "▁force": 6088,
      "plate": 6089,
      "▁dog": 6090,
      "▁Commun": 6091,
      "agram": 6092,
      "▁paid": 6093,
      "uit": 6094,
      "IM": 6095,
      "▁%": 6096,
      "▁brow": 6097,
      "▁hotel": 6098,
      "▁assum": 6099,
      "riday": 6100,
      "▁offered": 6101,
      "▁pictures": 6102,
      "net": 6103,
      "ester": 6104,
      "ensity": 6105,
      "▁essential": 6106,
      "▁alone": 6107,
      "▁overall": 6108,
      "▁born": 6109,
      "rive": 6110,
      "\")": 6111,
      "▁rock": 6112,
      "▁particularly": 6113,
      "▁devices": 6114,
      "▁guarant": 6115,
      "▁moved": 6116,
      "Im": 6117,
      "ме": 6118,
      "ded": 6119,
      "this": 6120,
      "▁player": 6121,
      "▁described": 6122,
      "▁join": 6123,
      "▁je": 6124,
      "ttps": 6125,
      "sim": 6126,
      "▁posted": 6127,
      "iation": 6128,
      "oted": 6129,
      "▁holid": 6130,
      "▁adjust": 6131,
      "estern": 6132,
      "▁studies": 6133,
      "which": 6134,
      "ruary": 6135,
      "▁damage": 6136,
      "▁ir": 6137,
      "ть": 6138,
      "▁loved": 6139,
      "▁investment": 6140,
      "▁capital": 6141,
      "gorith": 6142,
      "▁distribution": 6143,
      "EC": 6144,
      "omb": 6145,
      "overn": 6146,
      "▁followed": 6147,
      "ying": 6148,
      "▁Pre": 6149,
      "▁cash": 6150,
      "ée": 6151,
      "▁Department": 6152,
      "▁Je": 6153,
      "cription": 6154,
      "▁cru": 6155,
      "▁ideal": 6156,
      "utive": 6157,
      "▁update": 6158,
      "}}\\": 6159,
      "▁direction": 6160,
      "▁gift": 6161,
      "house": 6162,
      "::": 6163,
      "▁М": 6164,
      "▁reflect": 6165,
      "ieved": 6166,
      "▁trade": 6167,
      "IG": 6168,
      "list": 6169,
      "▁trou": 6170,
      "rim": 6171,
      "▁cup": 6172,
      "point": 6173,
      "_k": 6174,
      "bb": 6175,
      "▁East": 6176,
      "▁Paul": 6177,
      "▁assign": 6178,
      "▁allowed": 6179,
      "▁slight": 6180,
      "fficient": 6181,
      "▁interview": 6182,
      "▁fat": 6183,
      "▁Rem": 6184,
      "▁award": 6185,
      "ugh": 6186,
      "▁train": 6187,
      "ão": 6188,
      "▁pet": 6189,
      "▁saying": 6190,
      "▁respond": 6191,
      "tra": 6192,
      "▁afford": 6193,
      "ira": 6194,
      "▁distance": 6195,
      "bon": 6196,
      "▁candid": 6197,
      "iber": 6198,
      "ashion": 6199,
      "▁links": 6200,
      "▁hop": 6201,
      "▁pool": 6202,
      "▁maybe": 6203,
      "▁hundred": 6204,
      "iers": 6205,
      "acity": 6206,
      "▁remove": 6207,
      "▁appropriate": 6208,
      "▁emot": 6209,
      "osing": 6210,
      "▁Get": 6211,
      "po": 6212,
      "▁internet": 6213,
      "▁farm": 6214,
      "▁sch": 6215,
      "▁Techn": 6216,
      "ні": 6217,
      "▁offering": 6218,
      "▁couldn": 6219,
      "▁au": 6220,
      "▁smart": 6221,
      "icks": 6222,
      "▁dynam": 6223,
      "sm": 6224,
      "urning": 6225,
      "UR": 6226,
      "rat": 6227,
      "rote": 6228,
      "▁si": 6229,
      "_j": 6230,
      "▁middle": 6231,
      "▁Prof": 6232,
      "vest": 6233,
      "].": 6234,
      "▁increased": 6235,
      "▁remain": 6236,
      "▁appoint": 6237,
      "ache": 6238,
      "▁supply": 6239,
      "▁Street": 6240,
      "▁tree": 6241,
      "▁valid": 6242,
      "▁greater": 6243,
      "▁highest": 6244,
      "▁nearly": 6245,
      "▁stress": 6246,
      "lation": 6247,
      "▁Dec": 6248,
      "▁shop": 6249,
      "▁II": 6250,
      "▁advice": 6251,
      "▁schools": 6252,
      "▁selection": 6253,
      "▁efficient": 6254,
      "▁doub": 6255,
      "▁THE": 6256,
      "▁Company": 6257,
      "▁economic": 6258,
      "porate": 6259,
      "▁vict": 6260,
      "▁European": 6261,
      "▁largest": 6262,
      "си": 6263,
      "▁Mac": 6264,
      "▁established": 6265,
      "▁stories": 6266,
      "lands": 6267,
      "▁spot": 6268,
      "▁follows": 6269,
      "▁requires": 6270,
      "▁Bel": 6271,
      "▁strategy": 6272,
      "▁notice": 6273,
      "ael": 6274,
      "▁names": 6275,
      "▁experienced": 6276,
      "▁College": 6277,
      "▁controll": 6278,
      "▁onto": 6279,
      "▁sto": 6280,
      "▁Thanks": 6281,
      "▁sam": 6282,
      "istry": 6283,
      "IP": 6284,
      "->": 6285,
      "levant": 6286,
      "▁Ke": 6287,
      "▁array": 6288,
      "▁French": 6289,
      "epsilon": 6290,
      "▁ang": 6291,
      "▁British": 6292,
      "до": 6293,
      "▁Any": 6294,
      "▁rules": 6295,
      "va": 6296,
      "▁Out": 6297,
      "▁regarding": 6298,
      "▁evidence": 6299,
      "▁drink": 6300,
      "SS": 6301,
      "▁ра": 6302,
      "▁letter": 6303,
      "▁actual": 6304,
      "▁strength": 6305,
      "▁=>": 6306,
      "oday": 6307,
      "▁Mor": 6308,
      "▁perhaps": 6309,
      "▁про": 6310,
      "▁identify": 6311,
      "▁church": 6312,
      "Se": 6313,
      "▁Free": 6314,
      "anging": 6315,
      "▁earlier": 6316,
      "▁served": 6317,
      "▁completed": 6318,
      "data": 6319,
      "porary": 6320,
      "encies": 6321,
      "▁population": 6322,
      "▁smooth": 6323,
      "▁reasons": 6324,
      "ini": 6325,
      "▁AP": 6326,
      "▁owners": 6327,
      "BC": 6328,
      "hens": 6329,
      "▁Ob": 6330,
      "▁album": 6331,
      "▁truly": 6332,
      "proof": 6333,
      "▁electric": 6334,
      "▁responsible": 6335,
      "They": 6336,
      "▁approxim": 6337,
      "sqrt": 6338,
      "▁Facebook": 6339,
      "▁patient": 6340,
      "▁occas": 6341,
      "▁lots": 6342,
      "itz": 6343,
      "▁jour": 6344,
      "▁spl": 6345,
      "▁baby": 6346,
      "▁princ": 6347,
      "▁temperature": 6348,
      "▁context": 6349,
      "▁rat": 6350,
      "rey": 6351,
      "▁micro": 6352,
      "▁attract": 6353,
      "▁cry": 6354,
      "▁classes": 6355,
      "ses": 6356,
      "▁sen": 6357,
      "▁thank": 6358,
      "▁seg": 6359,
      "▁Law": 6360,
      "▁Inter": 6361,
      "▁central": 6362,
      "date": 6363,
      "▁Indian": 6364,
      "▁http": 6365,
      "▁statement": 6366,
      "▁February": 6367,
      "oming": 6368,
      "▁architect": 6369,
      "These": 6370,
      "▁Gra": 6371,
      "▁Friday": 6372,
      "duc": 6373,
      "iance": 6374,
      "ulated": 6375,
      "▁Services": 6376,
      "▁cast": 6377,
      "är": 6378,
      "atically": 6379,
      "ails": 6380,
      "▁stream": 6381,
      "ki": 6382,
      "▁wife": 6383,
      "▁lab": 6384,
      "▁scient": 6385,
      "▁presented": 6386,
      "▁Green": 6387,
      "▁bow": 6388,
      "▁college": 6389,
      "▁dress": 6390,
      "▁virt": 6391,
      "OL": 6392,
      "▁generally": 6393,
      "oms": 6394,
      "isation": 6395,
      "▁advert": 6396,
      "▁named": 6397,
      "▁Canada": 6398,
      "Le": 6399,
      "▁handle": 6400,
      "▁instance": 6401,
      "▁origin": 6402,
      "ears": 6403,
      "▁homes": 6404,
      "▁chem": 6405,
      "ски": 6406,
      "▁bul": 6407,
      "▁critical": 6408,
      "▁relig": 6409,
      "▁spread": 6410,
      "▁powerful": 6411,
      "')": 6412,
      "▁selected": 6413,
      "CC": 6414,
      "▁exhib": 6415,
      "▁finish": 6416,
      "▁station": 6417,
      "urrent": 6418,
      "▁wild": 6419,
      "▁expand": 6420,
      "ür": 6421,
      "▁fra": 6422,
      "▁Del": 6423,
      "EM": 6424,
      "!\"": 6425,
      "▁comfortable": 6426,
      "▁mill": 6427,
      "aturday": 6428,
      "eria": 6429,
      "▁scen": 6430,
      "▁mi": 6431,
      "▁thanks": 6432,
      "icon": 6433,
      "ía": 6434,
      "semb": 6435,
      "mod": 6436,
      "▁relax": 6437,
      "▁Jesus": 6438,
      "▁trend": 6439,
      "▁delivery": 6440,
      "coming": 6441,
      "▁theory": 6442,
      "▁pair": 6443,
      "▁conv": 6444,
      "▁fold": 6445,
      "▁weather": 6446,
      "ago": 6447,
      "▁century": 6448,
      "▁mo": 6449,
      "▁situ": 6450,
      "▁master": 6451,
      "bra": 6452,
      "rief": 6453,
      "dule": 6454,
      "▁demonstr": 6455,
      "▁science": 6456,
      "▁construct": 6457,
      "▁edge": 6458,
      "▁gone": 6459,
      "aughter": 6460,
      "▁transform": 6461,
      "▁Internet": 6462,
      "force": 6463,
      "▁solid": 6464,
      "▁Rom": 6465,
      "▁pieces": 6466,
      "▁Up": 6467,
      "▁extremely": 6468,
      "▁closed": 6469,
      "▁Dist": 6470,
      "▁shape": 6471,
      "▁collabor": 6472,
      "ologies": 6473,
      "▁sweet": 6474,
      "▁Gold": 6475,
      "iable": 6476,
      "▁disease": 6477,
      "acing": 6478,
      "▁sty": 6479,
      "CH": 6480,
      "▁rand": 6481,
      "▁kept": 6482,
      "▁Many": 6483,
      "ita": 6484,
      "idential": 6485,
      "ку": 6486,
      "▁toward": 6487,
      "▁heavy": 6488,
      "▁surv": 6489,
      "inding": 6490,
      "▁conven": 6491,
      "EO": 6492,
      "▁compar": 6493,
      "▁attend": 6494,
      "▁nation": 6495,
      "▁optim": 6496,
      "EL": 6497,
      "▁counter": 6498,
      "▁coffee": 6499,
      "icious": 6500,
      "▁scale": 6501,
      "▁Each": 6502,
      "▁determine": 6503,
      "▁becomes": 6504,
      "ario": 6505,
      "amm": 6506,
      "▁William": 6507,
      "▁smaller": 6508,
      "▁doll": 6509,
      "Omeg": 6510,
      "бо": 6511,
      "ui": 6512,
      "▁See": 6513,
      "actions": 6514,
      "▁fill": 6515,
      "_p": 6516,
      "▁mer": 6517,
      "▁forms": 6518,
      "▁Other": 6519,
      "▁miles": 6520,
      "aled": 6521,
      "▁Cle": 6522,
      "▁poor": 6523,
      "▁wedding": 6524,
      "▁drop": 6525,
      "▁independent": 6526,
      "soft": 6527,
      "ounds": 6528,
      "▁helped": 6529,
      "inger": 6530,
      "term": 6531,
      "▁primary": 6532,
      "▁Cap": 6533,
      "▁manufacture": 6534,
      "▁produced": 6535,
      "▁finished": 6536,
      "works": 6537,
      "▁poly": 6538,
      "▁David": 6539,
      "▁sets": 6540,
      "inct": 6541,
      "▁Sunday": 6542,
      "▁Well": 6543,
      "▁movie": 6544,
      "▁tend": 6545,
      "се": 6546,
      "▁clin": 6547,
      "▁flu": 6548,
      "ashington": 6549,
      "▁pen": 6550,
      "▁до": 6551,
      "▁fixed": 6552,
      "▁advantage": 6553,
      "▁challenge": 6554,
      "sl": 6555,
      "Qu": 6556,
      "▁detect": 6557,
      "▁White": 6558,
      "etric": 6559,
      "▁passed": 6560,
      "osition": 6561,
      "eqnarray": 6562,
      "▁protection": 6563,
      "▁Web": 6564,
      "print": 6565,
      "▁fem": 6566,
      "owing": 6567,
      "▁hus": 6568,
      "▁repair": 6569,
      "ctors": 6570,
      "door": 6571,
      "alle": 6572,
      ")$,": 6573,
      "мо": 6574,
      "сти": 6575,
      "IL": 6576,
      "▁eight": 6577,
      "ranch": 6578,
      "orrow": 6579,
      "▁£": 6580,
      "▁dé": 6581,
      "orial": 6582,
      "New": 6583,
      "▁express": 6584,
      "▁flex": 6585,
      "▁helping": 6586,
      "▁batter": 6587,
      "▁ahead": 6588,
      "▁Sen": 6589,
      "▁payment": 6590,
      "igen": 6591,
      "▁flav": 6592,
      "▁status": 6593,
      "rapy": 6594,
      "▁Jack": 6595,
      "▁resist": 6596,
      "▁Go": 6597,
      "▁sust": 6598,
      "▁Sl": 6599,
      "же": 6600,
      "▁peace": 6601,
      "ky": 6602,
      "▁reference": 6603,
      "▁Mal": 6604,
      "▁police": 6605,
      "▁Business": 6606,
      "▁race": 6607,
      "▁annual": 6608,
      "▁teams": 6609,
      "▁Sub": 6610,
      "▁connected": 6611,
      "▁unc": 6612,
      "▁Mid": 6613,
      "▁threat": 6614,
      "▁Australia": 6615,
      "▁random": 6616,
      "imb": 6617,
      "▁covered": 6618,
      "cles": 6619,
      "rd": 6620,
      "eds": 6621,
      "▁fant": 6622,
      "▁wrote": 6623,
      "ora": 6624,
      "^*": 6625,
      "▁shared": 6626,
      "▁um": 6627,
      "cial": 6628,
      "▁incor": 6629,
      "Sp": 6630,
      "▁format": 6631,
      "oyal": 6632,
      "RO": 6633,
      "▁communication": 6634,
      "▁cit": 6635,
      "rupt": 6636,
      "▁strugg": 6637,
      "othing": 6638,
      "From": 6639,
      "▁wants": 6640,
      "state": 6641,
      "phone": 6642,
      "▁talking": 6643,
      "▁Best": 6644,
      "▁establish": 6645,
      "▁views": 6646,
      "▁weekend": 6647,
      "сто": 6648,
      "tab": 6649,
      "▁camera": 6650,
      "▁finding": 6651,
      "▁index": 6652,
      "usion": 6653,
      "▁arm": 6654,
      "▁adding": 6655,
      "▁Hall": 6656,
      "Des": 6657,
      "▁agree": 6658,
      "rum": 6659,
      "▁garden": 6660,
      "overy": 6661,
      "▁harm": 6662,
      "raphics": 6663,
      "▁movement": 6664,
      "▁secure": 6665,
      "▁Saturday": 6666,
      "▁creative": 6667,
      "▁cells": 6668,
      "▁Program": 6669,
      "▁income": 6670,
      "De": 6671,
      "▁fields": 6672,
      "omega": 6673,
      "▁Once": 6674,
      "Data": 6675,
      "While": 6676,
      "arr": 6677,
      "▁reports": 6678,
      "▁placed": 6679,
      "iled": 6680,
      "▁pour": 6681,
      "AB": 6682,
      "▁prop": 6683,
      "entially": 6684,
      "▁Dan": 6685,
      "▁applied": 6686,
      "MS": 6687,
      "▁opin": 6688,
      "▁obvious": 6689,
      "▁;": 6690,
      "▁Hot": 6691,
      "▁paint": 6692,
      "mes": 6693,
      "venue": 6694,
      "▁une": 6695,
      "▁indic": 6696,
      "▁promot": 6697,
      "▁Council": 6698,
      "▁separate": 6699,
      "▁database": 6700,
      "▁Super": 6701,
      "▁maximum": 6702,
      "▁Good": 6703,
      "Not": 6704,
      "▁relevant": 6705,
      "cher": 6706,
      "osen": 6707,
      "▁sand": 6708,
      "▁cards": 6709,
      "▁bedroom": 6710,
      "Tr": 6711,
      "spect": 6712,
      "▁Post": 6713,
      "ady": 6714,
      "▁learned": 6715,
      "▁wat": 6716,
      ")=": 6717,
      "▁journey": 6718,
      "▁Whe": 6719,
      "▁manage": 6720,
      "Gamma": 6721,
      "▁Add": 6722,
      "psilon": 6723,
      "▁Association": 6724,
      "▁ID": 6725,
      "▁session": 6726,
      "▁announced": 6727,
      "▁Mond": 6728,
      "▁package": 6729,
      "textbf": 6730,
      "▁factors": 6731,
      "inese": 6732,
      "▁dans": 6733,
      "▁PC": 6734,
      "▁descript": 6735,
      "▁seemed": 6736,
      "▁dang": 6737,
      "iency": 6738,
      "▁Class": 6739,
      "▁Why": 6740,
      "▁opened": 6741,
      "▁Spec": 6742,
      "cell": 6743,
      "▁mist": 6744,
      "apers": 6745,
      "ota": 6746,
      "berg": 6747,
      "vare": 6748,
      "▁config": 6749,
      "▁happened": 6750,
      "▁mentioned": 6751,
      "▁flat": 6752,
      "hips": 6753,
      "ston": 6754,
      "ework": 6755,
      "asure": 6756,
      "▁opening": 6757,
      "▁behavior": 6758,
      "▁Govern": 6759,
      "▁truth": 6760,
      "▁bag": 6761,
      "xi": 6762,
      "▁shot": 6763,
      "▁driving": 6764,
      "▁не": 6765,
      "char": 6766,
      "▁estate": 6767,
      "▁Church": 6768,
      "▁furniture": 6769,
      "▁aren": 6770,
      "Sc": 6771,
      "▁rich": 6772,
      "http": 6773,
      "▁brother": 6774,
      "▁android": 6775,
      "▁obtained": 6776,
      "▁IT": 6777,
      "▁cloud": 6778,
      "▁General": 6779,
      "estival": 6780,
      "▁wine": 6781,
      "rael": 6782,
      "▁components": 6783,
      "draw": 6784,
      "icing": 6785,
      "String": 6786,
      "reate": 6787,
      "▁rank": 6788,
      "▁Gr": 6789,
      "ulate": 6790,
      "▁operations": 6791,
      "▁rob": 6792,
      "▁Found": 6793,
      "▁esc": 6794,
      "▁Ben": 6795,
      "ту": 6796,
      "Int": 6797,
      "ooking": 6798,
      "ipp": 6799,
      "▁brain": 6800,
      "ния": 6801,
      "▁ur": 6802,
      "_s": 6803,
      "unte": 6804,
      "▁Washington": 6805,
      "▁Dem": 6806,
      "▁Supp": 6807,
      "_c": 6808,
      "▁techniques": 6809,
      "▁beg": 6810,
      "▁Rich": 6811,
      "▁efforts": 6812,
      "ja": 6813,
      "▁Mag": 6814,
      "table": 6815,
      "position": 6816,
      "icit": 6817,
      "▁sources": 6818,
      "▁factor": 6819,
      "▁sports": 6820,
      "▁sample": 6821,
      "▁Sol": 6822,
      "well": 6823,
      "▁traffic": 6824,
      "▁integ": 6825,
      "free": 6826,
      "tenance": 6827,
      "▁Club": 6828,
      "▁frame": 6829,
      "▁testing": 6830,
      "▁seeing": 6831,
      "▁Sur": 6832,
      "itar": 6833,
      "▁metal": 6834,
      "▁sharing": 6835,
      "cha": 6836,
      "▁ap": 6837,
      "чи": 6838,
      "Please": 6839,
      "▁Ber": 6840,
      "▁technical": 6841,
      "▁bright": 6842,
      "▁colle": 6843,
      "▁Bay": 6844,
      "▁Ver": 6845,
      "▁continued": 6846,
      "rightarrow": 6847,
      "▁throw": 6848,
      "▁Micro": 6849,
      "Val": 6850,
      "''": 6851,
      "▁catch": 6852,
      "▁Sal": 6853,
      "▁Bra": 6854,
      "illa": 6855,
      "anned": 6856,
      "dis": 6857,
      "▁wear": 6858,
      "▁nut": 6859,
      "▁push": 6860,
      "▁bes": 6861,
      "▁pal": 6862,
      "▁Flor": 6863,
      "▁Mart": 6864,
      "▁Mat": 6865,
      "▁tom": 6866,
      "vere": 6867,
      "▁seven": 6868,
      "int_": 6869,
      "▁experiment": 6870,
      "▁reserv": 6871,
      "▁jobs": 6872,
      "▁repe": 6873,
      "▁!": 6874,
      "▁Play": 6875,
      "▁fol": 6876,
      "▁otherwise": 6877,
      "▁visual": 6878,
      "▁characters": 6879,
      "▁military": 6880,
      "▁meant": 6881,
      "subsection": 6882,
      "▁stick": 6883,
      "▁processes": 6884,
      "ressive": 6885,
      "▁spring": 6886,
      "non": 6887,
      "▁advance": 6888,
      "▁rot": 6889,
      "▁nav": 6890,
      "ented": 6891,
      "▁coord": 6892,
      "▁simpl": 6893,
      "▁Hist": 6894,
      "▁disapp": 6895,
      "▁Mod": 6896,
      "▁waiting": 6897,
      "capt": 6898,
      "▁presence": 6899,
      "▁explore": 6900,
      "ola": 6901,
      "▁core": 6902,
      "ellig": 6903,
      "▁mission": 6904,
      "active": 6905,
      "▁Lord": 6906,
      "▁rid": 6907,
      "▁novel": 6908,
      "▁unf": 6909,
      "}=": 6910,
      "▁colors": 6911,
      "▁partner": 6912,
      "▁evening": 6913,
      "▁balance": 6914,
      "AA": 6915,
      "▁owner": 6916,
      "arth": 6917,
      "▁River": 6918,
      "▁incred": 6919,
      "▁listed": 6920,
      "▁algorith": 6921,
      "▁craft": 6922,
      "▁faith": 6923,
      "standing": 6924,
      "ду": 6925,
      "ENT": 6926,
      "asy": 6927,
      "▁Work": 6928,
      "▁husband": 6929,
      "hand": 6930,
      "▁bathroom": 6931,
      "▁remains": 6932,
      "pan": 6933,
      "uce": 6934,
      "▁А": 6935,
      "▁ST": 6936,
      "▁sea": 6937,
      "▁operation": 6938,
      "▁comments": 6939,
      "▁proof": 6940,
      "▁Research": 6941,
      "▁experiences": 6942,
      "▁James": 6943,
      "▁script": 6944,
      "fast": 6945,
      "under": 6946,
      "▁со": 6947,
      "▁haven": 6948,
      "enses": 6949,
      "▁died": 6950,
      "▁fish": 6951,
      "▁Tex": 6952,
      "▁prepar": 6953,
      "ria": 6954,
      "▁phase": 6955,
      "▁prepared": 6956,
      "IV": 6957,
      "▁reviews": 6958,
      "▁Board": 6959,
      "bold": 6960,
      "▁initi": 6961,
      "▁combination": 6962,
      "▁fabric": 6963,
      "▁guid": 6964,
      "varepsilon": 6965,
      "▁organizations": 6966,
      "that": 6967,
      "▁wouldn": 6968,
      "▁Court": 6969,
      "miss": 6970,
      "▁keeping": 6971,
      "rete": 6972,
      "▁driver": 6973,
      "ishes": 6974,
      "▁pray": 6975,
      "▁cancer": 6976,
      "^{(": 6977,
      "utely": 6978,
      "rors": 6979,
      "▁nom": 6980,
      "ortunately": 6981,
      "▁predict": 6982,
      "}^{\\": 6983,
      "anta": 6984,
      "▁calls": 6985,
      "known": 6986,
      "▁winter": 6987,
      "▁whatever": 6988,
      "mail": 6989,
      "▁performed": 6990,
      "▁Ret": 6991,
      "how": 6992,
      "asp": 6993,
      "▁guess": 6994,
      "▁Office": 6995,
      "▁Vol": 6996,
      "▁happens": 6997,
      "▁parties": 6998,
      "tered": 6999,
      "erate": 7000,
      "▁para": 7001,
      "▁developing": 7002,
      "▁entertain": 7003,
      "eared": 7004,
      "▁thick": 7005,
      "▁Develop": 7006,
      "▁psych": 7007,
      "ias": 7008,
      "style": 7009,
      "▁Over": 7010,
      "pid": 7011,
      "color": 7012,
      "▁academ": 7013,
      "▁height": 7014,
      "ан": 7015,
      "▁score": 7016,
      "▁medium": 7017,
      "▁Christian": 7018,
      "rier": 7019,
      "▁Bre": 7020,
      "▁earth": 7021,
      "▁Sam": 7022,
      "sey": 7023,
      "cho": 7024,
      "▁ice": 7025,
      "▁standards": 7026,
      "▁roof": 7027,
      "▁advanced": 7028,
      "▁runs": 7029,
      "▁entre": 7030,
      "▁${\\": 7031,
      "emph": 7032,
      "IR": 7033,
      "▁changing": 7034,
      "▁Plan": 7035,
      "▁forget": 7036,
      "care": 7037,
      "nel": 7038,
      "▁showing": 7039,
      "▁older": 7040,
      "▁default": 7041,
      "▁parameters": 7042,
      "▁schedule": 7043,
      "▁society": 7044,
      "▁ingred": 7045,
      "▁England": 7046,
      "▁rooms": 7047,
      "▁flo": 7048,
      "olic": 7049,
      "▁luck": 7050,
      "Thanks": 7051,
      "inder": 7052,
      "TH": 7053,
      "▁steel": 7054,
      "▁Met": 7055,
      "▁experts": 7056,
      "dy": 7057,
      "eting": 7058,
      "▁tips": 7059,
      "▁Educ": 7060,
      "rangle": 7061,
      "xy": 7062,
      "ront": 7063,
      "▁Mary": 7064,
      "▁appears": 7065,
      "▁har": 7066,
      "▁shoot": 7067,
      "ando": 7068,
      "▁capacity": 7069,
      "fit": 7070,
      "▁anc": 7071,
      "Us": 7072,
      "och": 7073,
      "Then": 7074,
      "gn": 7075,
      "▁street": 7076,
      "▁exclus": 7077,
      "▁challenges": 7078,
      "▁Som": 7079,
      "▁mode": 7080,
      "▁minimum": 7081,
      "▁Fe": 7082,
      "▁Jer": 7083,
      "▁billion": 7084,
      "▁returned": 7085,
      "▁panel": 7086,
      "▁clearly": 7087,
      "▁motor": 7088,
      "▁fashion": 7089,
      "▁gain": 7090,
      "▁tag": 7091,
      "▁anti": 7092,
      "AG": 7093,
      "▁evalu": 7094,
      "▁wid": 7095,
      "▁Data": 7096,
      "ante": 7097,
      "ns": 7098,
      "pload": 7099,
      "▁ign": 7100,
      "”,": 7101,
      "▁discover": 7102,
      "▁mort": 7103,
      "Ind": 7104,
      "▁\\,": 7105,
      "Bl": 7106,
      "▁south": 7107,
      "▁Bank": 7108,
      "ena": 7109,
      "▁friendly": 7110,
      "▁suppl": 7111,
      "▁dedicated": 7112,
      "▁Life": 7113,
      "ocket": 7114,
      "▁teaching": 7115,
      "▁List": 7116,
      "▁secret": 7117,
      "Don": 7118,
      "▁Road": 7119,
      "cos": 7120,
      "▁breath": 7121,
      "▁switch": 7122,
      "Big": 7123,
      "bm": 7124,
      "ommod": 7125,
      "▁objects": 7126,
      "▁Rober": 7127,
      "abilities": 7128,
      "caption": 7129,
      "js": 7130,
      "cious": 7131,
      "▁concent": 7132,
      "▁passion": 7133,
      "▁Ann": 7134,
      "alls": 7135,
      "▁Because": 7136,
      "roud": 7137,
      "▁plants": 7138,
      "pret": 7139,
      "▁audience": 7140,
      "ania": 7141,
      "▁Press": 7142,
      "▁compre": 7143,
      "▁fear": 7144,
      "▁rare": 7145,
      "▁Mil": 7146,
      "enture": 7147,
      "Get": 7148,
      "esome": 7149,
      "▁north": 7150,
      "egraphics": 7151,
      "▁Phil": 7152,
      "▁football": 7153,
      "▁professionals": 7154,
      "includegraphics": 7155,
      "▁retail": 7156,
      "ani": 7157,
      "iner": 7158,
      "ör": 7159,
      "▁amb": 7160,
      "▁negative": 7161,
      "▁wire": 7162,
      "ifying": 7163,
      "▁France": 7164,
      "ander": 7165,
      "DF": 7166,
      "gu": 7167,
      "oz": 7168,
      "▁reached": 7169,
      "▁Although": 7170,
      "хо": 7171,
      "▁cars": 7172,
      "asks": 7173,
      "icine": 7174,
      "▁domain": 7175,
      "ben": 7176,
      "▁Chinese": 7177,
      "▁shopping": 7178,
      "▁das": 7179,
      "▁Monday": 7180,
      "▁lock": 7181,
      "▁Franc": 7182,
      "▁square": 7183,
      "▁quarter": 7184,
      "ocation": 7185,
      "▁proposed": 7186,
      "ras": 7187,
      "▁Jew": 7188,
      "▁reality": 7189,
      "Your": 7190,
      "▁slightly": 7191,
      "roy": 7192,
      "▁Mount": 7193,
      "▁component": 7194,
      "yp": 7195,
      "▁director": 7196,
      "OD": 7197,
      "▁welcome": 7198,
      "▁units": 7199,
      "▁caused": 7200,
      "da_": 7201,
      "upp": 7202,
      "ар": 7203,
      "eline": 7204,
      "uty": 7205,
      "▁daughter": 7206,
      "▁Cong": 7207,
      "umin": 7208,
      "▁pod": 7209,
      "ере": 7210,
      "▁cleaning": 7211,
      "_m": 7212,
      "top": 7213,
      "je": 7214,
      "from": 7215,
      "▁Israel": 7216,
      "▁president": 7217,
      "▁species": 7218,
      "sole": 7219,
      "▁emp": 7220,
      "▁Thom": 7221,
      "▁discount": 7222,
      "▁resol": 7223,
      "▁prote": 7224,
      "▁artist": 7225,
      "▁Thank": 7226,
      "▁Av": 7227,
      "▁dra": 7228,
      "▁cheap": 7229,
      "▁records": 7230,
      "ет": 7231,
      "▁loan": 7232,
      "▁grant": 7233,
      "wo": 7234,
      "▁Lou": 7235,
      "▁workers": 7236,
      "▁agreement": 7237,
      "▁Die": 7238,
      "▁plenty": 7239,
      "▁Down": 7240,
      "ads": 7241,
      "ucle": 7242,
      "iliar": 7243,
      "▁corner": 7244,
      "osure": 7245,
      "Or": 7246,
      "▁showed": 7247,
      "▁egg": 7248,
      "othes": 7249,
      "reek": 7250,
      "▁chair": 7251,
      "arp": 7252,
      "▁ро": 7253,
      "▁trees": 7254,
      "▁Б": 7255,
      "▁helpful": 7256,
      "script": 7257,
      "akers": 7258,
      "alog": 7259,
      "▁restrict": 7260,
      "▁alternative": 7261,
      "▁Institute": 7262,
      "▁AS": 7263,
      "▁communities": 7264,
      "ás": 7265,
      "▁Arch": 7266,
      "function": 7267,
      "▁facilities": 7268,
      "▁decre": 7269,
      "▁AND": 7270,
      "file": 7271,
      "▁OF": 7272,
      "aming": 7273,
      "itors": 7274,
      "antic": 7275,
      "nab": 7276,
      "▁famous": 7277,
      "▁ф": 7278,
      "ounce": 7279,
      "▁vision": 7280,
      "▁Form": 7281,
      "▁leader": 7282,
      "▁Management": 7283,
      "lay": 7284,
      "idden": 7285,
      "▁Camp": 7286,
      "Can": 7287,
      "unning": 7288,
      "fol": 7289,
      "▁accur": 7290,
      "▁exercise": 7291,
      "ae": 7292,
      "▁Ev": 7293,
      "▁windows": 7294,
      "▁rule": 7295,
      "rian": 7296,
      "▁decide": 7297,
      "▁foreign": 7298,
      "▁dram": 7299,
      "lor": 7300,
      "Why": 7301,
      "▁holiday": 7302,
      "OW": 7303,
      "ampions": 7304,
      "▁menu": 7305,
      "▁Cr": 7306,
      "▁sector": 7307,
      "▁installed": 7308,
      "▁Hel": 7309,
      "▁waste": 7310,
      "▁leaves": 7311,
      "▁library": 7312,
      "▁knows": 7313,
      "crib": 7314,
      "amily": 7315,
      "ensions": 7316,
      "▁volume": 7317,
      "ancing": 7318,
      "▁processing": 7319,
      "met": 7320,
      "▁leaving": 7321,
      "▁Di": 7322,
      "▁properly": 7323,
      "▁operating": 7324,
      "rical": 7325,
      "hent": 7326,
      "{-": 7327,
      "▁numerous": 7328,
      "▁expression": 7329,
      "];": 7330,
      "▁consid": 7331,
      "▁missing": 7332,
      "geq": 7333,
      "However": 7334,
      "bour": 7335,
      "▁Sing": 7336,
      "▁bird": 7337,
      "▁fan": 7338,
      "UT": 7339,
      "▁label": 7340,
      "▁arrange": 7341,
      "▁gall": 7342,
      "▁instr": 7343,
      "▁category": 7344,
      "▁leads": 7345,
      "Some": 7346,
      "ructure": 7347,
      "\");": 7348,
      "▁Africa": 7349,
      "▁competition": 7350,
      "▁Texas": 7351,
      "▁Sil": 7352,
      "pon": 7353,
      "eless": 7354,
      "▁Fore": 7355,
      "oto": 7356,
      "hop": 7357,
      "▁veget": 7358,
      "▁Use": 7359,
      "▁cream": 7360,
      "▁taste": 7361,
      "▁accommod": 7362,
      "▁equal": 7363,
      "vention": 7364,
      "▁fig": 7365,
      "▁Vis": 7366,
      "▁guests": 7367,
      "▁Open": 7368,
      "▁Land": 7369,
      "▁filled": 7370,
      "▁managed": 7371,
      "ums": 7372,
      "▁Grand": 7373,
      "▁doctor": 7374,
      "▁maintenance": 7375,
      "NA": 7376,
      "▁($": 7377,
      "▁ship": 7378,
      "ls": 7379,
      "hr": 7380,
      "▁civil": 7381,
      "▁Florida": 7382,
      "▁radio": 7383,
      "▁becoming": 7384,
      "▁dial": 7385,
      "▁drug": 7386,
      "▁minute": 7387,
      "OP": 7388,
      "▁reb": 7389,
      "▁www": 7390,
      "▁internal": 7391,
      "▁Lake": 7392,
      "reme": 7393,
      "▁practices": 7394,
      "▁launch": 7395,
      "ket": 7396,
      "chi": 7397,
      "▁plug": 7398,
      "▁symbol": 7399,
      "▁layer": 7400,
      "▁Mem": 7401,
      ")^": 7402,
      "▁beach": 7403,
      "oma": 7404,
      "▁при": 7405,
      "▁actions": 7406,
      "▁contem": 7407,
      "p_": 7408,
      "со": 7409,
      "▁restaurant": 7410,
      "▁stone": 7411,
      "▁Read": 7412,
      "▁Miss": 7413,
      "▁crow": 7414,
      "▁false": 7415,
      "▁bill": 7416,
      "Add": 7417,
      "▁polic": 7418,
      "▁Sun": 7419,
      "▁Fil": 7420,
      "osit": 7421,
      "burg": 7422,
      "▁German": 7423,
      "cor": 7424,
      "rite": 7425,
      "icken": 7426,
      "ifts": 7427,
      "▁adapt": 7428,
      "▁documents": 7429,
      "what": 7430,
      "ya": 7431,
      "outhern": 7432,
      "▁manager": 7433,
      "▁Make": 7434,
      "hi": 7435,
      "▁beauty": 7436,
      "ds": 7437,
      "▁cabin": 7438,
      "type": 7439,
      "Man": 7440,
      "▁е": 7441,
      "▁colour": 7442,
      "▁fo": 7443,
      "▁discussion": 7444,
      "▁funds": 7445,
      "▁Mad": 7446,
      "▁cart": 7447,
      "▁och": 7448,
      "ca": 7449,
      "▁buying": 7450,
      "▁economy": 7451,
      "▁Def": 7452,
      "eta_": 7453,
      "▁previously": 7454,
      "ala": 7455,
      "▁Ama": 7456,
      "▁introduced": 7457,
      "▁variable": 7458,
      "rees": 7459,
      "value": 7460,
      "{(": 7461,
      "▁snow": 7462,
      "▁biggest": 7463,
      "▁joint": 7464,
      "▁conference": 7465,
      "▁sched": 7466,
      "▁diet": 7467,
      "▁tow": 7468,
      "▁landsc": 7469,
      "▁supported": 7470,
      "ords": 7471,
      "ua": 7472,
      "▁detailed": 7473,
      "▁dinner": 7474,
      "import": 7475,
      "Text": 7476,
      "▁align": 7477,
      "▁installation": 7478,
      "▁raised": 7479,
      "▁manner": 7480,
      "▁rain": 7481,
      "▁holds": 7482,
      "pet": 7483,
      "▁examples": 7484,
      "uman": 7485,
      "▁sounds": 7486,
      "▁visitors": 7487,
      "▁Н": 7488,
      "($": 7489,
      "java": 7490,
      "▁sugar": 7491,
      "пи": 7492,
      "edom": 7493,
      "▁expensive": 7494,
      "lt": 7495,
      "IF": 7496,
      "▁ju": 7497,
      "▁та": 7498,
      "▁lose": 7499,
      "▁Michael": 7500,
      "▁Republic": 7501,
      "▁tables": 7502,
      "yth": 7503,
      "▁designs": 7504,
      "▁theme": 7505,
      "▁starts": 7506,
      "▁Alex": 7507,
      "▁Hol": 7508,
      "▁worry": 7509,
      "center": 7510,
      "▁от": 7511,
      "▁classic": 7512,
      "▁Power": 7513,
      "▁Р": 7514,
      "▁Science": 7515,
      "Since": 7516,
      "▁tro": 7517,
      "▁thousands": 7518,
      "uled": 7519,
      "▁coverage": 7520,
      "▁fell": 7521,
      "Yes": 7522,
      "▁determined": 7523,
      "ние": 7524,
      "▁Wed": 7525,
      "▁Island": 7526,
      "▁ton": 7527,
      "▁nor": 7528,
      "night": 7529,
      "▁proud": 7530,
      "▁occup": 7531,
      "▁typically": 7532,
      ".~\\": 7533,
      "▁majority": 7534,
      "▁Check": 7535,
      "▁focused": 7536,
      "overline": 7537,
      "▁respectively": 7538,
      "DA": 7539,
      "▁generation": 7540,
      "▁diagn": 7541,
      "▁USA": 7542,
      "▁gun": 7543,
      "▁neighbor": 7544,
      "▁Fig": 7545,
      "exp": 7546,
      "▁eth": 7547,
      "▁volunte": 7548,
      "E_": 7549,
      "&\\": 7550,
      "▁brief": 7551,
      "▁define": 7552,
      "▁weak": 7553,
      "▁scene": 7554,
      "▁ran": 7555,
      "uis": 7556,
      "can": 7557,
      "▁се": 7558,
      "▁animals": 7559,
      "▁depending": 7560,
      "▁updated": 7561,
      "▁Angel": 7562,
      "ubb": 7563,
      "ocr": 7564,
      "Ob": 7565,
      "▁об": 7566,
      "▁width": 7567,
      "anged": 7568,
      "▁Water": 7569,
      "▁fee": 7570,
      "win": 7571,
      "▁explain": 7572,
      "osis": 7573,
      "▁thoughts": 7574,
      "Note": 7575,
      "▁seconds": 7576,
      "ona": 7577,
      "friend": 7578,
      "▁Que": 7579,
      "▁ring": 7580,
      "▁profile": 7581,
      "▁attrib": 7582,
      "Omega": 7583,
      "▁decisions": 7584,
      "▁ven": 7585,
      "▁zero": 7586,
      "▁shel": 7587,
      "▁lux": 7588,
      "▁Mex": 7589,
      "▁excited": 7590,
      "▁fans": 7591,
      "▁perspect": 7592,
      "▁Table": 7593,
      "▁Rel": 7594,
      "▁essay": 7595,
      "iration": 7596,
      "▁wa": 7597,
      "symbol": 7598,
      "Ps": 7599,
      "▁centre": 7600,
      "px": 7601,
      "ello": 7602,
      "▁Ham": 7603,
      "etime": 7604,
      "▁thread": 7605,
      "▁Mer": 7606,
      "▁sud": 7607,
      "▁convert": 7608,
      "▁Main": 7609,
      "én": 7610,
      "га": 7611,
      "▁suitable": 7612,
      "▁recip": 7613,
      ".}": 7614,
      "▁upper": 7615,
      "▁walking": 7616,
      "▁bought": 7617,
      "▁hospital": 7618,
      "▁Leg": 7619,
      "ildren": 7620,
      "▁combined": 7621,
      "Of": 7622,
      "otic": 7623,
      "▁als": 7624,
      "T_": 7625,
      "▁unless": 7626,
      "▁Care": 7627,
      "ilit": 7628,
      "▁во": 7629,
      "Te": 7630,
      "lam": 7631,
      "▁Sum": 7632,
      "▁ка": 7633,
      "▁trail": 7634,
      "▁quiet": 7635,
      "▁sustain": 7636,
      "▁tele": 7637,
      "alian": 7638,
      "Acc": 7639,
      "▁disp": 7640,
      "▁belong": 7641,
      "while": 7642,
      "iller": 7643,
      "going": 7644,
      "abled": 7645,
      "▁residents": 7646,
      "eck": 7647,
      "▁federal": 7648,
      "ructions": 7649,
      "▁Rob": 7650,
      "▁seat": 7651,
      "rate": 7652,
      "▁jump": 7653,
      "▁Tom": 7654,
      "RA": 7655,
      "uable": 7656,
      "▁importance": 7657,
      "▁instant": 7658,
      "▁equival": 7659,
      "▁Jo": 7660,
      "comm": 7661,
      "▁circum": 7662,
      "▁influence": 7663,
      "▁approximately": 7664,
      "▁Top": 7665,
      "▁proceed": 7666,
      "La": 7667,
      "▁consequ": 7668,
      "never": 7669,
      "▁Oh": 7670,
      "ну": 7671,
      "▁whom": 7672,
      "▁absolutely": 7673,
      "▁automatically": 7674,
      "[\\": 7675,
      "▁plastic": 7676,
      "▁videos": 7677,
      "icians": 7678,
      "mpt": 7679,
      "hab": 7680,
      "▁exchange": 7681,
      "▁joined": 7682,
      "▁Tor": 7683,
      "▁Big": 7684,
      "▁allowing": 7685,
      "fo": 7686,
      "▁transl": 7687,
      "▁IP": 7688,
      "▁encourage": 7689,
      "▁Engine": 7690,
      "icht": 7691,
      "▁signal": 7692,
      "▁Project": 7693,
      "▁Det": 7694,
      "▁labor": 7695,
      "esh": 7696,
      "▁corresponding": 7697,
      "ido": 7698,
      "▁journal": 7699,
      "iat": 7700,
      "▁Their": 7701,
      "▁removed": 7702,
      "stra": 7703,
      "▁elim": 7704,
      "▁Call": 7705,
      "▁George": 7706,
      "▁assume": 7707,
      "лі": 7708,
      "▁Wood": 7709,
      "▁mail": 7710,
      "▁hyd": 7711,
      "QL": 7712,
      "},\\": 7713,
      "▁tun": 7714,
      "!!!": 7715,
      "▁People": 7716,
      "▁Star": 7717,
      "▁wur": 7718,
      "▁Tem": 7719,
      "orthern": 7720,
      "▁Mont": 7721,
      "án": 7722,
      "▁claims": 7723,
      "▁relationships": 7724,
      "ursday": 7725,
      "▁mostly": 7726,
      "▁Public": 7727,
      "ji": 7728,
      "▁Muse": 7729,
      "▁km": 7730,
      "▁stars": 7731,
      "clusion": 7732,
      "▁Paris": 7733,
      "amin": 7734,
      "▁CD": 7735,
      "essions": 7736,
      "▁Fire": 7737,
      "▁recipe": 7738,
      "▁kid": 7739,
      "▁Its": 7740,
      "▁teacher": 7741,
      "▁willing": 7742,
      "▁Tur": 7743,
      "▁exists": 7744,
      "▁chosen": 7745,
      "▁Den": 7746,
      "▁cop": 7747,
      "▁motiv": 7748,
      "▁Vir": 7749,
      "▁lib": 7750,
      "▁illustr": 7751,
      "eration": 7752,
      "▁Therefore": 7753,
      "▁locations": 7754,
      "▁spin": 7755,
      "itness": 7756,
      "uses": 7757,
      "Over": 7758,
      "estic": 7759,
      "itle": 7760,
      "▁artists": 7761,
      "▁Cat": 7762,
      "oration": 7763,
      "▁Apple": 7764,
      "psi": 7765,
      "▁posts": 7766,
      "▁reduced": 7767,
      "▁procedure": 7768,
      "▁mut": 7769,
      "▁Thus": 7770,
      "▁Time": 7771,
      "▁prove": 7772,
      "▁auf": 7773,
      "uries": 7774,
      "▁ris": 7775,
      "▁citiz": 7776,
      "aren": 7777,
      "▁accompl": 7778,
      "па": 7779,
      "▁observed": 7780,
      "▁matrix": 7781,
      "Me": 7782,
      "▁Custom": 7783,
      "frak": 7784,
      "▁vert": 7785,
      "▁topic": 7786,
      "▁parameter": 7787,
      "bert": 7788,
      "edy": 7789,
      "▁practical": 7790,
      "host": 7791,
      "ervice": 7792,
      "▁selling": 7793,
      "▁pure": 7794,
      "▁univers": 7795,
      "▁courses": 7796,
      "ni": 7797,
      "oria": 7798,
      "▁honest": 7799,
      "▁mouth": 7800,
      "ushed": 7801,
      "▁info": 7802,
      "▁transition": 7803,
      "▁continues": 7804,
      "▁Div": 7805,
      "azine": 7806,
      "▁recommended": 7807,
      "'.": 7808,
      "html": 7809,
      "▁outdoor": 7810,
      "iences": 7811,
      "▁putting": 7812,
      "ban": 7813,
      "};": 7814,
      "lete": 7815,
      "▁conserv": 7816,
      "▁markets": 7817,
      "▁q": 7818,
      "▁leadership": 7819,
      "▁enjoyed": 7820,
      "му": 7821,
      "▁watching": 7822,
      "foot": 7823,
      "▁ended": 7824,
      "▁cities": 7825,
      "elle": 7826,
      "▁eventually": 7827,
      "▁policies": 7828,
      "▁settings": 7829,
      "Are": 7830,
      "▁purpos": 7831,
      "▁channel": 7832,
      "pected": 7833,
      "▁Central": 7834,
      "ba": 7835,
      "uesday": 7836,
      "▁Education": 7837,
      "▁Director": 7838,
      "▁ride": 7839,
      "▁rapid": 7840,
      "▁ré": 7841,
      "OC": 7842,
      "▁resolution": 7843,
      "▁fort": 7844,
      "inations": 7845,
      "boldsymbol": 7846,
      "BA": 7847,
      "gery": 7848,
      "▁Const": 7849,
      "hline": 7850,
      "▁rise": 7851,
      "▁bon": 7852,
      "▁concerns": 7853,
      "▁strategies": 7854,
      "spec": 7855,
      "▁Commission": 7856,
      "▁casino": 7857,
      "▁cos": 7858,
      "Che": 7859,
      "▁susp": 7860,
      "▁serving": 7861,
      "\";": 7862,
      "▁filter": 7863,
      "▁phil": 7864,
      "▁Set": 7865,
      "▁ingredients": 7866,
      "▁ok": 7867,
      "▁Hy": 7868,
      "▁definition": 7869,
      "▁eating": 7870,
      "▁measures": 7871,
      "▁Frank": 7872,
      "}).": 7873,
      "test": 7874,
      "▁comprehens": 7875,
      "user": 7876,
      "iments": 7877,
      "▁calling": 7878,
      "▁familiar": 7879,
      "▁prin": 7880,
      "▁Д": 7881,
      "▁listen": 7882,
      "vo": 7883,
      "▁survey": 7884,
      "▁assistance": 7885,
      "▁brings": 7886,
      "▁notes": 7887,
      "▁dump": 7888,
      "First": 7889,
      "rip": 7890,
      "outs": 7891,
      "▁cris": 7892,
      "▁teachers": 7893,
      "MA": 7894,
      "▁aspects": 7895,
      "▁News": 7896,
      "▁girls": 7897,
      "▁spending": 7898,
      "requ": 7899,
      "▁Commit": 7900,
      "▁interior": 7901,
      "ischen": 7902,
      "▁Year": 7903,
      "▁fruit": 7904,
      "PA": 7905,
      "▁laws": 7906,
      "▁density": 7907,
      "agon": 7908,
      "▁carried": 7909,
      "▁specifically": 7910,
      "▁dining": 7911,
      "ffect": 7912,
      "▁sport": 7913,
      "▁Ins": 7914,
      "▁rom": 7915,
      "water": 7916,
      "▁Society": 7917,
      "▁stores": 7918,
      "▁chemical": 7919,
      "▁agent": 7920,
      "Type": 7921,
      "_d": 7922,
      "▁doubt": 7923,
      "▁faster": 7924,
      "▁department": 7925,
      "▁registered": 7926,
      "ocolate": 7927,
      "лу": 7928,
      "▁epis": 7929,
      ",'": 7930,
      "▁Pan": 7931,
      "▁==": 7932,
      "Thank": 7933,
      "dered": 7934,
      "▁empt": 7935,
      "▁facility": 7936,
      "zer": 7937,
      "ati": 7938,
      "▁brown": 7939,
      "Any": 7940,
      "ige": 7941,
      "▁vot": 7942,
      "▁fees": 7943,
      "▁exciting": 7944,
      "pack": 7945,
      "▁trad": 7946,
      "inte": 7947,
      "▁interpret": 7948,
      "▁busy": 7949,
      "▁fantastic": 7950,
      "itable": 7951,
      "igation": 7952,
      "▁Rad": 7953,
      "LC": 7954,
      "▁Att": 7955,
      "sf": 7956,
      "▁Foundation": 7957,
      "norm": 7958,
      "▁generated": 7959,
      "aks": 7960,
      "▁Rock": 7961,
      "▁Wil": 7962,
      "unched": 7963,
      ")(": 7964,
      "▁Click": 7965,
      "orph": 7966,
      "▁senior": 7967,
      "BS": 7968,
      "▁ment": 7969,
      "onds": 7970,
      "▁websites": 7971,
      "▁Like": 7972,
      "ship": 7973,
      "iform": 7974,
      "||": 7975,
      "riage": 7976,
      "}}$": 7977,
      "▁cultural": 7978,
      "▁shut": 7979,
      "f_": 7980,
      "▁telev": 7981,
      "icago": 7982,
      "▁vote": 7983,
      "▁accident": 7984,
      "▁void": 7985,
      "nesday": 7986,
      "alpha_": 7987,
      "▁seek": 7988,
      "▁asking": 7989,
      "▁salt": 7990,
      "▁sides": 7991,
      "▁island": 7992,
      "▁Lear": 7993,
      "▁photograph": 7994,
      "){": 7995,
      "▁vary": 7996,
      "▁remaining": 7997,
      "▁possibly": 7998,
      "langle": 7999,
      "▁ourselves": 8000,
      "▁agg": 8001,
      "▁environmental": 8002,
      "▁mental": 8003,
      "ista": 8004,
      "▁resource": 8005,
      "▁tight": 8006,
      "▁Word": 8007,
      "atin": 8008,
      "ups": 8009,
      "alax": 8010,
      "▁Bas": 8011,
      "▁ist": 8012,
      "▁Android": 8013,
      "▁debt": 8014,
      "▁choices": 8015,
      "▁era": 8016,
      "▁lovely": 8017,
      "▁despite": 8018,
      "▁Profess": 8019,
      "▁Hill": 8020,
      "▁failed": 8021,
      "▁liqu": 8022,
      "you": 8023,
      "ifications": 8024,
      "▁fif": 8025,
      "▁corporate": 8026,
      "long": 8027,
      "▁chart": 8028,
      "life": 8029,
      "▁het": 8030,
      "▁root": 8031,
      "▁Section": 8032,
      "▁feedback": 8033,
      "▁Music": 8034,
      "▁из": 8035,
      "▁guys": 8036,
      "▁injury": 8037,
      "▁tests": 8038,
      "▁purposes": 8039,
      "ét": 8040,
      "▁description": 8041,
      "▁Wall": 8042,
      "▁responsibility": 8043,
      "ython": 8044,
      "▁opinion": 8045,
      "▁Thursday": 8046,
      "▁Trump": 8047,
      "uster": 8048,
      "▁fuel": 8049,
      "▁spaces": 8050,
      "▁route": 8051,
      "▁gro": 8052,
      "▁appeared": 8053,
      "▁confidence": 8054,
      "▁conver": 8055,
      "mult": 8056,
      "icial": 8057,
      "▁lived": 8058,
      "▁motion": 8059,
      "ів": 8060,
      "▁Elect": 8061,
      "rome": 8062,
      "▁hat": 8063,
      "uer": 8064,
      "▁village": 8065,
      "▁sitting": 8066,
      "ного": 8067,
      "fill": 8068,
      "▁і": 8069,
      "▁enhance": 8070,
      "▁vehicles": 8071,
      "▁thr": 8072,
      "▁stret": 8073,
      "▁During": 8074,
      "t_": 8075,
      "Just": 8076,
      "▁Blue": 8077,
      "▁chain": 8078,
      "▁iron": 8079,
      "▁Pet": 8080,
      "▁Love": 8081,
      "eller": 8082,
      "▁external": 8083,
      "▁poll": 8084,
      "▁provider": 8085,
      "▁shap": 8086,
      "ivered": 8087,
      "▁beat": 8088,
      "▁syn": 8089,
      "orry": 8090,
      "prise": 8091,
      "usher": 8092,
      "▁Mel": 8093,
      "ación": 8094,
      "using": 8095,
      "▁auto": 8096,
      "tes": 8097,
      "++": 8098,
      "▁Social": 8099,
      "▁articles": 8100,
      "cean": 8101,
      "▁returns": 8102,
      "за": 8103,
      "▁shift": 8104,
      "mathfrak": 8105,
      "ldots": 8106,
      "lication": 8107,
      "▁Two": 8108,
      "▁tasks": 8109,
      "aked": 8110,
      "▁null": 8111,
      "▁qui": 8112,
      "cap": 8113,
      "s_": 8114,
      "▁distinct": 8115,
      "▁doors": 8116,
      "circ": 8117,
      "PR": 8118,
      "▁king": 8119,
      "▁forces": 8120,
      "▁Development": 8121,
      "▁String": 8122,
      "▁favour": 8123,
      "▁Mo": 8124,
      "▁forg": 8125,
      "▁industrial": 8126,
      "onom": 8127,
      "ali": 8128,
      "lambda_": 8129,
      "▁affordable": 8130,
      "ingu": 8131,
      "wa": 8132,
      "noon": 8133,
      "ossible": 8134,
      "▁equation": 8135,
      "▁depart": 8136,
      "▁tail": 8137,
      "IA": 8138,
      "apping": 8139,
      "▁Academ": 8140,
      "▁mine": 8141,
      "▁tut": 8142,
      "fe": 8143,
      "▁anywhere": 8144,
      "▁Germany": 8145,
      "▁songs": 8146,
      "osite": 8147,
      "▁agency": 8148,
      "▁Г": 8149,
      "▁Light": 8150,
      "▁Online": 8151,
      "▁como": 8152,
      "▁holding": 8153,
      "ansion": 8154,
      "▁prepare": 8155,
      "▁ban": 8156,
      "▁significantly": 8157,
      "lis": 8158,
      "Lamb": 8159,
      "▁appeal": 8160,
      "▁Union": 8161,
      "▁princip": 8162,
      "orough": 8163,
      "coh": 8164,
      "▁swim": 8165,
      "ши": 8166,
      "alled": 8167,
      "▁Tuesday": 8168,
      "Pr": 8169,
      "▁sufficient": 8170,
      "▁animal": 8171,
      "▁conflic": 8172,
      "vi": 8173,
      "m_": 8174,
      "TS": 8175,
      "nam": 8176,
      "▁coast": 8177,
      "▁een": 8178,
      "ulture": 8179,
      "▁Test": 8180,
      "▁lunch": 8181,
      "▁occasion": 8182,
      "▁discovered": 8183,
      "{{\\": 8184,
      "▁accounts": 8185,
      "▁tea": 8186,
      "▁yield": 8187,
      "inst": 8188,
      "▁Microsoft": 8189,
      "▁sudden": 8190,
      "▁fle": 8191,
      "odies": 8192,
      "▁zu": 8193,
      "gage": 8194,
      "ograp": 8195,
      "hetic": 8196,
      "▁Peter": 8197,
      "▁signed": 8198,
      "jo": 8199,
      "▁contrast": 8200,
      "▁minor": 8201,
      "map": 8202,
      "▁walls": 8203,
      "▁standing": 8204,
      "▁funding": 8205,
      "▁reliable": 8206,
      "▁awesome": 8207,
      "▁End": 8208,
      "▁enable": 8209,
      "press": 8210,
      "▁Ma": 8211,
      "▁„": 8212,
      "▁mur": 8213,
      "▁Bet": 8214,
      "▁alt": 8215,
      "▁broken": 8216,
      "▁Build": 8217,
      "kin": 8218,
      "је": 8219,
      "▁AM": 8220,
      "▁Mass": 8221,
      "▁Government": 8222,
      "Rec": 8223,
      "▁youth": 8224,
      "▁node": 8225,
      "▁butter": 8226,
      "rame": 8227,
      "▁buildings": 8228,
      "▁tab": 8229,
      "icity": 8230,
      "public": 8231,
      "▁Committee": 8232,
      "▁teach": 8233,
      "▁flight": 8234,
      "▁vs": 8235,
      "▁intended": 8236,
      "▁UN": 8237,
      "▁diam": 8238,
      "▁Est": 8239,
      "▁forest": 8240,
      "CE": 8241,
      "▁odd": 8242,
      "▁soul": 8243,
      "▁battery": 8244,
      "azz": 8245,
      "wid": 8246,
      "phas": 8247,
      "▁Cam": 8248,
      "\\!": 8249,
      "▁none": 8250,
      "▁till": 8251,
      "▁League": 8252,
      "aven": 8253,
      "▁intellig": 8254,
      "lar": 8255,
      "▁loop": 8256,
      "Ab": 8257,
      "xture": 8258,
      "▁interface": 8259,
      "▁arrived": 8260,
      "road": 8261,
      "SP": 8262,
      "▁sequence": 8263,
      "▁appearance": 8264,
      "mosp": 8265,
      "▁Master": 8266,
      "▁expertise": 8267,
      "▁Nor": 8268,
      "obe": 8269,
      "▁sac": 8270,
      "size": 8271,
      "UN": 8272,
      "ician": 8273,
      "▁Prov": 8274,
      "▁Mot": 8275,
      "ère": 8276,
      "▁technologies": 8277,
      "ito": 8278,
      "yer": 8279,
      "▁totally": 8280,
      "▁Hen": 8281,
      "▁Beach": 8282,
      "▁desire": 8283,
      "▁trial": 8284,
      "▁legis": 8285,
      "▁gather": 8286,
      "izer": 8287,
      "reens": 8288,
      "Well": 8289,
      "▁audio": 8290,
      "rc": 8291,
      "▁divid": 8292,
      "▁Cas": 8293,
      "▁Both": 8294,
      "▁District": 8295,
      "▁neck": 8296,
      "▁Wednesday": 8297,
      "thm": 8298,
      "▁О": 8299,
      "ingly": 8300,
      "▁vel": 8301,
      "▁Ter": 8302,
      "ystem": 8303,
      "▁battle": 8304,
      "▁generate": 8305,
      "▁committed": 8306,
      "▁ре": 8307,
      "▁Note": 8308,
      "M_": 8309,
      "orter": 8310,
      "▁guarantee": 8311,
      "▁belie": 8312,
      "inating": 8313,
      "▁extended": 8314,
      "irty": 8315,
      "▁identity": 8316,
      "elled": 8317,
      "arsh": 8318,
      "▁perfectly": 8319,
      "▁boat": 8320,
      "▁delicious": 8321,
      "▁Bill": 8322,
      "▁considering": 8323,
      "erd": 8324,
      "isco": 8325,
      "▁academic": 8326,
      "▁discussed": 8327,
      "▁Valley": 8328,
      "▁trading": 8329,
      "▁nucle": 8330,
      "▁trig": 8331,
      "▁Stand": 8332,
      "▁circumst": 8333,
      "▁PM": 8334,
      "▁Ir": 8335,
      "ги": 8336,
      "▁lights": 8337,
      "▁goods": 8338,
      "▁Amazon": 8339,
      "▁extract": 8340,
      "▁Carol": 8341,
      "▁OR": 8342,
      "▁Party": 8343,
      "▁identified": 8344,
      "lib": 8345,
      "▁solve": 8346,
      "bal": 8347,
      "▁Robert": 8348,
      "▁orders": 8349,
      "Act": 8350,
      "Click": 8351,
      "▁recon": 8352,
      "▁boost": 8353,
      "eries": 8354,
      "▁efficiency": 8355,
      "▁Smith": 8356,
      "▁improved": 8357,
      "▁NOT": 8358,
      "▁vo": 8359,
      "▁register": 8360,
      "EE": 8361,
      "▁married": 8362,
      "▁Los": 8363,
      "▁Journal": 8364,
      "▁stopped": 8365,
      "▁vector": 8366,
      "▁relatively": 8367,
      "▁auth": 8368,
      "▁participants": 8369,
      "▁implementation": 8370,
      "▁Pay": 8371,
      "▁parking": 8372,
      "====": 8373,
      "▁argument": 8374,
      "▁indeed": 8375,
      "lie": 8376,
      "▁yes": 8377,
      "▁climate": 8378,
      "▁noise": 8379,
      "▁Str": 8380,
      "▁schol": 8381,
      "▁flowers": 8382,
      "▁Museum": 8383,
      "▁query": 8384,
      "▁Т": 8385,
      "▁sad": 8386,
      "▁Earth": 8387,
      "▁linear": 8388,
      "▁trained": 8389,
      "▁Long": 8390,
      "▁instit": 8391,
      "▁Back": 8392,
      "input": 8393,
      "CD": 8394,
      "▁tast": 8395,
      "Every": 8396,
      "urban": 8397,
      "▁Sa": 8398,
      "ці": 8399,
      "▁shipping": 8400,
      "▁effectively": 8401,
      "▁sympt": 8402,
      "c_": 8403,
      "grade": 8404,
      "pass": 8405,
      "phi_": 8406,
      "ados": 8407,
      "atre": 8408,
      "eper": 8409,
      "▁causes": 8410,
      "▁TO": 8411,
      "▁https": 8412,
      "ints": 8413,
      "string": 8414,
      "▁Old": 8415,
      "▁Atl": 8416,
      "▁failure": 8417,
      "▁Western": 8418,
      "▁für": 8419,
      "▁raise": 8420,
      "▁delivered": 8421,
      "sembly": 8422,
      "▁mal": 8423,
      "ima": 8424,
      "жи": 8425,
      "▁relative": 8426,
      "▁Information": 8427,
      "cknow": 8428,
      "▁meal": 8429,
      "adian": 8430,
      "зи": 8431,
      "['": 8432,
      "▁usual": 8433,
      "▁Color": 8434,
      "Ste": 8435,
      "▁ON": 8436,
      "▁river": 8437,
      "fin": 8438,
      "▁pun": 8439,
      "▁accurate": 8440,
      "▁inspired": 8441,
      "▁burn": 8442,
      "▁district": 8443,
      "▁wave": 8444,
      "oses": 8445,
      "ensure": 8446,
      "▁sin": 8447,
      "▁winning": 8448,
      "SA": 8449,
      "d_": 8450,
      "▁algorithm": 8451,
      "▁divers": 8452,
      "▁Chicago": 8453,
      "****": 8454,
      "dim": 8455,
      "▁operator": 8456,
      "CA": 8457,
      "case": 8458,
      "▁unl": 8459,
      "▁promote": 8460,
      "▁confirm": 8461,
      "▁Real": 8462,
      "▁View": 8463,
      "▁extensive": 8464,
      "▁Special": 8465,
      "▁Today": 8466,
      "▁glad": 8467,
      "▁creation": 8468,
      "▁resulting": 8469,
      "▁vir": 8470,
      "▁lie": 8471,
      "iest": 8472,
      "subset": 8473,
      "See": 8474,
      "anges": 8475,
      "▁formed": 8476,
      "▁joy": 8477,
      "▁plate": 8478,
      "ор": 8479,
      "▁hun": 8480,
      "▁template": 8481,
      "▁realize": 8482,
      "Pre": 8483,
      "▁Community": 8484,
      "▁hyp": 8485,
      "rich": 8486,
      "▁herself": 8487,
      "ón": 8488,
      "citep": 8489,
      "▁conversation": 8490,
      "anda": 8491,
      "▁deals": 8492,
      "▁noted": 8493,
      "▁interests": 8494,
      "ih": 8495,
      "acc": 8496,
      "▁killed": 8497,
      "▁afternoon": 8498,
      "Phone": 8499,
      "▁valuable": 8500,
      "ye": 8501,
      "▁diss": 8502,
      "▁Vict": 8503,
      "race": 8504,
      "▁guy": 8505,
      "▁fly": 8506,
      "iveness": 8507,
      "iano": 8508,
      "atus": 8509,
      "▁cro": 8510,
      "▁answers": 8511,
      "▁remind": 8512,
      "▁surf": 8513,
      "▁updates": 8514,
      "▁breakfast": 8515,
      "▁Bud": 8516,
      "flow": 8517,
      "▁empty": 8518,
      "▁kinds": 8519,
      "са": 8520,
      "▁depth": 8521,
      "▁Town": 8522,
      "▁highlight": 8523,
      "▁signs": 8524,
      "weight": 8525,
      "▁covers": 8526,
      "▁sizes": 8527,
      "ipl": 8528,
      "zing": 8529,
      "▁Du": 8530,
      "kapp": 8531,
      "rastructure": 8532,
      "rect": 8533,
      "▁supposed": 8534,
      "west": 8535,
      "Er": 8536,
      "▁neighborhood": 8537,
      "▁Card": 8538,
      "ocument": 8539,
      "▁Yes": 8540,
      "▁patterns": 8541,
      "▁mig": 8542,
      "fil": 8543,
      "▁trouble": 8544,
      "level": 8545,
      "▁Thomas": 8546,
      "▁hearing": 8547,
      "▁attor": 8548,
      "▁networks": 8549,
      "php": 8550,
      "▁houses": 8551,
      "▁successfully": 8552,
      "▁comprehensive": 8553,
      "▁Bur": 8554,
      "▁dance": 8555,
      "▁feels": 8556,
      "▁caught": 8557,
      "▁insert": 8558,
      "elines": 8559,
      "▁greatest": 8560,
      "▁messages": 8561,
      "▁innovative": 8562,
      "▁Security": 8563,
      "▁Team": 8564,
      "▁Brown": 8565,
      "▁tor": 8566,
      "▁emphas": 8567,
      "▁arms": 8568,
      "she": 8569,
      "P_": 8570,
      "osh": 8571,
      "▁readers": 8572,
      "▁cycle": 8573,
      "▁adults": 8574,
      "orb": 8575,
      "▁consistent": 8576,
      "▁od": 8577,
      "▁atmosp": 8578,
      "▁Louis": 8579,
      "bur": 8580,
      "▁pump": 8581,
      "then": 8582,
      "▁errors": 8583,
      "textit": 8584,
      "star": 8585,
      "▁Jose": 8586,
      "▁perspective": 8587,
      "▁browser": 8588,
      "▁inner": 8589,
      "▁perman": 8590,
      "▁Take": 8591,
      "▁Under": 8592,
      "})$": 8593,
      "kl": 8594,
      "▁instructions": 8595,
      "▁Scott": 8596,
      "▁Using": 8597,
      "▁twice": 8598,
      "py": 8599,
      ".\\": 8600,
      "▁ma": 8601,
      "afe": 8602,
      "▁convenient": 8603,
      "▁sheet": 8604,
      "▁perm": 8605,
      "▁Only": 8606,
      "▁inspect": 8607,
      "varphi": 8608,
      "▁meat": 8609,
      "ibilities": 8610,
      "▁African": 8611,
      "▁employee": 8612,
      "▁shower": 8613,
      "Per": 8614,
      "▁Jul": 8615,
      "cup": 8616,
      "▁spons": 8617,
      "▁upload": 8618,
      "\\|": 8619,
      "iche": 8620,
      "▁emergency": 8621,
      "otimes": 8622,
      "post": 8623,
      "▁philos": 8624,
      "mbox": 8625,
      "▁cere": 8626,
      "▁carefully": 8627,
      "▁rough": 8628,
      "▁apparent": 8629,
      "▁behavi": 8630,
      "▁appreciate": 8631,
      "▁Centre": 8632,
      "gers": 8633,
      "▁border": 8634,
      "▁housing": 8635,
      "▁writer": 8636,
      "Once": 8637,
      "▁According": 8638,
      "▁Tre": 8639,
      "▁typical": 8640,
      "▁surrounding": 8641,
      "▁kick": 8642,
      "▁dish": 8643,
      "▁electronic": 8644,
      "▁fundament": 8645,
      "Oh": 8646,
      "ycl": 8647,
      "▁milk": 8648,
      "▁brands": 8649,
      "▁Log": 8650,
      "▁della": 8651,
      "ід": 8652,
      "▁HD": 8653,
      "▁tickets": 8654,
      "▁ped": 8655,
      "uality": 8656,
      "▁password": 8657,
      "▁Ide": 8658,
      "▁bread": 8659,
      "▁stated": 8660,
      "▁org": 8661,
      "▁Japanese": 8662,
      "v_": 8663,
      "▁Spring": 8664,
      "▁providers": 8665,
      "▁conclud": 8666,
      "▁Dou": 8667,
      "anish": 8668,
      "▁oblig": 8669,
      "▁knowing": 8670,
      "xx": 8671,
      "look": 8672,
      "▁extension": 8673,
      "Time": 8674,
      "____": 8675,
      "▁turns": 8676,
      "▁Il": 8677,
      "▁synt": 8678,
      "▁compare": 8679,
      "▁Congress": 8680,
      "trans": 8681,
      "▁treated": 8682,
      "inem": 8683,
      "▁Ext": 8684,
      "perty": 8685,
      "▁Gen": 8686,
      "_id": 8687,
      "▁plays": 8688,
      "▁bringing": 8689,
      "▁degrees": 8690,
      "lines": 8691,
      "ulous": 8692,
      "A_": 8693,
      "▁accepted": 8694,
      "▁dogs": 8695,
      "edia": 8696,
      "▁Ref": 8697,
      "imately": 8698,
      "▁depends": 8699,
      "resents": 8700,
      "Form": 8701,
      "▁mir": 8702,
      "page": 8703,
      "▁ends": 8704,
      "▁Nav": 8705,
      "▁freedom": 8706,
      "▁variables": 8707,
      "▁Have": 8708,
      "▁increases": 8709,
      "▁portion": 8710,
      "SC": 8711,
      "▁cooking": 8712,
      "ko": 8713,
      "▁Award": 8714,
      "▁researc": 8715,
      "rence": 8716,
      "LA": 8717,
      "hem": 8718,
      "▁apps": 8719,
      "▁т": 8720,
      "▁Twitter": 8721,
      "mary": 8722,
      "▁wheel": 8723,
      "▁approved": 8724,
      "oding": 8725,
      "uting": 8726,
      "▁»": 8727,
      "▁ast": 8728,
      "▁relation": 8729,
      "▁spr": 8730,
      "▁authent": 8731,
      "▁teeth": 8732,
      "▁Lu": 8733,
      "run": 8734,
      "▁describe": 8735,
      "▁sex": 8736,
      "▁educational": 8737,
      "▁reput": 8738,
      "▁hundreds": 8739,
      "▁Further": 8740,
      "▁aid": 8741,
      "oga": 8742,
      "▁entirely": 8743,
      "▁Food": 8744,
      "▁excess": 8745,
      "▁Virgin": 8746,
      "▁Kore": 8747,
      "ador": 8748,
      "▁RE": 8749,
      "▁mere": 8750,
      "▁administration": 8751,
      "▁closer": 8752,
      "kes": 8753,
      "▁Tim": 8754,
      "▁wurde": 8755,
      "▁uns": 8756,
      "▁positions": 8757,
      "▁massive": 8758,
      "▁owned": 8759,
      "isters": 8760,
      "▁CO": 8761,
      "▁Who": 8762,
      "▁Max": 8763,
      "▁consumer": 8764,
      "▁solar": 8765,
      "iem": 8766,
      "vol": 8767,
      "▁horse": 8768,
      "Ed": 8769,
      "}-": 8770,
      "ной": 8771,
      "war": 8772,
      "▁charges": 8773,
      "▁restaurants": 8774,
      "▁fro": 8775,
      "▁framework": 8776,
      "▁Po": 8777,
      "\\%": 8778,
      "onic": 8779,
      "uls": 8780,
      "roller": 8781,
      "▁university": 8782,
      "ensuremath": 8783,
      "▁laugh": 8784,
      "Fin": 8785,
      "Def": 8786,
      "scale": 8787,
      "▁Where": 8788,
      "▁technique": 8789,
      "▁Product": 8790,
      "▁historical": 8791,
      "▁Enter": 8792,
      "▁launched": 8793,
      "▁neut": 8794,
      "▁cutting": 8795,
      "ès": 8796,
      "PC": 8797,
      "▁Equ": 8798,
      "cons": 8799,
      "▁concerned": 8800,
      "▁competitive": 8801,
      "▁foods": 8802,
      "mid": 8803,
      "▁Oper": 8804,
      "▁Fre": 8805,
      "▁therapy": 8806,
      "▁advertising": 8807,
      "▁affected": 8808,
      "▁bowl": 8809,
      "lymp": 8810,
      "▁Figure": 8811,
      "▁Lo": 8812,
      "▁virtual": 8813,
      "ideo": 8814,
      "ells": 8815,
      "▁ax": 8816,
      "▁constra": 8817,
      "▁paying": 8818,
      "pling": 8819,
      "▁sauce": 8820,
      "▁deploy": 8821,
      "▁Instead": 8822,
      "omin": 8823,
      "▁consumers": 8824,
      "istan": 8825,
      "ensional": 8826,
      "▁recorded": 8827,
      "▁pil": 8828,
      "n_": 8829,
      "▁Organ": 8830,
      "rivate": 8831,
      "▁desired": 8832,
      "▁Person": 8833,
      "▁cheese": 8834,
      "S_": 8835,
      "Class": 8836,
      "▁sister": 8837,
      "▁premium": 8838,
      "▁rail": 8839,
      "▁therm": 8840,
      "▁crim": 8841,
      "▁explained": 8842,
      "▁formal": 8843,
      "▁studio": 8844,
      "osa": 8845,
      "▁equivalent": 8846,
      "ATE": 8847,
      "ighter": 8848,
      "гра": 8849,
      "▁manual": 8850,
      "▁prompt": 8851,
      "▁aus": 8852,
      "eech": 8853,
      "ln": 8854,
      "▁administr": 8855,
      "▁regions": 8856,
      "▁films": 8857,
      "TER": 8858,
      "▁editor": 8859,
      "▁reasonable": 8860,
      "isms": 8861,
      "▁Whether": 8862,
      "▁guest": 8863,
      "max": 8864,
      "El": 8865,
      "fa": 8866,
      "ku": 8867,
      "▁icon": 8868,
      "▁regularly": 8869,
      "▁monit": 8870,
      "▁warrant": 8871,
      "▁Sand": 8872,
      "car": 8873,
      "▁engineering": 8874,
      "▁decades": 8875,
      "▁matters": 8876,
      "▁suggested": 8877,
      "▁Find": 8878,
      "aturing": 8879,
      "estyle": 8880,
      "Read": 8881,
      "RL": 8882,
      "ische": 8883,
      "More": 8884,
      "dots": 8885,
      "▁chicken": 8886,
      "▁begins": 8887,
      "▁structures": 8888,
      "▁comparison": 8889,
      "▁seeking": 8890,
      "▁Review": 8891,
      "▁Nat": 8892,
      "▁yellow": 8893,
      "▁lit": 8894,
      "aux": 8895,
      "▁remote": 8896,
      "▁west": 8897,
      "▁saving": 8898,
      "▁Mach": 8899,
      "▁grade": 8900,
      "▁imagine": 8901,
      "▁wet": 8902,
      "rec": 8903,
      "▁purchased": 8904,
      "▁speaking": 8905,
      "▁represents": 8906,
      "edge": 8907,
      "▁supporting": 8908,
      "▁Technology": 8909,
      "▁Spe": 8910,
      "hus": 8911,
      "▁household": 8912,
      "▁Indust": 8913,
      "▁prospect": 8914,
      "▁Pass": 8915,
      "▁visiting": 8916,
      "C_": 8917,
      "▁weap": 8918,
      "Another": 8919,
      "ownt": 8920,
      "▁recovery": 8921,
      "▁scientific": 8922,
      "▁fourth": 8923,
      "▁Bi": 8924,
      "pat": 8925,
      "}),": 8926,
      "▁supplies": 8927,
      "▁vit": 8928,
      "▁Hand": 8929,
      "▁agreed": 8930,
      "▁Start": 8931,
      "▁monthly": 8932,
      "k_": 8933,
      "eld": 8934,
      "▁bigger": 8935,
      "▁female": 8936,
      "cohol": 8937,
      "related": 8938,
      "▁presentation": 8939,
      "▁scheme": 8940,
      "▁module": 8941,
      "GB": 8942,
      "vas": 8943,
      "▁airport": 8944,
      "▁Head": 8945,
      "▁static": 8946,
      "▁пре": 8947,
      "▁silver": 8948,
      "Set": 8949,
      "▁hall": 8950,
      "▁sky": 8951,
      "▁coach": 8952,
      "']": 8953,
      "▁Wal": 8954,
      "▁habit": 8955,
      "▁crew": 8956,
      "▁commitment": 8957,
      "▁victim": 8958,
      "rition": 8959,
      "▁trib": 8960,
      "▁sight": 8961,
      "▁television": 8962,
      "▁diagram": 8963,
      "▁drivers": 8964,
      "otal": 8965,
      "▁clinical": 8966,
      "▁announce": 8967,
      "▁protein": 8968,
      "▁exception": 8969,
      "▁lift": 8970,
      "othe": 8971,
      "▁frequently": 8972,
      "▁replacement": 8973,
      "▁advis": 8974,
      "▁CH": 8975,
      "appy": 8976,
      "poration": 8977,
      "▁Kit": 8978,
      "cz": 8979,
      "▁wal": 8980,
      "▁license": 8981,
      "▁Italian": 8982,
      "Sigma": 8983,
      "Many": 8984,
      "▁assets": 8985,
      "▁entered": 8986,
      "▁protected": 8987,
      "raf": 8988,
      "▁chocolate": 8989,
      "apos": 8990,
      "▁Second": 8991,
      "▁sou": 8992,
      "▁painting": 8993,
      "▁dollars": 8994,
      "▁belief": 8995,
      "▁noticed": 8996,
      "▁Ill": 8997,
      "▁lighting": 8998,
      "▁anx": 8999,
      "rated": 9000,
      "▁compr": 9001,
      "comes": 9002,
      "▁surgery": 9003,
      "▁Dig": 9004,
      "▁machines": 9005,
      "nonumber": 9006,
      "nergy": 9007,
      "▁worse": 9008,
      "▁enem": 9009,
      "▁estimate": 9010,
      "▁involve": 9011,
      "▁Royal": 9012,
      "▁subsequ": 9013,
      "▁Kar": 9014,
      "endar": 9015,
      "prene": 9016,
      "▁truck": 9017,
      "stein": 9018,
      "esterday": 9019,
      "▁topics": 9020,
      "▁agents": 9021,
      "ogen": 9022,
      "▁samples": 9023,
      "▁substant": 9024,
      "▁citizens": 9025,
      "▁mixed": 9026,
      "uzz": 9027,
      "▁ratio": 9028,
      "▁Lim": 9029,
      "▁NY": 9030,
      "▁Jud": 9031,
      "▁dynamic": 9032,
      "Inst": 9033,
      "▁differences": 9034,
      "▁AD": 9035,
      "▁configuration": 9036,
      "▁rental": 9037,
      "▁бы": 9038,
      "▁election": 9039,
      "rane": 9040,
      "▁Gall": 9041,
      "▁mountain": 9042,
      "parent": 9043,
      "▁religious": 9044,
      "▁contemporary": 9045,
      "▁hidden": 9046,
      "▁improvement": 9047,
      "ova": 9048,
      "▁Lem": 9049,
      "▁supports": 9050,
      "▁Show": 9051,
      "▁moments": 9052,
      "▁grown": 9053,
      "uz": 9054,
      "ela": 9055,
      "▁manufacturing": 9056,
      "▁receiving": 9057,
      "▁smile": 9058,
      "▁ath": 9059,
      "▁Minister": 9060,
      "▁circumstances": 9061,
      "▁Adv": 9062,
      "▁situations": 9063,
      "▁stood": 9064,
      "▁appointment": 9065,
      "▁Cast": 9066,
      "▁nurs": 9067,
      "group": 9068,
      "essage": 9069,
      "▁Network": 9070,
      "Value": 9071,
      "▁native": 9072,
      "ificate": 9073,
      "▁tur": 9074,
      "▁Hotel": 9075,
      "▁Australian": 9076,
      "option": 9077,
      "Up": 9078,
      "lements": 9079,
      "rance": 9080,
      "~~": 9081,
      "▁hardware": 9082,
      "▁Maybe": 9083,
      "stream": 9084,
      "▁YOU": 9085,
      "▁bike": 9086,
      "uracy": 9087,
      "▁ans": 9088,
      "arks": 9089,
      "bi": 9090,
      "rient": 9091,
      "asant": 9092,
      "▁nine": 9093,
      "▁sole": 9094,
      "▁Pri": 9095,
      "▁indu": 9096,
      "▁symptoms": 9097,
      "▁delay": 9098,
      "▁impossible": 9099,
      "▁Russian": 9100,
      "▁Dev": 9101,
      "\\[": 9102,
      "▁evolution": 9103,
      "▁authors": 9104,
      "▁Download": 9105,
      "▁Arts": 9106,
      "L_": 9107,
      "▁wealth": 9108,
      "▁frequency": 9109,
      "/\\": 9110,
      "▁dies": 9111,
      "▁candidates": 9112,
      "owe": 9113,
      "oti": 9114,
      "▁trav": 9115,
      "▁Asia": 9116,
      "▁rub": 9117,
      "▁architecture": 9118,
      "▁Exper": 9119,
      "r_": 9120,
      "nie": 9121,
      "▁eleg": 9122,
      "▁taught": 9123,
      "▁issued": 9124,
      "Also": 9125,
      "emb": 9126,
      "▁possibility": 9127,
      "▁closely": 9128,
      "State": 9129,
      "▁picked": 9130,
      "▁thin": 9131,
      "▁stored": 9132,
      "().": 9133,
      "▁twenty": 9134,
      "▁keeps": 9135,
      "▁letters": 9136,
      "una": 9137,
      "grad": 9138,
      "▁dust": 9139,
      "ше": 9140,
      "▁leather": 9141,
      "kins": 9142,
      "▁narrow": 9143,
      "▁adm": 9144,
      "▁Lead": 9145,
      "▁recognized": 9146,
      "▁revenue": 9147,
      "▁Rev": 9148,
      "---": 9149,
      "▁Men": 9150,
      "▁planned": 9151,
      "igan": 9152,
      "▁achieved": 9153,
      "etch": 9154,
      "▁officials": 9155,
      "▁shoes": 9156,
      "▁hur": 9157,
      "▁remark": 9158,
      "urally": 9159,
      "▁constantly": 9160,
      "▁invent": 9161,
      "iana": 9162,
      "▁infrastructure": 9163,
      "check": 9164,
      "olec": 9165,
      "ila": 9166,
      "▁participate": 9167,
      "▁ancient": 9168,
      "▁acknow": 9169,
      "Sec": 9170,
      "osc": 9171,
      "▁procedures": 9172,
      "▁turning": 9173,
      "▁Fund": 9174,
      "▁formula": 9175,
      "▁delight": 9176,
      "▁witness": 9177,
      "▁climb": 9178,
      "iro": 9179,
      "▁submit": 9180,
      "▁tough": 9181,
      "u_": 9182,
      "▁ви": 9183,
      "lets": 9184,
      "▁musical": 9185,
      "▁sessions": 9186,
      "real": 9187,
      "anger": 9188,
      "https": 9189,
      "----------------": 9190,
      "▁Cup": 9191,
      "▁Л": 9192,
      "▁searching": 9193,
      "▁walked": 9194,
      "▁unable": 9195,
      "▁Family": 9196,
      "▁bless": 9197,
      "umes": 9198,
      "▁guard": 9199,
      "▁scr": 9200,
      "▁Ltd": 9201,
      "▁forced": 9202,
      "▁probability": 9203,
      "▁registration": 9204,
      "▁Sar": 9205,
      "▁versions": 9206,
      "ete": 9207,
      "Tra": 9208,
      "▁organic": 9209,
      "▁integrated": 9210,
      "▁pad": 9211,
      "NS": 9212,
      "▁conducted": 9213,
      "▁mac": 9214,
      "▁vast": 9215,
      "▁SP": 9216,
      "stone": 9217,
      "▁minim": 9218,
      "ciples": 9219,
      "▁nearby": 9220,
      "▁acid": 9221,
      "▁är": 9222,
      "▁renew": 9223,
      "▁slowly": 9224,
      "▁thorough": 9225,
      "▁muse": 9226,
      "▁incredible": 9227,
      "FF": 9228,
      "ptions": 9229,
      "▁Ent": 9230,
      "▁speech": 9231,
      "index": 9232,
      "erts": 9233,
      "▁iPhone": 9234,
      "▁phen": 9235,
      "▁Offic": 9236,
      "▁Aud": 9237,
      "▁realized": 9238,
      "▁Lar": 9239,
      "▁severe": 9240,
      "▁shares": 9241,
      "▁adop": 9242,
      "▁adult": 9243,
      "▁ordered": 9244,
      "▁tells": 9245,
      "▁replaced": 9246,
      "ether": 9247,
      "asts": 9248,
      "aron": 9249,
      "▁grew": 9250,
      "▁passing": 9251,
      "▁styles": 9252,
      "fortunately": 9253,
      "RI": 9254,
      "▁regul": 9255,
      "▁dating": 9256,
      "зо": 9257,
      "abet": 9258,
      "allel": 9259,
      "▁skill": 9260,
      "wing": 9261,
      "nic": 9262,
      "▁Media": 9263,
      "bel": 9264,
      "inch": 9265,
      "▁gent": 9266,
      "▁kill": 9267,
      "▁mainly": 9268,
      "▁tub": 9269,
      "▁shock": 9270,
      "▁AC": 9271,
      "▁split": 9272,
      "▁publish": 9273,
      "▁mel": 9274,
      "TP": 9275,
      "▁э": 9276,
      "plit": 9277,
      "▁consists": 9278,
      "▁liquid": 9279,
      "▁destroy": 9280,
      "tre": 9281,
      "icol": 9282,
      "▁è": 9283,
      "▁happening": 9284,
      "Last": 9285,
      "▁jack": 9286,
      "}}{": 9287,
      "▁cake": 9288,
      "▁rend": 9289,
      "▁stands": 9290,
      "▁san": 9291,
      "▁birthday": 9292,
      "Out": 9293,
      "▁capable": 9294,
      "▁tall": 9295,
      "▁chapter": 9296,
      "▁continuous": 9297,
      "len": 9298,
      "obs": 9299,
      "uv": 9300,
      "▁representation": 9301,
      "FL": 9302,
      "▁deck": 9303,
      "▁hire": 9304,
      "▁institutions": 9305,
      "irmed": 9306,
      "▁boys": 9307,
      "oral": 9308,
      "▁Jah": 9309,
      "ção": 9310,
      "▁creates": 9311,
      "vy": 9312,
      "▁authority": 9313,
      "ultural": 9314,
      "irms": 9315,
      "ры": 9316,
      "▁interaction": 9317,
      "▁capture": 9318,
      "▁shad": 9319,
      "writ": 9320,
      "▁surprise": 9321,
      "abs": 9322,
      "▁Medical": 9323,
      "▁alle": 9324,
      "▁rear": 9325,
      "Aut": 9326,
      "▁landscape": 9327,
      "▁vend": 9328,
      "umps": 9329,
      "|-": 9330,
      "LS": 9331,
      "UM": 9332,
      "ollow": 9333,
      "▁Women": 9334,
      "▁diverse": 9335,
      "▁Prot": 9336,
      "aning": 9337,
      "▁Plus": 9338,
      "▁wra": 9339,
      "athe": 9340,
      "▁god": 9341,
      "TC": 9342,
      "▁Room": 9343,
      "▁privacy": 9344,
      "▁estimated": 9345,
      "▁tap": 9346,
      "▁assessment": 9347,
      "ondition": 9348,
      "▁destination": 9349,
      "▁/>": 9350,
      "▁то": 9351,
      "▁charged": 9352,
      "▁existence": 9353,
      "▁accessible": 9354,
      "ocated": 9355,
      "stract": 9356,
      "alo": 9357,
      "▁clothes": 9358,
      "▁prison": 9359,
      "According": 9360,
      "Par": 9361,
      "▁Jim": 9362,
      "▁collected": 9363,
      "sem": 9364,
      "centering": 9365,
      "Most": 9366,
      "▁datas": 9367,
      "▁Another": 9368,
      "widet": 9369,
      "');": 9370,
      "▁forth": 9371,
      "ophy": 9372,
      "▁tip": 9373,
      "▁pip": 9374,
      "▁attached": 9375,
      "▁chief": 9376,
      "▁..": 9377,
      "stood": 9378,
      "▁emotional": 9379,
      "▁regional": 9380,
      "▁dangerous": 9381,
      "▁hyper": 9382,
      "▁telling": 9383,
      "▁Connect": 9384,
      "▁Tour": 9385,
      "▁Martin": 9386,
      "▁uniform": 9387,
      "':": 9388,
      "▁Academy": 9389,
      "▁instrument": 9390,
      "▁Addition": 9391,
      "ifies": 9392,
      "▁Code": 9393,
      "rency": 9394,
      "▁whenever": 9395,
      "▁Disc": 9396,
      "ilst": 9397,
      "▁papers": 9398,
      "url": 9399,
      "▁tested": 9400,
      "izz": 9401,
      "▁Festival": 9402,
      "▁compens": 9403,
      "Am": 9404,
      "▁я": 9405,
      "▁де": 9406,
      "▁Americans": 9407,
      "VE": 9408,
      "sigma_": 9409,
      "▁chat": 9410,
      "▁bear": 9411,
      "▁manif": 9412,
      "▁Through": 9413,
      "Mar": 9414,
      "prime": 9415,
      "Americ": 9416,
      "▁Lin": 9417,
      "▁Russia": 9418,
      "▁Haw": 9419,
      "yan": 9420,
      "▁expansion": 9421,
      "▁Id": 9422,
      "▁Series": 9423,
      "▁hero": 9424,
      "ounter": 9425,
      "▁challenging": 9426,
      "ulty": 9427,
      "pdf": 9428,
      "▁concrete": 9429,
      "▁rig": 9430,
      "▁elev": 9431,
      "ensed": 9432,
      "’.": 9433,
      "▁ста": 9434,
      "пе": 9435,
      "Reg": 9436,
      "May": 9437,
      "▁functional": 9438,
      "▁Buy": 9439,
      "▁exceed": 9440,
      "▁serves": 9441,
      "▁profit": 9442,
      "='": 9443,
      "▁plane": 9444,
      "ilton": 9445,
      "▁tiny": 9446,
      "це": 9447,
      "▁pra": 9448,
      "orders": 9449,
      "erved": 9450,
      "TA": 9451,
      "▁Rest": 9452,
      "▁ease": 9453,
      "▁Van": 9454,
      "▁Canadian": 9455,
      "▁Cath": 9456,
      "site": 9457,
      "▁jew": 9458,
      "▁мо": 9459,
      "front": 9460,
      "▁inn": 9461,
      "agen": 9462,
      "▁edition": 9463,
      "▁History": 9464,
      "▁Global": 9465,
      "▁Mexico": 9466,
      "▁commission": 9467,
      "▁latter": 9468,
      "▁arrest": 9469,
      "▁awareness": 9470,
      "▁reward": 9471,
      "▁choosing": 9472,
      "▁metric": 9473,
      "gent": 9474,
      "olit": 9475,
      "▁cooper": 9476,
      "▁apartment": 9477,
      "▁planet": 9478,
      "enced": 9479,
      "▁facing": 9480,
      "▁wearing": 9481,
      "▁evol": 9482,
      "eping": 9483,
      "▁suc": 9484,
      "▁expectations": 9485,
      "oir": 9486,
      "▁CA": 9487,
      "const": 9488,
      "▁containing": 9489,
      "▁plot": 9490,
      "▁Charles": 9491,
      "▁Pac": 9492,
      "chaft": 9493,
      "▁payments": 9494,
      "▁male": 9495,
      "▁setup": 9496,
      "####": 9497,
      "▁facilit": 9498,
      "gebra": 9499,
      "Object": 9500,
      "▁discl": 9501,
      "widetilde": 9502,
      "▁mixture": 9503,
      "▁featured": 9504,
      "▁eine": 9505,
      "▁Cert": 9506,
      "iverse": 9507,
      "▁engage": 9508,
      "▁mini": 9509,
      "obby": 9510,
      "oken": 9511,
      "▁symm": 9512,
      "▁officer": 9513,
      "▁candidate": 9514,
      "▁missed": 9515,
      "▁organized": 9516,
      "ushing": 9517,
      "▁luxury": 9518,
      "gener": 9519,
      "▁EU": 9520,
      "teen": 9521,
      "▁hole": 9522,
      "▁believed": 9523,
      "▁pas": 9524,
      "X_": 9525,
      "▁worldwide": 9526,
      "actory": 9527,
      "tabular": 9528,
      "▁saved": 9529,
      "▁Invest": 9530,
      "oston": 9531,
      "Pe": 9532,
      "▁horiz": 9533,
      "▁studied": 9534,
      "▁investors": 9535,
      "iva": 9536,
      "Sim": 9537,
      "utch": 9538,
      "▁pulled": 9539,
      "▁Conference": 9540,
      "\").": 9541,
      "▁clar": 9542,
      "REE": 9543,
      "lich": 9544,
      "appro": 9545,
      "▁Times": 9546,
      "▁visible": 9547,
      "han": 9548,
      "▁inspiration": 9549,
      "▁agencies": 9550,
      "Sub": 9551,
      "▁zone": 9552,
      "▁approaches": 9553,
      "▁Gar": 9554,
      "▁carbon": 9555,
      "mo": 9556,
      "Fig": 9557,
      "iler": 9558,
      "▁``": 9559,
      "▁MS": 9560,
      "▁WH": 9561,
      "▁Spanish": 9562,
      "▁Way": 9563,
      "▁stack": 9564,
      "▁maps": 9565,
      "▁Soft": 9566,
      "ifier": 9567,
      "▁AR": 9568,
      "▁reduction": 9569,
      "▁},": 9570,
      "▁foundation": 9571,
      "▁cm": 9572,
      "▁normally": 9573,
      "▁~": 9574,
      "▁meetings": 9575,
      "main": 9576,
      "▁Those": 9577,
      "}+": 9578,
      "▁dates": 9579,
      "▁pa": 9580,
      "rot": 9581,
      "▁crucial": 9582,
      "plete": 9583,
      "▁executive": 9584,
      "g_": 9585,
      "unicip": 9586,
      "▁exclusive": 9587,
      "▁uncertain": 9588,
      "▁pp": 9589,
      "▁linked": 9590,
      "▁employment": 9591,
      "zt": 9592,
      "path": 9593,
      "▁atmosphere": 9594,
      "▁NE": 9595,
      "▁storm": 9596,
      "ów": 9597,
      "terior": 9598,
      "▁Manager": 9599,
      "▁SE": 9600,
      "endo": 9601,
      "▁Market": 9602,
      "▁territ": 9603,
      "R_": 9604,
      "▁tiss": 9605,
      ":\\": 9606,
      "нов": 9607,
      "▁SS": 9608,
      "мен": 9609,
      "orable": 9610,
      "▁east": 9611,
      "▁Secret": 9612,
      "▁те": 9613,
      "▁console": 9614,
      "uing": 9615,
      "▁Step": 9616,
      "FA": 9617,
      "quare": 9618,
      "dot": 9619,
      "oster": 9620,
      "▁rose": 9621,
      "▁finite": 9622,
      "iger": 9623,
      "▁analyt": 9624,
      "▁subt": 9625,
      "▁Ire": 9626,
      "▁Human": 9627,
      "▁Econom": 9628,
      "▁vital": 9629,
      "▁Champions": 9630,
      "Fl": 9631,
      "igned": 9632,
      "▁MA": 9633,
      "▁Last": 9634,
      "▁correctly": 9635,
      "▁Richard": 9636,
      "ican": 9637,
      "▁Arab": 9638,
      "▁referred": 9639,
      ")=\\": 9640,
      "VD": 9641,
      "▁Control": 9642,
      "▁operate": 9643,
      "▁stable": 9644,
      "▁compact": 9645,
      "▁intent": 9646,
      "▁drugs": 9647,
      "ao": 9648,
      "▁Library": 9649,
      "select": 9650,
      "▁impressive": 9651,
      "▁reader": 9652,
      "▁fairly": 9653,
      "▁draft": 9654,
      "Lambda": 9655,
      "Where": 9656,
      "pace": 9657,
      "ogue": 9658,
      "▁Angeles": 9659,
      "▁ч": 9660,
      "▁grass": 9661,
      "▁figures": 9662,
      "▁SM": 9663,
      "▁Pack": 9664,
      "▁sich": 9665,
      "oret": 9666,
      "▁pregn": 9667,
      "▁Georg": 9668,
      "▁informed": 9669,
      "EST": 9670,
      "▁strict": 9671,
      "otted": 9672,
      "elcome": 9673,
      "▁literature": 9674,
      "zed": 9675,
      "▁shell": 9676,
      "oured": 9677,
      "▁bare": 9678,
      "▁flexible": 9679,
      "achel": 9680,
      "сть": 9681,
      "RS": 9682,
      "▁elig": 9683,
      "▁pit": 9684,
      "▁Prem": 9685,
      "▁Try": 9686,
      "▁trick": 9687,
      "▁residential": 9688,
      "▁medicine": 9689,
      "▁accuracy": 9690,
      "▁Phot": 9691,
      "apped": 9692,
      "▁originally": 9693,
      "▁minimal": 9694,
      "▁scan": 9695,
      "Fil": 9696,
      "▁Contact": 9697,
      "би": 9698,
      "Next": 9699,
      "▁revealed": 9700,
      "ipt": 9701,
      "ке": 9702,
      "▁CP": 9703,
      "▁instruct": 9704,
      "▁kne": 9705,
      "VER": 9706,
      "▁reject": 9707,
      "ный": 9708,
      "cs": 9709,
      "▁somewhere": 9710,
      "▁Win": 9711,
      "▁urban": 9712,
      "iti": 9713,
      "File": 9714,
      "itage": 9715,
      "▁Cost": 9716,
      "▁Mill": 9717,
      "umer": 9718,
      "\t\t\t": 9719,
      "asters": 9720,
      "▁defense": 9721,
      "▁branch": 9722,
      "▁bodies": 9723,
      "▁immediate": 9724,
      "▁qualified": 9725,
      "born": 9726,
      "cia": 9727,
      "▁inches": 9728,
      "▁scheduled": 9729,
      "node": 9730,
      "ente": 9731,
      "▁Lib": 9732,
      "arian": 9733,
      "▁om": 9734,
      "▁CEO": 9735,
      "▁performing": 9736,
      "Item": 9737,
      "▁judge": 9738,
      "▁ма": 9739,
      "▁everyday": 9740,
      "TML": 9741,
      "▁fellow": 9742,
      "rick": 9743,
      "▁cable": 9744,
      "▁marriage": 9745,
      "mond": 9746,
      "▁Far": 9747,
      "ements": 9748,
      "ний": 9749,
      "pie": 9750,
      "▁monitor": 9751,
      "Car": 9752,
      "▁года": 9753,
      "▁hosting": 9754,
      "▁Before": 9755,
      "length": 9756,
      "▁alcohol": 9757,
      "estion": 9758,
      "astern": 9759,
      "?'": 9760,
      "▁ticket": 9761,
      "inates": 9762,
      "sect": 9763,
      "▁blocks": 9764,
      "▁crack": 9765,
      "▁innovation": 9766,
      "▁spoke": 9767,
      "cat": 9768,
      "ospit": 9769,
      "ashed": 9770,
      "▁succeed": 9771,
[...]
